{"<pad>":0,"<bos>":1,"<eos>":2,"<unk>":3,"!":4,"\"":5,"#":6,"$":7,"%":8,"&":9,"'":10,"(":11,")":12,"*":13,"+":14,",":15,"-":16,".":17,"/":18,"0":19,"1":20,"2":21,"3":22,"4":23,"5":24,"6":25,"7":26,"8":27,"9":28,":":29,";":30,"<":31,"=":32,">":33,"?":34,"@":35,"A":36,"B":37,"C":38,"D":39,"E":40,"F":41,"G":42,"H":43,"I":44,"J":45,"K":46,"L":47,"M":48,"N":49,"O":50,"P":51,"Q":52,"R":53,"S":54,"T":55,"U":56,"V":57,"W":58,"X":59,"Y":60,"Z":61,"[":62,"\\":63,"]":64,"^":65,"_":66,"`":67,"a":68,"b":69,"c":70,"d":71,"e":72,"f":73,"g":74,"h":75,"i":76,"j":77,"k":78,"l":79,"m":80,"n":81,"o":82,"p":83,"q":84,"r":85,"s":86,"t":87,"u":88,"v":89,"w":90,"x":91,"y":92,"z":93,"{":94,"|":95,"}":96,"~":97,"¡":98,"¢":99,"£":100,"¤":101,"¥":102,"¦":103,"§":104,"¨":105,"©":106,"ª":107,"«":108,"¬":109,"®":110,"¯":111,"°":112,"±":113,"²":114,"³":115,"´":116,"µ":117,"¶":118,"·":119,"¸":120,"¹":121,"º":122,"»":123,"¼":124,"½":125,"¾":126,"¿":127,"Â":128,"Ã":129,"Ä":130,"Å":131,"Æ":132,"Ç":133,"È":134,"É":135,"Ê":136,"Ë":137,"Ì":138,"Í":139,"Î":140,"Ï":141,"Ð":142,"Ñ":143,"Ò":144,"Ó":145,"Ô":146,"Õ":147,"Ö":148,"×":149,"Ø":150,"Ù":151,"Ú":152,"Û":153,"Þ":154,"ß":155,"à":156,"á":157,"â":158,"ã":159,"ä":160,"å":161,"æ":162,"ç":163,"è":164,"é":165,"ê":166,"ë":167,"ì":168,"í":169,"î":170,"ï":171,"ð":172,"ô":173,"ā":174,"Ă":175,"Ć":176,"ć":177,"ĉ":178,"Ċ":179,"ě":180,"ğ":181,"Ġ":182,"Ģ":183,"ģ":184,"Ĥ":185,"ĥ":186,"Ħ":187,"ħ":188,"Ĩ":189,"ĩ":190,"Ī":191,"ī":192,"Ĭ":193,"ĭ":194,"Į":195,"į":196,"İ":197,"ı":198,"Ĳ":199,"ĳ":200,"Ĵ":201,"ĵ":202,"Ķ":203,"ķ":204,"ĸ":205,"Ĺ":206,"ĺ":207,"Ļ":208,"ļ":209,"Ľ":210,"ľ":211,"Ŀ":212,"ŀ":213,"Ł":214,"ł":215,"Ń":216,"Ġt":217,"Ġa":218,"he":219,"in":220,"re":221,"Ġthe":222,"on":223,"Ġs":224,"er":225,"Ġw":226,"at":227,"Ġo":228,"Ġc":229,"nd":230,"it":231,"is":232,"Ġb":233,"ou":234,"es":235,"en":236,"ing":237,"or":238,"Ġf":239,"Ġp":240,"Ġm":241,"an":242,"ed":243,"Ġto":244,"al":245,"Ġd":246,"ar":247,"Ġof":248,"Ġin":249,"Ġth":250,"Ġand":251,"Ġh":252,"le":253,"ic":254,"as":255,"om":256,"ion":257,"Ġl":258,"Ġn":259,"Ġe":260,"ll":261,"ve":262,"ly":263,"st":264,"ent":265,".Ċ":266,"ĠI":267,"Ġg":268,"Ġre":269,"Ġbe":270,"ot":271,"Ġy":272,"Ġis":273,"ct":274,"ut":275,"ow":276,"et":277,"âĢ":278,"Ġthat":279,"Ġyou":280,"se":281,"ro":282,"id":283,"im":284,"ĠT":285,"Ġon":286,"ay":287,"Ġu":288,"Ġit":289,"ad":290,"Ġfor":291,"ce":292,"ig":293,"ver":294,"ld":295,"am":296,"Ġst":297,"ur":298,"ch":299,"ĠS":300,"ĠA":301,"Ġhe":302,"Ġwh":303,"ith":304,"ir":305,"ation":306,"Ġan":307,"Ġas":308,"Ġwith":309,"Ġwe":310,"if":311,"Ġha":312,"ol":313,"ra":314,"ke":315,"ĠC":316,"il":317,"Ġare":318,"ter":319,"her":320,"od":321,"ill":322,"Ġcon":323,"ul":324,"ĠM":325,"ge":326,"Ġwas":327,"Ġor":328,"pe":329,"ers":330,"Ġse":331,"ore":332,"ck":333,"ate":334,"ĠThe":335,"Ġde":336,"âĢĻ":337,"ĠB":338,"Ġ(":339,"Âł":340,"op":341,"Ġcom":342,"ess":343,"us":344,"Ġpro":345,"Ġnot":346,"ri":347,"um":348,"'s":349,"ht":350,"Ġex":351,"Ġat":352,"ĠW":353,"Ġhave":354,"ould":355,"Ġr":356,"ĠP":357,"ist":358,"th":359,"est":360,"Ġne":361,"ab":362,"em":363,"ĠH":364,"rom":365,"ant":366,"Ġdo":367,"qu":368,"Ġthis":369,"pp":370,"nt":371,"Ġcan":372,"Ġsu":373,"ain":374,"Ġv":375,"ally":376,"ment":377,"res":378,"ust":379,"Ġsh":380,"ive":381,"os":382,"ĠD":383,"Ġal":384,"un":385,"ome":386,"ight":387,"Ġch":388,"Ġab":389,"Ġfrom":390,"ity":391,"Ġby":392,"and":393,"el":394,"art":395,"out":396,"ĠR":397,"Ġle":398,"Ġyour":399,"ĠF":400,"Ġthey":401,"ort":402,"Ġk":403,"ies":404,"Ġbut":405,"Ġgo":406,"Ġj":407,"Ġso":408,"Ġwor":409,"Ġwhe":410,"ie":411,"ost":412,"red":413,"Ġme":414,"all":415,"iv":416,"ĠG":417,"Ġall":418,"ĠE":419,"ĠN":420,"ĠL":421,"ak":422,"pt":423,"oug":424,"fe":425,"ard":426,"Ġ\"":427,"one":428,"oo":429,"Ġint":430,"ide":431,"ure":432,"ag":433,"Ġwill":434,"Ġus":435,"our":436,"Ġpl":437,"Ġli":438,"The":439,"ud":440,"ack":441,"ci":442,"ther":443,"ast":444,"pl":445,"Ġout":446,"'t":447,"ind":448,"ich":449,"ction":450,"ĠO":451,"ine":452,"ame":453,"Ġtheir":454,"âĢĻs":455,"Ġtr":456,"ĠâĢ":457,"ong":458,"ous":459,"per":460,"Ġhis":461,"ake":462,"Ġup":463,"Ġmy":464,"very":465,"ound":466,"Ġmore":467,"age":468,"Ġhas":469,"Ġone":470,"og":471,"Ġabout":472,"ime":473,"ac":474,"ĠJ":475,"au":476,"Ġim":477,"20":478,"ough":479,"Ġwho":480,"Ġlike":481,"Ġar":482,"Ġen":483,"iz":484,"ans":485,"Ġsome":486,"Ġwould":487,"..":488,"ĠTh":489,"are":490,"Ġcomp":491,"act":492,"ook":493,"ated":494,"Ġad":495,"so":496,"Ġthere":497,"Ġpe":498,"ice":499,"ap":500,"Ġcl":501,"ue":502,"Ġte":503,"Ġthem":504,"Ġwhat":505,"Ġfe":506,"Ġif":507,"Ġwhich":508,"Ġman":509,"Ġother":510,"Ġkn":511,"able":512,"Ġget":513,"ep":514,"Ġcont":515,"ite":516,"Ġev":517,"ople":518,"Ġwhen":519,"Ġwere":520,"cc":521,"ink":522,"Ġany":523,"Ġhad":524,"ib":525,"ĠU":526,"ical":527,"ear":528,"Ġbec":529,"ult":530,"Ġun":531,"ions":532,"ĠIt":533,"ry":534,"orm":535,"Ġres":536,"own":537,"ass":538,"Ġjust":539,"Ġtime":540,"ays":541,"Ġqu":542,"Ġher":543,"âĢĿ":544,"ose":545,"Ġpeople":546,"ile":547,"ip":548,"Ġsa":549,"Ġdis":550,"ber":551,"Ġ-":552,"ance":553,"ence":554,"ace":555,"ase":556,"ĠY":557,"?Ċ":558,"oc":559,"ach":560,"Ġwork":561,"reat":562,"ĠIn":563,"ause":564,"ire":565,"Ġag":566,"ary":567,"Ġthan":568,"Ġno":569,"ress":570,"ia":571,"ign":572,"ru":573,"Ġhow":574,"int":575,"cl":576,"ings":577,"ations":578,"av":579,"du":580,"Ġbeen":581,"ff":582,"Ġinto":583,"ĠK":584,"Ġper":585,"ne":586,"Ġalso":587,"ens":588,"Ġsp":589,"ub":590,"ick":591,"Ġpart":592,"ĠĠ":593,"Ġover":594,"ĠâĢľ":595,"Ġpr":596,"Ġgr":597,"ount":598,"hing":599,"ove":600,"ree":601,"Ġspe":602,"ond":603,"00":604,"Ġpre":605,"Ġknow":606,"nder":607,"vel":608,"ang":609,"ory":610,"te":611,"Ġimp":612,"Ġneed":613,"ial":614,"ord":615,"ren":616,"Ġshe":617,"Ġbl":618,"ood":619,"Ġoff":620,"ition":621,"Ġour":622,")Ċ":623,"Ġyear":624,"Ġonly":625,"ild":626,"Ġpo":627,"ents":628,"Ġbet":629,"Ġsc":630,"ark":631,"Ġam":632,"hat":633,"ail":634,"ors":635,"Ġcould":636,"ov":637,"we":638,"form":639,":Ċ":640,"Ġdif":641,"ĠHe":642,"Ġnew":643,"sel":644,"irst":645,"Ġbecause":646,"ob":647,"Ġapp":648,"itt":649,"âĢĻt":650,"Ġwant":651,"ect":652,"rent":653,"ces":654,"Ġthink":655,"ĠSt":656,"Ġdon":657,"Ġco":658,"Ġro":659,"ict":660,"Ġact":661,"fter":662,"Ġthen":663,"ple":664,"19":665,"Ġtw":666,"ish":667,"uch":668,"Ġhim":669,"Ġmake":670,"mer":671,"ons":672,"Ġmost":673,"ious":674,"urn":675,"Ġback":676,"âĢ¢":677,"ater":678,"Ġthese":679,"ĠCh":680,"Ġmay":681,"Ġsee":682,"ĠV":683,"Ġdid":684,"Ġevery":685,"Ġrec":686,"Ġits":687,"ade":688,"Ġuse":689,"Ġway":690,"Ġdoes":691,"ĠThis":692,"Ġeven":693,"Ġthr":694,"Ġunder":695,"ual":696,"Ġsy":697,"Ġshould":698,"Ġfl":699,"ates":700,"ell":701,"omet":702,"Ġsaid":703,"Ġlook":704,"Ġdes":705,"Ġcons":706,"oy":707,"Ġacc":708,"hed":709,"end":710,"hy":711,"wn":712,"Ġwhere":713,"ian":714,"xt":715,"fore":716,"other":717,"ull":718,"Ġfirst":719,"Ġmuch":720,"Ġvery":721,"ble":722,"fect":723,"vers":724,"erv":725,"ually":726,"Ġcomm":727,"Ġind":728,"igh":729,"hen":730,"ft":731,"Ġwr":732,"201":733,"Ġgood":734,"Ġtwo":735,"Ġmany":736,"Ġrel":737,"ise":738,"Ġdiffe":739,"ating":740,"ific":741,"ks":742,"Ġhel":743,"Ġbu":744,"Ġra":745,"ife":746,"Ġem":747,"ning":748,"Ġinc":749,"oss":750,"Ġtra":751,"Ġthrough":752,"ily":753,".\"":754,"lic":755,"Ġsm":756,"cess":757,"Ġtoo":758,"Ġbeing":759,"ath":760,"gr":761,"Ġke":762,"Ġinter":763,"Ġbr":764,"Ġwell":765,"Ġnow":766,"les":767,"Ġ=":768,"iss":769,"ower":770,"erm":771,"Ġrem":772,"Ġhelp":773,"10":774,"ange":775,"oth":776,"ject":777,"ful":778,"cial":779,"Ġright":780,"ert":781,"Ġafter":782,"Ġdown":783,"Ġpers":784,"ec":785,"get":786,"ĠYou":787,"Ġlong":788,"Ġgen":789,"pect":790,"aw":791,"ments":792,"aking":793,"Ġatt":794,"ting":795,"ible":796,"Ġsuch":797,"stem":798,"ced":799,"ty":800,"Ġadd":801,"),":802,"Ġthose":803,"self":804,"ock":805,"Ġsomet":806,"Ġagain":807,"oll":808,"ĠAnd":809,"ular":810,"Ġob":811,"Ġsay":812,").":813,"Ġsim":814,"lect":815,"iew":816,"ĠWe":817,"Ġinv":818,"ew":819,"ĠIf":820,"li":821,"ph":822,"Ġyears":823,"Ġrep":824,"Ġreally":825,"ics":826,"In":827,"old":828,"ative":829,"ars":830,"olog":831,"Ġused":832,"Ġstart":833,"Th":834,"Ġ$":835,"--":836,"ĠBut":837,"Ġgu":838,"Ġ'":839,"Ġown":840,"Ġcr":841,"Ġread":842,"Ġbel":843,"Ġsame":844,"ere":845,"Ġinst":846,"rib":847,"Ġdec":848,"its":849,"Ġplay":850,"Ġcall":851,"Ġend":852,"ever":853,"clud":854,"Ġpoint":855,"200":856,"Ġsec":857,"ont":858,"Ġstill":859,"ident":860,"Ġreg":861,"Ġbefore":862,"Ġprodu":863,"als":864,"ffect":865,"alk":866,"Ġsupp":867,"Ġfind":868,"day":869,"Ġgoing":870,"Ġset":871,"ĠThey":872,"Ġtake":873,"ility":874,"ote":875,"Ġcol":876,"Ġsystem":877,"hes":878,"Ġdifferent":879,"Ġac":880,"ities":881,"ows":882,"Ġsub":883,"Ġreal":884,"ven":885,"cept":886,"imes":887,"up":888,"!Ċ":889,"ave":890,"ought":891,"Ġnum":892,"Ġperson":893,"ody":894,"ween":895,";Ċ":896,"Ġph":897,"Ġstud":898,"Ġpol":899,"ased":900,"Ġent":901,"Ġaw":902,"Ġhand":903,"Ġche":904,"Ġsur":905,"ied":906,"ather":907,"Ġhapp":908,"Ġworld":909,"Ġhere":910,"ef":911,"'m":912,"Ġthings":913,"Ġprov":914,"akes":915,"Ġbetween":916,"Ġstr":917,"Ġmod":918,"Ġlife":919,"ism":920,"Ġchar":921,"cy":922,"ax":923,"Ġmade":924,"Ġday":925,"ince":926,"Ġfeel":927,"Ġsomething":928,"Ġins":929,"uring":930,"'re":931,"ving":932,"ution":933,"Ġwhile":934,"gg":935,"read":936,"ĠAs":937,"Ġaround":938,"owing":939,"ize":940,"ues":941,"ract":942,"Ġcar":943,"ying":944,"ata":945,"Ġpres":946,"Ġhigh":947,"tern":948,"ures":949,"Ġass":950,"Ġfact":951,"ness":952,"Ġtrans":953,"Ġform":954,"ward":955,"thing":956,"Ġsl":957,"Ġmet":958,"Ġexper":959,"ps":960,"Ġgreat":961,"ically":962,"ĠAn":963,"Ġlot":964,"ix":965,"the":966,"ins":967,"con":968,"Ġexp":969,"Ġcount":970,"ool":971,"ÂłÂł":972,"Ġeach":973,"ited":974,"com":975,"alth":976,"Ġinclud":977,"blem":978,"Ġdef":979,"ger":980,"any":981,"Ġexam":982,"Ġcre":983,"ĠĠĠĠ":984,"Ġcor":985,"Ġfin":986,"ĠHow":987,"...":988,"Ġmin":989,"Ġgener":990,"Ġty":991,"arch":992,"Ġmed":993,"ĠUn":994,"ĠSo":995,"ctions":996,"led":997,"Ġmon":998,"It":999,"gan":1000,"ittle":1001,"Ġquest":1002,"ĠRe":1003,"ank":1004,"Ġchild":1005,"air":1006,"ves":1007,"ways":1008,"Ġmight":1009,"ational":1010,"Ġfew":1011,"ten":1012,"ines":1013,"ives":1014,"Ġop":1015,"pr":1016,"Ġseem":1017,"Ġ[":1018,"ason":1019,"Ġdisc":1020,"ah":1021,"Ġboth":1022,"be":1023,"Ġproblem":1024,"12":1025,"Ġdet":1026,"Ġart":1027,"der":1028,"ublic":1029,"Ġmat":1030,"Ġnever":1031,"Ġear":1032,"Ġrequ":1033,"velop":1034,"ists":1035,"meric":1036,"Ġfoll":1037,"ex":1038,"ys":1039,"Ġap":1040,"ĠThere":1041,"Ġval":1042,"Ġusing":1043,"und":1044,"ices":1045,"Ġfun":1046,"Ġcur":1047,"fl":1048,"ense":1049,"vern":1050,"Ġsign":1051,"arm":1052,"Ġlittle":1053,"Ġbetter":1054,"Ġfound":1055,"ret":1056,"ork":1057,"Ġrun":1058,"hip":1059,"Ġimport":1060,"Ġwhy":1061,"Ġmark":1062,".\"Ċ":1063,"ved":1064,"ages":1065,"Ġfam":1066,"stand":1067,"ros":1068,"'ve":1069,"iness":1070,"ng":1071,"Ġaut":1072,"Ġfil":1073,"Ġser":1074,"Ġcomple":1075,"less":1076,"Ġide":1077,"Ġcle":1078,"Ġlast":1079,"Ġlet":1080,"Ġput":1081,"Ġcour":1082,"ern":1083,"Ġhum":1084,"erest":1085,"Ġposs":1086,"io":1087,"Ġanother":1088,"ute":1089,"ention":1090,"Ġprocess":1091,"ale":1092,"Ġlead":1093,"Ġret":1094,"Ġexpl":1095,"Ġeffect":1096,"az":1097,"ner":1098,"Ġresult":1099,"ric":1100,"Ġsk":1101,"Ġbelie":1102,"Ġkeep":1103,"ĠAmeric":1104,"Ġi":1105,"ode":1106,"Ġmov":1107,"Ġgot":1108,"Ġwithout":1109,"Ġlar":1110,"ets":1111,"ouse":1112,"ĠFor":1113,"ĠAl":1114,"Ġbest":1115,",Ċ":1116,"Ġalways":1117,"Ġhard":1118,"ash":1119,"riend":1120,"Ġgl":1121,"This":1122,"Ġdist":1123,"Ġeas":1124,"Ġdevelop":1125,"ug":1126,"oney":1127,"Ġel":1128,"Ġcome":1129,"Ġstate":1130,"Ġinform":1131,"ized":1132,"Ġbus":1133,"ably":1134,"Ġless":1135,"Ġext":1136,"ember":1137,"Ġfr":1138,"Ġpower":1139,"Ġthing":1140,"uss":1141,"ĠThat":1142,"ead":1143,"ient":1144,"Ġspec":1145,"Ġturn":1146,"Ġmust":1147,"Ġref":1148,"chn":1149,"11":1150,"ared":1151,"Ġask":1152,"Ġbo":1153,"Ġbook":1154,"ĠWhat":1155,"Ġwom":1156,"Ġplace":1157,"Ġserv":1158,"Ġresp":1159,"sw":1160,"What":1161,"pend":1162,"ined":1163,"Ġnumber":1164,"Ġpost":1165,"Ġav":1166,"Ġdire":1167,"ĠâĢĵ":1168,"Ġbig":1169,"Ġinterest":1170,"ertain":1171,"Ġsmall":1172,"Ġgovern":1173,"uc":1174,"Ġca":1175,"ts":1176,"Ġhome":1177,"Ġword":1178,",\"":1179,"iting":1180,"ters":1181,"uck":1182,"arn":1183,"here":1184,"Ġold":1185,"Ġmean":1186,"amp":1187,"oup":1188,"gy":1189,"...Ċ":1190,"Ġpat":1191,"Ġdata":1192,"ari":1193,"Ġunderstand":1194,"ption":1195,"ider":1196,"You":1197,"Ġincre":1198,"Ġsince":1199,"Ġpartic":1200,"18":1201,"ature":1202,"Ġcare":1203,"15":1204,"Ġiss":1205,"Ġhead":1206,"Ġwee":1207,"Ġexperi":1208,"Ġthought":1209,"view":1210,"chool":1211,"Ġwater":1212,"Ġsol":1213,"ĠIs":1214,".âĢĿ":1215,"ĠCom":1216,"Ġmain":1217,"oh":1218,"Ġadv":1219,"Ġdi":1220,"Ġclass":1221,"err":1222,"man":1223,"Ġexample":1224,"ames":1225,"-s":1226,"br":1227,"Ġthree":1228,"ired":1229,"Ġpass":1230,"rop":1231,"ately":1232,"ĠSh":1233,"line":1234,"Ġshow":1235,"Ġloc":1236,"Ġdidn":1237,"ural":1238,"ruct":1239,"atch":1240,"Ġagainst":1241,"Ġsure":1242,"Ġcontro":1243,"Ġactually":1244,"Ġed":1245,"to":1246,"Ġimportant":1247,"Ġplan":1248,"ants":1249,"oun":1250,"Ġtell":1251,"ier":1252,"Ġrest":1253,"osed":1254,"Ġlevel":1255,"Ġmoney":1256,"iving":1257,"Ġtri":1258,"ases":1259,"Ġinformation":1260,"Ġlaw":1261,"aj":1262,"Ġduring":1263,"Ġoften":1264,"Ġtest":1265,"Ġbody":1266,"Ġhealth":1267,"Ġbeh":1268,"ology":1269,"ĠShe":1270,"Ġable":1271,"Ġenough":1272,"Ġmus":1273,"Ġlist":1274,"ĠWh":1275,"Ġstand":1276,"ee":1277,"Ġcase":1278,"Ġvis":1279,"bs":1280,"Ġdoesn":1281,"Ġpay":1282,"Ġsays":1283,"Ġgra":1284,"me":1285,"ĠAr":1286,"Ġcharact":1287,"Ġaway":1288,"Ġtechn":1289,"Ġpop":1290,"ield":1291,"orn":1292,"'ll":1293,"Ġ\\":1294,"Ġpur":1295,"rence":1296,"Ġconf":1297,"Ġfriend":1298,"Ġkind":1299,"arent":1300,"Ġopen":1301,"Ġtalk":1302,"ĠBr":1303,"dd":1304,"If":1305,"âĢĶ":1306,"Ġcontin":1307,"St":1308,"Ġ&":1309,"land":1310,"Ġgive":1311,"bers":1312,"Ġgame":1313,"ety":1314,"Ġnext":1315,"gram":1316,"Ġname":1317,"ital":1318,"ross":1319,"//":1320,"Ġthough":1321,"Ġsecond":1322,"Ġunt":1323,"iven":1324,"Ġdr":1325,"Ġbre":1326,"Ġbusiness":1327,"Ġsupport":1328,"Ġhappen":1329,"Ġcent":1330,").Ċ":1331,"13":1332,"inal":1333,"Ġdem":1334,"Ġlove":1335,"oot":1336,"ither":1337,"Ġchange":1338,"Ġtop":1339,"We":1340,"Ġmem":1341,"Ġpos":1342,"Ġopp":1343,"ling":1344,"Ġconst":1345,"Ġgovernment":1346,"Ġfree":1347,"ĠWhen":1348,"Ġterm":1349,"-b":1350,"Ġquestion":1351,"Ġprof":1352,"Ġfull":1353,"ok":1354,"aug":1355,"ats":1356,"Ġsit":1357,"Ġchang":1358,"Ġmove":1359,"Ġbit":1360,"Ġsomeone":1361,"âĢ¦":1362,"Ġproduct":1363,"Ġdri":1364,"ĠDe":1365,"ĠQ":1366,"not":1367,"Ġprev":1368,"ĠNew":1369,"Ġbra":1370,"Ġdoing":1371,"Ġschool":1372,"Ġorder":1373,"Ġequ":1374,"ream":1375,"ality":1376,"Ġcost":1377,"ivid":1378,"Ġmeans":1379,"Ġbas":1380,"Ġbuild":1381,"14":1382,"Ġappe":1383,"Ġcalled":1384,"ron":1385,"Ġhaving":1386,"ids":1387,"Ġ{":1388,"ik":1389,"16":1390,"ope":1391,"oad":1392,"Ġhist":1393,"conom":1394,"ains":1395,"ently":1396,"Ġtimes":1397,"Ġansw":1398,"Ġreason":1399,"Ġlight":1400,"ides":1401,"Ġfar":1402,"Ġleg":1403,"ished":1404,"Ġhuman":1405,"Ġconc":1406,"Ġmonth":1407,"els":1408,"30":1409,"cing":1410,"Ġcommun":1411,"Ġfood":1412,"Ġmakes":1413,"port":1414,"Ġdone":1415,"arr":1416,"Ġmaking":1417,"Ġmarket":1418,"Ġleft":1419,"ered":1420,"Ġdesign":1421,"aps":1422,"med":1423,"Ġcertain":1424,"As":1425,"Ġpri":1426,"Ġstory":1427,"Ġdirect":1428,"How":1429,"ird":1430,"Ġes":1431,"-c":1432,"Ġprob":1433,"gin":1434,"Ġever":1435,"Ġuntil":1436,"50":1437,"ĠOn":1438,"ploy":1439,"eng":1440,"ining":1441,"Ġlarge":1442,"iter":1443,"ott":1444,"ering":1445,"ĠUS":1446,"Ġele":1447,"ised":1448,"Ġjob":1449,"Ġsw":1450,"reen":1451,"ann":1452,"Ġleast":1453,"ump":1454,"aring":1455,"Ġmind":1456,"Ġpublic":1457,"ision":1458,"Ġprogram":1459,"Ġcourse":1460,"ency":1461,"by":1462,"Ġpolit":1463,"Ġfamily":1464,"Ġside":1465,"Ġchildren":1466,"-d":1467,"Ġothers":1468,"ories":1469,"most":1470,"Ġorgan":1471,"ization":1472,"Ġperform":1473,"hod":1474,"Ġben":1475,"uff":1476,"'d":1477,"Ġsing":1478,"Ġeconom":1479,"\"Ċ":1480,"ready":1481,"Ġ/":1482,"Ġey":1483,"atic":1484,"Ġappro":1485,"Ġpar":1486,"hys":1487,"ĠCl":1488,"rist":1489,"rap":1490,"app":1491,"icle":1492,"att":1493,"ĠPro":1494,"Ġcap":1495,"Ġdays":1496,"Ġanything":1497,"of":1498,"000":1499,"ium":1500,"Ġprot":1501,"Ġbad":1502,"ĠZ":1503,"Ġ--":1504,"pro":1505,"lease":1506,"ional":1507,"itive":1508,"Ġet":1509,"ator":1510,"Ġpossible":1511,"lf":1512,"ustom":1513,"work":1514,"So":1515,"}Ċ":1516,"Ġstop":1517,"iqu":1518,"Ġbecome":1519,"ĠâĢĺ":1520,"sc":1521,"Ġgetting":1522,"And":1523,"Ġocc":1524,"Ġmen":1525,"Ġrese":1526,"hor":1527,"Ġwithin":1528,"à¤":1529,"ilar":1530,"17":1531,"An":1532,"Ġcountry":1533,"Ġeng":1534,"let":1535,"âĢĻre":1536,"ential":1537,"Ġteam":1538,"Ġinvest":1539,"Ġview":1540,"Ġcontrol":1541,"Ġalready":1542,"ided":1543,"ged":1544,"ĠInd":1545,"Ġidea":1546,"used":1547,"ffic":1548,"ajor":1549,"Ġcurrent":1550,"Ġline":1551,"ĠAt":1552,"ĠTo":1553,"Ġproper":1554,"There":1555,"Ġair":1556,"]Ċ":1557,"Ġris":1558,"ards":1559,"ĠTr":1560,"Ġtry":1561,"ĠSe":1562,"Ġlearn":1563,"Ġonce":1564,"ccess":1565,"ĠBl":1566,"Ġcell":1567,"Ġpast":1568,"ĠHowever":1569,"Ġpot":1570,"Ġmom":1571,"-f":1572,"âĢľ":1573,"Ġshort":1574,"aim":1575,"Ġclear":1576,"Ġ.":1577,"Ġve":1578,"idd":1579,"ified":1580,"ush":1581,"Ġelect":1582,"Ġtyp":1583,"sh":1584,"ries":1585,"Ġpa":1586,"Ġsound":1587,"Ġgroup":1588,"ox":1589,"Ġpain":1590,"Ġfore":1591,"Ġreport":1592,"ony":1593,"Ġbelieve":1594,"ured":1595,"ĠBe":1596,"ument":1597,");Ċ":1598,"ply":1599,"illion":1600,"Ġmil":1601,"Ġdra":1602,"ior":1603,"Ġsci":1604,"ane":1605,"Ġcreat":1606,"Ġcame":1607,"over":1608,"itions":1609,"Ġlim":1610,"ividual":1611,"Ġexperience":1612,"Ġdev":1613,"Ġcompany":1614,"Ġhouse":1615,"Ġnight":1616,"Ġtreat":1617,"ury":1618,"ained":1619,"Ġdiff":1620,"Ġcond":1621,"uro":1622,"Ġgiven":1623,"ination":1624,"Ġpract":1625,"Ġexpect":1626,"ulation":1627,"Ġelse":1628,"put":1629,"ots":1630,"But":1631,"Ġcomplete":1632,"Ġparticular":1633,"oid":1634,"Ġhour":1635,"Ġtrying":1636,"Ġisn":1637,"Ġallow":1638,"Ġwar":1639,"Ġ|":1640,"Ġspecific":1641,"cially":1642,"Ġprobably":1643,"Ġwhole":1644,"Ġcommon":1645,"ton":1646,"for":1647,"Ġseen":1648,"Ġeither":1649,"Ġz":1650,"Ġfilm":1651,"alf":1652,"Ġtype":1653,"Ġanswer":1654,"Ġcheck":1655,"cle":1656,"Ġwomen":1657,"ĠGod":1658,"ina":1659,"Ġworking":1660,"ral":1661,"25":1662,"Ġtoday":1663,"oint":1664,"Ġrather":1665,"Ġdesc":1666,"Ġtem":1667,"selves":1668,"Ġoper":1669,"Ġmajor":1670,"iron":1671,"par":1672,"oice":1673,"ource":1674,"Ġest":1675,"100":1676,"Ġnon":1677,"Ġconsider":1678,"Ġ:":1679,"Ġredu":1680,"Ġhold":1681,"Ġtoget":1682,"Ġinvol":1683,"Ġtogether":1684,"-m":1685,"ians":1686,"Ġindividual":1687,"Ġlater":1688,"aster":1689,"Ġwent":1690,"Ġcult":1691,"Ġsever":1692,"Ġanal":1693,"Ġdep":1694,"way":1695,"Ġprom":1696,"Ġarg":1697,"Ġmethod":1698,"Ġfre":1699,"ery":1700,"ortun":1701,"ivers":1702,"Ġident":1703,"Ġknown":1704,"ĠAll":1705,"ability":1706,"utes":1707,"Ġcomes":1708,"Ġlooking":1709,"Ġbased":1710,"side":1711,"Ġnothing":1712,"Ġlow":1713,"Ġcustom":1714,"Ġsocial":1715,"ived":1716,"Ġseems":1717,"ĠDo":1718,"ike":1719,"Ġmiss":1720,"por":1721,"Ġkill":1722,"He":1723,"ances":1724,"Ġcharacter":1725,"outh":1726,"Ġtrue":1727,"ĠFr":1728,"Ġrecord":1729,"Ġnear":1730,"Ġaccount":1731,"Ġyet":1732,"ĠLe":1733,"Ġpresent":1734,"Ġland":1735,"ched":1736,"Ġreturn":1737,"199":1738,"Ġcal":1739,"Ġincluding":1740,"ify":1741,"ĠMy":1742,"Ġimpro":1743,"ĠAmerican":1744,"gs":1745,"ences":1746,"ĠX":1747,"Ġhig":1748,"Ġtre":1749,"omm":1750,"Ġdeal":1751,"Ġlive":1752,"Ġamount":1753,"Ġneeds":1754,"Ġbenef":1755,"Ġseveral":1756,"aken":1757,"Ġalmost":1758,"Ġorig":1759,"-t":1760,"Ġvers":1761,"Ġface":1762,"ĠOr":1763,"ĠCon":1764,"Ġmar":1765,"Ġheart":1766,"ones":1767,"Ġweek":1768,"ĠSp":1769,"Ġant":1770,"Ġwhether":1771,"Ġvalue":1772,"Ġactiv":1773,"iously":1774,"Ġener":1775,"Ġproject":1776,"ted":1777,"ĠEx":1778,"ggest":1779,"ration":1780,"Ġphys":1781,"idence":1782,"Ġwon":1783,"Ġfollowing":1784,"Ġfour":1785,"Ġfunction":1786,"Ġintern":1787,"eral":1788,"Ġhy":1789,"Ġalong":1790,"Ġwords":1791,"Ġinf":1792,"Ġpress":1793,"Ġwa":1794,"Ġconne":1795,"wh":1796,"Ġsuccess":1797,"angu":1798,"Ġeverything":1799,"Ġstrong":1800,"Ġcreate":1801,"ape":1802,"Ġmult":1803,"ĠRep":1804,"Ġexist":1805,"ctor":1806,"ĠNo":1807,"Ġquick":1808,"Ġ<":1809,"Ġtax":1810,"Ġroom":1811,"aut":1812,"24":1813,"Ġ+":1814,"----":1815,"itional":1816,"Ġavail":1817,"Ġsuggest":1818,"ole":1819,"Ġphot":1820,"cer":1821,"Ġvide":1822,"mb":1823,"use":1824,"ĠOne":1825,"Ġcut":1826,"**":1827,"Ġsex":1828,"though":1829,"ĠChrist":1830,"Ġbro":1831,"Ġpret":1832,"Ġstarted":1833,"Ġtook":1834,"ĠPl":1835,"Ġlikely":1836,"Ġmor":1837,"Ġinfl":1838,"ĠCan":1839,"ression":1840,"Ġopt":1841,"Ġsal":1842,"Ġprovide":1843,"Ġabove":1844,"ER":1845,"icult":1846,"Ġquite":1847,"Ġtrad":1848,"Ġstep":1849,"Ġsimilar":1850,"Ġself":1851,"aces":1852,"ĠThese":1853,"min":1854,"Ġsense":1855,"Ġdeb":1856,"ohn":1857,"Ġsimply":1858,"ising":1859,"Ġago":1860,"Ġemploy":1861,"uture":1862,"Ġspace":1863,"ama":1864,"Ġmatter":1865,"Ġfollow":1866,"urther":1867,"Ġmess":1868,"Ġwin":1869,"For":1870,"ients":1871,"When":1872,"ene":1873,"Ġbuy":1874,"Ġfail":1875,"Ġusually":1876,"Ġclaim":1877,"ĠMar":1878,"pecially":1879,"Ġentire":1880,"Ġfoc":1881,"Ġvari":1882,"plic":1883,"leep":1884,"Ġkey":1885,"Ġmeas":1886,"irl":1887,"ills":1888,"Ġhistory":1889,"ully":1890,"lish":1891,"Ġrece":1892,"Ġpretty":1893,"Ġenergy":1894,"anks":1895,"ext":1896,".S":1897,"ler":1898,"Ġblood":1899,"my":1900,"Ġeveryone":1901,"Ġsingle":1902,"Ġnat":1903,"elt":1904,"wards":1905,"ples":1906,"Ġtold":1907,"Ġwrong":1908,"uation":1909,"Ġmag":1910,"urity":1911,"Ġobject":1912,"Ġbreak":1913,"Ġarea":1914,"Ġparent":1915,"ison":1916,"Ġrelations":1917,"cent":1918,"Ġdiscuss":1919,"Ġcou":1920,"ording":1921,",âĢĿ":1922,"Ġavailable":1923,"Ġsuper":1924,"Ġcomput":1925,"ĠNot":1926,"yn":1927,"Ġsent":1928,"Ġblack":1929,"ored":1930,"Ġevent":1931,"urs":1932,"Ch":1933,"ĠSc":1934,"Ġetc":1935,"Ġwalk":1936,"-p":1937,"ches":1938,"unt":1939,"nding":1940,"ney":1941,"olution":1942,"viron":1943,"enn":1944,"Ġissue":1945,"Ġanim":1946,"Ġclose":1947,"Ġgrow":1948,"Ġenc":1949,"ially":1950,"rect":1951,"iod":1952,"Ġnet":1953,"Ġaccess":1954,"Ġsn":1955,"Ġdue":1956,"son":1957,"Ġdifficult":1958,"ware":1959,"Ġabs":1960,"Ġfall":1961,"Ġearly":1962,"Ġpict":1963,"acy":1964,"Ġcir":1965,"gle":1966,"orth":1967,"Ġmot":1968,"Ġtot":1969,"pped":1970,"Ġattack":1971,"Ġwind":1972,"Ġnorm":1973,"Ġcannot":1974,"Ġhalf":1975,"ms":1976,"Ġbegin":1977,"aining":1978,"Ġwond":1979,"like":1980,"Ġmusic":1981,"ges":1982,"where":1983,".âĢĿĊ":1984,"Ġfuture":1985,"Ġage":1986,"ental":1987,"Ġdeath":1988,"Ġeasy":1989,"ĠAd":1990,"urope":1991,"verse":1992,"val":1993,"Ġ{Ċ":1994,"Ġfield":1995,"Ġcolle":1996,"Ġlocal":1997,"Ġsort":1998,"ĠWith":1999,"oud":2000,"Ġresults":2001,"Ġyoung":2002,"ires":2003,"lement":2004,"Re":2005,"Ġcause":2006,"Ġlab":2007,"soci":2008,"Ġlangu":2009,"rodu":2010,"Ġmeet":2011,"une":2012,"ively":2013,"empt":2014,"Ġtaking":2015,"Ġwanted":2016,"Ġpie":2017,"Ġworks":2018,"oke":2019,"ĠEng":2020,"oose":2021,"Ġsimple":2022,"Ġess":2023,"Ġhowever":2024,"\",":2025,"Ġstudy":2026,"Ġfriends":2027,"Ġvar":2028,"arget":2029,"Ġrad":2030,"lling":2031,"Ġmass":2032,"Ġlog":2033,"ÂłÂłÂłÂł":2034,"Ġresearch":2035,"Ġthemselves":2036,"Ġinstead":2037,"Ġnecess":2038,"de":2039,"fer":2040,"Ġstudents":2041,"Ġproblems":2042,"Ġimm":2043,"Ġdam":2044,"Ġneg":2045,"Ġanyone":2046,"ley":2047,"resent":2048,"ules":2049,"joy":2050,"Ġindust":2051,"ript":2052,"ĠPr":2053,"Ġsignific":2054,"Ġcomb":2055,"str":2056,"imate":2057,"Ġauthor":2058,"Ġstay":2059,"Ġdepend":2060,"verage":2061,"iol":2062,"Ġwatch":2063,"Ġoffic":2064,"Ġprop":2065,"ging":2066,"erc":2067,"Ġcra":2068,"Ġacross":2069,"Ġla":2070,"istic":2071,"Ġ*":2072,"Ġrespons":2073,"ĠMay":2074,"Ġarticle":2075,"ique":2076,"Ġ#":2077,"Ġcity":2078,"Ġsoft":2079,"40":2080,"Ġapplic":2081,"ĠUnited":2082,"rew":2083,"Ġhigher":2084,"Ġcompan":2085,"ĠSome":2086,"ands":2087,"ources":2088,"Ġlink":2089,"âĢĻve":2090,"Ġhope":2091,"oon":2092,"ites":2093,"irt":2094,"Wh":2095,"22":2096,"avor":2097,"Ġpolitical":2098,"Ġways":2099,"ued":2100,"ateg":2101,"Ġtext":2102,"Ġfig":2103,"ĠEurope":2104,"Ġ,":2105,"Ġitself":2106,"Ġdeterm":2107,"Ġgeneral":2108,"itor":2109,"Ġrisk":2110,"vironment":2111,"ask":2112,"Ġespecially":2113,"Ġpoints":2114,"Ġwasn":2115,"__":2116,"ried":2117,"Ġexact":2118,"Ġmonths":2119,"On":2120,"uses":2121,"Ġmodel":2122,"ibility":2123,"sy":2124,"Ġcomment":2125,"Ġmedia":2126,"Ġbehind":2127,"fully":2128,"Ġfund":2129,"âĢĵ":2130,"Ġpersonal":2131,"Ġsum":2132,"ume":2133,"Ġdefin":2134,"isc":2135,"osp":2136,"esp":2137,"Ġprote":2138,"Ġdescrib":2139,"Ġneeded":2140,"Ġwhite":2141,"ogn":2142,"Ġstruct":2143,"ĠĠĠĠĠĠĠĠ":2144,"Ġasked":2145,"Ġcode":2146,"Ġmoment":2147,"Ġfight":2148,"reme":2149,"NA":2150,"Ġspecial":2151,"Ġnews":2152,"Ġlonger":2153,"Ġperiod":2154,"Ġcred":2155,"Ġquestions":2156,"Ġdetail":2157,"Ġonline":2158,"Ġlo":2159,"back":2160,"ister":2161,"ule":2162,"Ġrelationship":2163,"Ġdest":2164,"ray":2165,"iet":2166,"21":2167,"Ġdou":2168,"Ġaccept":2169,"Ġpriv":2170,"vert":2171,"To":2172,"Ġeyes":2173,"body":2174,"Ġpolic":2175,"âĢĻm":2176,"error":2177,"==":2178,".,":2179,"unch":2180,"ĠJohn":2181,"che":2182,"ĠPh":2183,"ference":2184,"aterial":2185,"Ġbring":2186,"Ġyourself":2187,"23":2188,"book":2189,"ude":2190,"face":2191,"ĠStates":2192,"Ġrepl":2193,"haps":2194,"Ġann":2195,"action":2196,"Ġenjoy":2197,"Ġamong":2198,"Ġinclude":2199,"Ġtaken":2200,"Ġcy":2201,"Ġprofess":2202,"Ġchanges":2203,"Al":2204,"Ġwoman":2205,"Ġvideo":2206,"Ġgoes":2207,"yle":2208,"asing":2209,"Ġservice":2210,"ault":2211,"Ġbar":2212,"ift":2213,"Ġrequire":2214,"ilt":2215,"iction":2216,"omes":2217,"Ġliving":2218,"uge":2219,"gen":2220,"Ġcrit":2221,"Ġtakes":2222,"uly":2223,"Ġground":2224,"itten":2225,"hers":2226,"Ġblog":2227,"Ġfile":2228,"go":2229,"eed":2230,"ables":2231,"Ġchall":2232,"Ġhours":2233,"Ġposition":2234,"Ġobs":2235,"Ġsignificant":2236,"ĠâĢĶ":2237,"-l":2238,"Ġfront":2239,"itch":2240,"orld":2241,"Ġreview":2242,"Ġissues":2243,"Ġste":2244,"Ġsaw":2245,"Ġsaying":2246,"ma":2247,"Ġpick":2248,"Ġcontent":2249,"ators":2250,"Ġbi":2251,"Ġgets":2252,"ledge":2253,"Ġremember":2254,"Ġsens":2255,"Ġsleep":2256,".com":2257,"That":2258,"Ġminutes":2259,"onse":2260,"Ġcompet":2261,"Ġworth":2262,"miss":2263,"Ġdru":2264,"Ġcompanies":2265,"bo":2266,"Ġfurther":2267,"itting":2268,"Ġdel":2269,"ubl":2270,"Ġfac":2271,"ĠTe":2272,"ĠAfter":2273,"Ġkids":2274,"aged":2275,"Ġdom":2276,"Ġred":2277,"Ġmention":2278,"augh":2279,"nds":2280,"Ġenvironment":2281,"ĠGr":2282,"Ġprice":2283,"Ġdevelopment":2284,"Ġx":2285,"ĠHis":2286,"Ġincrease":2287,"Ġmovie":2288,"Ġrele":2289,"ĠOb":2290,"orr":2291,"Ġvol":2292,"Ġcamp":2293,"gress":2294,"Ġeduc":2295,"head":2296,"60":2297,"Ġfive":2298,"ĠCol":2299,"ĠPe":2300,"ster":2301,"!!":2302,"ĠSy":2303,"Ġskin":2304,"Ġvarious":2305,"oms":2306,"ecause":2307,"Ġeff":2308,"ze":2309,"Ġsubject":2310,"Ġsize":2311,"uth":2312,"Ġrate":2313,"ĠYour":2314,"Ġhimself":2315,"raph":2316,"Ġbehav":2317,"Ġgirl":2318,"Ġlower":2319,"Ġstore":2320,"ological":2321,"Ġcop":2322,"era":2323,"Ġmach":2324,"mit":2325,"Ġpack":2326,"Ġtool":2327,"iding":2328,"set":2329,"Ġconv":2330,"Ġnatural":2331,"orts":2332,"Ġrespect":2333,"ensive":2334,"Ġcoming":2335,"umb":2336,"Ġsystems":2337,"Ġlanguage":2338,"Ġweight":2339,"Ġmaterial":2340,"AT":2341,"osing":2342,"Ġsong":2343,"Ġsoci":2344,"Ġoutside":2345,"Ġstat":2346,"Ġdig":2347,"IN":2348,"Ġlay":2349,"Ġgames":2350,"ocr":2351,"RE":2352,"Ġsoon":2353,"Ġaddress":2354,"Ġrunning":2355,"Ġstuff":2356,"ips":2357,"eth":2358,"Ġinit":2359,"Ġmother":2360,"Ġwriting":2361,"Ġspeak":2362,"ĠAmerica":2363,"ST":2364,"Ġaffect":2365,"ĠNow":2366,"iddle":2367,"Ġaud":2368,"ĠWhy":2369,"Ġwrite":2370,"ĠAm":2371,"ring":2372,"Ġperfect":2373,"Ġstra":2374,"Ġdise":2375,"play":2376,"ĠThen":2377,"28":2378,"Ġcard":2379,"Ġmembers":2380,"ung":2381,"Ġversion":2382,"Ġcirc":2383,"Ġill":2384,"Ġsearch":2385,"Ġreading":2386,"Ġmanage":2387,"Ġrelig":2388,"Ġprotect":2389,"icro":2390,"Ġpred":2391,"chie":2392,"Ġlost":2393,"Ġpage":2394,"Ġthinking":2395,"Ġimag":2396,"No":2397,"Ġball":2398,"27":2399,"Ġviol":2400,"Ġfelt":2401,"ilities":2402,"izing":2403,"Ġconsum":2404,"Ġterms":2405,"ĠIm":2406,"Ġones":2407,"ĠMan":2408,"Ġheard":2409,"Ġtarget":2410,"Ġattempt":2411,"198":2412,"Ġmillion":2413,"Ġtrack":2414,"Ġrepresent":2415,"Ġdeep":2416,"Ġcomplex":2417,"Ġsometimes":2418,"medi":2419,"amed":2420,"atter":2421,"Ġdifference":2422,"Ġleave":2423,"rel":2424,"ai":2425,"Ġpercent":2426,"Ġblock":2427,"26":2428,"ification":2429,"Ġwebs":2430,"Ġupon":2431,"ĠJust":2432,"Ġaction":2433,"Ġoil":2434,"-w":2435,"Ġinside":2436,"Ġinteresting":2437,"oin":2438,"Ġcorrect":2439,"tt":2440,"Ġprim":2441,"My":2442,"using":2443,"Ġhands":2444,"oved":2445,"Ġpotential":2446,"ĠApp":2447,"ĠFl":2448,"usion":2449,"Ġimprove":2450,"ises":2451,"Ġshare":2452,"iversity":2453,"mon":2454,"Ġevidence":2455,"Ġconcern":2456,"Ġtechnology":2457,"bl":2458,"Ġpaper":2459,"aving":2460,"Ġcreated":2461,"Ġfire":2462,"Ġrole":2463,"ĠMe":2464,"lt":2465,"Ġimpact":2466,"Ġsituation":2467,"ĠBy":2468,"ĠBrit":2469,"tend":2470,"Ġpull":2471,"AN":2472,"atures":2473,"oe":2474,"Ġsecurity":2475,"Ġbecame":2476,"Ġport":2477,"Ġcells":2478,"Ġclean":2479,"overed":2480,"Ġapproach":2481,"oogle":2482,"right":2483,"Ġseries":2484,"Ġdoc":2485,"Ġknew":2486,"Ġbrain":2487,"hem":2488,"ĠCar":2489,"eter":2490,"Ġpopular":2491,"Ġtalking":2492,"Sh":2493,"Ġsqu":2494,"Ġsun":2495,"ober":2496,"Ġcases":2497,"Ġep":2498,"Ġcountries":2499,"Ġfinan":2500,"add":2501,"Ġsite":2502,"Ġheav":2503,"Ġquickly":2504,"Ġeat":2505,"reg":2506,"Ġaren":2507,"Ġens":2508,"Ã©":2509,"ON":2510,"Ġtravel":2511,"itted":2512,"ino":2513,"Ġpurp":2514,"bit":2515,"anger":2516,"Ġhot":2517,"af":2518,"ball":2519,"Ġparty":2520,"ming":2521,"Ġcompletely":2522,"Ġassoci":2523,"Ġproducts":2524,"Ġaff":2525,"ommend":2526,"Ġability":2527,"Ġbelow":2528,"reet":2529,"ams":2530,"ili":2531,"utions":2532,"ĠQu":2533,"Ġshows":2534,"âĢĻll":2535,"Ġcommunity":2536,"Ġswe":2537,"oor":2538,"Ġitem":2539,"()":2540,"Ġoffer":2541,"lex":2542,"Ġuser":2543,"Ġinflu":2544,"fra":2545,"mber":2546,"ysis":2547,"stit":2548,"Ġpath":2549,"Ġfoot":2550,"Ġhappened":2551,"asons":2552,"Ġbal":2553,"AR":2554,"ĠAf":2555,"Ġjud":2556,"het":2557,"Ġexc":2558,"Ġoriginal":2559,"Ġparents":2560,"Ġsat":2561,"Ġloss":2562,"Ġbab":2563,"Ġpicture":2564,"Ġmaybe":2565,"Ġopportun":2566,"Ġsus":2567,"Ġfill":2568,"Ġvot":2569,"ev":2570,"Ġlooked":2571,"ening":2572,"epend":2573,"Ġhit":2574,"Ġachie":2575,"Ġsource":2576,"oes":2577,"ĠEn":2578,"arning":2579,"Ġhear":2580,"Ġphone":2581,"ese":2582,"-in":2583,"Ġstates":2584,"Ġrange":2585,"ience":2586,"Ġslow":2587,"idered":2588,"Ġmyself":2589,"Ġcouple":2590,"Ġboy":2591,"Ġtried":2592,"oups":2593,"ension":2594,"ĠÂł":2595,"Ġstri":2596,"erson":2597,"Ġexactly":2598,"Ġmis":2599,"Ex":2600,"Ġquality":2601,"Ġroad":2602,"Ġnumbers":2603,"Ġimage":2604,"Ġnormal":2605,"Ġfair":2606,"gest":2607,"Ġrequired":2608,"Ġeffects":2609,"Ġdrink":2610,"itary":2611,"Ġnice":2612,"Ġregard":2613,"Ġindustry":2614,"ached":2615,"obal":2616,"29":2617,"eb":2618,"aced":2619,"Ġcomputer":2620,"Ġspeed":2621,"Ġservices":2622,"Ġbed":2623,"aves":2624,"Ġtreatment":2625,"Ġconcept":2626,"Ġcam":2627,"Ġperformance":2628,"Ġresponse":2629,"One":2630,"Ġconnect":2631,"://":2632,"Ġtable":2633,"mp":2634,"Ġlevels":2635,"Ġcoun":2636,"Ġfat":2637,"Ġeconomic":2638,"uel":2639,"Ġbegan":2640,"Con":2641,"Ġlives":2642,"Ġwritten":2643,"Ġtypes":2644,"irth":2645,"Ġphysical":2646,"atory":2647,"ana":2648,"ĠPres":2649,">Ċ":2650,"apt":2651,"Ġengine":2652,"ped":2653,"ressed":2654,"Why":2655,"ĠMr":2656,"Ġconsidered":2657,"ades":2658,"come":2659,"ourn":2660,"-h":2661,"ww":2662,"Ġobv":2663,"ement":2664,"ny":2665,"ĠGu":2666,"Ġhon":2667,"ĠWhile":2668,"fort":2669,"amm":2670,"Ġrecogn":2671,"Ġsurpr":2672,"leg":2673,"Ġrev":2674,"Ġlooks":2675,"Ġindic":2676,"Ġemot":2677,"Ġsepar":2678,"Ġdark":2679,"Ġknowledge":2680,"Ġguy":2681,"Ġbott":2682,"Ġfavor":2683,"Ġprevent":2684,"rict":2685,"just":2686,"Ġmeaning":2687,"pping":2688,"ground":2689,"rences":2690,"Ġfeeling":2691,"ibly":2692,"Ġhuge":2693,"Ġlack":2694,"Is":2695,"atever":2696,"Ġturned":2697,"ops":2698,"ĠWar":2699,"Ġeasily":2700,"Ġtotal":2701,"load":2702,"Ġlate":2703,"anced":2704,"chan":2705,"Ġfast":2706,"Ġnational":2707,"Ġdead":2708,"They":2709,"Ġbuilding":2710,"Ġscient":2711,"uf":2712,"Ġappear":2713,"urch":2714,"Ġcontinue":2715,"Ġparts":2716,"Ġcoll":2717,"Ġwonder":2718,"astic":2719,"Ġfather":2720,"Ġrecommend":2721,"tain":2722,"Ġexcept":2723,"Ġinvolved":2724,"Ġcharacters":2725,"Ġregular":2726,"Ġextra":2727,"unk":2728,"Ġri":2729,"oring":2730,"Ġavoid":2731,"Ġforce":2732,"ĠRes":2733,"egr":2734,"Ġbase":2735,"sequ":2736,"light":2737,"Ġfrequ":2738,"Ġbeaut":2739,"Ġbank":2740,"duct":2741,"Ġwouldn":2742,"Ġsell":2743,"aught":2744,"Ġculture":2745,"Ġprin":2746,"Ġtit":2747,"ĠAb":2748,"Ġprep":2749,"ĠÂ":2750,"iff":2751,"Ġtowards":2752,"ĠGen":2753,"Ġdiv":2754,"cious":2755,"Ġcover":2756,"\".":2757,"fficient":2758,"Ġut":2759,"arth":2760,"arily":2761,"ĠMc":2762,"Ġsafe":2763,"Ġthird":2764,"erve":2765,"Ġlearning":2766,"Ġdecided":2767,"Ġnecessary":2768,"Ġattention":2769,"ĠCal":2770,"urance":2771,"lying":2772,"cul":2773,"Ġfocus":2774,"Ġnetwork":2775,"hel":2776,"AS":2777,"Ġcontrib":2778,"80":2779,"Ġcool":2780,"Ġfix":2781,"ĠPer":2782,"Ġemb":2783,"Ġcredit":2784,"ffe":2785,"Ġintrodu":2786,"ĠMed":2787,"Ġthreat":2788,"Ġnature":2789,"Ġfeed":2790,"ĠSte":2791,"ĠSec":2792,"reng":2793,"Ġextreme":2794,"Ġdefe":2795,"ruction":2796,"upp":2797,"Ġmultip":2798,"Ġbooks":2799,"Ġoccur":2800,"ĠEven":2801,"Ġbox":2802,"Ġareas":2803,"etic":2804,"Ġcolor":2805,"Ġreach":2806,"ĠWell":2807,"Ġdoor":2808,"Ġsold":2809,"Ġpan":2810,"ription":2811,"Ġscience":2812,"Ġpractice":2813,"::":2814,"ĠWorld":2815,"Ġcouldn":2816,"Ġautom":2817,"Ġhappy":2818,"Ġrecent":2819,"ĠDon":2820,"Ġcourt":2821,"Ġestab":2822,"ival":2823,"Ġcollect":2824,"By":2825,"Ġforward":2826,"Ġdecision":2827,"Ġaverage":2828,"Ġyes":2829,"Ġplaying":2830,"Now":2831,"artment":2832,"Ġpressure":2833,"Ġtou":2834,"Ġgroups":2835,"Ġdream":2836,"ĠEd":2837,"Com":2838,"urt":2839,"Ġweeks":2840,"Ġhair":2841,"now":2842,"Ġimmedi":2843,"more":2844,"lled":2845,"ivity":2846,"Ġtend":2847,"ky":2848,"Ġaccording":2849,"oph":2850,"Ġsix":2851,"Ġsociety":2852,"ran":2853,"Ġguess":2854,"attle":2855,"wise":2856,"Ġunderstanding":2857,"resh":2858,"na":2859,"ero":2860,"Ġtemper":2861,"Ġmodern":2862,"Ġagree":2863,"ishing":2864,"ager":2865,"Ġwebsite":2866,"Ġpubl":2867,"Ar":2868,"ĠGe":2869,"Ġliter":2870,"Ġinstall":2871,"Ġcommunic":2872,"Ġinj":2873,"ength":2874,"Ġuses":2875,"ada":2876,"osition":2877,"Ġdecl":2878,"ceed":2879,"aling":2880,"zz":2881,"ĠPart":2882,"Ġexec":2883,"Ġexerc":2884,"Ġpoor":2885,"Ġhappens":2886,"Ġpiece":2887,"Ġchoose":2888,"apan":2889,"ĠJan":2890,"ĠYork":2891,"Be":2892,"ĠNe":2893,"Ġtown":2894,"Ġgave":2895,"aff":2896,"32":2897,"Ġign":2898,"oura":2899,"Ġstru":2900,"Ġconvers":2901,"Ġgives":2902,"Ġwall":2903,"ĠWill":2904,"ief":2905,"Ġcook":2906,"Ġpolice":2907,"cies":2908,"Ġoption":2909,"Ġda":2910,"Ġfit":2911,"ĠMost":2912,"Ġpurch":2913,"Ġur":2914,"Ġalone":2915,"Ġcontact":2916,"ĠRuss":2917,"Ġreasons":2918,"Ġdeg":2919,"Ġmedical":2920,"Ġpolicy":2921,"ĠDr":2922,"vent":2923,"Ġbur":2924,"uted":2925,"Ġworked":2926,"ened":2927,"hood":2928,"Ġcat":2929,"Ġge":2930,"ĠGo":2931,"Ġevents":2932,"Le":2933,"Ġwide":2934,"aries":2935,"sec":2936,"oses":2937,"ĠEnglish":2938,"ĠDem":2939,"Ġfinancial":2940,"Ġfem":2941,"-y":2942,"aign":2943,"Ġopin":2944,"Ġfiles":2945,"lim":2946,"Ġseason":2947,"Ġchance":2948,"Ġchoice":2949,"ype":2950,"onents":2951,"Ġstandard":2952,"Ġsoftware":2953,"ping":2954,"Ġconditions":2955,"off":2956,"Ġagre":2957,"Ġvalues":2958,"Ġwants":2959,"##":2960,"ĠTw":2961,"Ġtraining":2962,"</":2963,"olute":2964,"ession":2965,"mm":2966,"Ġwarm":2967,"Ġdraw":2968,"minist":2969,"At":2970,"Ġce":2971,"hib":2972,"Ġaddition":2973,"ha":2974,"Ġbuilt":2975,"Ġfinal":2976,"Ġpositive":2977,"agn":2978,"Ġcomments":2979,"Ġdrive":2980,"Ġmeasure":2981,"Ġdisease":2982,"-st":2983,"Ġmorning":2984,"Ġson":2985,"lection":2986,"ivil":2987,"cient":2988,"irit":2989,"Ġadded":2990,"iday":2991,"ounds":2992,"ĠPresident":2993,"Ġrights":2994,"return":2995,"197":2996,"aging":2997,"....":2998,"ED":2999,"Ġeffective":3000,"Ġstreng":3001,"Ġfa":3002,"uments":3003,"Ġemail":3004,"Ġgun":3005,"Ġsett":3006,"Ġir":3007,"amb":3008,"Ġbenefits":3009,"ĠObama":3010,"ĠCont":3011,"Ġsolution":3012,"Ġ@":3013,"icles":3014,"lier":3015,"Ġsurv":3016,"co":3017,"Ġallows":3018,"ĠUs":3019,"sych":3020,"Ġfine":3021,"ĠGerm":3022,"Ġideas":3023,"zy":3024,"Ġmix":3025,"yond":3026,"ees":3027,"Ġlegal":3028,"Ġanalysis":3029,"rest":3030,"Ġpen":3031,"Ġdro":3032,"Ġlif":3033,"Ġrules":3034,"Ġobserv":3035,"Ġimplement":3036,"ĠChina":3037,"Ġrout":3038,"Ġreve":3039,"inally":3040,"Ġcold":3041,"Ġrecently":3042,"Ġeye":3043,"Ġsil":3044,"Ġperhaps":3045,"ID":3046,"iles":3047,"Ġrelated":3048,"Ġmilitary":3049,"ograp":3050,"Ġrock":3051,"aur":3052,"ux":3053,"Ġfigure":3054,"OR":3055,"90":3056,"Ġcosts":3057,"room":3058,"ĠHere":3059,"irm":3060,"Ġtrust":3061,"Ġlaws":3062,"Ġoffice":3063,"Ġcertainly":3064,"Ġcross":3065,"Ġgiving":3066,"Ġtheory":3067,"Ġhor":3068,"ighb":3069,"Ġmedic":3070,"inary":3071,"Ġfinally":3072,"Ġden":3073,"All":3074,"antly":3075,"ags":3076,"Ġcand":3077,"Ġhost":3078,"35":3079,"Ġcapital":3080,"bb":3081,".)":3082,"Ġbreat":3083,"ĠInt":3084,"Ġactual":3085,"Ġparticip":3086,"cell":3087,"Ġreality":3088,"Ġpresident":3089,"ners":3090,"ales":3091,"Ġmechan":3092,"Ġtruth":3093,"key":3094,"Ġcompl":3095,"=\"":3096,"king":3097,"Ġproduction":3098,"Ġteac":3099,"ederal":3100,"arb":3101,"Ġled":3102,"Ġmultiple":3103,"Ġsequ":3104,"Ġgrowth":3105,"Ġheld":3106,"olic":3107,"ech":3108,"ucle":3109,"ned":3110,"ĠMus":3111,"rit":3112,"itely":3113,"imum":3114,"Ġvict":3115,"rench":3116,"Ġgas":3117,"Ġcancer":3118,"Ġharm":3119,"Ġheat":3120,"order":3121,"ĠRepublic":3122,"uk":3123,"Ġprivate":3124,"Ġplayers":3125,"idge":3126,"Ġbirth":3127,"Ġfra":3128,"Ġweb":3129,"Ġver":3130,"Ġmessage":3131,"Pro":3132,"entially":3133,"ĠMin":3134,"Ġscreen":3135,"Not":3136,"Ġready":3137,"Ġeconomy":3138,"Ġwhatever":3139,"Ġmoving":3140,"70":3141,"Ġload":3142,"iation":3143,"Ġbud":3144,"Ġallowed":3145,"Ġshown":3146,"Ġfear":3147,"atives":3148,"Ġchem":3149,"Ġstress":3150,"Ġpopulation":3151,"aly":3152,"Ġdate":3153,"Ġvisit":3154,"Ġâ":3155,"Ġknows":3156,"Ġmer":3157,"ES":3158,"asc":3159,"IS":3160,"ĠUniversity":3161,"Ġapplication":3162,"Ġinvestig":3163,"enced":3164,"ĠJew":3165,"oul":3166,"ashing":3167,"Ġmiddle":3168,"?\"":3169,"itter":3170,"Ġvote":3171,"Ġgenerally":3172,"ĠOf":3173,"Ġmist":3174,"ropri":3175,"Ġintegr":3176,"isions":3177,"Ġrelative":3178,"Ġemer":3179,"With":3180,"mpt":3181,"ĠCent":3182,"Ġsurface":3183,"Ġnut":3184,"Ġchanged":3185,"iny":3186,"Ġprinci":3187,"Ġbasic":3188,"Ġband":3189,"EN":3190,"Ġaltern":3191,"Cl":3192,"dom":3193,"ĠJapan":3194,"Ġdemand":3195,"Ġord":3196,"mission":3197,".)Ċ":3198,"ĠÐ":3199,"itiz":3200,"Ġstock":3201,"Ġvoice":3202,"Ġspend":3203,"Un":3204,"ously":3205,"Ġpattern":3206,"Ġdirectly":3207,"how":3208,"Ġeducation":3209,"Ph":3210,"itude":3211,"arc":3212,"Ġbehavior":3213,"Ġpurpose":3214,"ĠEvery":3215,"Ġplaces":3216,"Ġteach":3217,"Ġaware":3218,"iment":3219,"Ġleaders":3220,"Ġthous":3221,"Ġsave":3222,"rs":3223,"imately":3224,"Ġdoll":3225,"Ġsuff":3226,"Ġrequest":3227,"Ġprevious":3228,"Ġdoub":3229,"Ġinn":3230,"Ġselect":3231,"Ġarri":3232,"-up":3233,"ken":3234,"Ġple":3235,"ĠIntern":3236,"Ġparticularly":3237,"pir":3238,"Ġgone":3239,"pper":3240,"OT":3241,"iced":3242,"Ġhistor":3243,"Ġbrought":3244,"ĠAlso":3245,"Ġcampaign":3246,"LL":3247,"Ġult":3248,"Ġalthough":3249,"Ġbecomes":3250,"Ġcapt":3251,"ĠNorth":3252,"Ġglobal":3253,"Ġpatients":3254,"Ġneighb":3255,"Ġserious":3256,"Ġcarry":3257,"Ġunique":3258,"ties":3259,"AC":3260,"Ġaspect":3261,"Ġdog":3262,"undred":3263,"Ġstructure":3264,"imin":3265,"ĠKing":3266,"onym":3267,"Ġconsist":3268,"ĠBritish":3269,"Ġmember":3270,"Ġsecret":3271,"rupt":3272,"Ġdesigned":3273,"Ġcustomers":3274,"ament":3275,"Ġdocument":3276,"Ġstories":3277,"ÂłI":3278,"Ġdistrib":3279,"Ġmovement":3280,"Ġstar":3281,"ĠEl":3282,"Ġdesp":3283,"Ġsam":3284,"Ġthus":3285,"Ġrepe":3286,"ĠBecause":3287,"gar":3288,"Ġoptions":3289,"iful":3290,"Ġtherefore":3291,"Ġexplain":3292,"Ġactivity":3293,"',":3294,"Ġresources":3295,"Ġbaby":3296,"Ġreduce":3297,"Here":3298,"Ġdeli":3299,"Ġslight":3300,"Ġofficial":3301,"ĠAct":3302,"Ġusers":3303,"Ġupd":3304,"Ġwrote":3305,"ara":3306,"oming":3307,"Ġadvant":3308,"oles":3309,"Ġnote":3310,"Ġfeet":3311,"itation":3312,"ĠEarth":3313,"?\"Ċ":3314,"cles":3315,"Ġpaid":3316,"nes":3317,"what":3318,"inese":3319,"uit":3320,"Ġlines":3321,"Ġindepend":3322,"Ġhelps":3323,"ĠLet":3324,"rast":3325,"Ġweap":3326,"Ġpow":3327,"Ġanimals":3328,"ĠYes":3329,"ava":3330,"Ġdemon":3331,"Ġproperty":3332,"Ġmemory":3333,"--------":3334,"Ġabsolute":3335,"ĠAfric":3336,"ournal":3337,"Ġplayed":3338,"ĠHar":3339,"Ġplayer":3340,"but":3341,"Ġvia":3342,"Ġeasier":3343,"Ġcry":3344,"Ġstick":3345,"ĠInst":3346,"ellig":3347,"Ġprogress":3348,"Ġhealthy":3349,"].":3350,"ĠSm":3351,"Ġgrad":3352,"IT":3353,"Ġwife":3354,"Ġgreen":3355,"Ġbrother":3356,"âĢĻd":3357,"Ġensure":3358,"Ġdanger":3359,"Ġmachine":3360,"Ġbeyond":3361,"aches":3362,"pre":3363,"âĢĿĊ":3364,"Ġwait":3365,"estern":3366,"Ġflow":3367,"45":3368,"aughter":3369,"ĠPeople":3370,"ufact":3371,"Ġchalleng":3372,"nown":3373,"Ġten":3374,"rael":3375,"hold":3376,"Ġnegative":3377,"Ġeffort":3378,"ram":3379,"Ġtast":3380,"ĠAug":3381,"ancy":3382,"Ġstyle":3383,"ĠKe":3384,"issue":3385,"airs":3386,"Ġinsurance":3387,"Ġincreasing":3388,"Ġprior":3389,"which":3390,"log":3391,"31":3392,"ĠMore":3393,"Ġspent":3394,"Ġanti":3395,"vere":3396,"Ġexpected":3397,"Ġbeginning":3398,"Ġstarting":3399,"Ġvac":3400,"aker":3401,"Ġscen":3402,"ils":3403,"gn":3404,"word":3405,"Ġfing":3406,"enty":3407,"Ġmeant":3408,"Ġbill":3409,"eah":3410,"ĠMon":3411,"Ġfeatures":3412,"Ġphoto":3413,"Ġmanagement":3414,"esus":3415,"roy":3416,"Ġseeing":3417,"Ġincreased":3418,"Ġnation":3419,"ald":3420,"Ġlose":3421,"Ġcondition":3422,"Ġearth":3423,"Ġpowerful":3424,"ouble":3425,"Ġhaven":3426,"rand":3427,"Ġcompared":3428,"Ġclearly":3429,"Ġstrugg":3430,"Ġcontext":3431,"à¥":3432,"Ġcommand":3433,"Ġcaused":3434,"aled":3435,"omb":3436,"sp":3437,"band":3438,"Ġplease":3439,"Ġspread":3440,"ĠChe":3441,"Ġdamage":3442,".g":3443,"ĠTV":3444,"ĠAre":3445,"iled":3446,"ĠMark":3447,"Ġgoal":3448,"ĠSouth":3449,"Ġwhose":3450,"Ġhop":3451,"Ġesc":3452,"han":3453,"Ġfell":3454,"-based":3455,"ĠFirst":3456,"Ġplat":3457,"Ġmax":3458,"Ġassum":3459,"Ġlearned":3460,"Ġlimited":3461,"Ġformer":3462,"Ġguys":3463,"Ġprovides":3464,"aul":3465,"kes":3466,"Ġnamed":3467,"Ġsend":3468,"ores":3469,"Ġindividuals":3470,"Ġlarger":3471,"ĠGoogle":3472,"Ġgreater":3473,"Ġdat":3474,"ĠState":3475,"Ġspecies":3476,"Ġunf":3477,"Ġtouch":3478,"ograph":3479,"Ġdeveloped":3480,"ĠHer":3481,"Ġcho":3482,"ĠOct":3483,"Ġclos":3484,"Ġprovided":3485,"Ġskills":3486,"Ġassist":3487,"yl":3488,"Ġcentury":3489,"Ġhundred":3490,"uary":3491,"``":3492,"ĠApr":3493,"Ġuseful":3494,"Ġearlier":3495,"ĠAg":3496,"ube":3497,"Ġassociated":3498,"eration":3499,"33":3500,"Ġrespond":3501,"Ġund":3502,"Ġmentioned":3503,"ĠFrom":3504,"ĠAust":3505,"hern":3506,"Ġhighly":3507,"Ġencoura":3508,"Ġseemed":3509,"Ġadditional":3510,"iant":3511,"Ġadult":3512,"Ġamaz":3513,"ĠSim":3514,"Ġinterview":3515,"ĠTra":3516,"Ġdevice":3517,"Ġregul":3518,"acebook":3519,"opt":3520,"ĠAny":3521,"She":3522,"urb":3523,"Ġcontract":3524,"Ġaccom":3525,"Ġfactors":3526,"Ġcomfort":3527,"Ġrequires":3528,"Ġshop":3529,"vant":3530,"Ġburn":3531,"Ġstraight":3532,"ris":3533,"Ġmatch":3534,"Ġlimit":3535,"ĠArt":3536,"Some":3537,"Your":3538,"Ġrule":3539,"Ġsupposed":3540,"Ġcreating":3541,"onymous":3542,"Ġpsych":3543,"Ġarch":3544,"Ġnarr":3545,"Ġshot":3546,"Ġthroughout":3547,"Ġvirt":3548,"Ġmill":3549,"ĠII":3550,"Ġproduce":3551,"org":3552,"Ġerror":3553,"ights":3554,"ĠChinese":3555,"Ġflu":3556,"ael":3557,"'Ċ":3558,"Ġcivil":3559,"ĠCor":3560,"ĠCong":3561,"Ġcontain":3562,"ĠRom":3563,"ĠPar":3564,"Ġmoved":3565,"Ġsounds":3566,"enge":3567,"ague":3568,"ĠComp":3569,"ĠAdd":3570,"Ġaccur":3571,"Ġkept":3572,"omen":3573,"Ġgrowing":3574,"ĠCo":3575,"Ġboard":3576,"Ġadminist":3577,"-to":3578,"alse":3579,"Ġmethods":3580,"oly":3581,"Ġtruly":3582,"Ġachieve":3583,"ĠGl":3584,"edom":3585,"Ġstudent":3586,"Ġgrand":3587,"Ġcollege":3588,"ĠPre":3589,"that":3590,"Ġtal":3591,"Ġcitiz":3592,"dden":3593,"Ġdetails":3594,"After":3595,"ocol":3596,"IC":3597,"36":3598,"Do":3599,"196":3600,"Ġrare":3601,"itc":3602,"Ġshoot":3603,"Ġforeign":3604,"Ġclot":3605,"Ġbroad":3606,"Ġstrength":3607,"Ġrelease":3608,"with":3609,"imal":3610,"Ġstudies":3611,"ptember":3612,"Ġmanufact":3613,"Ġsubst":3614,"Ġopportunity":3615,"Ġlat":3616,"pec":3617,"ĠDav":3618,"Ġrace":3619,"odes":3620,".e":3621,"Ġmid":3622,"ĠHouse":3623,"Ġinstance":3624,"earch":3625,"Ġframe":3626,"rief":3627,"Ġvir":3628,"Ġmarketing":3629,"mark":3630,"Ġeventually":3631,"Ġdefinitely":3632,"Ġcorpor":3633,"01":3634,"Ġsudden":3635,"Ġspirit":3636,"Ġsection":3637,"Ġresist":3638,"Ġimmediately":3639,"-year":3640,"Ġtree":3641,"Ġborn":3642,"Ġcharge":3643,"ett":3644,"Ġtele":3645,"ĠSw":3646,"Ġnearly":3647,"ÂłThe":3648,"Ġpredict":3649,"Ġopinion":3650,"Ġappropri":3651,"202":3652,"lam":3653,"apter":3654,"Ġunc":3655,"Ġdiet":3656,"Ġitems":3657,"Ġstage":3658,"isf":3659,"Ġmount":3660,"Ġinterested":3661,"Ġprimary":3662,"99":3663,"Ġbenefit":3664,"Ġdied":3665,"Ġnovel":3666,"Ġolder":3667,"ĠFrench":3668,"Ġtraditional":3669,"uper":3670,"ani":3671,"Ġforces":3672,"Ġfully":3673,"Ġcustomer":3674,"Ġdaily":3675,"Ġmur":3676,"Ġ>":3677,"umn":3678,"Ġcommit":3679,"rad":3680,"ĠMany":3681,"new":3682,"Ġplant":3683,"Ġcurrently":3684,"Ġscene":3685,"Ġdrug":3686,"Ġarm":3687,"ĠIndia":3688,"ortunately":3689,"ĠAcc":3690,"Ġworse":3691,"Ġmouth":3692,"ĠDemocr":3693,"bon":3694,"Ġprotein":3695,"orks":3696,"Ġround":3697,"ĠChristian":3698,"see":3699,"Ġwish":3700,"rab":3701,"ĠEm":3702,"ĠIsrael":3703,"Ġelements":3704,"Ġcounter":3705,"Ġble":3706,"roll":3707,"izes":3708,"pective":3709,"OS":3710,"Ġder":3711,"uild":3712,"ĠLike":3713,"34":3714,"ĠCour":3715,"Ġactions":3716,"Ġtoward":3717,"ĠJesus":3718,"Ġdie":3719,"Ġpeace":3720,"Ġargument":3721,"Ġnucle":3722,"Ġcauses":3723,"Ġmajority":3724,"Ġprofessional":3725,"Ġcandid":3726,"Ġnames":3727,"rain":3728,"Ġtrade":3729,"Ġanaly":3730,"05":3731,"Sc":3732,"Ġlength":3733,"ĠOur":3734,"Ġpublished":3735,"Ġremain":3736,"reci":3737,"ĠEuropean":3738,"Ġdoctor":3739,"Ġprefer":3740,"Ġthoughts":3741,"Ġnotice":3742,"term":3743,"Ġonto":3744,"Ġeating":3745,"this":3746,"Ġwilling":3747,"Ġprint":3748,"ĠChar":3749,"Ġtools":3750,"Ġexercise":3751,"actions":3752,"Ġextremely":3753,"atur":3754,"-g":3755,"AM":3756,"ET":3757,"Ġplatform":3758,"round":3759,"\"I":3760,"name":3761,"Ġdisp":3762,"Ġbalance":3763,"500":3764,"pes":3765,"Ġcast":3766,"ategy":3767,"iling":3768,"Ġrand":3769,"orge":3770,"Ġkid":3771,"ĠNational":3772,"Ġprices":3773,"Ġpatient":3774,"aper":3775,"Ġsteps":3776,"Ġblue":3777,"{Ċ":3778,"Ġtour":3779,"gers":3780,"itable":3781,"Ġdirection":3782,"OC":3783,"Ġmicro":3784,"Ġbeg":3785,"flict":3786,"Ġfarm":3787,"Ġliber":3788,"uing":3789,"Ġsuccessful":3790,"def":3791,"ae":3792,"Ġbeautiful":3793,"ĠMich":3794,"ustr":3795,"Ġcru":3796,"-M":3797,"osis":3798,"09":3799,"Ġincome":3800,"AP":3801,"iver":3802,"inc":3803,"Ġtransl":3804,"Ġjobs":3805,"acter":3806,"^{":3807,"Ġenter":3808,"Ġkilled":3809,"Ġsales":3810,"ĠBar":3811,"Ġtransform":3812,"Ġbasis":3813,"55":3814,"text":3815,"ls":3816,"Ġwild":3817,"lebr":3818,"Ġhosp":3819,"Ġpassed":3820,"iring":3821,"mitted":3822,"Ġtask":3823,"change":3824,"Ġmostly":3825,"Get":3826,"Ġsympt":3827,"comp":3828,"Ġrandom":3829,"ham":3830,"cast":3831,"edd":3832,"owd":3833,"resp":3834,"ĠFeb":3835,"ĠUK":3836,"onday":3837,"Ġstatement":3838,"clus":3839,"ternal":3840,"Yes":3841,"):":3842,"orry":3843,"Ġshall":3844,"ĠCongress":3845,"Well":3846,"anc":3847,"ĠSince":3848,"Ġveh":3849,"ĠCity":3850,"ception":3851,"From":3852,"ĠOther":3853,"Ġcalcul":3854,"board":3855,"ares":3856,"Ġhus":3857,"Ġtemperature":3858,"ĠPat":3859,"Ġglass":3860,"no":3861,"Ġwat":3862,"Ġreported":3863,"(\"":3864,"ĠSch":3865,"kay":3866,"adem":3867,"Ġ$\\":3868,"Ġdetermine":3869,"inct":3870,"Ġcateg":3871,"Ġapply":3872,"icks":3873,"Ġgod":3874,"Ġelectric":3875,"Se":3876,"Ġletter":3877,"Ġreceived":3878,"Ġmodels":3879,"Ġdespite":3880,"ss":3881,"udd":3882,"Ġinternet":3883,"ifying":3884,"Ġaudience":3885,"pret":3886,"Ġluck":3887,"istics":3888,"Ġprec":3889,"Ġbottom":3890,"Ġapparent":3891,"Ġforms":3892,"Ġfaith":3893,"obile":3894,"onent":3895,"Let":3896,"Ġsaf":3897,"Ġleading":3898,"ĠWind":3899,"Ġwatching":3900,"xy":3901,"Ġbackground":3902,"Ġdisplay":3903,"ronic":3904,"Ġhumans":3905,"Im":3906,"Ġwood":3907,"Ġtrain":3908,"Ġfish":3909,"Ġoffe":3910,"Ġworkers":3911,"While":3912,"!\"":3913,"><":3914,"overy":3915,"Ġscale":3916,"igure":3917,"Ġscript":3918,"atically":3919,"ĠBlack":3920,"Ġmut":3921,"Ġhous":3922,"Ġinternational":3923,"====":3924,"ography":3925,"ĠPost":3926,"Ġoverall":3927,"Ġlots":3928,"Ġdrugs":3929,"ĠAmericans":3930,"Ġfavorite":3931,"ĠMarch":3932,"Ġincludes":3933,"Ġappears":3934,"Ġgain":3935,"htt":3936,"abor":3937,"Ġtitle":3938,"Ġreflect":3939,"Ġfresh":3940,"Ġrid":3941,"Ġfollowed":3942,"Ð¾":3943,"Ġter":3944,"ĠPol":3945,"ked":3946,"Ġhonest":3947,"nect":3948,"ĠOnce":3949,"Ġresponsible":3950,"Ġincluded":3951,"Ġid":3952,"ests":3953,"Ġbelief":3954,"mun":3955,"Ġang":3956,"Ġrates":3957,"ĠPC":3958,"Ġeth":3959,"ugg":3960,"Ġcommer":3961,"Ġobvious":3962,"08":3963,"Ġfol":3964,"Ġfactor":3965,"48":3966,"ga":3967,"iers":3968,"Ġgold":3969,"Ġregion":3970,"Ġdescribed":3971,"iam":3972,"Ġbillion":3973,"ĠCons":3974,"Ġexpress":3975,"Ġsummer":3976,"ulated":3977,"Ġcenter":3978,"Ġreligious":3979,"Ġheavy":3980,"time":3981,"):Ċ":3982,"Us":3983,"ĠApril":3984,"Ġparam":3985,"Ġmeeting":3986,"gment":3987,"range":3988,"arian":3989,"Ġsetting":3990,"Ġproced":3991,"38":3992,"rig":3993,"ctors":3994,"Ġstrategy":3995,"Ġcopy":3996,"ĠGet":3997,"ocal":3998,"print":3999,"Ġcamera":4000,"PS":4001,"Ġfloor":4002,"la":4003,"Ġfederal":4004,"Ġslightly":4005,"ady":4006,"Ġdry":4007,"ĠOh":4008,"Ġdebt":4009,"/s":4010,"Ġcalls":4011,"Ġbudget":4012,"Ġconduct":4013,"Ġintellig":4014,"Ġreceive":4015,"Ġorganization":4016,"Don":4017,"Ġmale":4018,"Ġfinding":4019,"Ġchemical":4020,"Ġpark":4021,"well":4022,"Ġasking":4023,"Ġadvantage":4024,"vey":4025,"Ġweak":4026,"Ġsmaller":4027,"Ġhyp":4028,"37":4029,"Ġinfluence":4030,"ĠCr":4031,"Ġquant":4032,"ocked":4033,"Ġlisten":4034,"men":4035,"Ġrich":4036,"Ġconstit":4037,"coh":4038,"Ġconflict":4039,".m":4040,"ossible":4041,"Ġactivities":4042,"Ġconcent":4043,"Ð°":4044,"ĠSeptember":4045,"Ġkeeping":4046,"ĠJanuary":4047,"Ġprograms":4048,"Ġessential":4049,"AL":4050,"Ġmild":4051,"Ġcritical":4052,"iverse":4053,"alt":4054,"ynam":4055,"Ġchallenge":4056,"Ġadjust":4057,"unction":4058,"inated":4059,"Ġpus":4060,"Ġdestroy":4061,"Ġsexual":4062,"asion":4063,"oday":4064,"cience":4065,"known":4066,"Ġchurch":4067,"Ġepis":4068,"Ġdegree":4069,"Ġunless":4070,"US":4071,"Ġing":4072,"Ġreb":4073,"ading":4074,"tered":4075,"Ġdistance":4076,"Ġbrand":4077,"Ġamazing":4078,"Ġbul":4079,"Ġbattle":4080,"ĠLaw":4081,"Ġrealize":4082,"Ġmovies":4083,"Ġcontinued":4084,"Ġpun":4085,"ĠSer":4086,"ovember":4087,"Ġappreci":4088,"lied":4089,"Ġqual":4090,"Ġdouble":4091,"Ġcircum":4092,"ki":4093,"Ġaim":4094,"Ġegg":4095,"Ġcris":4096,"Ġvariety":4097,"Ġestabl":4098,"Ġ...":4099,"ĠAugust":4100,".[":4101,"Ġconsequ":4102,"Ġenem":4103,"ometimes":4104,"Ġcatch":4105,"odies":4106,"Ġdecide":4107,"Ġacqu":4108,"Ġdemonstr":4109,"Ġmental":4110,"Ġrefer":4111,"ulate":4112,"rial":4113,"Ġexpensive":4114,"Ġserver":4115,"Ġtim":4116,"oving":4117,"Ġrob":4118,"Ġlocation":4119,"Ġsafety":4120,"bum":4121,"Ġfaster":4122,"Ġcareer":4123,"Ġanimal":4124,"Ġdiscussion":4125,"Ġannoun":4126,"04":4127,"Ġimages":4128,"Ġleaving":4129,"aid":4130,"AD":4131,"ey":4132,"Ġoffers":4133,"Ġshowed":4134,"Ġgraph":4135,"However":4136,"ste":4137,"EM":4138,"Ġnor":4139,"Ġlibr":4140,"Ġinstit":4141,"Ġdigital":4142,"Ġimagine":4143,"isl":4144,"Ġuns":4145,"unday":4146,"Ġinitial":4147,"cks":4148,"oper":4149,"aint":4150,"ilies":4151,"Ġeval":4152,"Ġputting":4153,"Ġvictim":4154,"ĠMac":4155,"ĠPM":4156,"Ġseparate":4157,"tr":4158,"ĠDes":4159,"Ġ`":4160,"enses":4161,"Ġremind":4162,"Ġstring":4163,"Ðµ":4164,"Ġcore":4165,"ĠMod":4166,"ĠGreat":4167,"Ġremains":4168,"Ġcup":4169,"Ġactive":4170,"Ġplanet":4171,"ĠWho":4172,"Ġer":4173,"-S":4174,"ĠWest":4175,"ĠJuly":4176,"force":4177,"equ":4178,"ulf":4179,"encies":4180,"Ġreci":4181,"Ġminor":4182,"Ġleads":4183,"Ġwaiting":4184,"Ġreleased":4185,"Ġforget":4186,"Ġdetect":4187,"pid":4188,"vision":4189,"Ġmap":4190,"Ġspending":4191,"ĠAustral":4192,"kin":4193,"ĠLa":4194,"ĠGood":4195,"ius":4196,"Ġwindow":4197,"ĠAM":4198,"riv":4199,"Ġelement":4200,"oto":4201,"06":4202,"47":4203,"Ġcentral":4204,"lig":4205,"Ġmagn":4206,"Ġproduced":4207,"07":4208,"39":4209,"Ġsources":4210,"otic":4211,"Ġship":4212,"Ġshape":4213,"ror":4214,"onic":4215,"Ġfru":4216,"eds":4217,"These":4218,"ĠTrump":4219,"Ġcelebr":4220,"riage":4221,"Ġfeature":4222,"Ġspect":4223,"Ġhusband":4224,"],":4225,"ĠDis":4226,"Ġspeech":4227,"Ġexamples":4228,"Ġsmart":4229,"can":4230,"Ġbound":4231,"Ġvs":4232,"ĠAlthough":4233,"Ġcompar":4234,"ĠCourt":4235,"ãģ":4236,"Ġattract":4237,"Ġstarts":4238,"Ġplans":4239,"Ġreplace":4240,"Ġworry":4241,"ĠNet":4242,"Ġclimate":4243,"Ġtells":4244,"Ġrat":4245,"iber":4246,"Ġbecoming":4247,"Ġcash":4248,"Ġtesting":4249,"OM":4250,"Ġintend":4251,"Ġschools":4252,"Ġfreedom":4253,"Ġstatus":4254,"Ġodd":4255,"ĠSen":4256,"Ġhandle":4257,"que":4258,"ĠRec":4259,"_{":4260,"Ġstrateg":4261,"EC":4262,"Ġdrop":4263,"idden":4264,"Ġdoubt":4265,"Add":4266,"Oh":4267,"abase":4268,"oking":4269,"vis":4270,"Ġbasically":4271,"Ġpoly":4272,"ait":4273,"Ġfeels":4274,"Ġbag":4275,"ĠWhite":4276,"Ġsatisf":4277,"Ġstreet":4278,"Ġtypically":4279,"iliar":4280,"Ġcas":4281,"orage":4282,"ĠTH":4283,"aming":4284,"Ġwear":4285,"gor":4286,"ipp":4287,"ias":4288,"ooth":4289,"ĠMaybe":4290,"ĠKore":4291,"Ġsymptoms":4292,"Ġsche":4293,"Ġdecre":4294,"Ġadvice":4295,"arter":4296,"anging":4297,"Ġremove":4298,"hest":4299,"Ġhom":4300,"raw":4301,"ilos":4302,"ĠStud":4303,"Ġappropriate":4304,"Of":4305,"ĠAnt":4306,"Pl":4307,"pen":4308,"ĠÃ":4309,"Ġsurround":4310,"Ġexpression":4311,"ref":4312,"ĠRem":4313,"ml":4314,"Ġinput":4315,"uman":4316,"clusion":4317,"Ġmaintain":4318,"ĠMuslim":4319,"math":4320,"Ġterror":4321,"Ġhelped":4322,"ĠSpe":4323,"izations":4324,"Ġotherwise":4325,"Ġassess":4326,"file":4327,"uesday":4328,"BC":4329,"place":4330,"Ġclaims":4331,"Ġhol":4332,"Ġleader":4333,"illed":4334,"Ġtotally":4335,"Ġast":4336,"rol":4337,"aked":4338,"Ġadvert":4339,"ĠVal":4340,"Ġpresence":4341,"ka":4342,"anch":4343,"Ġforg":4344,"âĢ¦Ċ":4345,"Cont":4346,"Ġfuel":4347,"ednes":4348,"Ġcomplic":4349,"Tr":4350,"Ġ%":4351,"igned":4352,"Ġdefined":4353,"Ġahead":4354,"ache":4355,"ashington":4356,"cohol":4357,"Ġrise":4358,"Ġpieces":4359,"Ġfemale":4360,"Ġspl":4361,"Ġsites":4362,"olec":4363,"pan":4364,"ida":4365,"Ġpregn":4366,"Can":4367,"ĠPal":4368,"Ġcoffe":4369,"raft":4370,"ipment":4371,"Ġ_":4372,"Ġefficient":4373,"ibr":4374,"Ġice":4375,"Ġcrime":4376,"Ġhate":4377,"Ġclick":4378,"Ġclosed":4379,"Ġsweet":4380,"Ġabsolutely":4381,"Ġbow":4382,"Ġnone":4383,"ipe":4384,"Ġsad":4385,"Ġfuck":4386,"asy":4387,"urg":4388,"Ġpossibly":4389,"Ġthousands":4390,"ico":4391,"istan":4392,"iforn":4393,"Ġspot":4394,"Ġconnection":4395,"Ġnuclear":4396,"ednesday":4397,"from":4398,"Ġpet":4399,"Ġfailed":4400,"Ġbird":4401,"ĠJune":4402,"Ġtelling":4403,"Qu":4404,"arant":4405,"Ġlived":4406,"ĠAut":4407,"Ġcars":4408,"ula":4409,"ĠApple":4410,"Ġcitizens":4411,"Ġpush":4412,"cember":4413,"umm":4414,"Ġnumer":4415,"Ġfamilies":4416,"Ġtopic":4417,"down":4418,"Ùİ":4419,"Ġsymb":4420,"Ġexisting":4421,"Ġà¤":4422,"Ġprison":4423,"ios":4424,"olar":4425,"Ġjump":4426,"Ġdecisions":4427,"Ġentirely":4428,"igr":4429,"ĠSun":4430,"Ġjo":4431,"Ġprem":4432,"ĠIslam":4433,"dro":4434,"Ġfalse":4435,"irect":4436,"Ġsupply":4437,"Ġpromot":4438,"Ġidentify":4439,"Ġreference":4440,"Ġeight":4441,"uration":4442,"anted":4443,"Ġconserv":4444,"Ed":4445,"rible":4446,"ferences":4447,"Ġequal":4448,"vil":4449,"Ġinvestment":4450,"rough":4451,"apers":4452,"Ġclasses":4453,"ĠIS":4454,"Ġbiggest":4455,"prove":4456,"Just":4457,"OU":4458,"Ġsitting":4459,"Ġanyway":4460,"âĢĿ.":4461,"Ġelection":4462,".p":4463,"Ad":4464,"iable":4465,"tes":4466,"Ġhtt":4467,"ĠUp":4468,"Ġalternative":4469,"ban":4470,"ection":4471,"gu":4472,"Ġdaughter":4473,"Ġdevices":4474,"gorith":4475,"44":4476,"Ġil":4477,"iminal":4478,"Ġunit":4479,"ĠDay":4480,"Ġincred":4481,"New":4482,"uous":4483,"Ġinterpret":4484,"Ġexperiences":4485,"Ġlabor":4486,"Ġcoffee":4487,"you":4488,"Ġcards":4489,"Ġoutput":4490,"Tw":4491,"Ġemployees":4492,"istry":4493,"ĠOver":4494,"Ġturns":4495,"stitution":4496,"/esp":4497,"iance":4498,"ĠÎ":4499,"Ġknowing":4500,"Ġhappening":4501,"ifornia":4502,"Ġstream":4503,"Ġded":4504,"urrent":4505,"type":4506,"rapy":4507,"lin":4508,"Ġfan":4509,"Ġrul":4510,"Ġtrig":4511,"194":4512,"Ġbuying":4513,"Ġbought":4514,"Ġshut":4515,"do":4516,"acity":4517,"300":4518,"ĠTheir":4519,"Ġinstr":4520,"ername":4521,"Ġemp":4522,"orrow":4523,"edia":4524,"Ġcontains":4525,"Ġafford":4526,"Ġbond":4527,"cket":4528,"Ġtrouble":4529,"Ġcaught":4530,"Ġforced":4531,"ĠIndian":4532,"ursday":4533,"-r":4534,"ĠAc":4535,"Ġsolid":4536,"ĠOctober":4537,"wood":4538,"ĠNovember":4539,"Ġroll":4540,"Leave":4541,"erry":4542,"Ġsugar":4543,"Ġvill":4544,"Ġsets":4545,"Ġchanging":4546,"Ġconversation":4547,"Ġweapons":4548,"IV":4549,"ĠDavid":4550,"75":4551,"âĢĿ,":4552,"Ġdifferences":4553,"iques":4554,"Ø§":4555,"soft":4556,"Ġdiscovered":4557,"More":4558,"Ġloved":4559,"195":4560,"Ġobjects":4561,"Ġpurchase":4562,"Ġcultural":4563,"ĠLog":4564,"Ġleaves":4565,"Ġcrisis":4566,"Ġprocesses":4567,"ĠInstead":4568,"cription":4569,"mosp":4570,"uate":4571,"idents":4572,"De":4573,"Ġreached":4574,"oves":4575,"Ġcarbon":4576,"Ġgeneration":4577,"Ġmere":4578,"Ġrecords":4579,"class":4580,"iency":4581,"itness":4582,"Ġgoals":4583,"Ġreligion":4584,"Ġhospital":4585,"inter":4586,"ĠBra":4587,"osure":4588,"Ġalbum":4589,"ĠRed":4590,"ĠNews":4591,"arp":4592,"Ġbeat":4593,"ĠCount":4594,"ĠJack":4595,"Ġperspective":4596,"umber":4597,"64":4598,"lor":4599,"oom":4600,"inner":4601,"asks":4602,"Ġprove":4603,"ubb":4604,"Ġbroken":4605,"Ġdefinition":4606,"ses":4607,"Ġbrief":4608,"opy":4609,"Ġshowing":4610,"Ġstopped":4611,"uzz":4612,"ĠReply":4613,"Ġfighting":4614,"reate":4615,"Ġchann":4616,"ek":4617,"Ġimpossible":4618,"char":4619,"Ġwealth":4620,"Ġ\\<":4621,"part":4622,"ĠSl":4623,"gery":4624,"SS":4625,"ĠDep":4626,"ourney":4627,"193":4628,"Ġindeed":4629,"Ġdiagn":4630,"Ġcommercial":4631,"Ġshared":4632,"ĠReg":4633,"ta":4634,"Ġyell":4635,"Ġserve":4636,"Ġmuscle":4637,"Ġequipment":4638,"Ġmiles":4639,"Type":4640,"uries":4641,"Ġexpand":4642,".C":4643,"-time":4644,"ĠCanada":4645,"-term":4646,"Ġdriving":4647,"Ġdim":4648,"Ġflat":4649,"ĠTrans":4650,"Ġtick":4651,"athy":4652,"Ġprojects":4653,"Ġdefend":4654,"eters":4655,"roid":4656,"Ġmilk":4657,"Fr":4658,"ĠWashington":4659,"ĠPaul":4660,"ruary":4661,"ails":4662,"Ġhurt":4663,"semb":4664,"Ġwaste":4665,"Ġmissing":4666,"\".Ċ":4667,"Ġhearing":4668,"akers":4669,"Ġviolence":4670,"Ġroot":4671,"hens":4672,"Ġslowly":4673,"Ġstaff":4674,"illy":4675,"Ġtraffic":4676,"Ab":4677,"cellent":4678,"Ġlatest":4679,"Ġbatter":4680,"Ġreaction":4681,"Ġpros":4682,"ondon":4683,"box":4684,"antic":4685,"Ġbelong":4686,"Ġtransport":4687,"ĠThanks":4688,"\":":4689,"''":4690,"Ġallowing":4691,"Ġthanks":4692,"Ġremoved":4693,"____":4694,"Ġindependent":4695,"-C":4696,"uations":4697,"Ġstars":4698,"Ġproviding":4699,"Ġdefault":4700,"Ġapart":4701,"Rel":4702,"Ġrelatively":4703,"ĠMal":4704,"Ġconstruct":4705,"Ġproperties":4706,"Ġholding":4707,"ĠSam":4708,"raq":4709,"olf":4710,"IM":4711,"ayer":4712,"Ġscientific":4713,");":4714,"row":4715,"Ġsand":4716,"inding":4717,"Ġcrowd":4718,"Ġtransfer":4719,"Ġhell":4720,"Ġran":4721,"Ġplaced":4722,"Ġextend":4723,"ensity":4724,"Ġvalid":4725,"works":4726,"inate":4727,"Ġadapt":4728,"Ġpages":4729,"ĠJe":4730,"ribe":4731,"02":4732,"za":4733,"Ġterr":4734,"Ġsick":4735,"Ġanswers":4736,"Ġsuspect":4737,"Most":4738,"ym":4739,"hetic":4740,"imb":4741,"Ġsea":4742,"Ġsem":4743,"Ġestim":4744,"Ġapplications":4745,"Ġfant":4746,"ĠFacebook":4747,"Ġmassive":4748,"Ġjournal":4749,"-A":4750,"rees":4751,"fection":4752,"ĠCalifornia":4753,"Ġdollars":4754,"point":4755,"ĠMet":4756,"Ġmotiv":4757,"ĠServ":4758,"Ġliqu":4759,"Ġincor":4760,"Ġexplan":4761,"ĠDoes":4762,"Ġgirls":4763,"Ġtaste":4764,"care":4765,"Ġsoul":4766,"Ġpaying":4767,"Bl":4768,"wr":4769,"Ġowners":4770,"Ġmagic":4771,"ĠST":4772,"Ġweather":4773,"Ġbigger":4774,"Ġefforts":4775,"Ġmechanism":4776,"Ġalgorith":4777,"ĠUnion":4778,"Ġbelieved":4779,"Ġvision":4780,"ING":4781,"Ġconcerned":4782,"EO":4783,"Or":4784,"vest":4785,"inn":4786,"Ġsen":4787,"Ġwhom":4788,"osite":4789,"Ġbusinesses":4790,"Ġtests":4791,"var":4792,"ica":4793,"Ġplants":4794,"Ġruns":4795,"Ġexperienced":4796,"Ġmulti":4797,"appe":4798,"porary":4799,"Ġrent":4800,"Ġseven":4801,"mar":4802,"Ġsch":4803,"Ġhero":4804,"Ġacid":4805,"ingly":4806,"Ġcloud":4807,"Ġmaterials":4808,"aturday":4809,"fig":4810,"ishes":4811,"ĠRober":4812,"Ġquiet":4813,"Ġdangerous":4814,"tained":4815,"zen":4816,"asure":4817,"ĠGree":4818,"Ġswitch":4819,"03":4820,"Ġenh":4821,"Ġmanaged":4822,"Ġdescribe":4823,"Ġcovered":4824,"edy":4825,"ĠCD":4826,"ĠWindows":4827,"ĠWhere":4828,"Ġstanding":4829,"Ġlegisl":4830,"Ġvisual":4831,"Ġradio":4832,"Ġatmosp":4833,"ĠOut":4834,"Ġminute":4835,"Ġpure":4836,"Ġunlike":4837,"ĠDecember":4838,"ĠMichael":4839,"First":4840,"Ġcheap":4841,"Ġobviously":4842,"??":4843,"ij":4844,"ĠSee":4845,"Ġclin":4846,".c":4847,"reak":4848,"ologies":4849,"Ġbutton":4850,"Ġevolution":4851,"upid":4852,"Ġtrees":4853,"Ġalcohol":4854,"Ġfamous":4855,"Ġjudge":4856,"Ġfilled":4857,"Ġmort":4858,"Ġdynam":4859,"acing":4860,"ashion":4861,"Ġmission":4862,"Ġrelationships":4863,"zer":4864,"Ġreports":4865,"under":4866,"rie":4867,"Ġherself":4868,"Ġfoods":4869,"Ġengage":4870,"Ġsongs":4871,"-old":4872,"Ġking":4873,"Ġspecifically":4874,"Ġdebate":4875,"ĠIraq":4876,"ĠSan":4877,"Ġmeat":4878,"berg":4879,"ĠSystem":4880,"Ġguide":4881,"Ġstrange":4882,"Ġinternal":4883,"while":4884,"Ġcircumst":4885,"Ġhelpful":4886,"Ġscore":4887,"Ġadding":4888,"Ġaccompl":4889,"host":4890,"username":4891,"Ġnoticed":4892,"Ġfamiliar":4893,"Ġpictures":4894,"Ġlabel":4895,"->":4896,"Ġban":4897,"Ġopened":4898,"share":4899,"Ġwalking":4900,"Ġattacks":4901,"Ġparties":4902,"Ġempt":4903,"/or":4904,"lies":4905,"Ġsac":4906,"Ġmel":4907,"Ġmaster":4908,"Ġassume":4909,"Ġcritic":4910,"rum":4911,"Ð¸":4912,"Ġended":4913,"Ġseconds":4914,"Ġconstant":4915,"Ġarrest":4916,"Ġtrip":4917,"Ġproperly":4918,"icians":4919,"Ġsuddenly":4920,"amin":4921,"ĠPark":4922,"Ġveget":4923,"Post":4924,"Ġjoin":4925,"Ġclient":4926,"Ġoptim":4927,"Ġfailure":4928,"ĠSov":4929,"clude":4930,"Ġcollection":4931,"Ġstim":4932,"ĠĠĠ":4933,"Ġindex":4934,"rey":4935,"Ġpal":4936,"Ġlic":4937,"Ġreact":4938,"ission":4939,"www":4940,"Ġerr":4941,"Ġmanner":4942,"Ġlargest":4943,"-le":4944,"ien":4945,"Ġancient":4946,"Ġdesire":4947,"erg":4948,"esh":4949,"Ġdial":4950,"Ġimpl":4951,"Ġarms":4952,"Ġdefense":4953,"Ġprotection":4954,"Ġcycle":4955,"ĠMicro":4956,"Ġpoll":4957,"oyal":4958,"Any":4959,"Ġfirm":4960,"racy":4961,"Ġapplied":4962,"Ġphilos":4963,"Ġdeveloping":4964,"****":4965,"Ġhistorical":4966,"Our":4967,"Ġsides":4968,"ria":4969,"Ġrestrict":4970,"rim":4971,"isation":4972,"Ġidentity":4973,"ĠBen":4974,"Ġourselves":4975,"ĠIran":4976,"Ġzero":4977,"Ġdepending":4978,"400":4979,"Ġevil":4980,"Ġfairly":4981,"mod":4982,"race":4983,"Ġimportance":4984,"Ġestablished":4985,"Ġaccident":4986,"Ġraised":4987,"ĠMat":4988,"Ġkick":4989,"Ġsentence":4990,"46":4991,"Ġdiss":4992,"Ġemotional":4993,"ancing":4994,"rian":4995,"field":4996,"Ġresponsibility":4997,"respond":4998,"olve":4999,"Ġformat":5000,"-re":5001,"ours":5002,"95":5003,"ĠEast":5004,"ĠLondon":5005,"Ġneighbor":5006,"Ġreven":5007,"Ġjourney":5008,"Ġpair":5009,"Ġcalling":5010,"Ġdetermined":5011,"Ġnav":5012,"ÂłÂłÂłÂłÂłÂłÂłÂł":5013,"Ġexecut":5014,"()Ċ":5015,"ĠIts":5016,"AA":5017,"atar":5018,"Ġtom":5019,"Ġsomehow":5020,"Ġlawy":5021,"ĠRussia":5022,"ĠDec":5023,"ĠHealth":5024,"Ġcommunication":5025,"_t":5026,"Ġtight":5027,"Ġcomponents":5028,"Ġthank":5029,"gypt":5030,"night":5031,"ĠAP":5032,"Ġexpert":5033,"Ġexplained":5034,"Ġregarding":5035,"public":5036,"Ġmolec":5037,"import":5038,"ĠBig":5039,"rome":5040,"osh":5041,"Ġrain":5042,"Ob":5043,"ords":5044,"Ġshouldn":5045,"Ġdownload":5046,"ĠFrance":5047,"Ġconnected":5048,"Ġutil":5049,"ĠGeorge":5050,"Ġilleg":5051,"Me":5052,"Ġnotes":5053,"Ġaspects":5054,"Ġopening":5055,"Ġreduced":5056,"ented":5057,"olved":5058,"ĠCO":5059,"Ġstandards":5060,"ĠAp":5061,"Then":5062,"Ġposts":5063,"Ġexistence":5064,"42":5065,"Ġstret":5066,"alled":5067,"ander":5068,"och":5069,"Ġsust":5070,"Ġhelping":5071,"Ġpurs":5072,"-like":5073,"ario":5074,"ĠDef":5075,"Ġamb":5076,"Ġcloser":5077,"Ġworst":5078,"ĠUse":5079,"Ġunivers":5080,"Ġtrial":5081,"Ġhur":5082,"ĠTime":5083,"ĠHigh":5084,"Ġseek":5085,"ĠJewish":5086,"itors":5087,"Ġdogs":5088,"ĠDNA":5089,"Ġends":5090,"Ġideal":5091,"Ġkinds":5092,"Ġcontinues":5093,"Ġdatabase":5094,"cil":5095,"Ġtwice":5096,"Ġcriminal":5097,"ĠReview":5098,"erate":5099,"icon":5100,"Ġpolitics":5101,"Ġchallenges":5102,"ĠBo":5103,"Âłthe":5104,"Ġring":5105,"ĠJava":5106,"Ġplanning":5107,"Ġsuggests":5108,"gon":5109,"uy":5110,"iders":5111,"Ġspeaking":5112,"-D":5113,"ĠOff":5114,"rency":5115,"Ġaccepted":5116,"Ġrelevant":5117,"Ġlayer":5118,"En":5119,"ĠCle":5120,"ĠMake":5121,"ĠThose":5122,"Ġflight":5123,"Ġfunctions":5124,"Ġmarriage":5125,"xi":5126,"Ġbare":5127,"Ġstorage":5128,"ĠArab":5129,"Ġplus":5130,"Ġrapid":5131,"itect":5132,"Ġteacher":5133,"phone":5134,"Ġprepared":5135,"Ġbegins":5136,"ĠInternet":5137,"ĠFebruary":5138,"Ġinterests":5139,"Ġepisode":5140,"Ġwalked":5141,"ĠRob":5142,"ĠJames":5143,"Ġtechniques":5144,"itchen":5145,"^{-":5146,"?âĢĿ":5147,"rical":5148,"yth":5149,"alle":5150,"improve":5151,"Ġplug":5152,"Ġcolumn":5153,"Ġpolicies":5154,"Ġedge":5155,"Ġoperations":5156,"Ġoffered":5157,"ĠBush":5158,"Ġrough":5159,"Ġteen":5160,"ĠAss":5161,"orter":5162,"Ġattend":5163,"Ġchain":5164,"arden":5165,"Ġrestaur":5166,"-of":5167,"Ġexcellent":5168,"Ġuniverse":5169,"Ġfolks":5170,"Ġphen":5171,"phas":5172,"Ġfollows":5173,"Ġmotion":5174,"ront":5175,"Ġseat":5176,"Ġphr":5177,"Ġcombination":5178,"ums":5179,"Ġfeelings":5180,"cont":5181,"ÑĤ":5182,"Ġfold":5183,"Ġbright":5184,"Ġclub":5185,"Ġscientists":5186,"Please":5187,"quest":5188,"Ġmetal":5189,"Ġresearc":5190,"Ġmarried":5191,"43":5192,"encing":5193,"Ġsomewhat":5194,"espite":5195,"Ġingred":5196,"May":5197,"Ġfans":5198,"Ġmo":5199,"ructure":5200,"Ġforest":5201,"Ġimmune":5202,"Val":5203,"iest":5204,"ÙĦ":5205,"Ġselling":5206,"estic":5207,"Ġraise":5208,"Ġdepends":5209,"))":5210,"56":5211,"Read":5212,"omy":5213,"Ġnerv":5214,"ĠMex":5215,"Âłand":5216,"Ġplot":5217,"Ġlocated":5218,"Ġsymbol":5219,"ĠInter":5220,"ĠTwo":5221,"-e":5222,"mas":5223,"osen":5224,"Ġguarant":5225,"Ġhighest":5226,"(s":5227,"LE":5228,"Ġstation":5229,"Ġrealized":5230,"ĠTherefore":5231,"][":5232,"Ġmine":5233,"stood":5234,"illing":5235,"ulations":5236,"formation":5237,"idth":5238,"ĠEach":5239,"ĠInc":5240,"ighter":5241,"Ġmonitor":5242,"('":5243,"Ġthick":5244,"irty":5245,"kend":5246,"Ġrot":5247,"Ġfields":5248,"icit":5249,"Ġearn":5250,"Ġreturned":5251,"Ġplenty":5252,"tee":5253,"Ġtaxes":5254,"Ġadministration":5255,"|improve":5256,"rem":5257,"ĠRich":5258,"Ġton":5259,"Ġbodies":5260,"Ġfly":5261,"Ġmir":5262,"orders":5263,"ipped":5264,"pet":5265,"Ġsmell":5266,"rm":5267,"ĠMart":5268,"Ġteeth":5269,"Ġtreated":5270,"ĠGovern":5271,"esome":5272,"uts":5273,"idel":5274,"ĠSing":5275,"Ġexchange":5276,"ĠThom":5277,"Ġpool":5278,"-pro":5279,"Ġthread":5280,"Ġmarkets":5281,"Ġcrazy":5282,"rate":5283,"Ġbacter":5284,"Ġpartner":5285,"ĠAI":5286,"Ġsevere":5287,"Ġsav":5288,"lands":5289,"See":5290,"real":5291,"apping":5292,"Ġteams":5293,"ĠGerman":5294,"Ġcorner":5295,"Ġperformed":5296,"Ġestablish":5297,"Ġdiscover":5298,"Ġdeliver":5299,"lee":5300,"Ġstupid":5301,"Ġsignal":5302,"Ġcausing":5303,"Ind":5304,"Int":5305,"cher":5306,"Ġsomewhere":5307,"Ġthrow":5308,"Ġpowers":5309,"gl":5310,"house":5311,"Ġgar":5312,"Ġproof":5313,"Ġentertain":5314,"Ġchest":5315,"ĠAv":5316,"ĠBel":5317,"Ġfacts":5318,"Ġrequirements":5319,"ĠGermany":5320,"Gen":5321,"ĠAnsw":5322,"View":5323,"Ġdut":5324,"anda":5325,"Ġfunny":5326,"Ġpossibility":5327,"();Ċ":5328,"iate":5329,"ato":5330,"urally":5331,"Ġanymore":5332,"Ġtechnical":5333,"-the":5334,"road":5335,"aching":5336,"Ġincreases":5337,"Ġadvanced":5338,"Ġwonderful":5339,"Ġfixed":5340,"Ġempty":5341,"58":5342,"oub":5343,"ĠEgypt":5344,"Ġplays":5345,"Ġsequence":5346,"Ġque":5347,"Ġdecades":5348,"Ġperfectly":5349,"Ġapparently":5350,"ensions":5351,"Ġwriter":5352,"ĠJapanese":5353,"Ġwel":5354,"Ġconsidering":5355,"Ġsignificantly":5356,"Ġlibrary":5357,"wan":5358,"Ġment":5359,"SC":5360,"inem":5361,"Ġmode":5362,"ĠAN":5363,"Ġquot":5364,"Ġtypical":5365,"Ġsolutions":5366,"uke":5367,"ĠLord":5368,"Ġsmooth":5369,"Ġfinished":5370,"Ġbehavi":5371,"Ġintended":5372,"Ġcreation":5373,"Another":5374,"Ġvolume":5375,"Ġcart":5376,"Ġlosing":5377,"Ġreserv":5378,"Ġsports":5379,"Ġsurgery":5380,"Ġturning":5381,"ĠAfrica":5382,"ĠAlex":5383,"ĠHel":5384,"Ġharder":5385,"Ġappeared":5386,"Ġcreative":5387,"49":5388,"ĠDa":5389,"Ġopportunities":5390,"Are":5391,"ÂłM":5392,"agon":5393,"stitute":5394,"rd":5395,"ĠÂłĠÂł":5396,"OD":5397,"fortunately":5398,"Ġreform":5399,"ems":5400,"Ġcorrespond":5401,"Ġfilms":5402,"Ġpresented":5403,"lete":5404,"rog":5405,"ĠRussian":5406,"IP":5407,"Pr":5408,"UT":5409,"itory":5410,"Ġnoise":5411,"Ġconstruction":5412,"Ġhundreds":5413,"/Ċ":5414,"ĠBook":5415,"ĠEngland":5416,"related":5417,"-B":5418,"ĠRel":5419,"Ġeffectively":5420,"Ġnecessarily":5421,"Ġprofession":5422,"Ġbreath":5423,"Ġconscious":5424,"Ġbath":5425,"terday":5426,"outs":5427,"ogen":5428,"Ġopposite":5429,"Ġpreviously":5430,"Ġapprox":5431,"ĠGeneral":5432,"Ġchoices":5433,"rier":5434,"ĠWhich":5435,"Ġconfig":5436,"Ġcities":5437,"Ġfav":5438,"ĠBoth":5439,"Ġusual":5440,"Ġsky":5441,"Ġcert":5442,"ĠHy":5443,"Ġlegs":5444,"Ġmanufacture":5445,"Ġcircumstances":5446,"-F":5447,"lock":5448,"ĠIP":5449,"Ġplastic":5450,"Thanks":5451,"Ġmuscles":5452,"Ġviews":5453,"Ġrevolution":5454,"orb":5455,"asp":5456,"Ġstated":5457,"Ġintroduced":5458,"rix":5459,"itionally":5460,"Ġinteract":5461,"Ġseriously":5462,"Ġdu":5463,"ĠSa":5464,"Ġweird":5465,"vention":5466,"Ġlock":5467,"stream":5468,"Ġhabit":5469,"ĠUnder":5470,"-sh":5471,"Ġobserved":5472,"ĠMag":5473,"ĠLook":5474,"Ġgenerate":5475,"Ġconstantly":5476,"ĠBill":5477,"Ġexcess":5478,"(\\":5479,"Gr":5480,"den":5481,"Ġwearing":5482,"Ġentry":5483,"Ġelimin":5484,"Ġcapable":5485,"Ġphotos":5486,"utor":5487,"olly":5488,"Ġminimum":5489,"ĠRepublican":5490,"Ġbanks":5491,"ĠEv":5492,"ocracy":5493,"Ġmurder":5494,"ford":5495,"icip":5496,"57":5497,"Ġwire":5498,"ĠFe":5499,"Ġattrib":5500,"Ġcolon":5501,"Res":5502,"Ġmobile":5503,"ĠSal":5504,"ĠSub":5505,"ĠSchool":5506,"Ġcapacity":5507,"Ġpulled":5508,"hemat":5509,"Ġfrequently":5510,"ju":5511,"Ġ.Ċ":5512,"Ġlies":5513,"Ġshift":5514,"Ġsigns":5515,"Ġmoral":5516,"Who":5517,"Ġsurprised":5518,"ĠParty":5519,"Ġclothes":5520,"Every":5521,"ixt":5522,"ya":5523,"onium":5524,"ĠSuper":5525,"ĠGreen":5526,"ructions":5527,"Ġremark":5528,"Ġdriver":5529,"Ġinvolve":5530,"icated":5531,"Ġeffic":5532,"ulous":5533,"riz":5534,"aped":5535,"Ġrelax":5536,"PM":5537,"Ġfif":5538,"ĠThus":5539,"Ġanywhere":5540,"Ġcompetition":5541,"Ġsample":5542,"Data":5543,"icing":5544,"ĠAD":5545,"uls":5546,"ĠMo":5547,"Ġvan":5548,"uster":5549,"Ġorganizations":5550,"Ġsquare":5551,"fraid":5552,"Ġtasks":5553,"ÂłS":5554,"Ġalle":5555,"outhern":5556,"Ġflo":5557,"Ġselection":5558,"Ġcontrast":5559,"Ġweren":5560,"Ġcomfortable":5561,"eper":5562,"nger":5563,"Ġnegot":5564,"Ġagreement":5565,"Ġsalt":5566,"Ġwinter":5567,"fo":5568,"Ġclients":5569,".s":5570,"hors":5571,"Ġforth":5572,"Ġkilling":5573,"Also":5574,"-n":5575,"raction":5576,"Ġjoint":5577,"Ġfinish":5578,"aser":5579,"igration":5580,"ola":5581,"ĠPort":5582,"Ġexperiment":5583,"Ġultimately":5584,"PR":5585,"Ġ)":5586,"ormal":5587,"Ġacadem":5588,"Ġserved":5589,"Ġoccup":5590,"Ġproposed":5591,"bi":5592,"Ġexists":5593,"Ġalive":5594,"Ġsusp":5595,"Ġaccurate":5596,"amental":5597,"ĠPeter":5598,"ĠStep":5599,"Ġlinks":5600,"yr":5601,"Ġflex":5602,"ĠWhe":5603,"Ġmanager":5604,"Ġemphas":5605,"azon":5606,"Ġdescription":5607,"Ġintelligence":5608,"Pe":5609,"hips":5610,"ĠAccording":5611,"Ġfashion":5612,"Ġprofit":5613,"Ġmeasures":5614,"ython":5615,"-and":5616,"EL":5617,"Ġhorr":5618,"acc":5619,"Ġloop":5620,"Ġinnov":5621,"Ġcandidate":5622,"Rec":5623,"_s":5624,"ingu":5625,"Ġmal":5626,"ĠTom":5627,"Ġsynt":5628,"arsh":5629,"ounter":5630,"Ġpackage":5631,"Ġteaching":5632,"top":5633,"hered":5634,"ĠJud":5635,"Ġvehicle":5636,"ĠWeb":5637,"Ġsituations":5638,"TM":5639,"Ġwitness":5640,"ĠAir":5641,"ĠIns":5642,"Ġsolar":5643,"ĠOnly":5644,"Ġvideos":5645,"bra":5646,"ĠThank":5647,"Ġformed":5648,".j":5649,"II":5650,"Name":5651,"Ġbull":5652,"ĠSometimes":5653,"Ġvast":5654,"Ġfocused":5655,"Ġsnow":5656,"Ġtaught":5657,"Ġtow":5658,"Ġdress":5659,"oding":5660,"Ġsimpl":5661,"Ġgrav":5662,"ĠUSA":5663,"Ġessentially":5664,"Ġafraid":5665,"ĠStreet":5666,"Ġmillions":5667,"Ġ!":5668,"Ġtun":5669,"Ġgro":5670,"ĠMor":5671,"Ġshit":5672,"Ġsecure":5673,"Ġpaint":5674,"Ġroutine":5675,"OP":5676,"Ġbunch":5677,"Ġstood":5678,"ĠWestern":5679,"Ġsharing":5680,"Ġfunds":5681,"Ġcorporate":5682,"Ġsin":5683,"ĠSup":5684,"ĠDuring":5685,"ĠStar":5686,"standing":5687,"ĠCommun":5688,"Ġnumerous":5689,"Out":5690,"Ġsouth":5691,"Ġretire":5692,"Ġargue":5693,"pm":5694,"Ġtro":5695,"icial":5696,"alls":5697,"Ġatmosphere":5698,"Ġtruck":5699,"Ġidentified":5700,"Ġlaunch":5701,"Ġreaders":5702,"Ġmessages":5703,"Ġsister":5704,"Ġnorth":5705,"cean":5706,"ĠPlease":5707,"iveness":5708,"ĠAfrican":5709,"list":5710,"Ġtough":5711,"Ġlie":5712,"usiness":5713,"Ġthinks":5714,"Ġinsp":5715,"Ġoperation":5716,"Ġessay":5717,"ĠSecond":5718,"ĠSoviet":5719,"ĠMicrosoft":5720,"hent":5721,"Ġwine":5722,"ĠMary":5723,"Ġneither":5724,"Ġdistrict":5725,"Ġaffected":5726,"Ġliquid":5727,"Ġgrew":5728,"ĠâĢ¦":5729,"Ġauthority":5730,"59":5731,"Even":5732,"OL":5733,"ĠHam":5734,"ĠAnother":5735,"ronate":5736,"Ġdistribution":5737,"Ġadults":5738,"-th":5739,"cel":5740,"Ġconver":5741,"ĠNOT":5742,"CC":5743,"Ġaid":5744,"Ġsan":5745,"Ġtrick":5746,"Ġinvolves":5747,"Ġdomain":5748,"MS":5749,"}{":5750,"Ñģ":5751,"Ġpractices":5752,"App":5753,"Ġtiny":5754,"Ġexplanation":5755,"Ġdance":5756,"ĠSil":5757,"Ġchick":5758,"Ġresulting":5759,"Per":5760,"zing":5761,"ching":5762,"Ġneck":5763,"elf":5764,"Ġsyn":5765,"Ġsuggested":5766,"Ġfinger":5767,"uable":5768,"Ġhar":5769,"Ġgather":5770,"Ġyounger":5771,"illa":5772,"Ġpartners":5773,"Ġcream":5774,"Ġemerg":5775,"Ġkitchen":5776,"ĠLife":5777,"Ġadm":5778,"Ġconsult":5779,"Ġletters":5780,"Ġmoments":5781,"col":5782,"code":5783,"abilities":5784,"ician":5785,"ĠCam":5786,"cked":5787,"Ġnormally":5788,"List":5789,"Ġdisappe":5790,"Ġgoods":5791,"Ġexplore":5792,"ipping":5793,"Ġupper":5794,"icted":5795,"Ġexperim":5796,"_p":5797,"ĠTur":5798,"ĠWr":5799,"Ġspin":5800,"Ġkeeps":5801,"Ġaccounts":5802,"Ġsession":5803,"ado":5804,"Ġunderstood":5805,"Ġsubt":5806,"going":5807,"Ġleadership":5808,"Sp":5809,"Ġsuc":5810,"ĠYet":5811,"Ġowner":5812,"ĠSocial":5813,"iki":5814,"Ġmath":5815,"abled":5816,"Ġvit":5817,"Ġvirtual":5818,"Ð½":5819,"Ġdinner":5820,"ortion":5821,".'":5822,"Google":5823,"omic":5824,"ĠHave":5825,"comment":5826,"ĠFrank":5827,"ogue":5828,"UR":5829,"cript":5830,"hab":5831,"Ġhomes":5832,"Ġec":5833,"Ġcomponent":5834,"150":5835,"Ġconcerns":5836,"Ġliterally":5837,"Ġencourage":5838,"http":5839,"iat":5840,"ini":5841,"Ġmoves":5842,"Ġequival":5843,"Ġinjury":5844,"Ġhorse":5845,"Ġresistance":5846,"88":5847,"Acc":5848,"then":5849,"Ġnoted":5850,"Ġappoint":5851,"Ġdistinct":5852,"ĠĠĠĠĠĠĠĠĠĠĠĠĠĠĠĠ":5853,"Where":5854,"Ġarticles":5855,"Ġ/>":5856,"long":5857,"Ġride":5858,"inton":5859,"ĠAnge":5860,"Ġwatched":5861,"_d":5862,"Ġfort":5863,"Ġju":5864,"dule":5865,"ena":5866,"aded":5867,"empl":5868,"Ġunable":5869,"pha":5870,"Ġokay":5871,"65":5872,"urd":5873,"Ġproceed":5874,"Ġ==":5875,"Ġreader":5876,"Ġdirector":5877,"rete":5878,"ano":5879,"ĠBack":5880,"Ġsmile":5881,"Ġprocessing":5882,"Ġlargely":5883,"Once":5884,"Ġcolors":5885,"met":5886,"ĠTimes":5887,"Ġmeld":5888,"Ġmatters":5889,"ĠFriday":5890,"Ġhyper":5891,"Ġdetailed":5892,"Ġofficials":5893,"div":5894,"oration":5895,"ĠWork":5896,"Ġarmy":5897,"Ġextent":5898,"Ġrevealed":5899,"esides":5900,"ĠCat":5901,"istory":5902,"agers":5903,"Ġmedium":5904,"Ġexplains":5905,"TH":5906,"ĠâĪ":5907,"Ġarchitect":5908,"Ġconsequences":5909,"SD":5910,"Ġath":5911,">>":5912,"Te":5913,"Ġmoon":5914,"Ġborder":5915,"Ġpassing":5916,"Ġcreates":5917,"Ġwalls":5918,"Ġvacc":5919,"Id":5920,"Ġrecognize":5921,"Ġillegal":5922,"rep":5923,"Ġru":5924,"Ġdisapp":5925,"Go":5926,"ĠTex":5927,"Ġexternal":5928,"ĠHome":5929,"Ġarray":5930,"ĠTechn":5931,"Ġchair":5932,"ago":5933,"Ġjustice":5934,"Ġteachers":5935,"ĠRobert":5936,"Ġstom":5937,"Ġsolve":5938,"Ġpatterns":5939,"Ġrepeated":5940,"\\n":5941,"nam":5942,"Ġsorry":5943,"ĠFin":5944,"Ġbrings":5945,"Ġsupported":5946,"Ġreasonable":5947,"Ġoperating":5948,"Ġdrinking":5949,"stein":5950,"Ġhttp":5951,"bal":5952,"Ġsufficient":5953,"Ġgotten":5954,"ĠQue":5955,"Ġoccurs":5956,"Ġamounts":5957,"Ġconvention":5958,"Ġfootball":5959,"ĠRoman":5960,"Ġenemy":5961,"Other":5962,"RA":5963,"Ġiron":5964,"Ġnom":5965,"lder":5966,"ĠSur":5967,"ĠBet":5968,"Ġspring":5969,"Ġdealing":5970,"Ġprocedure":5971,"ĠMil":5972,"ĠDid":5973,"Ġ=>":5974,"uh":5975,"Ġshock":5976,"Ġcarried":5977,"ĠGold":5978,"Ġgrass":5979,"Ġtrend":5980,"look":5981,"Ġsight":5982,"Ġloud":5983,"ĠScience":5984,"ÂłIt":5985,"ĠLib":5986,"Ġdram":5987,"Ġboys":5988,"-se":5989,"craft":5990,"ota":5991,"ĠTy":5992,"ads":5993,"igation":5994,"Ġheight":5995,"ĠJul":5996,"Ġadvance":5997,"Ġbreast":5998,"ker":5999,"Ġreject":6000,"Ġisol":6001,"Ġscr":6002,"///":6003,"Ġholds":6004,"Ġmotor":6005,"Ġmedicine":6006,"ii":6007,"atural":6008,"Ġtox":6009,"arly":6010,"Ġlikes":6011,"Ġenvironmental":6012,"Ġresearchers":6013,"yan":6014,"ĠID":6015,"estion":6016,"Ġvary":6017,"Ġarrived":6018,"net":6019,"ystem":6020,"ita":6021,"oral":6022,"coming":6023,"Ġphenomen":6024,"Many":6025,"nic":6026,"}\\":6027,"inating":6028,"itle":6029,"frac":6030,"Ġdegrees":6031,"ĠMill":6032,"ĠAtt":6033,"Ġiniti":6034,"Ġfrequency":6035,"Ġinstrument":6036,"nel":6037,"Ġtired":6038,"Ġhunt":6039,"odd":6040,"Ġabuse":6041,"Ġartist":6042,"Ġstructures":6043,"Ġsoldiers":6044,"Ġstruggle":6045,"ĠAustralia":6046,"!\"Ċ":6047,"ĠTake":6048,"Ġhydro":6049,"41":6050,"66":6051,"ÑĢ":6052,"oman":6053,"adian":6054,"Ġconven":6055,"ollow":6056,"Ġpassion":6057,"Ġcomplicated":6058,"Ġfasc":6059,"ĠJer":6060,"Ġremaining":6061,"Ġguard":6062,"Ġlistening":6063,"Ġmaximum":6064,"Ġthin":6065,"ashed":6066,"192":6067,"Ġtherapy":6068,"âĢĺ":6069,"ceived":6070,"Ġposted":6071,"Ġmachines":6072,"Ġconsumer":6073,"Ġvirus":6074,"Ġforgot":6075,"Because":6076,"Ġmail":6077,"ample":6078,"Ġstorm":6079,"Ġrank":6080,"Ġblind":6081,"Ġsucceed":6082,"Ġhidden":6083,"Ġbear":6084,"igare":6085,"Ġstuck":6086,"rage":6087,"Ġtechnique":6088,"Ġtalked":6089,"Ġprotocol":6090,"onna":6091,"Ġunits":6092,"Ġevening":6093,"Ġpractical":6094,"ĠPlan":6095,"Ġconvin":6096,"aying":6097,"Ġbrows":6098,"frak":6099,"Ġmerely":6100,"hentic":6101,"OW":6102,"Ġhole":6103,"ĠMiss":6104,"Ġingredients":6105,"/c":6106,"Ġblame":6107,"Ġadvent":6108,"Ġpotentially":6109,"Wr":6110,"ĠTre":6111,"hesis":6112,"ĠCenter":6113,"Ġaside":6114,"anged":6115,"Ġgreatest":6116,"okes":6117,"ĠProf":6118,"Ġautomatically":6119,"ĠInternational":6120,"Ġwave":6121,"cking":6122,"Ġliked":6123,"Ġeditor":6124,"Ġfeedback":6125,"Ġagreed":6126,"Ġfingers":6127,"Ġlaugh":6128,"sey":6129,"ĠFre":6130,"Ġtrading":6131,"Ġsurprise":6132,"Ġprecise":6133,"Ġpersonally":6134,"Ġawesome":6135,"azine":6136,"Col":6137,"greg":6138,"Ġtum":6139,"ibilities":6140,"const":6141,"Ġcomputers":6142,"Ġpurposes":6143,"Ġupdate":6144,"78":6145,"CH":6146,"Since":6147,"oma":6148,"Ġrisks":6149,"ĠFlor":6150,"Ġescape":6151,"utation":6152,"ĠSand":6153,"Ġconclusion":6154,"Ġsector":6155,"Ġchapter":6156,"Ġplate":6157,"Ġsmoking":6158,"Ġnaturally":6159,"'.":6160,"Ġtone":6161,"Ġboost":6162,"Ġfruit":6163,"<issue":6164,"EP":6165,"Ġpin":6166,"anish":6167,"ĠSunday":6168,"Phone":6169,"Ġmistake":6170,"pecific":6171,"Back":6172,"iot":6173,"taining":6174,"Ġped":6175,"Ġintention":6176,"ears":6177,"Ġpossess":6178,"Ġweekend":6179,"Last":6180,"Ġmac":6181,"amily":6182,"Ġhasn":6183,"Ġimplic":6184,"Ġcompre":6185,"Ġtea":6186,"ĠVict":6187,"Ġrac":6188,"Ġreply":6189,"xiety":6190,"ui":6191,"ĠMem":6192,"ĠHill":6193,"Ġje":6194,"inking":6195,"Ġwrit":6196,"Ġconsumers":6197,"home":6198,"ĠGame":6199,"Ġacts":6200,"Ġacting":6201,"Ġphase":6202,"Ġskill":6203,"Ġappearance":6204,"inations":6205,"Ġhat":6206,"cend":6207,"Ġstone":6208,"Ġauthors":6209,"blog":6210,"Up":6211,"abet":6212,"Ġsubs":6213,"Ġbusy":6214,"Ġbroke":6215,"Ġsurvive":6216,"-on":6217,"_comment":6218,"mic":6219,"reens":6220,"eding":6221,"Ġdivid":6222,"Ġcommitted":6223,"Ġoblig":6224,"Ġdefine":6225,"rastructure":6226,"Ġsubstant":6227,"Ġdust":6228,"ĠTor":6229,"ĠBob":6230,"Ġrub":6231,"Ġtested":6232,"Ġarguments":6233,"Ġfundamental":6234,"Ġenhance":6235,"Ġphilosop":6236,"Ne":6237,"Ġbat":6238,"orthern":6239,"ĠØ":6240,"atin":6241,"Ġfault":6242,"ellect":6243,"Ġresolution":6244,"Ġdisag":6245,"omething":6246,"Ġcommonly":6247,"Although":6248,"Ġprinciple":6249,"orney":6250,"Ġoffering":6251,"bel":6252,"Ġinfection":6253,"Ġauto":6254,"ĠAgain":6255,"Ġincorpor":6256,"SA":6257,"ĠMel":6258,"ĠMonday":6259,"Ġhadn":6260,"Ġwinning":6261,"ville":6262,"Ġtag":6263,"Ġwarn":6264,"Ġboss":6265,"Ġprofile":6266,"Ġdepth":6267,"rary":6268,"ona":6269,"Ġcab":6270,"aning":6271,"ĠHen":6272,"Ġcheese":6273,"Ġpayment":6274,"----------------":6275,"TI":6276,"da":6277,"py":6278,"ora":6279,"cknow":6280,"Ġobtain":6281,"Ġplane":6282,"Ġcombined":6283,"Ġdiseases":6284,"Ġsuffer":6285,".M":6286,"Ġshoes":6287,"ĠRight":6288,"Ġbrown":6289,"Ġofficer":6290,"Ġlinked":6291,"fast":6292,"ĠTest":6293,"Ġshad":6294,"unc":6295,"ints":6296,"(x":6297,"Ġtissue":6298,"Ġasks":6299,"andon":6300,"ĠOpen":6301,"Ġstores":6302,"ĠPerhaps":6303,"xygen":6304,"TP":6305,"dis":6306,"Ġhook":6307,"ruption":6308,"Anonymous":6309,"Ġwidely":6310,"bits":6311,"ĠDOC":6312,"ĠFree":6313,"Ġinterface":6314,"ĠAmazon":6315,"iler":6316,"ĠPR":6317,"ĠDra":6318,"Ġmanip":6319,"ocation":6320,"Ġconfidence":6321,"Ġstrategies":6322,"-L":6323,".h":6324,"isher":6325,"Ġlaug":6326,"ĠToday":6327,"rip":6328,"abel":6329,"ĠRad":6330,"Ġcurrency":6331,"Ġstronger":6332,"Ġeggs":6333,"uated":6334,"Ĥ¬":6335,"Ġchart":6336,"ĠChurch":6337,"Ġvolunt":6338,"Ġhighlight":6339,"Ġreturns":6340,"ĠSupreme":6341,"sm":6342,"wide":6343,"ĠList":6344,"angers":6345,"Ġdesk":6346,"Ġpicked":6347,"hi":6348,"war":6349,"Ġsport":6350,"Ġbreaking":6351,"Ġpositions":6352,"Ġemotions":6353,")$":6354,"Ġdad":6355,"Ġvent":6356,"Ġsomebody":6357,"Ġopposed":6358,"ĠScott":6359,"df":6360,"Ġadopt":6361,"Ġcontrolled":6362,"Ġhousehold":6363,"reets":6364,"Ġnative":6365,"auc":6366,"inks":6367,"Ġcoord":6368,"ĠBritain":6369,"Ġsuffering":6370,".org":6371,"kins":6372,"Ġdoctors":6373,"Ġperman":6374,"cluding":6375,"Ġcarefully":6376,"enny":6377,"Ġprinciples":6378,"ĠDepartment":6379,"lines":6380,"Ġbread":6381,"Ġassemb":6382,"group":6383,"Ġgenerated":6384,"Ġcareful":6385,"ĠConstitution":6386,"ĠJews":6387,"user":6388,"Monday":6389,"Ġassets":6390,"win":6391,"igen":6392,"ĠPower":6393,"ĠDet":6394,"apped":6395,"Ġinstalled":6396,"Ġreferred":6397,"Ġdisappoint":6398,"?âĢĿĊ":6399,"IG":6400,"icy":6401,"state":6402,"Ġstored":6403,"ifies":6404,"ĠRock":6405,"Ġspr":6406,"Ġreviews":6407,"Ġmixed":6408,"Ġcomparison":6409,"ye":6410,"uting":6411,"Ġvul":6412,"ĠAssoci":6413,"Ġfilter":6414,"Ġyesterday":6415,"-P":6416,"otal":6417,"Ġstands":6418,"Ġdiscussed":6419,"Ġequivalent":6420,"Over":6421,"Ġfro":6422,"agraph":6423,"ansion":6424,"Ġscenes":6425,".A":6426,"52":6427,"Ġske":6428,"unning":6429,"Ġagent":6430,"ĠStr":6431,"ĠClinton":6432,"ĠChristmas":6433,"Ġtables":6434,"ican":6435,"Ġyield":6436,"essage":6437,"Ġchosen":6438,"Ġsole":6439,"aks":6440,"Ġdisci":6441,"Ġmainly":6442,"Ġterrible":6443,"\"The":6444,"ao":6445,"lets":6446,"ĠPress":6447,"Ġtheme":6448,"Ġimproved":6449,"*Ċ":6450,"-a":6451,"/m":6452,"olt":6453,"Âłs":6454,"resents":6455,"Ġintent":6456,"Ġenforce":6457,"bert":6458,"Ġnobody":6459,"Ġimpress":6460,"Ġcoast":6461,"Ġmathemat":6462,"Ġcutting":6463,"Ġnetworks":6464,"ographic":6465,"Ġtelevision":6466,"Ġbutter":6467,"Ġinteraction":6468,"Ġremote":6469,"Ġexposed":6470,"Ġemployee":6471,"ĠTexas":6472,"arry":6473,"ette":6474,"atell":6475,"osc":6476,"Ġeverybody":6477,"Ġcrew":6478,"Ġheads":6479,"Ġloan":6480,"Ġrecommended":6481,"Ġefficiency":6482,"hot":6483,"ston":6484,"Ġcontaining":6485,"Ġproud":6486,"Ġcharges":6487,"Ġenjoyed":6488,"Ġtips":6489,"Ġacknow":6490,"Ġwet":6491,"Ġbone":6492,"arl":6493,"Ġloose":6494,"ĠTop":6495,"ĠCir":6496,"ĠMiddle":6497,"Ġrecovery":6498,"Ġpharm":6499,"Ġvaluable":6500,"ĠArch":6501,"Ġpump":6502,"Ġshif":6503,"Ġgrown":6504,"Ġscream":6505,"Ġconstitution":6506,"ship":6507,"Ġsale":6508,"ĠBro":6509,"Ġrom":6510,"ĠFurther":6511,"Ġcompare":6512,"anny":6513,"Ġforever":6514,"Ġsteel":6515,"Ġregularly":6516,"ĠJun":6517,"Ġquote":6518,"Thursday":6519,"Ġlisted":6520,"Ġerrors":6521,"esc":6522,"Ġmic":6523,"osal":6524,"Ġunknown":6525,"Ġcharged":6526,"Ġvisible":6527,"appy":6528,"Ġexcited":6529,"ĠHarry":6530,"/p":6531,"CA":6532,"Ġtoler":6533,"Ġhide":6534,"Ġreward":6535,"allow":6536,"ĠEU":6537,"ĠNov":6538,"Ġimper":6539,"Ġpointed":6540,"ĠFlorida":6541,"inity":6542,"Ġbike":6543,"gend":6544,"Ġillness":6545,"Ġconsistent":6546,"Ġbattery":6547,"Ġstomach":6548,"IL":6549,"Ġtrib":6550,"Ġindu":6551,"Ġlit":6552,"Ġnations":6553,"Ġbell":6554,"ĠGal":6555,"ifications":6556,"pring":6557,"Ġbringing":6558,"Ġriver":6559,"ĠSmith":6560,"pal":6561,"ĠMer":6562,"Ġsees":6563,"ĠDel":6564,"Ġexposure":6565,"oken":6566,"Ġoccasion":6567,"Ġ:)Ċ":6568,"Ġsurprising":6569,"Ġsmoke":6570,"Ġsubsequ":6571,"Ġglad":6572,"ĠBlog":6573,"Ġparameters":6574,"Ġsplit":6575,"ested":6576,"Ġremained":6577,"Ġconfir":6578,"Ġlanguages":6579,"Ġconsumption":6580,"Ġcategory":6581,"zed":6582,"ĠFound":6583,"Ġmeal":6584,"apes":6585,"Ġcoverage":6586,"Ġsubsc":6587,"Ġadvertising":6588,"va":6589,"itar":6590,"Ġlun":6591,"Ġgent":6592,"wered":6593,"Ġradiation":6594,"Ġliterature":6595,"Ġroute":6596,"mes":6597,"ĠDisc":6598,"Ġalt":6599,"teen":6600,"Ġbeauty":6601,"Ġdelivery":6602,"68":6603,"Ġdelic":6604,"ĠDi":6605,"ĠJoe":6606,"Ġextract":6607,"who":6608,"Ġspiritual":6609,"Ġfab":6610,"alian":6611,"iform":6612,"191":6613,"Ġconfident":6614,"ployment":6615,"Ġtalks":6616,"ĠEr":6617,"ptions":6618,"Ġobtained":6619,"inos":6620,"ĠRet":6621,"ĠJim":6622,"Ġthousand":6623,"Ġannounced":6624,"Ġschedule":6625,"51":6626,"Ġera":6627,"Ġcro":6628,"Ġfiction":6629,"ushed":6630,"Ġmissed":6631,"cers":6632,"ih":6633,"ensus":6634,"comfort":6635,"Step":6636,"Ġlights":6637,"Ġcollabor":6638,"Ġpanel":6639,"Ġappreciate":6640,"Ġneighborhood":6641,"umps":6642,"anges":6643,"Ġrepresents":6644,"####":6645,"53":6646,"Ke":6647,"Ġwal":6648,"oster":6649,"Ġassign":6650,"Ġboat":6651,"Ġinvestigation":6652,"aniel":6653,"Cons":6654,"Ġgift":6655,"ĠBer":6656,"ĠLin":6657,"Ġadmit":6658,"Ġgenes":6659,"Ġdecade":6660,"Ġwondering":6661,"Ġannoy":6662,"Ġfellow":6663,"Ġhouses":6664,"Ġjoined":6665,"Like":6666,"orters":6667,"Ġclar":6668,"Ġresource":6669,"Ġagents":6670,"Ġcompleted":6671,"Ġillustr":6672,"Ġemotion":6673,"clusive":6674,"BS":6675,"Ġfaces":6676,"Ġstro":6677,"ĠSet":6678,"Ġprosec":6679,"Ġcock":6680,"Ġcraft":6681,"Ġreplaced":6682,"Ġsacr":6683,".D":6684,"whel":6685,"Ġscan":6686,"aze":6687,"Ġwindows":6688,"ĠResearch":6689,"upport":6690,"John":6691,"ĠId":6692,"eting":6693,"ĠBible":6694,"Ġchief":6695,"ĠOld":6696,"Ġending":6697,"Ġpromote":6698,"ĠAnswer":6699,"water":6700,"lege":6701,"lements":6702,"Ġgay":6703,"Ġspoke":6704,"Ġfinds":6705,"Ġinfrastructure":6706,"Ġtrigger":6707,"lymp":6708,"ĠIN":6709,"Ġregime":6710,"flow":6711,"anna":6712,"Image":6713,"Ġbirds":6714,"Ġphrase":6715,"Ġlatter":6716,"Ġanxiety":6717,"Ġquarter":6718,"Ġeverywhere":6719,"Ġinstructions":6720,"Ġcommunities":6721,"Ġfacing":6722,"Ġoccurred":6723,"Ġnose":6724,"ilit":6725,"ĠFore":6726,"ildren":6727,"Ġgene":6728,"ĠComment":6729,"Ġrecorded":6730,"ĠTwitter":6731,"ĠDemocrats":6732,"Ġcrucial":6733,"Related":6734,"67":6735,"rection":6736,"Ġfrustr":6737,"Ġignore":6738,"icide":6739,"Ġappeal":6740,"ĠFranc":6741,"ĠÂ£":6742,"she":6743,"ilty":6744,"ĠDist":6745,"Ġwhenever":6746,"ĠCounty":6747,"pass":6748,"Ġtall":6749,"Ġcere":6750,"orough":6751,"Ġreplic":6752,"ĠGrand":6753,"grade":6754,"Ġclassic":6755,"Ġtries":6756,"Ġdepartment":6757,"Ġengineering":6758,"PA":6759,"ĠCy":6760,"ĠBas":6761,"ĠPak":6762,"Ġwheel":6763,"Ġexperts":6764,"Ġadvoc":6765,"ĠUsing":6766,"Ġhorm":6767,"ĠBest":6768,"uma":6769,"estyle":6770,"plete":6771,"Ġdomestic":6772,"Ġpenal":6773,"Ġangry":6774,"Ġvictims":6775,"54":6776,"RM":6777,"gent":6778,"Ġintellect":6779,"Ġflood":6780,"Ġartists":6781,"Ġlimits":6782,"Ġcorrectly":6783,"Ġdropped":6784,"ĠRepublicans":6785,"ĠFil":6786,"Ġexpressed":6787,"Ġputs":6788,"Ġweapon":6789,"Ġshooting":6790,"Ġinfect":6791,"Ġinner":6792,"Ġgiant":6793,"Ġabandon":6794,"Ġadop":6795,"ĠVe":6796,"scape":6797,"Ġfalling":6798,"ĠKeep":6799,"Dr":6800,"parent":6801,"Ġtact":6802,"Ġkiss":6803,"Ġapartment":6804,"Ġalgorithm":6805,"Am":6806,"Ġvotes":6807,"Ġimplementation":6808,"========":6809,"Ġincredibly":6810,"DA":6811,"Wednesday":6812,"gage":6813,"uct":6814,"Ġisland":6815,"ĠBank":6816,"ĠUN":6817,"Ġofficers":6818,"Ġsubjects":6819,"ĠSecurity":6820,"Ġhang":6821,"ĠRiver":6822,"Ġdecent":6823,"Ġgovernments":6824,"ĠDev":6825,"ports":6826,"ĠBefore":6827,"Ġvariables":6828,"Ġpercentage":6829,"ns":6830,"ĠPut":6831,"Ġapps":6832,"About":6833,"QL":6834,"ala":6835,"Ġnic":6836,"Ġrecept":6837,"rav":6838,"Ġunw":6839,"Ġincident":6840,"Ġdrawn":6841,"ĠSteve":6842,"Ġsustain":6843,"Part":6844,"Tuesday":6845,"bar":6846,"Ġ?":6847,"Ġinsert":6848,"tenance":6849,"Ġimmediate":6850,"Ġax":6851,"Ġfool":6852,"ller":6853,"sters":6854,"aine":6855,"ĠVir":6856,"ĠRev":6857,"haust":6858,"According":6859,"ĠSol":6860,"ĠCap":6861,"Ġexhib":6862,"Ġworried":6863,"angle":6864,"Ġshoulder":6865,"Ġwarning":6866,"Ġprompt":6867,"Ġregardless":6868,"isted":6869,"ivered":6870,"oga":6871,"apse":6872,"ulture":6873,"Ġtransition":6874,"they":6875,"```":6876,"Ð¾Ð":6877,"Ġbowl":6878,"Rep":6879,"date":6880,"itan":6881,"essel":6882,"ideo":6883,"Ġplain":6884,"Ġagency":6885,"Ġflour":6886,"Reg":6887,"Ġfigures":6888,"Ġorders":6889,"ĠKorea":6890,"Good":6891,"Ġoxygen":6892,"Ġstreets":6893,"ĠLear":6894,"Ġraw":6895,"ĠRead":6896,"erring":6897,"Ġdomin":6898,"Ġtor":6899,"etime":6900,"ĠSu":6901,"Ġrig":6902,"Ġportion":6903,"Ġdreams":6904,"Ġrestaurant":6905,"SP":6906,"page":6907,"rc":6908,"ĠÙ":6909,"Ġorg":6910,"ĠWater":6911,"ĠLast":6912,"ĠLong":6913,"Ġfeat":6914,"Ġbelieves":6915,"Ġsupporting":6916,"Ġnervous":6917,"ĠVictor":6918,"-ex":6919,"Ġcos":6920,"Ġpill":6921,"icious":6922,"celer":6923,"ĠLou":6924,"Ġclimb":6925,"tending":6926,"Ġseeking":6927,"anned":6928,"Ġrising":6929,"Ġdollar":6930,"Have":6931,"edit":6932,"ĠBab":6933,"ĠPet":6934,"ĠFinally":6935,"Ġmyth":6936,"obe":6937,"Ġentered":6938,"Ġsensitive":6939,"Ġyellow":6940,"\")":6941,"Man":6942,"iac":6943,"Ġwake":6944,"Ġfewer":6945,"ĠGreek":6946,"Ġpig":6947,"emic":6948,"ĠLee":6949,"aren":6950,"rypt":6951,"Ġdish":6952,"ocratic":6953,"Ġcapture":6954,",\\":6955,"/n":6956,"Ġcow":6957,"itz":6958,"Ġpil":6959,"Ġstable":6960,"Ġblank":6961,"ĠSpanish":6962,"Ġattempts":6963,"ĠAbout":6964,"Ġparticipants":6965,"fix":6966,"herent":6967,"ĠTim":6968,"pel":6969,"Ġsuit":6970,"pected":6971,"ologist":6972,"cluded":6973,"Ġmenu":6974,"Ġcooking":6975,"Ġhoping":6976,"Ġdestroyed":6977,"ĠMexico":6978,"-day":6979,"IR":6980,"burg":6981,"Ġwra":6982,"imp":6983,"Ġarr":6984,"ishment":6985,"Ġswim":6986,"Ġoriginally":6987,"Ġexception":6988,"ĠGovernment":6989,"Ġbacteria":6990,"IA":6991,"SE":6992,"dr":6993,"Ġrein":6994,"Ġinvent":6995,"bered":6996,"Ġcontrovers":6997,"String":6998,"Comm":6999,"Ġflying":7000,"Ġinhib":7001,"lla":7002,"Ġcompens":7003,"aping":7004,"Ġunus":7005,"Ġsigned":7006,"Ġelectronic":7007,"Ġinfo":7008,"rivate":7009,"77":7010,"rition":7011,"Ġbomb":7012,"Ġclock":7013,"Ġstrict":7014,"Ġreducing":7015,"Ġcuts":7016,"Sec":7017,"ghan":7018,"},Ċ":7019,"Ġcinem":7020,"Ġreduction":7021,"Ġguns":7022,"pace":7023,"Ġwhis":7024,"ailed":7025,"aws":7026,"Ġdocuments":7027,"ĠWilliam":7028,".âĢĻ":7029,"ĠBre":7030,"Ġformation":7031,"Ġequally":7032,"Ġdirectory":7033,"Ġprimarily":7034,"Ġhousing":7035,"van":7036,"Â°":7037,"arg":7038,"Ġrational":7039,"asty":7040,"ĠVis":7041,"arrow":7042,"Ġcharacteristics":7043,"Ġgender":7044,"Ġelectricity":7045,".d":7046,"Ġgarden":7047,"etry":7048,"Ġproport":7049,"Ġchose":7050,"acks":7051,"Ġdesper":7052,"Ġhealthcare":7053,"Ġvoters":7054,"Ġliberal":7055,"/l":7056,"zil":7057,"eries":7058,"ĠCoun":7059,"cling":7060,"ups":7061,"Ġrevenue":7062,"Ġemergency":7063,"Ġcigare":7064,"Ġmeasured":7065,"Ġnewsp":7066,"Ġprepare":7067,"-T":7068,"Ġyouth":7069,"ĠMass":7070,"ĠDam":7071,"ipedia":7072,"Ġattached":7073,"Ġorigin":7074,"AG":7075,"PU":7076,"ayers":7077,"ura":7078,"claim":7079,"Thank":7080,"ĠClass":7081,"Ġheavily":7082,"Ġinnoc":7083,"ĠCheck":7084,"Ġrarely":7085,"uine":7086,"ĠMen":7087,"Ġsending":7088,"Ġbutt":7089,"Ġconcepts":7090,"Ġbirthday":7091,"VD":7092,"sl":7093,"ĠMax":7094,"ÂłA":7095,"Ġoutcome":7096,"active":7097,"Ġsaved":7098,"ificial":7099,"Ġprogramming":7100,"à¤¾":7101,"Ġclaimed":7102,"Ġhypot":7103,"Ġchannel":7104,".get":7105,"FL":7106,"Ġfulf":7107,"Ġneut":7108,"udes":7109,"pload":7110,"Ġmyst":7111,"Ġresc":7112,"duc":7113,"Ġ''":7114,"Ġformal":7115,"Ġsumm":7116,"Ġbias":7117,"250":7118,"98":7119,">username":7120,"ĠNext":7121,"Ġoverwhel":7122,"Ġlegit":7123,"Ġcontribute":7124,"ĠWould":7125,"Ġsharp":7126,"eline":7127,"ĠLove":7128,"Ġintense":7129,"Ġversions":7130,"ĠChristians":7131,"Ġindustrial":7132,"Ġproteins":7133,"Ġstrike":7134,"ĠMedic":7135,"Ġincreasingly":7136,"Ġnarrow":7137,"-R":7138,"roat":7139,"agues":7140,"obs":7141,"Ġremem":7142,"ikipedia":7143,"Ġannual":7144,"Ġsettings":7145,"ĠDemocratic":7146,"Ġ^":7147,"Ġcomplain":7148,"à¥į":7149,"\",Ċ":7150,"/b":7151,"ĠIT":7152,"ĠMad":7153,"Ġshel":7154,"Ġattitude":7155,"Ġelev":7156,"Ġmistakes":7157,"allel":7158,"Ġwelcome":7159,"Ġtail":7160,"Ġtoile":7161,"ĠWil":7162,"Ġrelation":7163,"Ġadds":7164,"Ġexplo":7165,"Ġbuildings":7166,"Ġlogic":7167,"Ġpushed":7168,"ether":7169,"rior":7170,"ĠPD":7171,"Ġeveryday":7172,"Ġguilty":7173,"Ġparagraph":7174,"Ġcontrols":7175,"Ġradical":7176,"ĠColor":7177,"Ġbot":7178,"enth":7179,"ĠFire":7180,"Ġdesert":7181,"Inst":7182,"gged":7183,"Ġfourth":7184,"Ġresponses":7185,"ĠTHE":7186,"Ġsurrounding":7187,"Aut":7188,"ĠSk":7189,"Ġbridge":7190,"Ġinspir":7191,"ĠReal":7192,"Ġvoting":7193,"Ġextended":7194,"Next":7195,"Ġhall":7196,"Ġgonna":7197,"Ġsty":7198,"isms":7199,"Store":7200,"Ġoperate":7201,"Ġfunding":7202,"Ġscenario":7203,"Ġbon":7204,"ĠSaturday":7205,"ibl":7206,"Ġbreathing":7207,"Ġnarrative":7208,"Ġridic":7209,"Er":7210,"friend":7211,"Ġsod":7212,"ĠSuch":7213,"ĠElect":7214,"Ġunion":7215,"Ġtrained":7216,"there":7217,"Ġmemories":7218,"Ġpromise":7219,"Ġvariable":7220,"Friday":7221,"Ġtank":7222,"ĠNever":7223,"-free":7224,"Comp":7225,"Ġbeliefs":7226,"People":7227,"-G":7228,"UN":7229,"vin":7230,"}v":7231,"Ġvital":7232,"ĠChris":7233,"Ġinvestors":7234,"edding":7235,"Ġconservative":7236,"-level":7237,"Ġapproximately":7238,"Ġvulner":7239,"!)":7240,"Ġwestern":7241,"ila":7242,"weet":7243,"190":7244,"Ġhardware":7245,"Ġtechnologies":7246,"Take":7247,"hand":7248,"Ġ}":7249,"inent":7250,"url":7251,"Ġdeeper":7252,"Ġauthentic":7253,"Ġfriendly":7254,"xx":7255,"sect":7256,"Ġvessel":7257,"Ġjoy":7258,"Ġflash":7259,"Ġphones":7260,"ĠAnn":7261,"Ġmusical":7262,"PC":7263,"Ã¡":7264,"Ġpul":7265,"ĠEmp":7266,"Ġrecru":7267,"ĠAnonymous":7268,"ĠShould":7269,"Ġdepart":7270,"boy":7271,"Ġdiam":7272,"Ġdepression":7273,"ĠGroup":7274,"Ġsamples":7275,"Ġduty":7276,"-ch":7277,"Sub":7278,"ulating":7279,"cker":7280,"ĠOK":7281,"ĠUnfortunately":7282,"Ġrecipe":7283,"Ġpregnant":7284,"ummary":7285,"ayed":7286,"Ġconfused":7287,"ĠCarol":7288,"Sim":7289,"Spe":7290,"oop":7291,"Ġtort":7292,"Ġmad":7293,"Ġnine":7294,"ĠMount":7295,"ersion":7296,"ĠData":7297,"Ġwrites":7298,"Ġsurvey":7299,"Ġlesson":7300,"180":7301,"Ġlucky":7302,"ĠSenate":7303,"_m":7304,"eras":7305,"asm":7306,"ĠOlymp":7307,"Ġspell":7308,"Ġcriter":7309,"Ġmovements":7310,"Ġdeeply":7311,"Ġ~":7312,"Ġcoc":7313,"Ġexhaust":7314,"ourse":7315,"aven":7316,"Ġrecon":7317,"Ġretail":7318,"Ġdivers":7319,"Ġbreaks":7320,"Ġselected":7321,"https":7322,"Fl":7323,"fit":7324,"Ġcable":7325,"ÂłP":7326,"Ġcha":7327,"Ġchances":7328,"ocolate":7329,"Ġconcentr":7330,"_c":7331,"inger":7332,"ĠTuesday":7333,"ĠBur":7334,"ĠOS":7335,"Ġspark":7336,"),Ċ":7337,"Ġsenior":7338,"OO":7339,"{\\":7340,"Ġstem":7341,"ĠMember":7342,"ferent":7343,"agram":7344,"Ġusage":7345,"acle":7346,"Ġgenetic":7347,"Ġdriven":7348,"Ġvehicles":7349,"à¥įà¤":7350,"Ġox":7351,"Ġhun":7352,"omp":7353,"omin":7354,"Ġsoil":7355,"ĠWithout":7356,"Ġcombat":7357,"Ġdescribes":7358,"ĠPhil":7359,"Ġlawyer":7360,"-be":7361,"-off":7362,"Ġpra":7363,"umer":7364,"Ġrow":7365,"ĠLand":7366,"Ġads":7367,"Ġblow":7368,"ĠDevelop":7369,"Ġelectrical":7370,"Che":7371,"Rem":7372,"Ġdict":7373,"Ġbeings":7374,"Ġwithd":7375,"ĠCath":7376,"Ġabst":7377,"ariju":7378,"Ġstrongly":7379,"Connect":7380,"âĤ¬":7381,"Ġloves":7382,"Ġproven":7383,"Ġsched":7384,"Ġpersonality":7385,"Ġimprovement":7386,"Ġinstitution":7387,"-H":7388,"fish":7389,"jection":7390,"Ġwise":7391,"Ġans":7392,"ĠRon":7393,"Ġlocations":7394,"Ġabsorb":7395,"ĠParis":7396,"120":7397,"RL":7398,"TC":7399,"xual":7400,"Ġwound":7401,"ĠHIV":7402,"Ġpassword":7403,"ĠArmy":7404,"ĠService":7405,"arijuana":7406,"Facebook":7407,"nda":7408,"Ġdating":7409,"asant":7410,"Ġrefers":7411,"Ġdemocracy":7412,"Ġburning":7413,"Ġvillage":7414,"Ġathlet":7415,"Ġcomprehens":7416,"ras":7417,"rive":7418,"Ġarrange":7419,"Ġfees":7420,"ĠKn":7421,"Ġsurf":7422,"Ġpoliticians":7423,"Ġclothing":7424,"Ġcandidates":7425,"Ġacademic":7426,"vy":7427,"ĠSat":7428,"Ġopposition":7429,"Ġsuccessfully":7430,"Ġfalls":7431,"Ġshopping":7432,"Ġbarely":7433,"Ġpuzz":7434,"Ġmand":7435,"Ġregist":7436,"Ġorganic":7437,"Ġcalm":7438,"Ġachieved":7439,"Ġindicate":7440,"ĠThomas":7441,"Def":7442,"VER":7443,"ji":7444,"noon":7445,"tw":7446,"viously":7447,"isters":7448,"icago":7449,"Ġshell":7450,"Ġtwenty":7451,"Ġrecall":7452,"Ġrelief":7453,"Ġdevelopers":7454,"Ġblocks":7455,"Ġinstitutions":7456,"Ġfavour":7457,"Ġchicken":7458,"struct":7459,"Ġrender":7460,"iger":7461,"Ġmaintenance":7462,"Ġhoriz":7463,"Ġratio":7464,"ï¼":7465,"Ġpapers":7466,"Ġinev":7467,"oded":7468,"Ġenable":7469,"-sc":7470,"Ġgear":7471,"Ġorient":7472,"ĠPhys":7473,"ĠHol":7474,"Ġdisorder":7475,"Ġrepair":7476,"Ġdelivered":7477,"ĠCollege":7478,"ersonal":7479,"Ġfraud":7480,"Ġmountain":7481,"Ġpregnancy":7482,"Note":7483,"aus":7484,"Ġ;":7485,"ĠHas":7486,"Ġshares":7487,"ĠBrown":7488,"Ġminds":7489,"ĠProject":7490,"Ġinspired":7491,"-v":7492,"Ġfle":7493,"Ġhoney":7494,"Ġemployment":7495,"ĠAfghan":7496,"\\)":7497,"Ġsatell":7498,"Ġwest":7499,"orse":7500,"ĠSure":7501,"Ġsuffe":7502,"ĠFederal":7503,"ĠJournal":7504,"Ġmetab":7505,"prot":7506,"ĠProt":7507,"Ġdensity":7508,"Ġyeah":7509,"riers":7510,"Ġdoors":7511,"ĠRE":7512,"ĠVer":7513,"ught":7514,"Ġdestruction":7515,"Ġcollected":7516,"Before":7517,"ãĤ":7518,"Ġhits":7519,"olars":7520,"abs":7521,"Ġchamp":7522,"ĠVol":7523,"Ġcurious":7524,"Ġhardly":7525,"Ġelected":7526,"His":7527,"Ġwis":7528,"Ġchat":7529,"ĠStart":7530,"ĠAtl":7531,"Ġframework":7532,"lers":7533,"ua":7534,"Ġdifferently":7535,"Ġimmun":7536,"Ġassistance":7537,"px":7538,"Ġfurn":7539,"ĠSar":7540,"obb":7541,"Ġstudied":7542,"lessly":7543,"Ġstatements":7544,"useum":7545,"Ġdedicated":7546,"Ġtroops":7547,"Ġgentle":7548,"ĠDown":7549,"ĠGM":7550,"ĠJose":7551,"Ġgenuine":7552,"Ġestimated":7553,"Ġunlikely":7554,"Ġdynamic":7555,"Ġexecutive":7556,"IF":7557,"yes":7558,"Ġpit":7559,"Ġbeer":7560,"ĠBusiness":7561,"ĠStill":7562,"Ġinflamm":7563,"Ġclosely":7564,"Today":7565,"orce":7566,"ĠIr":7567,"Ġneur":7568,"ĠJo":7569,"Ġretirement":7570,"Ġanswered":7571,"Em":7572,"Figure":7573,"Ġmood":7574,"ĠHistory":7575,"ĠRam":7576,"Ġjack":7577,"Ġcomprom":7578,"Ġflag":7579,"Ġ\\(":7580,"ĠCanadian":7581,"Ġprivacy":7582,"Ġroads":7583,"ĠRichard":7584,"Ġwriters":7585,"Ġhung":7586,"Ġlying":7587,"igan":7588,"ĠWas":7589,"ĠWednesday":7590,"endment":7591,"Ġholiday":7592,"gments":7593,"Ġconference":7594,"emporary":7595,"ĠHuman":7596,"eps":7597,"param":7598,"Ġrepeat":7599,"(Ċ":7600,"800":7601,"ĠNote":7602,"agan":7603,"Ġmanual":7604,"Ġregions":7605,"Ġminim":7606,"ĠMinister":7607,"Ġordered":7608,"ixture":7609,"Ġtill":7610,"Ġtong":7611,"inite":7612,"itis":7613,"start":7614,"Ġletting":7615,"Ġdrivers":7616,"Ġsorts":7617,"uilding":7618,"Ġpipe":7619,"âĢī":7620,"ĠEnd":7621,"ĠSecret":7622,"Ġurban":7623,"Ġopinions":7624,"Sunday":7625,"oil":7626,"Âłin":7627,"Ġkeys":7628,"Ġelections":7629,"Ġreceiving":7630,"ĠHind":7631,"ĠFind":7632,"ĠNAS":7633,"ĠThough":7634,"Ġcoal":7635,"Ġelsewhere":7636,"Ġlaun":7637,"Which":7638,"Ġlifestyle":7639,"Ġcarrying":7640,"CE":7641,"tra":7642,"Ġtheore":7643,"Ġwarr":7644,"Ġbother":7645,"Ġgall":7646,"ĠNav":7647,"Ġdistingu":7648,"Ġtopics":7649,"Ġpushing":7650,"Key":7651,"hh":7652,"ÂłC":7653,"ĠProp":7654,"ĠName":7655,"ĠItalian":7656,"ikes":7657,"Spec":7658,"ja":7659,"oft":7660,"ĠThink":7661,"Ġaward":7662,"Ġdisturb":7663,"Ġinflation":7664,"Ġdecline":7665,"/d":7666,"Ge":7667,"ĠTurn":7668,"Ġvo":7669,"Ġmanif":7670,"Ġsaving":7671,"erved":7672,"Ġcolour":7673,"Ġplanned":7674,"Ġdecrease":7675,"Ġpounds":7676,"Ġghost":7677,"Ġrely":7678,"Âłh":7679,"Ġformula":7680,"Ġdepos":7681,"}$":7682,"arge":7683,"utch":7684,"Ġangle":7685,"ĠWall":7686,"Ġelectro":7687,"Ġcalories":7688,"Ġbottle":7689,"Ġocean":7690,"ndrome":7691,"ĠCC":7692,"una":7693,"ĠForm":7694,"Ġgrade":7695,"Ġconfirm":7696,"Ġprotected":7697,"Ġhonor":7698,"Ġintroduction":7699,"ĠCentral":7700,"ĠPakistan":7701,"pack":7702,"eties":7703,"Ġstead":7704,"Ġsuppose":7705,"isco":7706,"Ġbabies":7707,"\">":7708,"++":7709,"-related":7710,"ca":7711,"function":7712,"etary":7713,"Ġanger":7714,"ĠPage":7715,"istent":7716,"abb":7717,"Ġuniversity":7718,"Ġlets":7719,"Ġpayments":7720,"Ġfemin":7721,"Ġtur":7722,"Ġhen":7723,"Ġvoc":7724,"uns":7725,"ensional":7726,"Ġdirected":7727,"Ġdraft":7728,"Hey":7729,"Ġexciting":7730,"Ġcommunicate":7731,"Ġcrypt":7732,"Ġtack":7733,"Ġloyal":7734,"abeth":7735,"Ġpeak":7736,"ultural":7737,"Ġproducing":7738,"Ġtradition":7739,"Ġprivile":7740,"Ġuncertain":7741,"ðŁ":7742,"ĠIll":7743,"udi":7744,"Ġwanting":7745,"issions":7746,"Ġsignals":7747,"Ġrespectively":7748,"ĠBrazil":7749,"even":7750,"orne":7751,"Ġlady":7752,"ĠTry":7753,"ĠItaly":7754,"Ġ->":7755,"Ġspaces":7756,"Ġanalog":7757,"Ġantib":7758,"Ġperiods":7759,"Ġprofessor":7760,"ĠCompany":7761,"components":7762,"Ġprofessionals":7763,"Ġnegoti":7764,"))Ċ":7765,"afe":7766,"hus":7767,"Ġbones":7768,"Ġgate":7769,"etch":7770,"Ġrhy":7771,"ĠLu":7772,"âĢĿ.Ċ":7773,"Ġdisk":7774,"ĠAndroid":7775,"Ġoccas":7776,"trans":7777,"Yeah":7778,"case":7779,"Ġsau":7780,"anes":7781,"ĠMatt":7782,"Ġrice":7783,"Ġreliable":7784,"Ġafternoon":7785,"Ġexpansion":7786,"Ġimproving":7787,"Ġsuperior":7788,"Ġsleeping":7789,"gressive":7790,"Med":7791,"je":7792,"pers":7793,"ener":7794,"Âłm":7795,"Ġalien":7796,"Ġtech":7797,"ĠStand":7798,"otted":7799,"Ġpainting":7800,"Ġballs":7801,"Ġchallenging":7802,"Ġlicense":7803,"69":7804,"},":7805,"tery":7806,"Ġalter":7807,"ĠEs":7808,"ĠNone":7809,"assion":7810,"ĠYeah":7811,"weight":7812,"iana":7813,"Ġbrill":7814,"Ġengaged":7815,"ĠExpl":7816,"Ġtemperatures":7817,"Art":7818,"abetes":7819,"don":7820,"ĠMa":7821,"ÂłD":7822,"ĠHand":7823,"ĠLight":7824,"ĠInstitute":7825,"Ġflavor":7826,"Ġstudying":7827,"Ġspectrum":7828,"Ġlegislation":7829,"ĠAPI":7830,"Ġdiscipl":7831,"ĠFour":7832,"Ġdemands":7833,"Ġzone":7834,"Ġsurvival":7835,"Ġadministr":7836,"ĠJeff":7837,"Look":7838,"MA":7839,"Âłis":7840,"anta":7841,"liament":7842,"Ġreprodu":7843,"atively":7844,"Ġfindings":7845,"Ġserving":7846,"Ġtemporary":7847,"Ġcompetitive":7848,"Ġdeclared":7849,"KE":7850,"LA":7851,"Ġtherm":7852,"eness":7853,"ĠIV":7854,"Ġgal":7855,"Ġgap":7856,"ĠMP":7857,"ĠMur":7858,"usal":7859,"ements":7860,"ĠGar":7861,"aste":7862,"oked":7863,"Ġcomplexity":7864,"Ġwarming":7865,"Ġupdated":7866,"Ġclinical":7867,"Ġsavings":7868,"Ġmas":7869,"Ġlad":7870,"Ġagencies":7871,"ologists":7872,"Ġacceler":7873,"ashi":7874,"Ġstaying":7875,"Ġwebsites":7876,"Ġcleaning":7877,"Ġreveal":7878,"Ġawareness":7879,"Act":7880,"Source":7881,"yal":7882,"Ġnull":7883,"raham":7884,"ĠBay":7885,"ĠDiv":7886,"ĠAsia":7887,"Ġparticles":7888,"Ġviolent":7889,"Ġtomorrow":7890,"FS":7891,"Par":7892,"oz":7893,"rick":7894,"Ġcher":7895,"ĠSS":7896,"Ġcomic":7897,"Ġjoke":7898,"ĠChicago":7899,"Ġreputation":7900,"Ġcorn":7901,"Ġfunctional":7902,"Ġregulations":7903,"Ġchannels":7904,"Ġrapidly":7905,"Ġalleged":7906,"Ġconfirmed":7907,"\"It":7908,"..Ċ":7909,"fall":7910,"requ":7911,"atus":7912,"Ġinher":7913,"Ġhealing":7914,"ĠBoy":7915,"essions":7916,"Ġroles":7917,"ĠChange":7918,"Ġwhereas":7919,"ommod":7920,"Ġfaced":7921,"Ġaudio":7922,"Ġcameras":7923,"Mr":7924,"tte":7925,"ãĢ":7926,"ÂłB":7927,"Ġprohib":7928,"ogether":7929,"Ġconsists":7930,"Ġlaid":7931,"ashes":7932,"ĠCreat":7933,"ĠSyria":7934,"Ġinitially":7935,"Ã¢":7936,"Ġmit":7937,"alysis":7938,"Ġstatic":7939,"Ġuniform":7940,"Ġunderlying":7941,"Ġconfront":7942,"ĠBlue":7943,"Ġbehaviour":7944,"Ġhorror":7945,"ds":7946,"ione":7947,"Ġrefe":7948,"Ġdefect":7949,"Ġroots":7950,"Ġrecover":7951,"Ġgreatly":7952,"Ġimmigr":7953,"Ġhotel":7954,"Ġconducted":7955,"',Ċ":7956,"idf":7957,"ĠFed":7958,"ials":7959,"ĠHell":7960,"Ġextension":7961,"Ġauthorities":7962,"Ġfacilities":7963,"Ġprocedures":7964,"ĠMuslims":7965,"Ġdivided":7966,"wing":7967,"idi":7968,"amps":7969,"izer":7970,"Ġcorrel":7971,"Ġdifficulty":7972,"Ġrecognized":7973,"Ġfucking":7974,"ĠHenry":7975,"/t":7976,"map":7977,"Ġreverse":7978,"umes":7979,"Ġfee":7980,"Ġapproaches":7981,"bre":7982,"ÙĬ":7983,"ckets":7984,"ustration":7985,"Ġunex":7986,"Ġguitar":7987,"gal":7988,"Ġthorough":7989,"Ġlens":7990,"ĠCN":7991,"pled":7992,"Ġhappiness":7993,"Ġorganized":7994,"Ġ//":7995,"Ġbits":7996,"alog":7997,"astern":7998,"ĠCamp":7999,"ĠMont":8000,"izabeth":8001,"Ġchecked":8002,"Ġinvolving":8003,"ĠSpace":8004,"Ġencounter":8005,"Ġfluid":8006,"idelines":8007,"press":8008,"Ġvert":8009,"orous":8010,"ĠDespite":8011,"ribed":8012,"Maybe":8013,"!!Ċ":8014,"Ġtied":8015,"erver":8016,"oted":8017,"istor":8018,"Ġdose":8019,"Ġmarked":8020,"Ġbiological":8021,"Ġdivision":8022,"Ġignor":8023,"Ġtoilet":8024,"62":8025,"break":8026,"rich":8027,"Ġgre":8028,"ĠFood":8029,"Ġrefused":8030,"Ġlayers":8031,"Ġenemies":8032,"(t":8033,"Does":8034,"Ġtube":8035,"ĠWood":8036,"Ġenorm":8037,"Ġsheet":8038,"Ġassert":8039,"comes":8040,"Ġexplicit":8041,"Ġsupports":8042,"ĠExper":8043,"Ġreplied":8044,"Ġcategories":8045,"Twitter":8046,"-he":8047,"600":8048,"].Ċ":8049,"cal":8050,"uan":8051,"void":8052,"ĠTal":8053,"Ġsovere":8054,"ĠLab":8055,"sole":8056,"ĠIsland":8057,"ambling":8058,"ĠRemember":8059,"Ġphilosophy":8060,"ĠCouncil":8061,"ME":8062,"Ġpub":8063,"ĠNor":8064,"aka":8065,"Ġlips":8066,"agement":8067,"Ġowned":8068,"Ġproved":8069,"Ġdiscount":8070,"Ġdiscovery":8071,"Ġcenturies":8072,"ĠBeing":8073,"Ġtracks":8074,"Ġrepresented":8075,"normal":8076,"inet":8077,"ima":8078,"ĠBad":8079,"Ġvoid":8080,"Ġimpression":8081,"Ġpoison":8082,"Ġcommission":8083,"Ġcrash":8084,"Ġrefuge":8085,"Ġdependent":8086,"Ġmedication":8087,"Ġvegetables":8088,"Pre":8089,"Ġlunch":8090,"Ġnotion":8091,"ĠWord":8092,"ĠOl":8093,"Ġcrimes":8094,"Ġpassage":8095,"Ġdrops":8096,"BA":8097,"fs":8098,"Ġfired":8099,"Ġlists":8100,"ĠMot":8101,"essed":8102,"ĠPublic":8103,"ĠEp":8104,"Ġgenre":8105,"Ġdivide":8106,"Ġincredible":8107,"85":8108,"Did":8109,"ati":8110,"Ġpm":8111,"anwhile":8112,"Ġdies":8113,"ÂłF":8114,"redit":8115,"grad":8116,"Ġpersons":8117,"Ġattorney":8118,"Ġtransaction":8119,"Ġ/><":8120,"Ġprotest":8121,"Ġchecking":8122,"Ġconnections":8123,"Ġpleasure":8124,"ĠDesign":8125,"Ġpermanent":8126,"een":8127,"ifferent":8128,"Ġsuitable":8129,"apor":8130,"Ġdont":8131,"Ġaccommod":8132,"Ġinformed":8133,"Ġrecording":8134,"Ġvictory":8135,"Ġchemicals":8136,"Ġbills":8137,"Ġnurs":8138,"ĠCare":8139,"Ġdisorders":8140,"Ġreads":8141,"archy":8142,"Ġsecondary":8143,"Ġconstra":8144,"Ġintellectual":8145,"ĠVirgin":8146,"ĠPS":8147,"ĠHolly":8148,"ĠDen":8149,"ĠDark":8150,"ĠLead":8151,"icking":8152,"away":8153,"Ġparallel":8154,"Ġnearby":8155,"Ġmurd":8156,"Ġarrested":8157,"Ġsuffered":8158,"Ġwaves":8159,"Ġstages":8160,"Ġtroub":8161,"obby":8162,"ÂłÂłÂł":8163,"Ġmagazine":8164,"ART":8165,"Ġdrawing":8166,"Mod":8167,"RI":8168,"kip":8169,"vt":8170,"rend":8171,"iser":8172,"Ġbatt":8173,"lean":8174,"Ġrenew":8175,"eta":8176,"ults":8177,"Ġresidents":8178,"Ġproduces":8179,"Ġcircle":8180,"Ġenforcement":8181,"cest":8182,"ĠCase":8183,"ĠCEO":8184,"ĠRoad":8185,"onscious":8186,"Ġinstruct":8187,"Ġcommitment":8188,"Ġweakness":8189,"Two":8190,"Will":8191,"such":8192,"ÙĨ":8193,"Ġtooth":8194,"ĠSum":8195,"Âłw":8196,"aved":8197,"Ġexpectations":8198,"Ġaccompan":8199,"Ġmanufacturing":8200,"Ġsubstance":8201,"ĠWhether":8202,"ĠAssociation":8203,"-E":8204,".t":8205,"ION":8206,"ĠWay":8207,"ĠHaw":8208,"iah":8209,"Ġfoundation":8210,"ussion":8211,"Ġloans":8212,"after":8213,"good":8214,"po":8215,"inst":8216,"Ġcats":8217,"organ":8218,"Ġupset":8219,"Ġknock":8220,"Ġdesired":8221,"Ġbranch":8222,"string":8223,"ĠPalest":8224,"rine":8225,"Ġdys":8226,"image":8227,"gel":8228,"âĢĻ,":8229,"Ġchronic":8230,"inds":8231,"Ġthrown":8232,"Ġlessons":8233,"Ġmemor":8234,"-cont":8235,"Ġlapt":8236,"Ġnutri":8237,"Ġchoosing":8238,"Ġderived":8239,"Ġscholars":8240,"ĠOffice":8241,"ĠNASA":8242,"reated":8243,"Ġbags":8244,"enger":8245,"Ġreferences":8246,"Âłd":8247,"Ġadequ":8248,"Ġcoach":8249,"erman":8250,"merican":8251,"Ġexplos":8252,"Ġcrack":8253,"Ġbaseball":8254,"Ġcriteria":8255,"aa":8256,"ket":8257,"orph":8258,"Ġyours":8259,"Ġcovers":8260,"prise":8261,"Ġestate":8262,"Ġphysically":8263,"ĠCharl":8264,"Object":8265,"ÂŃ":8266,"Ð»":8267,"Ġtip":8268,"ĠMaster":8269,"ÂłT":8270,"theless":8271,"Ġequation":8272,"Ġaffects":8273,"Ġrepresentation":8274,"ĠPosts":8275,"Ġticket":8276,"Ġroughly":8277,"%Ċ":8278,"ÃŃ":8279,"Ùħ":8280,"Ġwage":8281,"geon":8282,"ĠFigure":8283,"ĠKh":8284,"orses":8285,"Ġmaintaining":8286,"Ġsentences":8287,"Ġspeaker":8288,"ĠMedia":8289,"Ġintegration":8290,"Ġcalculated":8291,"ĠKorean":8292,"Ġscheme":8293,"Ġears":8294,"Ġreactions":8295,"ĠAC":8296,"Âłto":8297,"ĠEduc":8298,"ĠKim":8299,"Ġovercome":8300,"Ġactor":8301,"101":8302,"Ġsurve":8303,"ĠOnline":8304,"value":8305,"Ġassumed":8306,"ĠMartin":8307,"Ġconsciousness":8308,"Ġunusual":8309,"97":8310,"tical":8311,"Ġmask":8312,"Ġmarijuana":8313,"Ġbeach":8314,"oty":8315,"urse":8316,"Ġcompr":8317,"ĠYear":8318,"Ġscrew":8319,"Ġsupplement":8320,"Ġcourts":8321,"aneously":8322,"Ġaccomplish":8323,"ĠProfess":8324,"-qu":8325,"_b":8326,"awn":8327,"include":8328,"enter":8329,"ĠTable":8330,"Ġhabits":8331,"ĠWal":8332,"Ġlean":8333,"ieve":8334,"Ġadmitted":8335,"Ġflav":8336,"ervice":8337,"connect":8338,"ĠCommission":8339,"Ġargued":8340,"Ġassessment":8341,"ĠAuthor":8342,"BM":8343,"mat":8344,"Ġmob":8345,"Ġgained":8346,"ownt":8347,"Ġconvert":8348,"ĠMoon":8349,"umin":8350,"ĠDC":8351,"acts":8352,"eping":8353,"Ġampl":8354,"oval":8355,"Ġincent":8356,"Ġchildhood":8357,"Ġreporting":8358,"Ġ<<":8359,"Ġparticipate":8360,"Ġtension":8361,"itivity":8362,"Ġpace":8363,"ĠDan":8364,"orted":8365,"ĠEconom":8366,"agger":8367,"cip":8368,"izz":8369,"Ġages":8370,"Ġcultures":8371,"Ġsearching":8372,"Ġfitness":8373,"Ġmerch":8374,"Ġstretch":8375,"\")Ċ":8376,",'":8377,"During":8378,"iture":8379,"Ġhire":8380,"ĠThrough":8381,"ĠComm":8382,"Ġperforming":8383,"ĠSea":8384,"Ġtargets":8385,"Ġsequences":8386,"-idf":8387,"Make":8388,"Ġtape":8389,"ester":8390,"Ġcontained":8391,"Ġpron":8392,"Ġapplies":8393,"ometry":8394,"Ġdirections":8395,"Ġchecks":8396,"Ġlandscape":8397,"ĠPlus":8398,"Ġdamn":8399,"Ġimplemented":8400,"Ġultimate":8401,"Ġmortgage":8402,"NE":8403,"life":8404,"itled":8405,"isp":8406,"Ġfed":8407,"ĠAS":8408,"uled":8409,"ÂłThis":8410,"Ġuncle":8411,"ools":8412,"Ġphysics":8413,"Ġsilver":8414,"Ġexperiments":8415,"jo":8416,"iner":8417,"Ġham":8418,"ushing":8419,"ĠDar":8420,"onder":8421,"Ġinjuries":8422,"Ġordinary":8423,"Ġdistributed":8424,"Ġconcentration":8425,"Ġconventional":8426,"Ġbrowser":8427,"GB":8428,"_n":8429,"itals":8430,"Ġfur":8431,"stone":8432,"Ġgang":8433,"Ġ(\"":8434,"Ġabilities":8435,"asts":8436,"ubble":8437,"Ġgrid":8438,"Ġinsight":8439,"Ġcentre":8440,"Ġconcrete":8441,"Ġlinear":8442,"Ġconsideration":8443,"Ġobjective":8444,"Ġparameter":8445,"TML":8446,"Ġok":8447,"Ġgig":8448,"ĠCode":8449,"Âłc":8450,"Ġchocolate":8451,"Ġaccum":8452,"Ġcheaper":8453,"Ġassault":8454,"Christ":8455,"\"You":8456,".P":8457,"PD":8458,"jud":8459,"cho":8460,"ĠMic":8461,"Ġcompe":8462,"Ġsuicide":8463,"Ġships":8464,"ĠDig":8465,"Ġalign":8466,"Ġsymp":8467,"Ġstudio":8468,"Ġles":8469,"abil":8470,"Ġpocket":8471,"Ġobst":8472,"Ġfacilit":8473,"Ġconvinced":8474,"Tube":8475,"Ġå":8476,"Ġsed":8477,"Ġpitch":8478,"Ġlaser":8479,"ĠAG":8480,"Ġalert":8481,"ĠSoci":8482,"Ġmeetings":8483,"Ġpropag":8484,"Ġvoted":8485,"bbed":8486,"Ġrequests":8487,"ĠAcadem":8488,"-out":8489,"eath":8490,"oured":8491,"ceive":8492,"Ġextensive":8493,"Ġ</":8494,"Ġstayed":8495,"Ġstruggling":8496,"Ġethnic":8497,"User":8498,"-end":8499,"Form":8500,"_id":8501,"gression":8502,"uction":8503,"inction":8504,"Ġhanging":8505,"ĠTreat":8506,"ĠPop":8507,"Ġcomposition":8508,"Ġrose":8509,"version":8510,"Ġissued":8511,"Ġtreatments":8512,"ĠOrgan":8513,"Ġinterpretation":8514,"Ġtongue":8515,"Saturday":8516,"sis":8517,"Ġ**":8518,"Ġfake":8519,"left":8520,"omed":8521,"ĠTem":8522,"ĠAR":8523,"ĠBi":8524,"ĠNaz":8525,"ĠKen":8526,"Ġconspir":8527,"prene":8528,"Ġbathroom":8529,"BI":8530,"born":8531,"iams":8532,"uity":8533,"Ġbin":8534,"esis":8535,"Ġraising":8536,"Ġenthus":8537,"Ġedit":8538,"Ġapproved":8539,"Ġannounce":8540,"Ġstimul":8541,"Ġphenomenon":8542,"$Ċ":8543,"_l":8544,"gi":8545,"Ġ...Ċ":8546,"Ġsli":8547,"Ġcake":8548,"Ġporn":8549,"Ġmixture":8550,"ali":8551,"Ġnerve":8552,"othe":8553,"Ġshout":8554,"Ġjail":8555,"Ġmyster":8556,"Ġcorrupt":8557,"ĠProgram":8558,"Ġlogical":8559,"Ġhopes":8560,"-K":8561,"Ġease":8562,"amine":8563,"Ġveter":8564,"anguage":8565,"ĠKingdom":8566,"Ġfantasy":8567,"!âĢĿ":8568,"$\\":8569,"Ste":8570,"\\<":8571,"father":8572,"Ġsne":8573,"itical":8574,"Ġbands":8575,"ĠMS":8576,"Ġshame":8577,"Ġpresentation":8578,"Ġtalent":8579,"ĠCharles":8580,"Ġplatforms":8581,"Ġtoxic":8582,"CD":8583,"}}":8584,"reprene":8585,"ĠFar":8586,"Ġouts":8587,"ĠJones":8588,"ĠThings":8589,"Ġspots":8590,"Ġbuff":8591,"Ġrealistic":8592,"Ġemployed":8593,"Ġabsence":8594,"ĠArticle":8595,"Hz":8596,"_f":8597,"oat":8598,"aron":8599,"oli":8600,"Ġgranted":8601,"fulness":8602,"Ġdemocratic":8603,"ĠLeague":8604,"Finally":8605,"PG":8606,"TS":8607,"rics":8608,"Ġsouthern":8609,"ulin":8610,"ĠMars":8611,"Ġdeploy":8612,"ĠResp":8613,"ĠThree":8614,"ĠInformation":8615,"Ġgrant":8616,"Ġbeneficial":8617,"Ġcolleagues":8618,"ognitive":8619,"ĠJustice":8620,"Ġindicates":8621,"ĠEveryone":8622,"Ġdiagnosis":8623,"HA":8624,"Ġoh":8625,"itudes":8626,"Ġeast":8627,"ifer":8628,"ĠCost":8629,"Ġshower":8630,"ĠThursday":8631,"Ġanybody":8632,"Ġsmiled":8633,"Ġversus":8634,"Ġfest":8635,"ĠSn":8636,"ĠBell":8637,"Ġpoem":8638,"seless":8639,"Ġassigned":8640,"pson":8641,"Ġdeaths":8642,"ĠAdam":8643,"Share":8644,"Ġjudgment":8645,"ĠIII":8646,"ĠLouis":8647,"cd":8648,"ĠType":8649,"ĠSqu":8650,"olving":8651,"Ġexceed":8652,"Ġdismiss":8653,"Ġprofits":8654,"rizwan":8655,"%,":8656,")(":8657,"/rizwan":8658,"Br":8659,"Under":8660,"Ġwedding":8661,"Ġongoing":8662,"ĠWars":8663,"ĠPot":8664,"ĠHit":8665,"ĠFamily":8666,"ĠKat":8667,"Ġresulted":8668,"Ġstops":8669,"ĠEmpire":8670,"vi":8671,"Ġtons":8672,"Ġsegment":8673,"ĠBow":8674,"ĠDVD":8675,"Ġdisaster":8676,"Ġmonster":8677,"ounce":8678,"Ġfigured":8679,"Ġmildronate":8680,"Ġvolunte":8681,"Ġwisdom":8682,"[edit":8683,"vas":8684,"Ġcodes":8685,"inging":8686,"ication":8687,"Ġasleep":8688,"Âła":8689,"Ġrum":8690,"throp":8691,"Ġinches":8692,"Ġsurely":8693,"Ġvisited":8694,"Ġcreature":8695,"ictionary":8696,"Ġcounsel":8697,"Error":8698,"/components":8699,"TA":8700,"width":8701,"html":8702,"ĠWomen":8703,"Ġneuro":8704,"eless":8705,"irector":8706,"iox":8707,"Ġsinging":8708,"Ġguarantee":8709,"Ġ!=":8710,"ĠAfghanistan":8711,"Book":8712,"FD":8713,"itarian":8714,"Ġthroat":8715,"Ġholes":8716,"Ġnode":8717,"imer":8718,"ĠHaving":8719,"ictions":8720,"Ġprescription":8721,"Ġartificial":8722,"Ġelectron":8723,"Ġcyber":8724,"Ġreaching":8725,"Ġmagnetic":8726,"ĠÃĹ":8727,"Ġaer":8728,"Ġsilly":8729,"Ġstack":8730,"ĠSon":8731,"ĠPan":8732,"Ġven":8733,"eling":8734,"Ġarbit":8735,"ĠURL":8736,"icked":8737,"Ġrail":8738,"Ġinstant":8739,"Ġcurve":8740,"Ġfacility":8741,"Ġfrequent":8742,"ĠGeorg":8743,"ĠCatholic":8744,"Ġhence":8745,"FF":8746,"Time":8747,"some":8748,"Ġ}Ċ":8749,"Ġgaming":8750,"ĠBudd":8751,"Ġleather":8752,"alling":8753,"Ġarmed":8754,"necess":8755,"Ġdeserve":8756,"Ġhandling":8757,"Ġdrives":8758,"Ġmolecules":8759,"$,":8760,"cr":8761,"got":8762,"omatic":8763,"Ġdeleg":8764,"ĠNY":8765,"Ġ-Ċ":8766,"ĠKenn":8767,"Ġdefic":8768,"Ġspecified":8769,"ĠMarx":8770,"Ġaccessible":8771,"Ġcircuit":8772,"Ġpriority":8773,"ĠIslamic":8774,"Ġprospect":8775,"63":8776,"Hi":8777,"bably":8778,"Ġsle":8779,"roph":8780,"Ġarc":8781,"Ġroyal":8782,"Ġinteractions":8783,"Ġgenerations":8784,"ĠDeb":8785,"Ġtempt":8786,"Ġanticip":8787,"missions":8788,"Ġpulling":8789,"Ġruling":8790,"Ġterritory":8791,"ĠLinux":8792,"Connecting":8793,"gain":8794,"mond":8795,"ÙĲ":8796,"Ġrating":8797,"ntil":8798,"oston":8799,"ĠNeed":8800,"Ġevident":8801,"Ġquery":8802,"ĠInf":8803,"Ġprepar":8804,"....Ċ":8805,"Ġprobability":8806,"Ġviewed":8807,"ĠIndeed":8808,"Ġcreatures":8809,"ĠMoreover":8810,"erning":8811,"Ġcham":8812,"Ġresolve":8813,"Ġscared":8814,"thew":8815,"Ġcorruption":8816,"brid":8817,"Ġdrunk":8818,"Ġeducational":8819,"Ġcollapse":8820,"Ġnuts":8821,"Ġvirtually":8822,"Ġpreferred":8823,"ĠQueen":8824,"ĠFurthermore":8825,"LC":8826,"_name":8827,"gly":8828,"oir":8829,"item":8830,"owered":8831,"ĠCra":8832,"ondition":8833,"ĠShow":8834,"arrass":8835,"Ġthreats":8836,"Ġadvantages":8837,"words":8838,"Ġdemonstrated":8839,"Ġbonds":8840,"Ġarchitecture":8841,"ois":8842,"rons":8843,"west":8844,"ouch":8845,"Ġdirty":8846,"Ġnan":8847,"oline":8848,"Ġwash":8849,"Ġsear":8850,"ĠHope":8851,"iece":8852,"begin":8853,"Ġmarks":8854,"Ġserves":8855,"Ġsword":8856,"ĠNothing":8857,"Ġstatistics":8858,"Ġbrothers":8859,"Ġattractive":8860,"Ġuniversal":8861,"Top":8862,"isk":8863,"Ġmile":8864,"ĠCast":8865,"Ġsections":8866,"inder":8867,"ĠYoung":8868,"Ġentr":8869,"-called":8870,"Ġpainful":8871,"aneous":8872,"Ġidentical":8873,"Ġcommenting":8874,"Ġacceptable":8875,"Ġfilling":8876,"Ġirrit":8877,"Ġfantastic":8878,"Ġdialogue":8879,"rec":8880,"imm":8881,"ĠBern":8882,"Ġtends":8883,"ocy":8884,"Ġ:=":8885,"Ġsensor":8886,"Ġdisagree":8887,".<":8888,"pg":8889,"otype":8890,"ithub":8891,"ĠLatin":8892,"ernel":8893,"Ġrooms":8894,"Ġexecution":8895,"Ġconfiguration":8896,"MO":8897,"spe":8898,"Ġcute":8899,"otes":8900,"ilst":8901,"Ġdeals":8902,"isting":8903,"Ġresid":8904,"oven":8905,"Ġregister":8906,"Ġpresum":8907,"\"We":8908,"lo":8909,"uits":8910,"ĠJac":8911,"Ġtears":8912,"Ġagric":8913,"Ġspir":8914,"Ġtransactions":8915,"âĢĶand":8916,"Ġhumanity":8917,"Ġindicated":8918,"Ġstruck":8919,"ĠAND":8920,"HD":8921,"pot":8922,"Ġdump":8923,"ami":8924,"ĠNa":8925,"acon":8926,"Ġdiverse":8927,"Ġemployer":8928,"Ġlifetime":8929,"EG":8930,"Ġtheat":8931,"Ġsake":8932,"atoes":8933,"Ġpills":8934,"Ġrevers":8935,"ĠSign":8936,"Ġancest":8937,"Ġlegend":8938,"ocument":8939,"ĠTeam":8940,"Ġburst":8941,"ĠAustralian":8942,"********":8943,"Value":8944,"comfortable":8945,"-N":8946,"110":8947,"Gl":8948,"ba":8949,"edge":8950,"Ġhes":8951,"ĠHard":8952,"Ġmeals":8953,"achel":8954,"Ġquit":8955,"Ġboot":8956,"atching":8957,"Ġcontinuous":8958,"ĠPrime":8959,"Ġdeliber":8960,"Ġrecognition":8961,"Ġexercises":8962,"Ġtranslation":8963,"Ġreplacement":8964,"Ġadopted":8965,".I":8966,"AV":8967,"sub":8968,"Ġgam":8969,"ĠAge":8970,"ifice":8971,"Ġspons":8972,"athan":8973,"mittee":8974,"Ġignored":8975,"Ġconversations":8976,"Ġfraction":8977,"mathbb":8978,"Ġridiculous":8979,"Ġcomprehensive":8980,"occ":8981,"Ġcott":8982,"Ġpix":8983,"ĠHall":8984,"Ġminister":8985,"ĠPlay":8986,"Ġspeakers":8987,"Ġtracking":8988,"Ġintegrated":8989,"Ġcommittee":8990,"Ġodds":8991,"Ġsubsequent":8992,"Ġfabric":8993,"-W":8994,"Mar":8995,"RS":8996,"Sign":8997,"ä¸":8998,"ito":8999,"ĠSher":9000,"Ġunem":9001,"Ġpover":9002,"Ġmatrix":9003,"ĠEngine":9004,"Ġdamaged":9005,"Ġhonestly":9006,"Ġintelligent":9007,"PP":9008,"isa":9009,"ader":9010,"ĠMach":9011,"ĠBall":9012,"ÂłWe":9013,"Ġprovider":9014,"Ġmodified":9015,"Ġexpenses":9016,"Ġpowder":9017,"Ġjuice":9018,"72":9019,"?)":9020,"cut":9021,"Ġpupp":9022,"Ġhal":9023,"olves":9024,"Ġseeds":9025,"ĠNik":9026,"Ġconfusion":9027,"-min":9028,"!!!!":9029,"Ġhorrible":9030,"ĠAdditionally":9031,"Ret":9032,"|Ċ":9033,"Ġrib":9034,"ĠWalk":9035,"Ġshots":9036,"osa":9037,"ipher":9038,"Ġperm":9039,"Ġscores":9040,"Ġsetup":9041,"State":9042,"Ġbeneath":9043,"Ġpsychological":9044,"Trans":9045,"Ġwithdraw":9046,"Ġpoverty":9047,"FO":9048,"aire":9049,"uum":9050,"Ġfought":9051,"ĠNon":9052,"ĠJon":9053,"Ġentity":9054,"pending":9055,"Ġcontinuing":9056,"Ġtrends":9057,"ĠConf":9058,"Ġintroduce":9059,"Ġmonitoring":9060,"Ġgravity":9061,"Ġconvenient":9062,"Ġenormous":9063,"79":9064,"wen":9065,"Ñĥ":9066,"Ġmg":9067,"Ġhorses":9068,"ador":9069,"Ġactors":9070,"phones":9071,"azy":9072,"ĠSpain":9073,"Config":9074,"Ġpurchased":9075,"Ġsilence":9076,"Ġupdates":9077,"Ġmoist":9078,"Ġforgotten":9079,"à¤¾à¤":9080,"%.":9081,"AY":9082,"Tra":9083,"];Ċ":9084,"post":9085,"Ġought":9086,"Ġdying":9087,"Ġdumb":9088,"Ġstability":9089,"ĠRand":9090,"Ġlip":9091,"ĠComments":9092,"Ġtempl":9093,"Ġbreakfast":9094,"ĠElizabeth":9095,"when":9096,"including":9097,"ĠIre":9098,"Ġgif":9099,"ĠLos":9100,"Ġprime":9101,"Ġpreced":9102,"Ġnewly":9103,"Ġapplying":9104,"azz":9105,"iscal":9106,"ĠEnter":9107,"ĠGuide":9108,"Ġutter":9109,"Ġinjured":9110,"Photo":9111,"Ġaccuracy":9112,"ĠÏ":9113,"Ġgut":9114,"Ġdos":9115,"apore":9116,"Ġcontrad":9117,"asses":9118,"Ġworker":9119,"Ġscope":9120,"Ġthrowing":9121,"Ġinstances":9122,"Ġmodule":9123,"Ġbasket":9124,"Ġstrengthen":9125,"Ġsettled":9126,"Ġminority":9127,"Ġpremium":9128,"Ġassembly":9129,"Ġinnocent":9130,"-ray":9131,"EST":9132,"Log":9133,"Ġsought":9134,"uto":9135,"âĢĻ.":9136,"Ġabortion":9137,"obj":9138,"Ġsyndrome":9139,"Ġdiabetes":9140,"-de":9141,"Ġeconomics":9142,"ĠZe":9143,"Ġinfected":9144,"Ġwarrant":9145,"ĠMike":9146,"ĠFox":9147,"ptic":9148,"Ġcontemporary":9149,"ĠViet":9150,"Ġattach":9151,"Ġregulation":9152,"Ġpopulations":9153,"Ġphotograph":9154,"Ġattacked":9155,"Ġeliminate":9156,"Ġmystery":9157,"((":9158,"fol":9159,"Ġbars":9160,"Ġpod":9161,"lem":9162,"Ġseed":9163,"Ġvocal":9164,"ĠLittle":9165,"ĠUlt":9166,"Ġmainstream":9167,"Ġimmigration":9168,"Ġconversion":9169,"Ø§ÙĦ":9170,"Ġlaunched":9171,"':":9172,"CO":9173,"Des":9174,"RNA":9175,"rid":9176,"Ð²":9177,"Ġtrop":9178,"Ġcave":9179,"Ġlocked":9180,"Ġstir":9181,"ĠAh":9182,"ĠWin":9183,"Ġcann":9184,"Ġalarm":9185,"Ġkin":9186,"../":9187,"Ġcloth":9188,"Ġspray":9189,"elly":9190,"Ġpresc":9191,"Ġtransmission":9192,"array":9193,"Ġengaging":9194,"Ġpromised":9195,"ĠAdv":9196,"Ġaddressed":9197,"Ġcontribution":9198,"Ġlawyers":9199,"\"\"":9200,"Ġfits":9201,"Ġine":9202,"ĠHim":9203,"ĠFig":9204,"Ġjury":9205,"ĠInvest":9206,"Ġdrinks":9207,"Ġdefeat":9208,"Ġimpressive":9209,"Ġvulnerable":9210,"athered":9211,"Ġren":9212,"ĠCould":9213,"ĠExt":9214,"aph":9215,"Ġcontents":9216,"Ġremoving":9217,"Ġpointing":9218,"rosc":9219,"Ġopponent":9220,"ĠJohnson":9221,"Ġembarrass":9222,"Ġcorporations":9223,"Ġquantum":9224,"ĠNetwork":9225,"charge":9226,"Ġmechanisms":9227,"Ġcorresponding":9228,"mble":9229,"Ġol":9230,"idance":9231,"ĠSD":9232,"oln":9233,"ĠCard":9234,"ĠMult":9235,"ĠWild":9236,"ĠDream":9237,"everal":9238,"Ġseemingly":9239,"186":9240,"189":9241,"ĠCommon":9242,"Ġcapabilities":9243,"Ġengines":9244,"Ġfallen":9245,"Ġagenda":9246,"gener":9247,"Ġtitles":9248,"ĠWilliams":9249,"ĠEverything":9250,"ĠSimilar":9251,"Ã³":9252,"Ġtheories":9253,"Ġhip":9254,"igate":9255,"ĠHD":9256,"Ġchrom":9257,"ĠRay":9258,"agine":9259,"Ġperpet":9260,"Ġpride":9261,"ello":9262,"Ġintervention":9263,"Ġavatar":9264,"Ġexisted":9265,"Ġmechanical":9266,"Ġindependence":9267,"Ġsubstantial":9268,"ĠHollywood":9269,"-pl":9270,"Join":9271,"Mark":9272,"Ġfib":9273,"Ġpour":9274,"olen":9275,"ĠRyan":9276,"ĠNO":9277,"ĠLic":9278,"Ġminimal":9279,"exp":9280,"Ġposting":9281,"Ġpasses":9282,"Ġglasses":9283,"Ġtonight":9284,"Ġrhyth":9285,"-k":9286,"idation":9287,"cha":9288,"ĠNick":9289,"acher":9290,"ĠVery":9291,"Ġarts":9292,"Ġdestination":9293,"Ġrequirement":9294,"Ġvolt":9295,"Ġassociation":9296,"clusions":9297,"Ġsauce":9298,".</":9299,"Ġtub":9300,"Ġfir":9301,"Ġpy":9302,"Ġdates":9303,"ĠNob":9304,"rug":9305,"ĠKnow":9306,"Ġaccused":9307,"Ġgeneric":9308,"Ġirre":9309,"Ġpresidential":9310,"Ġstrategic":9311,"Ġtransportation":9312,"Ġrestrictions":9313,"Ġentertainment":9314,"ĠHelp":9315,"Ġbrilliant":9316,"-Ċ":9317,".l":9318,"Dec":9319,"HS":9320,"Sm":9321,"Ġtwe":9322,"Ġinqu":9323,"Ġheal":9324,"ĠCur":9325,"Ġshr":9326,"ĠRef":9327,"ĠRights":9328,"Ġallerg":9329,"ĠChamp":9330,"-cent":9331,"Ġenjoying":9332,"Ġcitizen":9333,"ĠConsider":9334,"Ġcertific":9335,"Ġnewspaper":9336,"-cl":9337,"ho":9338,"stra":9339,"Ġrend":9340,"rape":9341,"ĠGames":9342,"Ġshoulders":9343,"Ġincom":9344,"Ġentering":9345,"ĠAsian":9346,"Ġvisiting":9347,"Ġswit":9348,"Ġindustries":9349,"Ġsquee":9350,"Ġarrive":9351,"ĠâĪĴ":9352,"Ġbass":9353,"Ġfert":9354,"Ġdancing":9355,"Ġinsect":9356,"imensional":9357,"Ġupload":9358,"Ġemissions":9359,"âĢľI":9360,"ĠScot":9361,"ĠServices":9362,"TV":9363,"Ðº":9364,"Ġpand":9365,"owed":9366,"ĠMah":9367,"Ġoutl":9368,"Ġoutcomes":9369,"Ġdisg":9370,"-J":9371,"?!":9372,"Ġsizes":9373,"Ġwars":9374,"Ġfont":9375,"Ġloving":9376,"ĠMom":9377,"opl":9378,"ĠHot":9379,"ĠFort":9380,"Ġpresents":9381,"ĠBrad":9382,"Ġmonthly":9383,"Ġfails":9384,"Ġimagination":9385,"Ġsweat":9386,"opyright":9387,"vious":9388,"Ġorange":9389,"ÂłIn":9390,"ĠWikipedia":9391,"Ġshirt":9392,"udge":9393,"Ġpean":9394,"Ġuncomfortable":9395,"Ġcourses":9396,"Ġheaded":9397,"Ġconcerning":9398,"Ġvend":9399,"Ġwondered":9400,"-hand":9401,"Ġmeasurement":9402,"Ġcryst":9403,"Ġmeldonium":9404,"-line":9405,">T":9406,"FA":9407,"pse":9408,"Ġpound":9409,"cture":9410,"pling":9411,"owned":9412,"avid":9413,"Ġspoken":9414,"Ġgramm":9415,"Ġroof":9416,"ttes":9417,"ĠâĨ":9418,"Ġmanufacturers":9419,"Ġdramatic":9420,"Ġadventure":9421,"Ġsummary":9422,"because":9423,"door":9424,"ôĢ":9425,"Ġicon":9426,"itative":9427,"ethe":9428,"Ġforum":9429,"ĠScient":9430,"ifier":9431,"izza":9432,"Ġresident":9433,"ĠYOU":9434,"nergy":9435,"ATE":9436,"Ġtraveling":9437,"Ġcontainer":9438,"Ġprecisely":9439,"RP":9440,"Search":9441,"natural":9442,"Ġcough":9443,"Ġhill":9444,"fections":9445,"Ġcompound":9446,"Ġunp":9447,"ĠStan":9448,"ĠProv":9449,"Ġstocks":9450,"Ġgradually":9451,"Ġmirror":9452,"ĠFoundation":9453,"power":9454,"rooms":9455,"Ġconj":9456,"ĠEll":9457,"ĠEqu":9458,"ĠLink":9459,"Ġaggressive":9460,"ĠStory":9461,"Ġregional":9462,"Ġassumption":9463,"incoln":9464,"Ġsubtle":9465,"(i":9466,"-com":9467,"wart":9468,"Ġna":9469,"Ġgir":9470,"ĠDaniel":9471,"ĠLibr":9472,"Ġsimult":9473,"Ġasset":9474,"Ġestimate":9475,"ĠQuest":9476,"Ġflowers":9477,"Ġdemonstrate":9478,"Ġinstruments":9479,"Ġpenalty":9480,"(n":9481,"/C":9482,"89":9483,"Whe":9484,"data":9485,"Ġcrap":9486,"ĠPen":9487,"ĠPass":9488,"ĠRome":9489,"Ġpersu":9490,"Ġguidelines":9491,"Ġworldwide":9492,"Ġclassroom":9493,"Ġbrands":9494,"Ġapproval":9495,"Ġclaiming":9496,"aska":9497,"ĠGener":9498,"Ġdenied":9499,"Ġcasual":9500,"Ġsemi":9501,"Ġalgorithms":9502,"Gu":9503,"Her":9504,"dated":9505,"utors":9506,"Âłf":9507,"ĠGiven":9508,"ĠLED":9509,"ollowing":9510,"Ġlovely":9511,"Ġsignificance":9512,"Ġbedroom":9513,"Ġmountains":9514,"Ġhttps":9515,"Ġcriticism":9516,"Ġnavigation":9517,"uten":9518,"amples":9519,"ĠSir":9520,"ÂłL":9521,"Ġdozen":9522,"ĠRo":9523,"ĠLuc":9524,"Ġclosing":9525,"ova":9526,"Ġacids":9527,"Ġexamine":9528,"flu":9529,"Ġexperiencing":9530,"check":9531,"Ġinfluenced":9532,"Ġlosses":9533,"ependent":9534,"Ġmeaningful":9535,"Ġburden":9536,"olicy":9537,"Ġevaluate":9538,"ĠIreland":9539,"700":9540,"pa":9541,"Ġwider":9542,"Ġpink":9543,"Ġinh":9544,"Ġhitting":9545,"Ġnit":9546,"utive":9547,"Ġvamp":9548,"ĠDead":9549,"Ġcontra":9550,"Ġsupplies":9551,"ĠAdminist":9552,"Ġconvince":9553,"Ġexcuse":9554,"aptain":9555,"Ġmaxim":9556,"Ġathletes":9557,"ĠJoseph":9558,"func":9559,"Ġpants":9560,"ĠCreate":9561,"Ġdeck":9562,"ĠEric":9563,"Ġunnecess":9564,"Ġpermission":9565,"Ġawful":9566,"Ġmini":9567,"Ġopens":9568,"Ġdrag":9569,"Ġlanding":9570,"ĠReport":9571,"Ġbroadcast":9572,"Ġdominant":9573,"ĠAcademy":9574,"pi":9575,"Ġdil":9576,"ĠSky":9577,"ira":9578,"Ġwelf":9579,"Ġrural":9580,"Ġaggreg":9581,"Ġproviders":9582,"ĠBlood":9583,"puter":9584,"Click":9585,"Ġwalks":9586,"ĠEducation":9587,"Ġsoph":9588,"Ġmouse":9589,"Ġtoss":9590,"Ġnorthern":9591,"ĠCall":9592,"Ġexit":9593,"about":9594,"Ġkil":9595,"Ġliver":9596,"Ġscreens":9597,"ften":9598,"ĠĠĠĠĠ":9599,"Ġtempor":9600,"Ġaccounting":9601,"Ġremembered":9602,"Home":9603,"PL":9604,"mg":9605,"pread":9606,"Ø±":9607,"ÙĴ":9608,"Ġq":9609,"erk":9610,"ĠMuch":9611,"pered":9612,"uming":9613,"Ġperception":9614,"Ġrolled":9615,"Ġbrut":9616,"lected":9617,"Ġexplaining":9618,"screen":9619,"Ġaircraft":9620,"Ġmarg":9621,"Ġcovering":9622,"Ġboxes":9623,"Ġwelfare":9624,"Met":9625,"iar":9626,"ĠðŁ":9627,"Ġlux":9628,"otion":9629,"ĠSupp":9630,"ĠCa":9631,"ĠBoston":9632,"Ġplates":9633,"asting":9634,"berry":9635,"Ġentitled":9636,"inson":9637,"Ġapolog":9638,"-mail":9639,"Ġfocusing":9640,"Ġdiscussing":9641,"Ġamongst":9642,"Ġheaven":9643,"Ġlimitations":9644,"Ġfruits":9645,"Second":9646,"Set":9647,"Ġstere":9648,"Ġabund":9649,"Ġthemes":9650,"Ġflaw":9651,"ĠSoft":9652,"Ġservers":9653,"Ġparad":9654,"Ġfeeding":9655,"Ġvisitors":9656,"Ġcinema":9657,"Ġproportion":9658,"Ġmetabol":9659,"));Ċ":9660,"TF":9661,"bow":9662,"Ġwins":9663,"Ġgest":9664,"Ġgym":9665,"urable":9666,"ĠSep":9667,"ĠCurrent":9668,"ĠRather":9669,"Inter":9670,"Ġcaptured":9671,"Ġfifth":9672,"ĠSociety":9673,"Hel":9674,"TR":9675,"_in":9676,"Ġtap":9677,"Ġtherap":9678,"Ġwid":9679,"Ġbite":9680,"arters":9681,"emed":9682,"elcome":9683,"asted":9684,"Ġperceived":9685,"mann":9686,"Ġpopularity":9687,"Ġmildonium":9688,"Ġimplications":9689,"dy":9690,"Ġlift":9691,"ĠColl":9692,"Ġseats":9693,"ĠFriend":9694,"itty":9695,"atern":9696,"Ġhearts":9697,"Ġstyles":9698,"Despite":9699,"eger":9700,"ĠMain":9701,"gebra":9702,"Ġjun":9703,"Ġintr":9704,"Ġcompat":9705,"Ġimportantly":9706,"ĠMedical":9707,"Ġcollective":9708,"ĠInterest":9709,"Ġcampaigns":9710,"Ġacknowled":9711,"Ġoverwhelming":9712,"/h":9713,"overs":9714,"run":9715,"Ã¼":9716,"Ġcant":9717,"Ġfet":9718,"Ġdent":9719,"aunt":9720,"Ġmanaging":9721,"Ġflesh":9722,"Ġinterrupt":9723,"cycl":9724,"Ġmatches":9725,"Ġprocessed":9726,"ugs":9727,"Ġbadly":9728,"Ġ|Ċ":9729,"vironments":9730,"Ġhopefully":9731,"Ġsafely":9732,"Ġmeasurements":9733,"ĠChristianity":9734,"Ġfarmers":9735,"Ġflexible":9736,"Ġlaptop":9737,"Ġconspiracy":9738,".n":9739,"fire":9740,"Ġcure":9741,"Ġster":9742,"Ġstations":9743,"ĠJason":9744,"ĠHead":9745,"Those":9746,"bsp":9747,"-by":9748,"ĠDeath":9749,"Ġcopies":9750,"Ġattempting":9751,"Ġdocumentation":9752,"ĠJackson":9753,"Ġannoying":9754,"OV":9755,"bell":9756,"json":9757,"Ùı":9758,"Ġwidth":9759,"Ġcaps":9760,"oric":9761,"Ġnaked":9762,"ĠPac":9763,"Ġleague":9764,"ĠFred":9765,"ĠGirl":9766,"ĠNight":9767,"Ġcompassion":9768,"Ġmanagers":9769,"osexual":9770,"Ġreferring":9771,"ĠCloud":9772,"reshold":9773,"Ġharmful":9774,"Ġtransformation":9775,".T":9776,"86":9777,"ĠCell":9778,"Ġcontest":9779,"Ġconsent":9780,"Ġreturning":9781,"Ġinfinite":9782,"Ġbalanced":9783,"Ġintegrity":9784,"ĠOhio":9785,"Ġrobot":9786,"Ġevaluation":9787,"Ġboundaries":9788,"Ġlegitimate":9789,"Ġunexpected":9790,"](":9791,"gas":9792,"ãĥ":9793,"aton":9794,"Ġcod":9795,"Ġbes":9796,"Ġfate":9797,"Ġyoga":9798,"Ġjur":9799,"ogs":9800,"...\"":9801,"Ġthereby":9802,"merce":9803,"Ġsupporters":9804,"Ġclassical":9805,"âĢĶthe":9806,"engers":9807,"Ġcalend":9808,"Ġlogo":9809,"backs":9810,"Ġobservations":9811,"Ġneighbors":9812,"ĠAngeles":9813,"Ġlaughed":9814,"Ġic":9815,"Ġcav":9816,"asi":9817,"omer":9818,"ĠFile":9819,"Ġworkout":9820,"Ġscary":9821,"ateral":9822,"Ġguidance":9823,"ĠTrue":9824,"Ġtexts":9825,"ĠMusic":9826,"Ġpursue":9827,"Ġneutral":9828,"/f":9829,"EE":9830,"RC":9831,"uz":9832,"worth":9833,"Ġtab":9834,"Ġboring":9835,"Ġye":9836,"ummy":9837,"ĠLi":9838,"cia":9839,"Ġknife":9840,"Ġguest":9841,"Ġpossibilities":9842,"ĠBrother":9843,"lfriend":9844,"strong":9845,"Ġjudges":9846,"ĠDonald":9847,"Ġbullet":9848,"Ġmeldronate":9849,"-minute":9850,"-con":9851,"itate":9852,"Ġgains":9853,"ĠTell":9854,"Ġstake":9855,"Ġconvey":9856,"ĠPay":9857,"ĠRa":9858,"ĠRNA":9859,"Ġworship":9860,"ĠOp":9861,"common":9862,"Ġdrama":9863,"Ġphotograp":9864,"Ġdigest":9865,"Ġoccasionally":9866,"Ġdelicious":9867,".E":9868,"Use":9869,"may":9870,"pat":9871,"aration":9872,"Ġthrew":9873,"oting":9874,"ĠHi":9875,"ĠLy":9876,"ĠOk":9877,"acles":9878,"aphor":9879,"earing":9880,"Ġdistant":9881,"Ġpatent":9882,"ĠCommittee":9883,"-part":9884,"Ġdelight":9885,"Ġtargeted":9886,"Ġattempted":9887,"Ġreveals":9888,"Ġsilent":9889,"Ġpredicted":9890,"edded":9891,"Ġownership":9892,"emplate":9893,"Ġhunting":9894,"Ġshadow":9895,"Ġgalax":9896,"chers":9897,"urop":9898,"Ð¿":9899,"ĠBud":9900,"ĠPerson":9901,"istically":9902,"unes":9903,"ĠNic":9904,"pert":9905,"Ġoffense":9906,"Ġrefuse":9907,"ucks":9908,"Ġmaintained":9909,"Ġconcert":9910,"Ġdivorce":9911,"Ġsurrounded":9912,"Ġconstructed":9913,"Ġengagement":9914,".R":9915,"Ġborrow":9916,"Ġgently":9917,"ĠCivil":9918,"ĠBC":9919,"Âłof":9920,"ĠPoint":9921,"ĠPython":9922,"index":9923,"closed":9924,"Ġgrows":9925,"Ġscar":9926,"Ġinvestments":9927,"ĠLeg":9928,"Ġrocks":9929,"Each":9930,"Find":9931,"ql":9932,"aylor":9933,"kel":9934,"Ġvice":9935,"Ġintensity":9936,"ĠChief":9937,"Ġadvis":9938,"Ġcenters":9939,"Ġconsiderable":9940,"Ġgrounds":9941,"ublished":9942,"ĠImage":9943,"ĠSpecial":9944,"rimination":9945,"DP":9946,"File":9947,"Red":9948,"UL":9949,"Ġdownt":9950,"ĠCA":9951,"Ġleaf":9952,"ĠFund":9953,"Ġcompress":9954,"ensed":9955,"Ġtrail":9956,"ocks":9957,"ĠAndrew":9958,"ĠReally":9959,"Ġgrace":9960,"Ġbanking":9961,"Ġemails":9962,"Ġnutrition":9963,"Ġconsistently":9964,"73":9965,"world":9966,"Ġmart":9967,"ĠNE":9968,"Ġcommod":9969,"Ġraces":9970,"Ġavo":9971,"Ġtrem":9972,"Ġpicking":9973,"Ġvacation":9974,"Ġencouraged":9975,"Ġlungs":9976,"71":9977,"Ġwing":9978,"alpha":9979,"section":9980,"ĠSpring":9981,"ĠEffect":9982,"ĠEss":9983,"Ġconsensus":9984,"Ġbug":9985,"Ġentreprene":9986,"Ġdipl":9987,"Start":9988,"arring":9989,"ĠClick":9990,"Ġlands":9991,"Ġdiscussions":9992,"Ġportray":9993,"ĠMrs":9994,"Ġbulk":9995,"Ġpunishment":9996,"Ġcasino":9997,"Ġdiversity":9998,"Disc":9999,"mers":10000,"Ġho":10001,"icular":10002,"rogen":10003,"ĠSouthern":10004,"Ġhack":10005,"ĠBal":10006,"open":10007,"Ġcomics":10008,"ĠRub":10009,"Ġfears":10010,"ĠUt":10011,"Ġscal":10012,"ailing":10013,"ĠStrange":10014,"ugin":10015,"arently":10016,"Ġsuggesting":10017,"AND":10018,"Ġcontributions":10019,"Ġwaters":10020,"ĠServer":10021,"Ġdisappear":10022,"ĠPalestin":10023,"Fil":10024,"MD":10025,"TO":10026,"mn":10027,"summary":10028,"Ġinherent":10029,"ols":10030,"ĠMath":10031,"ĠBarb":10032,"ÂłAnd":10033,"Ġshorter":10034,"Ġenvironments":10035,"ĠVen":10036,"ĠForce":10037,"Ġproposal":10038,"iblical":10039,".f":10040,"Sy":10041,"Â®":10042,"Ġcum":10043,"ĠSC":10044,"ĠSex":10045,"ĠAli":10046,"oples":10047,"operation":10048,"unny":10049,"ĠEth":10050,"Ġcluster":10051,"Ġdisrupt":10052,"Ġrecy":10053,"Ġbran":10054,"Ġdecor":10055,"Ġedition":10056,"ounced":10057,"Ġgrab":10058,"âĢ¦âĢ¦":10059,"Ass":10060,"Ġdiffer":10061,"Ġsuggestions":10062,"Ġobserve":10063,"Ġcompete":10064,"ĠÂ»":10065,"Ġbegun":10066,"Ġemphasis":10067,"Ġrepeatedly":10068,"AB":10069,"[âĢĵ":10070,"Ġfishing":10071,"ĠTri":10072,"ĠSnow":10073,"ĠBid":10074,"ĠWH":10075,"Ġrush":10076,"Ġintake":10077,"Ġrelate":10078,"Ġexpense":10079,"bridge":10080,"ync":10081,"ĠAmendment":10082,"holders":10083,"Ġisolated":10084,"Ġfascinating":10085,"Write":10086,"ĠVirginia":10087,"Ġnutrients":10088,"iag":10089,"uce":10090,"ammed":10091,"Ġfever":10092,"Ġpolar":10093,"Ġmeters":10094,"Ġgrain":10095,"Ġprominent":10096,"Ġcourage":10097,"Ġpreventing":10098,"ĠMalays":10099,"Ġmotivation":10100,"Posted":10101,"```Ċ":10102,"vtb":10103,"*/Ċ":10104,"61":10105,"onal":10106,"erior":10107,"Ġwides":10108,"Ġelder":10109,"Ġouter":10110,"hyl":10111,"issues":10112,"160":10113,"Ġdisplayed":10114,"Ġparking":10115,"ĠValley":10116,"Ġuniversities":10117,"ĠTechnology":10118,"Ġstroke":10119,"Av":10120,"Fig":10121,"\\Ċ":10122,"nded":10123,"itual":10124,"Ġfiber":10125,"Ġforcing":10126,"ĠSP":10127,"ilation":10128,"ĠFord":10129,"Ġcontrary":10130,"Ġcoinc":10131,"Ġinstruction":10132,"Ġmagical":10133,"Ġengineer":10134,"Ġverb":10135,"Ġexpertise":10136,"Ġfrozen":10137,"Ġabstract":10138,"[âĢĵ]":10139,"Mon":10140,"Ġlung":10141,"Ġlenses":10142,"Ġuseless":10143,"ĠRoyal":10144,"ĠEst":10145,"annel":10146,"Ġstopping":10147,"ĠPrince":10148,"Ġobservation":10149,"ĠGlobal":10150,"Ġgarlic":10151,"Ġvoices":10152,"(c":10153,"hire":10154,"ïģ":10155,"Ġcul":10156,"Ġthirty":10157,"osystem":10158,"ĠOsc":10159,"erves":10160,"aha":10161,"ĠSpirit":10162,"Ġfollowers":10163,"Ġmothers":10164,"Ġinstallation":10165,"Ġinvestigate":10166,"Ġcompensation":10167,"Ġdiamond":10168,"ĠSecretary":10169,".'Ċ":10170,"private":10171,"ÙĪ":10172,"Ġoven":10173,"Ġharsh":10174,"Ġnons":10175,"Ġconce":10176,"ĠBru":10177,"ĠPur":10178,"Ġinstantly":10179,"Ġoldest":10180,"Ġlabels":10181,"Ġimprovements":10182,"ĠGuard":10183,"Ġreminded":10184,"Ġwealthy":10185,"ĠFrancisco":10186,"Big":10187,"Press":10188,"kind":10189,"mates":10190,"inci":10191,"Ġsons":10192,"Ġwishes":10193,"utter":10194,"ulum":10195,"Ġriding":10196,"ĠHTML":10197,"quo":10198,"ĠLincoln":10199,"ĠUk":10200,"ocaly":10201,"never":10202,"Ġoffensive":10203,"ometric":10204,"Ġdescend":10205,"arios":10206,"Ġdesigns":10207,"Ġwinner":10208,"Ġessence":10209,"Ġsteam":10210,"Ġcrying":10211,"Ġestimates":10212,"Ġrejected":10213,"Ġracism":10214,"Keep":10215,"Ġsacrifice":10216,"ĠSarah":10217,"Ġbinding":10218,"Ġbubble":10219,"Ġmaps":10220,"Ġtoys":10221,"Ġimpr":10222,"ĠVan":10223,"ĠView":10224,"Ġpreparing":10225,"ĠPolice":10226,"Ġquantity":10227,"ĠSingapore":10228,"ĠRevolution":10229,"Ġfirms":10230,"isode":10231,"Ġgathered":10232,"ĠPers":10233,"ĠLess":10234,"Ġdispl":10235,"Ġoverl":10236,"Ġbrush":10237,"Ġearned":10238,"rett":10239,"Ġheading":10240,"Ġsinger":10241,"proof":10242,"Ġspeaks":10243,"evin":10244,"Ġtiming":10245,"/S":10246,"uating":10247,"Ġ?Ċ":10248,"Ġdirt":10249,"Ġbeans":10250,"sell":10251,"ĠDO":10252,"ĠFA":10253,"ĠFoot":10254,"awa":10255,"Ġrepet":10256,"ĠAsh":10257,"Ġresemb":10258,"Ġairport":10259,"Ġfunctionality":10260,"ĠPhot":10261,"ĠColumb":10262,"Ġsettle":10263,"ascular":10264,"Ġunfortunately":10265,"Ġinterviews":10266,"Ġcontracts":10267,"Ġgraphics":10268,"operative":10269,"Ġmathematical":10270,"MP":10271,"mo":10272,"isy":10273,"Ġpas":10274,"Ġthumb":10275,"Ġgambling":10276,"ĠTR":10277,"Ġstolen":10278,"chain":10279,"Ġate":10280,"ĠPo":10281,"ĠPenn":10282,"elve":10283,"ĠNumber":10284,"ĠLine":10285,"ĠOs":10286,"Ġcarries":10287,"Ġfactory":10288,"Ġhumor":10289,"letter":10290,"Comments":10291,"bbing":10292,"Ġastron":10293,"ĠStephen":10294,"ĠMiller":10295,"Ġbonus":10296,"Ã¶":10297,"Ġtheater":10298,"ÂłOut":10299,"ĠWW":10300,"Ġovert":10301,"Ġoverse":10302,"Ġsubmit":10303,"Ġtransp":10304,"187":10305,"-bl":10306,"Ġbrains":10307,"Ġlighting":10308,"Ġbench":10309,"Ġlowest":10310,"Request":10311,"Ġstepped":10312,"Ġgolden":10313,"Ġincorrect":10314,"Ġaccomplished":10315,"Ġquotes":10316,"Perhaps":10317,"Ġmathematics":10318,"Ġinspiration":10319,"Produ":10320,"des":10321,"Ġchop":10322,"arding":10323,"ĠOF":10324,"airy":10325,"188":10326,"Ġzomb":10327,"**Ċ":10328,"Ġvariations":10329,"Ġblogs":10330,"Ġpacked":10331,"ĠControl":10332,"ĠIsraeli":10333,"Ġdimensions":10334,"ĠMethod":10335,"Ġexperimental":10336,"ĠHillary":10337,"Ġrescue":10338,"Ġimmigrants":10339,".B":10340,"El":10341,"base":10342,"Ġ×":10343,"iti":10344,"also":10345,"Ġreaches":10346,"ĠSearch":10347,"irable":10348,"ĠCH":10349,"Ġdelete":10350,"Ġcomposed":10351,"Ġflip":10352,"Ġcommands":10353,"Ġregards":10354,"Ġdrain":10355,"Ġbloggers":10356,"Ġseparation":10357,"ĠMarket":10358,"Ġgods":10359,"Ġorgans":10360,"ĠCarolina":10361,"ĠHitler":10362,"PN":10363,"\\,":10364,"Ġgarb":10365,"ĠCub":10366,"iller":10367,"Ġconcluded":10368,"ĠBat":10369,"else":10370,"Ġpretend":10371,"ĠStone":10372,"Ġdistract":10373,"Ġalongside":10374,"Ġdrove":10375,"Ġprogressive":10376,"Edit":10377,"Ġdefendant":10378,"\");Ċ":10379,".N":10380,"Att":10381,"God":10382,"link":10383,"was":10384,"Ġtang":10385,"Ġhier":10386,"ĠSelf":10387,"irts":10388,"Ġathe":10389,"istical":10390,"ĠGi":10391,"Ġhandled":10392,"ucky":10393,"Ġmarry":10394,"Ġemployers":10395,"books":10396,"Ġpowered":10397,"Ġresponded":10398,"Ġacquired":10399,"ĠPortug":10400,"Ġadoption":10401,"Ġcontroversial":10402,"Check":10403,"Ġunnecessary":10404,"Ġwidespread":10405,"')":10406,"74":10407,"Long":10408,"Ġbure":10409,"lections":10410,"lyn":10411,"ĠTalk":10412,"aya":10413,"thur":10414,"Ġshops":10415,"ĠDave":10416,"Ġworn":10417,"Ġclust":10418,"Ġactively":10419,"Ġfounded":10420,"181":10421,"183":10422,"Ġvariation":10423,"Ġdelay":10424,"Ġstrikes":10425,"Ġassistant":10426,"Ġaimed":10427,"Ġjoining":10428,"Ġimplies":10429,"Ġpreparation":10430,"HT":10431,"Ps":10432,"aired":10433,"sen":10434,"vals":10435,"âĪ":10436,"Ġtie":10437,"info":10438,"Ġcous":10439,"Ġlighter":10440,"Ġnodes":10441,"Ġgolf":10442,"idays":10443,"ĠMir":10444,"tha":10445,"esty":10446,"ĠHug":10447,"Ġshield":10448,"ĠLive":10449,"ĠChildren":10450,"Ġfinance":10451,"Ġelves":10452,"Ġpublicly":10453,"ĠClub":10454,"Ġtreating":10455,"!!!":10456,"Ġdarkness":10457,"Ġburied":10458,"Ġcapitalism":10459,"Ġexcessive":10460,"Ġregistered":10461,"Ġinflammation":10462,"Ġvertical":10463,"ĠKennedy":10464,"bus":10465,"health":10466,"Ġsore":10467,"Ġlately":10468,"âĢĬ":10469,"rag":10470,"ĠPsych":10471,"ĠJr":10472,"arest":10473,"Stud":10474,"-def":10475,"ĠProcess":10476,"Ġtendency":10477,"LLY":10478,"Ġassuming":10479,"Ġaccurately":10480,"Ġqualified":10481,"Ġlibraries":10482,"Ġmolecular":10483,"Ġmanufacturer":10484,"Ġlaughing":10485,"ĠCirc":10486,"Ġpeanut":10487,"bd":10488,"Ġsoup":10489,"ims":10490,"igma":10491,"ĠSomething":10492,"ĠMajor":10493,"Ġrou":10494,"ĠLake":10495,"Ġenables":10496,"Ġjustify":10497,"rub":10498,"Ġpartially":10499,"lix":10500,"ologically":10501,"Ġacute":10502,"Ġmoderate":10503,"Ġrequiring":10504,"-specific":10505,"ĠArm":10506,"irds":10507,"Ġdescribing":10508,"Ġboyfriend":10509,"Ġinevitable":10510,"-or":10511,"Â©":10512,"Ġrear":10513,"ĠHad":10514,"Ġchip":10515,"Ġmeets":10516,"ĠEvent":10517,"actory":10518,"---":10519,"Ġcontrolling":10520,"Ġplanets":10521,"Ġconfusing":10522,"Ġreasoning":10523,"Ġexpecting":10524,"Ġreduces":10525,"Ġargues":10526,"okemon":10527,"Ġsensitivity":10528,"ĠManagement":10529,"Ġautomatic":10530,"Ġterrorist":10531,"Right":10532,"Ġtutor":10533,"Ġsessions":10534,"Ġpunch":10535,"Ġincl":10536,"Ġnil":10537,"ĠAL":10538,"usive":10539,"Ġchips":10540,"ourne":10541,"Ġevolved":10542,"Ġunre":10543,"formed":10544,"ĠHeart":10545,"Ġrape":10546,"Ġtrave":10547,"Ġesp":10548,"Ġcondem":10549,"ENT":10550,"Ġterrorism":10551,"Ġruled":10552,"Ġsubsid":10553,"ĠLearning":10554,"Ġvoltage":10555,"ĠScotland":10556,"Ġsimultaneously":10557,"!)Ċ":10558,"96":10559,"EA":10560,"mu":10561,"Ġvel":10562,"Ġwings":10563,"Ġbold":10564,"Ġduration":10565,"Ġinfections":10566,"stop":10567,"ĠMid":10568,"ĠMess":10569,"Ġdoct":10570,"ĠRest":10571,"ĠEastern":10572,"Ġamer":10573,"Ġinvited":10574,"Ġbelt":10575,"Ġdistinction":10576,"Ġequality":10577,"Ġoptimal":10578,"Ġpolymer":10579,"Ġaffordable":10580,"Ġpilot":10581,"Ġchaos":10582,"Ġsatellite":10583,"Fe":10584,"Jan":10585,"MB":10586,"Sl":10587,"Tom":10588,"aver":10589,"reation":10590,"Ġnodd":10591,"Ġrubb":10592,"ĠRose":10593,"ivia":10594,"ĠOper":10595,"aware":10596,"Ġdirectors":10597,"Ġanalys":10598,"white":10599,"Only":10600,"Ġdestro":10601,"Ġsuspend":10602,"Ġautomation":10603,"Ġcommunications":10604,"Ġsubstances":10605,"Ġanalyze":10606,"Black":10607,"ĠDaily":10608,"Ġadequate":10609,"esy":10610,"Ġfut":10611,"args":10612,"Ġinhab":10613,"ĠSource":10614,"ille":10615,"Ġexclusive":10616,"ĠDate":10617,"ĠRun":10618,"ĠGro":10619,"ichael":10620,"Ġmeth":10621,"config":10622,"Ġdevast":10623,"Ġdescript":10624,"Ġaddresses":10625,"Ġfolk":10626,"Using":10627,"ĠDistrict":10628,"ĠDevelopment":10629,"SR":10630,"Table":10631,"free":10632,"}(":10633,"Ġpairs":10634,"Ġthreshold":10635,"through":10636,"oser":10637,"ĠFather":10638,"Ġtear":10639,"Ġgrate":10640,"lication":10641,"Ġslave":10642,"ierce":10643,"-down":10644,"ĠPlace":10645,"Ġscreening":10646,"Ġloaded":10647,"ĠKey":10648,"Ġepisodes":10649,"Ġdynamics":10650,"ĠBoard":10651,"Ġinvolvement":10652,"Okay":10653,"[i":10654,"bid":10655,"attered":10656,"Ġdual":10657,"icate":10658,"ĠToo":10659,"Ġugly":10660,"chi":10661,"ĠHay":10662,"ĠYe":10663,"erving":10664,"Ġinvasion":10665,"Ġcounts":10666,"Ġsnaps":10667,"Ġcircles":10668,"Ġdeny":10669,"Ġburned":10670,"Ġinnovation":10671,"Ġinnovative":10672,"Ġappointment":10673,"Ġrubber":10674,"Ġdisappointed":10675,"Ġabandoned":10676,"-known":10677,"Dear":10678,"erator":10679,"Ġbesides":10680,"Ġpp":10681,"Ġdressed":10682,"asters":10683,"sts":10684,"Ġstiff":10685,"ĠMother":10686,"Ġexch":10687,"ĠHence":10688,"ĠDirector":10689,"ieval":10690,"izar":10691,"Ġscales":10692,"plex":10693,"Ġconsume":10694,"Ġaddiction":10695,"Ġawk":10696,"Ġprovision":10697,"retion":10698,"asha":10699,"ĠProduct":10700,"Ġrecommendations":10701,"Ġdivine":10702,"Ġprincipal":10703,"Ġdimension":10704,"Ġvessels":10705,"VID":10706,"fil":10707,"Ġtel":10708,"inates":10709,"aria":10710,"chron":10711,"andal":10712,"Ġupgrade":10713,"achus":10714,"Ġremoval":10715,"Ġguards":10716,"Ġinstinct":10717,"Ġinsane":10718,"Ġforming":10719,"Ġexport":10720,"Ġexploring":10721,"Ġcombine":10722,"Ġprotecting":10723,"Ġcooling":10724,"Ġmedications":10725,"Ġvaccine":10726,"-pr":10727,"cery":10728,"Ġbinary":10729,"Ġhiding":10730,"ignt":10731,"irus":10732,"Ġsends":10733,"Ġ($":10734,"Âłt":10735,"quer":10736,"Ġalleg":10737,"agen":10738,"acked":10739,"Ġpeoples":10740,"ĠChapter":10741,"Ġracial":10742,"Ġopponents":10743,"-col":10744,"Ġcapability":10745,"Ġfailing":10746,"ennis":10747,"Ġsteal":10748,"ĠContent":10749,"Ġscenarios":10750,"ĠModel":10751,"ĠâĨĴ":10752,"har":10753,"makers":10754,"wich":10755,"Ġtu":10756,"Ġtale":10757,"Ġcm":10758,"Ġmice":10759,"ÂłH":10760,"Ġritual":10761,"mented":10762,"ĠLow":10763,"Ġovernight":10764,"Ġnowhere":10765,"Ġobsc":10766,"ĠĠĠĠĠĠĠ":10767,"arms":10768,"Ġclever":10769,"Ġrespir":10770,"Ġcalc":10771,"dev":10772,"irtual":10773,"ĠCarl":10774,"Ġemerged":10775,"Ġtouching":10776,"_{\\":10777,"Ġclouds":10778,"ĠMatthew":10779,"Ġromantic":10780,"-res":10781,"Best":10782,"UI":10783,"rans":10784,"vation":10785,"Ġmigr":10786,"Ġgri":10787,"ĠTerm":10788,"ĠCook":10789,"ĠCold":10790,"ĠCustom":10791,"umble":10792,"ĠPy":10793,"Ġgoog":10794,"Ġjet":10795,"Ġrolling":10796,"Ġhanded":10797,"gging":10798,"Ġtrials":10799,"Ġgrabbed":10800,"Ġproductive":10801,"-dimensional":10802,"Ġfocuses":10803,"Ġimpacts":10804,"ĠEdward":10805,"Ġemerging":10806,"Ġmatching":10807,"________":10808,"Ġfolder":10809,"ĠIrish":10810,"Ġsteady":10811,"ĠProfessor":10812,"front":10813,"mother":10814,"oons":10815,"your":10816,"lly":10817,"ighed":10818,"ÂłIf":10819,"ĠHun":10820,"Ġvague":10821,"Ġprecious":10822,"âĢ¦.":10823,"Ġidentification":10824,"Ġaudi":10825,"Ġthreatened":10826,"Ġtouched":10827,"Ġcalculate":10828,"Ġrestaurants":10829,"Ġwrapped":10830,"tics":10831,"Ġtune":10832,"Ġmm":10833,"Ġyard":10834,"Ġheating":10835,"Ġ(#":10836,"aund":10837,"Ġenzy":10838,"ressing":10839,"Ġcounty":10840,"Ġmeditation":10841,"Ġprocessor":10842,"Ġeasiest":10843,"Ġoperator":10844,"Ġcompeting":10845,"Ġscientist":10846,"ĠSmall":10847,"ĠRomney":10848,"ĠSwed":10849,"Ġconsequence":10850,"Ġsatisfaction":10851,"iatric":10852,"-ind":10853,"Page":10854,"Sometimes":10855,"inue":10856,"Ġborders":10857,"Ġinch":10858,"idate":10859,"ĠSaf":10860,"ĠBu":10861,"ĠBry":10862,"Âłp":10863,"opes":10864,"Ġvibr":10865,"Ġpartial":10866,"ĠVideo":10867,"Ġtrace":10868,"Ġsignature":10869,"Ġreflection":10870,"Ġnights":10871,"Ġexcit":10872,"Ġpenet":10873,"Ġhoped":10874,"blogger":10875,"Ġsustainable":10876,"-work":10877,"=\\":10878,"Oct":10879,"bec":10880,"Ġfence":10881,"Ġeager":10882,"Ġchains":10883,"arted":10884,"Ġwheat":10885,"interest":10886,"ottom":10887,"ĠTrust":10888,"Ġtemple":10889,"ĠOrder":10890,"addy":10891,"ugged":10892,"Ġdetected":10893,"ĠLicense":10894,"(a":10895,"76":10896,"['":10897,"iens":10898,"uis":10899,"uously":10900,"vo":10901,"Ġ)Ċ":10902,"Ġcognitive":10903,"ĠIce":10904,"ĠHarr":10905,"Ġalloc":10906,"actor":10907,"Ġstrings":10908,"Ġretain":10909,"Ġsuggestion":10910,"Ġextraord":10911,"Ġbankrupt":10912,"Ġbillions":10913,"Ġunfair":10914,"Ġregulatory":10915,"Ġtickets":10916,"ĠGeorgia":10917,"Ġsophistic":10918,"-one":10919,"92":10920,"CL":10921,"Great":10922,"aud":10923,"iary":10924,"Ġwages":10925,"Ġcord":10926,"inge":10927,"orious":10928,"iche":10929,"ĠText":10930,"osph":10931,"ĠRen":10932,"ĠLo":10933,"aga":10934,"acco":10935,"ĠChild":10936,"Ġdecides":10937,"Ġequations":10938,"ercury":10939,"Ġbehaviors":10940,"ĠSaudi":10941,"oscow":10942,"Ġmysterious":10943,"CR":10944,"Dis":10945,"bur":10946,"ï»":10947,"Ġtoy":10948,"static":10949,"ctic":10950,"rolled":10951,"ĠChem":10952,"ĠDat":10953,"hyd":10954,"Ġcheer":10955,"Ġdiscrimination":10956,"Ġdetection":10957,"arma":10958,"Ġstraw":10959,"Ġfatig":10960,"Ġembrace":10961,"Ġmutual":10962,"rizona":10963,"Ġcigarettes":10964,"Author":10965,"ĠAtlantic":10966,"360":10967,"Aug":10968,"tion":10969,"Ġties":10970,"Ġthesis":10971,"eron":10972,"Ġhint":10973,"ĠTaylor":10974,"ĠSin":10975,"âĢĻĊ":10976,"ĠNature":10977,"ĠLind":10978,"Ġmanually":10979,"Ġknees":10980,"Ġflower":10981,"ometer":10982,"Ġediting":10983,"Ġinfant":10984,"Ġworthy":10985,"Ġregarded":10986,"Ġwooden":10987,"Ġsymbols":10988,"Ġguaranteed":10989,"Ġreserved":10990,"-fl":10991,"Condition":10992,"XX":10993,"cs":10994,"Ġsink":10995,"Ġmim":10996,"icient":10997,"Ġbeating":10998,"ĠMind":10999,"ĠBon":11000,"ÂłBut":11001,"Ġintu":11002,"Ġintrig":11003,"perty":11004,"arks":11005,"formance":11006,"ĠDoctor":11007,"Real":11008,"Ġreleases":11009,"Ġseparated":11010,"Ġrival":11011,"Ġvacuum":11012,"ĠSilver":11013,"Ġreceptor":11014,"Ġgirlfriend":11015,"AF":11016,"Message":11017,"Ġaest":11018,"Ġbid":11019,"Ġboo":11020,"Ġgross":11021,"ige":11022,"ĠSem":11023,"Ġash":11024,"raine":11025,"ĠMs":11026,"ÂłJ":11027,"Ġvapor":11028,"Ġshaped":11029,"ĠLater":11030,"Ġcoat":11031,"Ġassass":11032,"Ġmedi":11033,"Ġbuyers":11034,"Ġutility":11035,"Ġrecip":11036,"Ġfloat":11037,"ĠTurkey":11038,"Ġsolely":11039,"ï»¿":11040,"Create":11041,"NS":11042,"Pad":11043,"cor":11044,"hma":11045,"Ġrect":11046,"ĠSF":11047,"ĠSci":11048,"Ġwhilst":11049,"Ġhaunt":11050,"ĠMoh":11051,"ĠBox":11052,"ĠBattle":11053,"Ġ(âĢľ":11054,"Ġvig":11055,"Ġclim":11056,"ĠUr":11057,"ellow":11058,"Ġsla":11059,"125":11060,"Ġlegacy":11061,"Ġliterary":11062,"Ġcrossed":11063,"olester":11064,"Ġmotivated":11065,"Ġecosystem":11066,"Ġconstitutional":11067,"Ġfavourite":11068,"Ġmanifest":11069,"ĠQuestions":11070,"IE":11071,"Pol":11072,"Ñĭ":11073,"Ġwand":11074,"ancial":11075,"Ġhref":11076,"ĠAst":11077,"ĠFull":11078,"Ġkm":11079,"ĠGive":11080,"ĠLim":11081,"Ġdisabled":11082,"odynam":11083,"ĠProte":11084,"Ġcritics":11085,"Ġcollaps":11086,"Ġsettlement":11087,"Ġdocumentary":11088,"ĠMichigan":11089,"Ġexpanded":11090,"Group":11091,"Ġattributes":11092,"Ġtremend":11093,")-":11094,"-)Ċ":11095,"-type":11096,"Both":11097,"OK":11098,"TER":11099,"bet":11100,"first":11101,"vard":11102,"Ġod":11103,"Ġcust":11104,"Ġfart":11105,"Ġmales":11106,"Ġhorn":11107,"Ġlazy":11108,"Ġbeef":11109,"etc":11110,"umph":11111,"ĠWatch":11112,"ĠPract":11113,"ĠJane":11114,"Ġknee":11115,"Ġdishes":11116,"Ġundert":11117,"ĠAng":11118,"Ġpassengers":11119,"Still":11120,"Ġprofound":11121,"Ġmilit":11122,"Ġmeasuring":11123,"umbled":11124,"Ġsooner":11125,"ĠImages":11126,"Ġtowns":11127,"clusively":11128,"Ġefficiently":11129,"Ġpromoting":11130,"Ġpurely":11131,"Ġacknowledge":11132,"etheless":11133,".html":11134,"Down":11135,"iy":11136,"odge":11137,"Ġrhet":11138,"ĠDun":11139,"ĠDirect":11140,"arded":11141,"ĠJenn":11142,"Ġcomparing":11143,"rup":11144,"closure":11145,"Ġperipher":11146,"ected":11147,"Ġregret":11148,"ĠIss":11149,"Ġapproached":11150,"Ġwaited":11151,"Ġrobust":11152,"ĠColorado":11153,"Ġaccompanied":11154,"($":11155,"-class":11156,"vable":11157,"wa":11158,"Ã¤":11159,"Ġ]Ċ":11160,"ĠØ§ÙĦ":11161,"reply":11162,"ĠSus":11163,"ĠSEO":11164,"iry":11165,"Ġsevent":11166,"ÂłHe":11167,"ĠHoly":11168,"andy":11169,"ĠRoy":11170,"Ġjunk":11171,"Ġprayer":11172,"Ġcoin":11173,"Ġdeveloper":11174,"-spe":11175,"Ġdragon":11176,"ĠUser":11177,"Ġassumptions":11178,"Ġbuttons":11179,"Remember":11180,"-cell":11181,"David":11182,"ML":11183,"_D":11184,"Ġaf":11185,"Ġbump":11186,"ĠIL":11187,"aden":11188,"urities":11189,"Ġdear":11190,"riving":11191,"ĠPri":11192,"ĠPokemon":11193,"Ġbytes":11194,"Ġintim":11195,"Ġenabled":11196,"izers":11197,"apters":11198,"ccer":11199,"Ġimpressed":11200,"lihood":11201,"Ġtransf":11202,"ĠĠĠĠĠĠ":11203,"Ġserial":11204,"Ġfright":11205,"Ġ&&":11206,"Ġfreely":11207,"Ġpolitically":11208,"shop":11209,"Ġcreativity":11210,"!!!Ċ":11211,"Ġexecuted":11212,"Ġpenis":11213,"Ġparticipation":11214,"iminals":11215,"Ġcelebrate":11216,"ĠWilson":11217,"Ġbattles":11218,"ignty":11219,"$.":11220,"Count":11221,"Iam":11222,"ori":11223,"Ġdental":11224,"Ġdimin":11225,"Ġweigh":11226,"ĠCome":11227,"Ġshook":11228,"Ġshocked":11229,"Ġshapes":11230,"ospel":11231,"ĠNorthern":11232,"Ġspat":11233,"Ġoverr":11234,"Ġunderm":11235,"iano":11236,"Ġhandful":11237,"Ġcardi":11238,"Ġepid":11239,"Ġbreathe":11240,"Ġarrival":11241,"Script":11242,"Ġadvertis":11243,"Ġvitamin":11244,"Ġcalendar":11245,"Ġtissues":11246,"Ġcort":11247,"itage":11248,"isons":11249,"Ġfancy":11250,"Ġpale":11251,"Ġhired":11252,"Ġcongress":11253,"ĠEnergy":11254,"Ġtrap":11255,"Ġtraits":11256,"ontal":11257,"Ġsupplements":11258,"Ġelite":11259,"Ġdifficulties":11260,"Ġconsumed":11261,"Ġensuring":11262,"Ġinfluences":11263,"Ġbriefly":11264,"Ġgathering":11265,".J":11266,"cm":11267,"github":11268,"rame":11269,"Ġtar":11270,"ppers":11271,"Ġbacked":11272,"Ġconsol":11273,"Ġguests":11274,"Ġvector":11275,"Ġarguing":11276,"Ġmissions":11277,"Ġmomentum":11278,"Ġgraduate":11279,"Ġcruel":11280,"Ġsatisfied":11281,"Ġjumped":11282,"Ġflexibility":11283,"iotics":11284,"Ġswimming":11285,"ôĢģ":11286,"olesterol":11287,"bf":11288,"rat":11289,"Ġfo":11290,"Ġpizza":11291,"Ġmold":11292,"star":11293,"adays":11294,"amins":11295,"ĠSQL":11296,"ĠAud":11297,"Ġoral":11298,"ĠFat":11299,"nell":11300,"Ġminer":11301,"Ġbelieving":11302,"Ġbehalf":11303,"ategory":11304,"Ġengineers":11305,"Ġpoorly":11306,"roller":11307,"Ġderiv":11308,"ĠDisney":11309,"Ġremarkable":11310,"ĠRadio":11311,"ĠPacific":11312,"Ġawkward":11313,"Ġslavery":11314,"CT":11315,"Cor":11316,"Would":11317,"bot":11318,"Ġbind":11319,"Ġram":11320,"ĠRog":11321,"ipes":11322,"Ġreluct":11323,"Ġpersonnel":11324,"oxy":11325,"Ġidentifying":11326,"ommy":11327,"Ġmargin":11328,"Ġkeyboard":11329,"Ġcontributed":11330,"Ġloading":11331,"Ġappreciated":11332,"ĠModern":11333,"Ġquietly":11334,"/nan":11335,"Ġrefugees":11336,"Ġunemployment":11337,"Bas":11338,"iro":11339,"lib":11340,"path":11341,"rust":11342,"tic":11343,"Ġtens":11344,"Ġcoup":11345,"urches":11346,"Ġconsole":11347,"ÂłN":11348,"Ġkit":11349,"Ġjokes":11350,"Ġsail":11351,"ocus":11352,"tends":11353,"Ġinsulin":11354,"Ġgluc":11355,"Ġpatri":11356,"Ġvisits":11357,"Ġcouples":11358,"Ġdesperate":11359,"Ġpandemic":11360,"Free":11361,"uced":11362,"onut":11363,"Ġcache":11364,"Ġpond":11365,"ĠIde":11366,"etts":11367,"ĠArizona":11368,"irk":11369,"ĠHa":11370,"mental":11371,"unks":11372,"Ġallies":11373,"ĠEnt":11374,"Ġupcoming":11375,"ounding":11376,"ĠKind":11377,"Ġbackup":11378,"Ġunderground":11379,"Ġafterwards":11380,"Ġaddict":11381,"Ġinsights":11382,"ĠAsk":11383,"azing":11384,"Ġinvesting":11385,"Ġcultiv":11386,"Ġkiller":11387,"Ġtaxp":11388,"Ġbarrier":11389,"Ġrepresenting":11390,"Ġcooked":11391,"Ġchemistry":11392,"Donald":11393,"Ġkingdom":11394,"Ġrevolutionary":11395,"Ġwarned":11396,"!âĢĿĊ":11397,"Off":11398,"via":11399,"ĠTony":11400,"igo":11401,"ĠALL":11402,".....":11403,"Ġaccord":11404,"ĠUnlike":11405,"111":11406,"Ġsolved":11407,"ĠShort":11408,"Ġpreval":11409,"idding":11410,"Ġoperators":11411,"roduction":11412,"Ġstructural":11413,"ĠQuestion":11414,"Ġalternatives":11415,"Ġencouraging":11416,"Ġbatteries":11417,"Ġrental":11418,"Ġcigarette":11419,"Ġscheduled":11420,"Ac":11421,"Map":11422,"_,":11423,"wed":11424,"yer":11425,"reement":11426,"isd":11427,"Ġbol":11428,"Ġpension":11429,"Ġlake":11430,"ĠAven":11431,"irc":11432,"ÂłYou":11433,"Ġshake":11434,"ĠEve":11435,"akashi":11436,"peror":11437,"102":11438,"jects":11439,"ffective":11440,"Ġcares":11441,"ĠSection":11442,"Ġweekly":11443,"Ġhybrid":11444,"Ġviolation":11445,"Ġdeadly":11446,"Ġautomated":11447,"Ġcomplaint":11448,"Ġduties":11449,"Ġthoroughly":11450,"Ġbranches":11451,"900":11452,"Car":11453,"gh":11454,"alan":11455,"Ġnurse":11456,"ĠTam":11457,"ĠMu":11458,"Ġshipping":11459,"Ġexploration":11460,"mega":11461,"Ġkinda":11462,"Ġmembr":11463,"Ġorganisation":11464,"ĠIndust":11465,"Ġoils":11466,"Ġceiling":11467,"Ġdemanding":11468,"Ġfrustrating":11469,"Ġfeatured":11470,"Ġfurniture":11471,"Ġdiscipline":11472,"Ġnodded":11473,"SM":11474,"Text":11475,"gic":11476,"ko":11477,"mony":11478,"tains":11479,"yo":11480,"Ġpays":11481,"ĠIF":11482,"ĠSU":11483,"gered":11484,"istant":11485,"Ġabroad":11486,"Ġaging":11487,"Ġspare":11488,"Ġbless":11489,"ĠReading":11490,"Ġrestore":11491,"Ġproductivity":11492,"140":11493,"ĠIndex":11494,"Ġ:)":11495,"Ġrepresentative":11496,"Ġpaths":11497,"Ġplugin":11498,"Ġforests":11499,"Ġestablishment":11500,"Ġfloating":11501,"igenous":11502,"Ġgarbage":11503,"%)":11504,"(b":11505,"-per":11506,"91":11507,"GE":11508,"Mat":11509,"nbsp":11510,"isition":11511,"rod":11512,"iments":11513,"verted":11514,"Ġstones":11515,"ĠAw":11516,"Ġconclusions":11517,"ĠMuseum":11518,"Ġkernel":11519,"ardless":11520,"Ġinvis":11521,"although":11522,"ĠExp":11523,"-style":11524,"Ġqualities":11525,"Ġorientation":11526,"Ġtroubles":11527,"Ġoverseas":11528,"Ġexcitement":11529,"84":11530,"Cal":11531,"wall":11532,"Ġcub":11533,"Ġcoding":11534,"Ġpile":11535,"Ġhiring":11536,"Ġiter":11537,"ĠSad":11538,"opic":11539,"ĠWat":11540,"aki":11541,"ĠOcc":11542,"ocity":11543,"intend":11544,"Ġovers":11545,"Ġawake":11546,"Ġanimation":11547,"Ġradi":11548,"Ġapplicable":11549,"-life":11550,"Ġavoiding":11551,"Ġsurviv":11552,"Ġverify":11553,"Unfortunately":11554,"Ġviral":11555,"Ġdecreased":11556,"belie":11557,"Ġfulfill":11558,"Ġrendering":11559,"Ġcompelling":11560,"Ġentrance":11561,"_file":11562,"zes":11563,"athetic":11564,"Ġdense":11565,"ĠCru":11566,"ĠThird":11567,"Ġspouse":11568,"icker":11569,"Ġpartly":11570,"Ġgrin":11571,"ordan":11572,"Ġrealm":11573,"Ġauton":11574,"Ġframes":11575,"130":11576,"Ġmasses":11577,"Ġexecute":11578,"Ġbleeding":11579,"Ġidi":11580,"Contact":11581,"ĠWrite":11582,"ĠHindu":11583,"ĠLibrary":11584,"Ġgrateful":11585,".The":11586,"Lear":11587,"atest":11588,"oust":11589,"owers":11590,"idal":11591,"ĠAccess":11592,"Ġcanon":11593,"ĠOx":11594,"Ġcompounds":11595,"Ġadj":11596,"Ġgray":11597,"hydr":11598,"Ġentities":11599,"Ġlanded":11600,"Ġcycles":11601,"Ġpanels":11602,"Ġmechanics":11603,"Ġconvenience":11604,"Ġdesktop":11605,"ĠCNN":11606,"Ty":11607,"zone":11608,"oned":11609,"onia":11610,"Ġbored":11611,"Ġbeast":11612,"ĠDie":11613,"Ġwheels":11614,"ĠEver":11615,"udo":11616,"Ġpepper":11617,"Ġamino":11618,"Ġdesires":11619,"Ġslide":11620,"Item":11621,"185":11622,"Ġedges":11623,"Ġlegally":11624,"Ġpackages":11625,"Exception":11626,"Ġthreatening":11627,"Ġconverted":11628,"Ġhormone":11629,"Ġtactics":11630,"Ġhungry":11631,"Ġcorrelation":11632,"achusetts":11633,")\\":11634,"Max":11635,"Ref":11636,"tan":11637,"ĠAff":11638,"abling":11639,"Ġbackwards":11640,"Ġdeficit":11641,"ĠOrig":11642,"Ġtraditions":11643,"Ġbuyer":11644,"Ġresponsibilities":11645,"Ġdetermining":11646,"second":11647,"Ġstruggles":11648,"Ġdiagnosed":11649,"Ġphilosoph":11650,"Ġracist":11651,"Ġimperial":11652,"Ġconstraints":11653,"\"What":11654,"#Ċ":11655,"(d":11656,"(self":11657,"eous":11658,"max":11659,"Ħ¢":11660,"Ġtags":11661,"Ġturb":11662,"Ġbanned":11663,"Ġrevel":11664,"ĠCaptain":11665,"ĠMD":11666,"ĠHon":11667,"ĠLie":11668,"ĠOil":11669,"ĠKar":11670,"Ġpray":11671,"001":11672,"Ġscam":11673,"Ġrelatives":11674,"Ġproducer":11675,"ĠZh":11676,"leted":11677,"Ġshortly":11678,"Ġsounded":11679,"Ġeducated":11680,"Ġpanic":11681,"Ġsupposedly":11682,"Ġhospitals":11683,"Ġgrocery":11684,"83":11685,"brew":11686,"ington":11687,"Ġthy":11688,"Ġnasty":11689,"âĢĭ":11690,"iva":11691,"ĠNorm":11692,"Ġeffectiveness":11693,"Ġelabor":11694,"Ġsolo":11695,"-bit":11696,"leton":11697,"Ġfriendship":11698,"Ġreplacing":11699,"ĠObviously":11700,"Ġaffairs":11701,"Ġstrip":11702,"Class":11703,"elligence":11704,"à¥ĩ":11705,"Ġcomplaints":11706,"Ġsodium":11707,"Apr":11708,"CP":11709,"Skip":11710,"Vis":11711,"fan":11712,"his":11713,"iper":11714,"Ã¨":11715,"anning":11716,"âĢħ":11717,"ĠTax":11718,"ĠSav":11719,"ĠCPU":11720,"ilton":11721,"ulk":11722,"Ġsup":11723,"Ġchlor":11724,"ĠFair":11725,"ĠGa":11726,"Ġsheets":11727,"Ġoffices":11728,"format":11729,"ceptions":11730,"Ġboards":11731,"Ġ::":11732,"Ġcraw":11733,"Ġcookies":11734,"ĠActually":11735,"points":11736,"ĠGreece":11737,"Ġdisappeared":11738,"-te":11739,"FI":11740,"flix":11741,"inition":11742,"Ġbust":11743,"alin":11744,"olutions":11745,"Ġseal":11746,"opher":11747,"ĠPolicy":11748,"ĠDutch":11749,"Ġliability":11750,"ĠOR":11751,"Ġinvented":11752,"Ġworlds":11753,"Ġfrustration":11754,"Ġspecify":11755,"arians":11756,"Ġreasonably":11757,"elta":11758,"Ġofficially":11759,"Ġrespective":11760,"Ġstrain":11761,"Ġclosest":11762,"ĠOthers":11763,"visor":11764,"ĠStudies":11765,"Ġmentally":11766,"ĠÂłĠÂłĠÂłĠÂł":11767,"yrics":11768,"ĠCharlie":11769,"cyclop":11770,"Call":11771,"\\end":11772,"hav":11773,"storm":11774,"ĠIM":11775,"Ġhaz":11776,"people":11777,"ĠBBC":11778,"ĠBesides":11779,"ÂłThey":11780,"Ġramp":11781,"Ġsuck":11782,"Ġalgebra":11783,"Ġreson":11784,"neath":11785,"Ġretrie":11786,"Ġpatch":11787,"Ġviewing":11788,"Ġstriking":11789,"Ġbottles":11790,"Ġempire":11791,"Ġduplic":11792,"Ġdramatically":11793,"Ġtorture":11794,"Ġcotton":11795,"Ġbeside":11796,"Date":11797,"Follow":11798,"TE":11799,"label":11800,"eda":11801,"Ġinject":11802,"ĠMoscow":11803,"ÂłSo":11804,"abl":11805,"ĠRod":11806,"ĠOften":11807,"Ġtrash":11808,"Ġupgr":11809,"acent":11810,"Ġtwist":11811,"econ":11812,"Ġguilt":11813,"Ġendless":11814,"Ġfiled":11815,"Ġtestim":11816,"Ġphotography":11817,"Ġlawsuit":11818,"write":11819,"Ġrestricted":11820,"ĠAnonymousreply":11821,"')Ċ":11822,"Ñı":11823,"Ġtent":11824,"Ġsits":11825,"Ġdough":11826,"Ġgrip":11827,"uther":11828,"ĠTO":11829,"ĠTer":11830,"amous":11831,"rained":11832,"Ġalike":11833,"Ġtrillion":11834,"Ġclip":11835,"Ġaged":11836,"ountered":11837,"ĠString":11838,"Ġgenet":11839,"Though":11840,"Ġreadily":11841,"Ġfranch":11842,"Ġgrave":11843,"oker":11844,"Ġpractically":11845,"Ġfunctioning":11846,"Ġobjectives":11847,"Ġlayout":11848,"ĠAmong":11849,"Ġimaging":11850,"Ġembra":11851,"ĠMarketing":11852,"iosity":11853,"Anyway":11854,"ĠAlexander":11855,"Ġassignment":11856,"connected":11857,"uccess":11858,"rea":11859,"Ġwrap":11860,"ĠIron":11861,"adow":11862,"ĠBuy":11863,"ĠRoll":11864,"Ġleak":11865,"Ġplacing":11866,"arer":11867,"ighters":11868,"Ġslip":11869,"Ġslower":11870,"Ġmature":11871,"atson":11872,"ĠScript":11873,"Ġeaten":11874,"Ġpsychology":11875,"Ġreflected":11876,"Ġethical":11877,"-scale":11878,"Ġtheoretical":11879,"ĠDigital":11880,"ĠVietnam":11881,"Having":11882,"bat":11883,"itzer":11884,"ilon":11885,"Ġattending":11886,"Ġjew":11887,"pless":11888,"ĠOffic":11889,"Ġarise":11890,"Ġbetray":11891,"Ġmining":11892,"182":11893,"Ġterminal":11894,"Ġbitter":11895,"Ġkills":11896,"Ġcopyright":11897,"Index":11898,"ĠPDF":11899,"Ġpuzzle":11900,"Return":11901,"-en":11902,"/M":11903,"93":11904,"AW":11905,"LY":11906,"aci":11907,"gun":11908,"lan":11909,"lation":11910,"uv":11911,"Ġslic":11912,"Ġgaining":11913,"Ġconclude":11914,"ĠBand":11915,"Ġcomedy":11916,"Ġrif":11917,"ĠHan":11918,"ĠEither":11919,"ĠNation":11920,"ĠLen":11921,"Ġmanages":11922,"Ġgrasp":11923,"Ġpoetry":11924,"ĠAnderson":11925,"Ġmeter":11926,"ĠAlice":11927,"Ġextrem":11928,"appropri":11929,"Ġcharacteristic":11930,"author":11931,"ĠMaria":11932,"Ġencountered":11933,"Ġexceptions":11934,"iffs":11935,"Ġembedded":11936,"Ġprinted":11937,"Ġprisoners":11938,"sembly":11939,"Ġevolutionary":11940,"Ġtemplate":11941,"Ġluxury":11942,"Ġmetabolism":11943,"Again":11944,"Eng":11945,"Never":11946,"_pro":11947,"nie":11948,"âĦ¢":11949,"Ġbio":11950,"especially":11951,"Ġnp":11952,"Ġbears":11953,"advant":11954,"igious":11955,"Ġhem":11956,"Ġwashing":11957,"istence":11958,"Ġabdom":11959,"ĠFall":11960,"Ġprejud":11961,"ĠWeek":11962,"liest":11963,"beat":11964,"Ġeastern":11965,"Ġcouch":11966,"Ġaffecting":11967,"Ġoccurring":11968,"Ġcollecting":11969,"Ġtrusted":11970,"Ġattended":11971,"Ġvarying":11972,"Ġexplicitly":11973,"izarre":11974,"Event":11975,"Given":11976,"Hand":11977,"SON":11978,"Sorry":11979,"aith":11980,"ela":11981,"ĠRing":11982,"ĠLady":11983,"Ġclue":11984,"Ġcooperation":11985,"Ġtrapped":11986,"Ġpublication":11987,"Ġcredits":11988,"ĠMeanwhile":11989,"Ġdropping":11990,"Ġdatas":11991,"Ġliberty":11992,"Ġexpressions":11993,"Ġacquire":11994,"Ġrecipes":11995,".jpg":11996,"Ġuncertainty":11997,"Ġchamber":11998,".L":11999,"Ms":12000,"NC":12001,"_P":12002,"db":12003,"rimin":12004,"zens":12005,"hero":12006,"heast":12007,"Ġfoss":12008,"Ġpup":12009,"Ġgrey":12010,"Ġstairs":12011,"ĠBan":12012,"ĠBurn":12013,"Ġneat":12014,"ĠGra":12015,"ĠLabor":12016,"ĠON":12017,"Ġflags":12018,"Ġinterior":12019,"Ġproducers":12020,"Ġfounder":12021,"Ġhomeless":12022,"Ġtechnological":12023,"Ġswallow":12024,"Ġpressed":12025,"Ġwaist":12026,"Array":12027,"Ġneighbour":12028,"Question":12029,"Ġtower":12030,"Ġscreaming":12031,"Ġtribes":12032,"Ġaltogether":12033,"Ġcollaboration":12034,"uros":12035,"why":12036,"erb":12037,"Ġbom":12038,"Ġholy":12039,"adium":12040,"ĠAz":12041,"Ġexclusively":12042,"ĠWorks":12043,"Ġoutdoor":12044,"ansas":12045,"runt":12046,"Ġtraged":12047,"Ġsecular":12048,"Ġmodify":12049,"Ġmonetary":12050,"Ġcycl":12051,"block":12052,"Ġtablets":12053,"Ġdefeated":12054,"Ġloads":12055,"ĠArticles":12056,"Ø§Ø":12057,"Ġexpanding":12058,"Ġprosper":12059,"ĠSystems":12060,"Ġpaintings":12061,"Ġshelter":12062,"ĠSoftware":12063,"350":12064,"Bel":12065,"VC":12066,"Was":12067,"]]":12068,"rt":12069,"Ġfer":12070,"Ġmarch":12071,"ĠSO":12072,"Ġanx":12073,"olis":12074,"Ġpeer":12075,"close":12076,"rencies":12077,"icture":12078,"Ġrab":12079,"Ġpreserve":12080,"ĠUnless":12081,"riendly":12082,"Ġdesigner":12083,"Ġaccepting":12084,"Ġindicating":12085,"Ġpurchasing":12086,"Ġsurvived":12087,"ĠUsually":12088,"Ġrequested":12089,"Ġcounterpart":12090,"Ġhormones":12091,"\";Ċ":12092,"MR":12093,"onze":12094,"Ġdrew":12095,"levant":12096,"Ġlol":12097,"Ġaspir":12098,"opular":12099,"Ġsoap":12100,"ĠNFL":12101,"Ġpermit":12102,"elling":12103,"Ġintermedi":12104,"Ġfinite":12105,"Ġskip":12106,"Ġreceives":12107,"Ġfundament":12108,"Ġsocieties":12109,"Ġhistoric":12110,"Ġenhancement":12111,"card":12112,"iors":12113,"initely":12114,"Ġwww":12115,"atile":12116,"alous":12117,"ĠHold":12118,"anti":12119,"ĠLuke":12120,"rying":12121,"duction":12122,"Ġblur":12123,"Ġinterference":12124,"Ġcriminals":12125,"Ġdeciding":12126,"Ġinsult":12127,"Ġslot":12128,"Ġdefence":12129,"184":12130,"apper":12131,"forced":12132,"Ġcomputing":12133,"Ġabsurd":12134,"Review":12135,"Ġimmense":12136,"Ġbarrel":12137,"Ġimagined":12138,"inois":12139,"Ġcouncil":12140,"ĠÐ¿":12141,"Ġcorporation":12142,"Ġholidays":12143,"Ġjournalists":12144,"ĠMassachusetts":12145,"Ġsurfaces":12146,"Ġinherit":12147,"Ġpublish":12148,"Ġenthusi":12149,"ĠOscar":12150,"\"},Ċ":12151,"HP":12152,"High":12153,"SF":12154,"ni":12155,"oen":12156,"Äģ":12157,"atal":12158,"Ġbaking":12159,"Ġpose":12160,"Ġpiss":12161,"Ġmes":12162,"Ġloses":12163,"eterm":12164,"ĠTown":12165,"ĠSong":12166,"ĠAk":12167,"Ġweaken":12168,"ĠCross":12169,"ĠBang":12170,"uscript":12171,"Ġrings":12172,"cium":12173,"izard":12174,"Ġinvested":12175,"forward":12176,"-making":12177,"Ġreviewed":12178,"Ġcompliance":12179,"Ġnovels":12180,"Ġpeaceful":12181,"ymph":12182,"Ġsurprisingly":12183,"Ġsovereignty":12184,"Ġunclear":12185,"Ġcalculation":12186,"LI":12187,"iability":12188,"Ġwore":12189,"Ġlone":12190,"Ġecho":12191,"Ġgum":12192,"ĠAT":12193,"Ġprol":12194,"ĠEli":12195,"iley":12196,"Ġoverlook":12197,"Ġcoins":12198,"Ġreporter":12199,"Ġcoron":12200,"Ġgenerating":12201,"Ġartistic":12202,"Ġgovernor":12203,"Ġprize":12204,"Ġswing":12205,"Ġpromises":12206,"Ġspeeds":12207,"Ġcomplications":12208,"Ġheroes":12209,"ĠThompson":12210,"Ġsuspension":12211,"ĠJersey":12212,"ĠTemple":12213,"Ġgifts":12214,"ĠAdministration":12215,"-j":12216,"='":12217,"MI":12218,"\\begin":12219,"cos":12220,"every":12221,"luc":12222,"pically":12223,"{code":12224,"Ġmos":12225,"Ġinequ":12226,"Ġgreet":12227,"idity":12228,"ĠTen":12229,"ĠCut":12230,"Ġconform":12231,"Ġseasons":12232,"ochem":12233,"Ġworkplace":12234,"Ġshed":12235,"ĠStore":12236,"ĠAndy":12237,"Ġretired":12238,"Ġbehave":12239,"hysical":12240,"Ġcirculation":12241,"ĠAbraham":12242,"ĠCoast":12243,"Ġblend":12244,"Ġreflects":12245,"ĠAnton":12246,"True":12247,"Ġcolumns":12248,"Ġentertaining":12249,"Ġdysfunction":12250,"Ġdosage":12251,"Ġgrammar":12252,"Ġavoided":12253,"Ġgoogle":12254,"Ġsophisticated":12255,"'.Ċ":12256,":\"":12257,"RO":12258,"SI":12259,"eq":12260,"names":12261,"will":12262,"Ð¼":12263,"instein":12264,"Ġpets":12265,"Ġdread":12266,"Ġstabil":12267,"ĠCB":12268,"ĠMO":12269,"ĠHop":12270,"ostic":12271,"ĠGulf":12272,"actic":12273,"oca":12274,"ĠKong":12275,"Ġpreference":12276,"Ġhandy":12277,"Ġtransparent":12278,"Ġproblematic":12279,"Ġfrank":12280,"Ġpainted":12281,"Ġsalary":12282,"ÂłÂłÂłÂłÂł":12283,"Ġtargeting":12284,"Ġescal":12285,"ĠDemocrat":12286,"Ġprinting":12287,"Ġlaboratory":12288,"Ġsimpler":12289,"Ġpharmacy":12290,"ĠIdent":12291,"rapeut":12292,"Ġdisgust":12293,"-est":12294,"Further":12295,"Sn":12296,"isations":12297,"Ġgel":12298,"ĠSeveral":12299,"ĠCas":12300,"ĠMA":12301,"ĠHal":12302,"Ġshoe":12303,"ĠDoug":12304,"ĠFive":12305,"inded":12306,"perm":12307,"Ġunh":12308,"Ġresur":12309,"Ġspy":12310,"Inv":12311,"Ġdefensive":12312,"Ġrefres":12313,"Ġrefrig":12314,"ĠShare":12315,"adding":12316,"Ġassociate":12317,"Ġignoring":12318,"Ġfemales":12319,"Ġalternate":12320,"ĠAccount":12321,"Ġdispute":12322,"Ġboundary":12323,"Ġjumping":12324,"================":12325,"Ġaxis":12326,"Ġoccasions":12327,"Product":12328,"BN":12329,"Cle":12330,"lvan":12331,"only":12332,"ishers":12333,"Ġnest":12334,"rait":12335,"ĠCass":12336,"ulative":12337,"ĠMove":12338,"ĠLew":12339,"ionship":12340,"Ġreserve":12341,"Ġexamination":12342,"ĠUniverse":12343,"128":12344,"float":12345,"Ġfridge":12346,"eek":12347,"ikh":12348,"Ġprotests":12349,"Ġdealt":12350,"Ġreligions":12351,"Ġsoldier":12352,"limited":12353,"Ġgasoline":12354,"Ġwoods":12355,"Ġbelongs":12356,"Ġcrops":12357,"Ġfrustrated":12358,"Ġprivilege":12359,"Ġoccasional":12360,"usalem":12361,"Ġimprison":12362,"$.Ċ":12363,"UD":12364,"Yet":12365,"km":12366,"piece":12367,"Ġdia":12368,"imation":12369,"ĠSay":12370,"Ġhey":12371,"ĠCup":12372,"ĠBul":12373,"ĠBased":12374,"Ġrounds":12375,"aby":12376,"Ġcholesterol":12377,"iph":12378,"Ġpref":12379,"Ġraises":12380,"theta":12381,"ertainly":12382,"Ġclassified":12383,"Ġnamely":12384,"ĠProblem":12385,"ĠPhoto":12386,"Ġnicely":12387,"Ġarmor":12388,"ugging":12389,"Ġconflicts":12390,"Ġhomosexual":12391,"ogenic":12392,"Ġsacrific":12393,"Ġhypothesis":12394,"ĠEspecially":12395,"-V":12396,"Michael":12397,"Talk":12398,"wer":12399,"Ġsour":12400,"atable":12401,"itial":12402,"oro":12403,"Ġfires":12404,"Ġmamm":12405,"vector":12406,"ĠTol":12407,"uru":12408,"ĠSix":12409,"Ġanch":12410,"ĠCow":12411,"Âłthat":12412,"agle":12413,"iped":12414,"nection":12415,"Ġspite":12416,"Ġnewer":12417,"onto":12418,"ggy":12419,"Ġcarbo":12420,"Ġelig":12421,"à¤¿":12422,"Ġtexture":12423,"Ġsummar":12424,"Ġcycling":12425,"Ġblocked":12426,"eroids":12427,"Ġdeclare":12428,"Ġtolerance":12429,"Ġhunger":12430,"Ġarbitrary":12431,"ĠSimilarly":12432,"Ġrhythm":12433,".;":12434,"Ext":12435,"cite":12436,"rous":12437,"yard":12438,"Â·":12439,"orie":12440,"Ġhub":12441,"owth":12442,"igs":12443,"ĠSleep":12444,"keys":12445,"ĠCP":12446,"oresc":12447,"Ġrust":12448,"ouses":12449,"Ġpeers":12450,"Ġtender":12451,"Ġapple":12452,"Ġrage":12453,"except":12454,"Ġhomework":12455,"Ġdrum":12456,"Ġphysician":12457,"ĠSomeone":12458,"Ġacceptance":12459,"ĠEnvironment":12460,"Ġagreements":12461,"Ġimplementing":12462,"Ġgraphic":12463,"Ġempathy":12464,"ĠMedicine":12465,"Ġfatigue":12466,".w":12467,"/L":12468,"Hello":12469,"Je":12470,"_st":12471,"fare":12472,"hal":12473,"have":12474,"last":12475,"}^":12476,"Ġ..":12477,"render":12478,"Ġcried":12479,"isan":12480,"riel":12481,"abul":12482,"ĠDM":12483,"ptr":12484,"fee":12485,"plot":12486,"iban":12487,"Ġresolved":12488,"Ġoffs":12489,"ovie":12490,"Ġunderneath":12491,"Ġdried":12492,"Ġpleased":12493,"Ġenterprise":12494,"Ġattracted":12495,"ECT":12496,"Ġdistricts":12497,"########":12498,"folio":12499,"Ġnonsense":12500,"Ġbureauc":12501,"Test":12502,"mand":12503,"nders":12504,"ingle":12505,"Ġbeam":12506,"utical":12507,"think":12508,"ĠDue":12509,"ĠGall":12510,"Ġcompression":12511,"owners":12512,"ribly":12513,"aza":12514,"ussy":12515,"ĠIndians":12516,"Char":12517,"Ġlawn":12518,"Ġdetermination":12519,"Ġbiology":12520,"Ġmembership":12521,"help":12522,"Ġembry":12523,"ĠSimon":12524,"Ġaims":12525,"ÙİØ":12526,"Ġstreaming":12527,"Ġtransferred":12528,"Ġharvest":12529,"Ġhydrogen":12530,"ĠDragon":12531,".âĢĻĊ":12532,"âĪĴ":12533,"(*":12534,"Ben":12535,"IO":12536,"Member":12537,"UC":12538,"Ġ:Ċ":12539,"Ġov":12540,"itated":12541,"Ġpir":12542,"ĠTar":12543,"illance":12544,"ÂłR":12545,"ÂłW":12546,"Ġatoms":12547,"thony":12548,"Ġteens":12549,"Ġunl":12550,"achy":12551,"ĠInv":12552,"Ġimposed":12553,"Ġschem":12554,"obic":12555,"Ġrod":12556,"ervation":12557,"cludes":12558,"Ġpatience":12559,"170":12560,"Ġfatal":12561,"Ġlifted":12562,"ĠIntel":12563,"ĠAnyone":12564,"Ġcivilization":12565,"Ġviruses":12566,"ĠStudy":12567,"Ġconservation":12568,"ĠDefense":12569,"Ġscratch":12570,"Ġconvincing":12571,"ĠVictoria":12572,"Ġrecruit":12573,"Ġelderly":12574,"-al":12575,"-we":12576,"-ins":12577,"Point":12578,"coin":12579,"giving":12580,"pin":12581,"rot":12582,"Ð´":12583,"reed":12584,"Ġhated":12585,"Ġlas":12586,"ĠSanta":12587,"Ġ()":12588,"opping":12589,"istance":12590,"ĠHu":12591,"Ġdozens":12592,"ĠRaj":12593,"ĠStat":12594,"Ġattitudes":12595,"Info":12596,"Ġdecay":12597,"Ġentries":12598,"Ġcountless":12599,"Ġdefining":12600,"Ġcreep":12601,"Ġcurs":12602,"Ġskilled":12603,"Ġedited":12604,"ĠConst":12605,"Ġactivation":12606,"ĠSyrian":12607,"Ġcopper":12608,"Ġpublishing":12609,"ĠParliament":12610,"ĠPrem":12611,"ĠOtherwise":12612,"Ġclubs":12613,"81":12614,"Tim":12615,"])":12616,"las":12617,"Ùĩ":12618,"Ġtribe":12619,"onge":12620,"itably":12621,"imated":12622,"ĠTQ":12623,"Ġhed":12624,"Ġdeemed":12625,"ĠBart":12626,"ĠBuild":12627,"emption":12628,"Ġvine":12629,"ĠRain":12630,"ĠFarm":12631,"ĠNations":12632,"Ġinval":12633,"ĠArgent":12634,"Ġprevention":12635,"Ġorigins":12636,"ĠManager":12637,"Ġepic":12638,"Ġpurchases":12639,"Ġsecrets":12640,"Ġtelephone":12641,"Ġcups":12642,"Content":12643,"ĠMexican":12644,"Ġcolonial":12645,"ĠADHD":12646,"Ġsanctions":12647,"ĠOlympic":12648,"ĠNavy":12649,"ĠSummer":12650,"Ġpropaganda":12651,"Ġsuspended":12652,"([":12653,"Base":12654,"Very":12655,"faces":12656,"oard":12657,"uates":12658,"||":12659,"Ġapt":12660,"Ġmun":12661,"ĠAction":12662,"riven":12663,"ths":12664,"ĠRab":12665,"ĠGOP":12666,"acular":12667,"lient":12668,"atherine":12669,"123":12670,"Ġsolving":12671,"Ġoperational":12672,"Ġabsor":12673,"Ġdamages":12674,"Ġcompetitors":12675,"uclear":12676,"Ġfragment":12677,"Ġemotionally":12678,"Ġannouncement":12679,"Ġtremendous":12680,"-man":12681,"/w":12682,"87":12683,"js":12684,"oa":12685,"pol":12686,"Ùĥ":12687,"esters":12688,"orig":12689,"asury":12690,"stairs":12691,"Ġstats":12692,"ĠMun":12693,"ĠMoney":12694,"agg":12695,"ailable":12696,"Ġcrown":12697,"Ġrealise":12698,"Ġprovince":12699,"Ġexamined":12700,"Ġfilters":12701,"ĠWhatever":12702,"Ġparas":12703,"âĢľThe":12704,"ĠConnect":12705,"Ġsensation":12706,"ĠImm":12707,"Ġfatty":12708,"Ġcrossing":12709,"Ġspreading":12710,"Ġenhanced":12711,"Ġinitiative":12712,"Ġladies":12713,"ĠRespons":12714,"Jack":12715,"Orig":12716,"oning":12717,"oria":12718,"Ġdull":12719,"Ġreass":12720,"Ġstays":12721,"heric":12722,"ateur":12723,"ĠBull":12724,"ĠBrian":12725,"Ġric":12726,"ĠPA":12727,"ĠNatural":12728,"ĠUV":12729,"Ġresume":12730,"Ġpricing":12731,"ella":12732,"Ġtrauma":12733,"Ġgenome":12734,"hess":12735,"Ġcharity":12736,"Ġmedieval":12737,"Ġcomplement":12738,"bytes":12739,"Ġaccordingly":12740,"Ġcontacts":12741,"Ġbehavioral":12742,"Ġconsistency":12743,"Score":12744,"Ġadjusted":12745,"Ġevaluated":12746,"ĠEgyptian":12747,"ĠBetter":12748,"ĠJerusalem":12749,"Ġblanket":12750,"Instead":12751,"Ġdeposit":12752,"ioxide":12753,"Ġminerals":12754,".ex":12755,"ILL":12756,"core":12757,"matic":12758,"rams":12759,"});Ċ":12760,"Ġtorn":12761,"Ġpel":12762,"rox":12763,"rock":12764,"iral":12765,"ĠCredit":12766,"ista":12767,"Ġleverage":12768,"Ġjson":12769,"plus":12770,"ĠJordan":12771,"avy":12772,"next":12773,"ĠChair":12774,"Ġbrick":12775,"Ġende":12776,"Ġideology":12777,"scribe":12778,"Ġspecialized":12779,"ĠÂ©":12780,"Being":12781,"Ġgeometry":12782,"ĠCorpor":12783,"market":12784,"Ġtranslated":12785,"rivacy":12786,"Ġlabeled":12787,"Ġappointed":12788,"Ġincorporate":12789,"Ġdistinguish":12790,"ĠJacob":12791,"Ġcertificate":12792,"Ġcompatible":12793,"ocalypse":12794,"Ġglucose":12795,".]Ċ":12796,"94":12797,"SW":12798,"Ġwoke":12799,"Ġbases":12800,"arious":12801,"Ġneural":12802,"ĠRaz":12803,"ĠFro":12804,"ĠLA":12805,"Ġhash":12806,"ĠJu":12807,"Ġthrows":12808,"Ġdiscont":12809,"Ġlesser":12810,"Ġlistened":12811,"178":12812,"Ġdepict":12813,"Ġavailability":12814,"Ġwonders":12815,"Ġcompanion":12816,"Ġdefinitions":12817,"Ġmisunder":12818,"Ġfacial":12819,"Ġtranslate":12820,"ĠBarack":12821,"ĠReviews":12822,"Ġharass":12823,"Ġmicrosc":12824,"Ġhorizon":12825,"Ġcompromise":12826,"Ġextraordinary":12827,".b":12828,"/k":12829,"GA":12830,"Pat":12831,"bags":12832,"cat":12833,"lon":12834,"non":12835,"}_":12836,"Ġbizarre":12837,"Ġrewards":12838,"Ġanthrop":12839,"ĠCab":12840,"ÂłK":12841,"usr":12842,"ĠEuro":12843,"ibration":12844,"Ġtransmit":12845,"Ġcounting":12846,"ĠAlways":12847,"Ġopenly":12848,"Ġprofitable":12849,"iking":12850,"sylvan":12851,"iliation":12852,"ammad":12853,"space":12854,"Ġrandomly":12855,"Ġpunish":12856,"ĠSeries":12857,"ĠCOVID":12858,"Ġreceptors":12859,"ĠStandard":12860,"Ġjurisd":12861,"count":12862,"kers":12863,"orable":12864,"Ġfict":12865,"Ġpor":12866,"chlor":12867,"ĠSel":12868,"ĠCore":12869,"pection":12870,"ĠBond":12871,"opath":12872,"Ġprox":12873,"anting":12874,"ĠDog":12875,"ĠFBI":12876,"ĠGreg":12877,"ptical":12878,"ĠObs":12879,"Ġarrog":12880,"Ġresort":12881,"Ġfled":12882,"ĠZak":12883,"ĠIndones":12884,"Ġpractition":12885,"ortunate":12886,"Ġphysi":12887,"system":12888,"Ġconnecting":12889,"Ġlacking":12890,"-ups":12891,"ĠTravel":12892,"options":12893,"Ġdietary":12894,"Ġcategor":12895,"Ġprecision":12896,"Ġconcentrate":12897,"ĠNetflix":12898,"ĠAnswers":12899,"Ġjoints":12900,"Ġcabin":12901,"Ġbasketball":12902,"Ġswitched":12903,"Whether":12904,",y":12905,".add":12906,"Main":12907,"SL":12908,"mare":12909,"wind":12910,"enly":12911,"Ġmast":12912,"omo":12913,"ioned":12914,"utable":12915,"root":12916,"ĠSupport":12917,"ÂłThere":12918,"oping":12919,"ĠPu":12920,"ante":12921,"ĠDad":12922,"ĠField":12923,"plit":12924,"Ġoutstanding":12925,"ĠOcean":12926,"Ġinterfe":12927,"108":12928,"gets":12929,"conf":12930,"Ġdiscoura":12931,"ahoo":12932,"flamm":12933,"Ġglobe":12934,"ucker":12935,"ohan":12936,"Ġtrips":12937,"Ġhealthier":12938,"oku":12939,"Ġparliament":12940,"ĠCancer":12941,"Ġmassage":12942,"Ġbarriers":12943,"Ġsenses":12944,"-hour":12945,"Ġswitching":12946,"Ġearnings":12947,"Ġisolation":12948,"ĠFreedom":12949,"Ġelevated":12950,"ĠCircuit":12951,"Ġaudiences":12952,"Ġinvisible":12953,"-int":12954,".x":12955,"Jump":12956,"Open":12957,"ais":12958,"metic":12959,"Ġbool":12960,"Ġfu":12961,"Ġfond":12962,"ĠCorn":12963,"illage":12964,"rium":12965,"ĠPack":12966,"ĠParent":12967,"Ġaliens":12968,"ĠOkay":12969,"reating":12970,"Ġpreferences":12971,"Ġsheep":12972,"Ġblond":12973,"orship":12974,"obias":12975,"Ġbugs":12976,"Ġplanes":12977,"ounters":12978,"Ġeleg":12979,"Ġforecast":12980,"Ġprophe":12981,"Ġfrequencies":12982,"Comment":12983,"ĠArabia":12984,"Ġconcentrations":12985,"Ġnegotiations":12986,",âĢĻ":12987,"-so":12988,"FC":12989,"Sure":12990,"hole":12991,"test":12992,"ĠÑģ":12993,"Ġbearing":12994,"etric":12995,"Ġstain":12996,"Ġstaring":12997,"uri":12998,"ĠBa":12999,"thod":13000,"abases":13001,"Ġsoccer":13002,"ryst":13003,"ĠChrome":13004,"ĠVersion":13005,"Ġaccent":13006,"fty":13007,"Ġformats":13008,"Ġcorrection":13009,"Ġpossession":13010,"ussian":13011,"Ġunderstands":13012,"Ġparticle":13013,"Ġactivated":13014,"Ġdigit":13015,"Ġprotective":13016,"Ġrepresentatives":13017,"ilipp":13018,"Ġquantities":13019,"Ġinterpreted":13020,"Ġfirmly":13021,"ĠLooking":13022,"Ġattribute":13023,"Ġtunnel":13024,"Ġobligation":13025,"Ġstrictly":13026,"ĠDarwin":13027,"Ap":13028,"Work":13029,"_C":13030,"bes":13031,"bone":13032,"hard":13033,"rer":13034,"owa":13035,"eman":13036,"Ġtricks":13037,"ĠJosh":13038,"Ġsafer":13039,"Ġdisput":13040,"Ġracing":13041,"Three":13042,"Ġsubstitute":13043,"ructive":13044,"ĠDeep":13045,"Ġprevents":13046,"Ġbrave":13047,"Ġequity":13048,"Ġdesigners":13049,"Ġconsiderably":13050,"Ġenerg":13051,"Ġprevented":13052,"ASE":13053,"Ġcontributing":13054,"Ġpleasant":13055,"Ġtastes":13056,"ĠAnyway":13057,"Ġcruise":13058,"Ġethics":13059,"Ġwireless":13060,"ĠBaby":13061,"Ġminimize":13062,"ĠIllinois":13063,"sylvania":13064,"/**Ċ":13065,"Current":13066,"Size":13067,"corn":13068,"Ġaffe":13069,"Ġwre":13070,"Ġtob":13071,"Ġdictionary":13072,"arse":13073,"otine":13074,"search":13075,"Ġrally":13076,"ĠProm":13077,"abe":13078,"ĠER":13079,"Ġcompact":13080,"Ġresidence":13081,"Ġprefix":13082,"Ġrope":13083,"Ġwherever":13084,"Ġrepublic":13085,"before":13086,"Ġcurric":13087,"ĠTrade":13088,"Ġhyd":13089,"Change":13090,"Ġnecessity":13091,"Ġapproaching":13092,"Ġachieving":13093,"Ġintegral":13094,"-American":13095,"ĠRoberts":13096,"Ġvegetable":13097,"Ġutilize":13098,"Ġnerves":13099,"Ġignorance":13100,"lucan":13101,"(k":13102,"None":13103,"Î¿":13104,"inth":13105,"inery":13106,"Ġmuseum":13107,"Ġreign":13108,"ifting":13109,"Ġsectors":13110,"ĠHum":13111,"Ġcance":13112,"Ġclause":13113,"Ġdisability":13114,"Ġdisadvant":13115,"Ġblast":13116,"ĠStaff":13117,"Ġacted":13118,"Ġbund":13119,"ocking":13120,"Ins":13121,"Think":13122,"Ġsubmitted":13123,"ĠAssembly":13124,"Ġassured":13125,"Ġtyr":13126,"ĠBridge":13127,"ĠTruth":13128,"-for":13129,"Ġcharacterized":13130,"ĠWithin":13131,"Ġfights":13132,"Ġaddressing":13133,"Ġblocking":13134,"Ġcontroversy":13135,"Ġsoda":13136,"Ġfestival":13137,"Ġinhabit":13138,"-go":13139,"220":13140,"Number":13141,"Ok":13142,"dam":13143,"kle":13144,"roup":13145,"uilt":13146,"hew":13147,"aland":13148,"Ġlin":13149,"Ġlyrics":13150,"Ġego":13151,"othy":13152,"aman":13153,"oler":13154,"Ġvag":13155,"mentation":13156,"resident":13157,"Ġabnormal":13158,"ĠGB":13159,"ogene":13160,"ĠKakashi":13161,"akespe":13162,"Ġ{\\":13163,"Ġwinds":13164,"Ġneglig":13165,"Ġconviction":13166,"Ġbroader":13167,"operat":13168,"Ġsuspic":13169,"Ġshadows":13170,"Consider":13171,"Ġloyalty":13172,"Ġsearches":13173,"-ad":13174,"/D":13175,"Net":13176,"Node":13177,"SQL":13178,"],Ċ":13179,"}.":13180,"atisf":13181,"Ġfiscal":13182,"stick":13183,"Ġyards":13184,"immer":13185,"champ":13186,"ĠSH":13187,"Ġorbit":13188,"umbers":13189,"Ġranks":13190,"ĠPFD":13191,"Ġchurches":13192,"ĠJay":13193,"ĠKevin":13194,"ango":13195,"Ġpockets":13196,"Ġflows":13197,"Ġslaves":13198,"ucking":13199,"Ġpassenger":13200,"Ġequipped":13201,"Answ":13202,"-made":13203,"ĠLevel":13204,"Ġsimilarly":13205,"Ġattacking":13206,"Ġ*Ċ":13207,"Ġdomains":13208,"Show":13209,"Ġurge":13210,"ambda":13211,"Ġindependently":13212,"ĠAgency":13213,"Ġcomparable":13214,"Ġsuspected":13215,"Ġphrases":13216,"ĠFranklin":13217,"Similar":13218,"Param":13219,"Ġperipheral":13220,"-over":13221,"eks":13222,"lar":13223,"pub":13224,"rin":13225,"size":13226,"walk":13227,"Ġwrest":13228,"ĠSony":13229,"ĠBody":13230,"Âłfor":13231,"Ġneurop":13232,"ĠEarly":13233,"Ġoutbreak":13234,"acies":13235,"cca":13236,"aceutical":13237,"002":13238,"Ġsheer":13239,"Ġours":13240,"uality":13241,"Ġhighway":13242,"Ġtransmitted":13243,"Ġgenerous":13244,"Ġskull":13245,"Ġmindset":13246,"ĠSelect":13247,"should":13248,"Ġbloody":13249,"Ġchallenged":13250,"Ġgrandfather":13251,"Ġscripts":13252,"Ġestablishing":13253,"Ġreminds":13254,"Ġvitamins":13255,"Ġhypert":13256,"ĠBerlin":13257,"Default":13258,"Ġneurons":13259,"Ġtackle":13260,"Ġthermal":13261,"ĠLabour":13262,"ĠOlivia":13263,"Ġolive":13264,"82":13265,"Ah":13266,"SO":13267,"bed":13268,"iel":13269,"node":13270,"onies":13271,"Ġsir":13272,"itches":13273,"isen":13274,"Ġfiring":13275,"Ġmakers":13276,"Ġdioxide":13277,"Ġgard":13278,"Ġgrief":13279,"Ġreck":13280,"rose":13281,"idency":13282,"Ġsteroids":13283,"Ġanonymous":13284,"ĠCSS":13285,"ulpt":13286,"Ġnotable":13287,"ĠUntil":13288,"Ġgrat":13289,"Ġcope":13290,"Ġbuck":13291,"Ġtrailer":13292,"Ġpurple":13293,"Ġvaries":13294,"amsung":13295,"Ġdraws":13296,"ĠScholar":13297,"Ġqueen":13298,"Ġremarks":13299,"ĠSanders":13300,"Ġhatred":13301,"Ġbelly":13302,"Ġsubsequently":13303,"ĠCapital":13304,"Ġignorant":13305,"Ġincentive":13306,"Ġfacilitate":13307,"Ġprescribed":13308,"Ġdoctrine":13309,"/*":13310,"Men":13311,"NO":13312,"PH":13313,"Resp":13314,"bro":13315,"cin":13316,"human":13317,"mail":13318,"vised":13319,"ĠâĢĻ":13320,"Ġ__":13321,"Ġgly":13322,"ĠMap":13323,"orer":13324,"ĠBrand":13325,"ĠWol":13326,"Ġrows":13327,"ositive":13328,"ĠDoc":13329,"ĠFDA":13330,"Ġunions":13331,"Ġperceive":13332,"Ġneeding":13333,"Ġseeks":13334,"ollar":13335,"ĠComputer":13336,"Ġdiver":13337,"Ġbasics":13338,"Ġlandl":13339,"Ġ+Ċ":13340,"Ġcolleges":13341,"ĠPrice":13342,"Ġ*/Ċ":13343,"ĠJohnny":13344,"Ġfinancially":13345,"Ġrevealing":13346,"Ġsticks":13347,"Ġunconscious":13348,"Ġtransformed":13349,"ĠPatrick":13350,"ĠPolish":13351,"ĠCommunity":13352,"--------------------------------":13353,"Ġoxid":13354,"bin":13355,"fly":13356,"Ġtires":13357,"Ġborr":13358,"leading":13359,"omorph":13360,"Ġerect":13361,"sto":13362,"ĠAbs":13363,"Ġproc":13364,"auge":13365,"ooking":13366,"ĠStock":13367,"Ġmakeup":13368,"Ġmetaphor":13369,"ĠAnalysis":13370,"ĠUnivers":13371,"amped":13372,"Ġpassive":13373,"Ġgrains":13374,"Ġcostly":13375,"Ġweights":13376,"ĠJustin":13377,"Ġrivers":13378,"Ġwarmth":13379,"Ġmedicines":13380,"arbon":13381,"Ġmistaken":13382,"itcoin":13383,"ĠIncre":13384,"ĠBooks":13385,"icycle":13386,"jections":13387,"Ġdestroying":13388,"low":13389,"nut":13390,"input":13391,"Ġcited":13392,"Ġbip":13393,"Ġmapping":13394,"Ġlen":13395,"Ġlaund":13396,"Ġforty":13397,"ĠCR":13398,"Ġnoting":13399,"ositions":13400,"ĠDick":13401,"ĠLyn":13402,"api":13403,"Ġunity":13404,"ipse":13405,"Ġoverview":13406,"ovascular":13407,"Ġappet":13408,"Ġflowing":13409,"olds":13410,"upiter":13411,"bean":13412,"Ġcontinuously":13413,"Web":13414,"ividually":13415,"Ġanswering":13416,"à¤°":13417,"ĠAllen":13418,"Ġmissiles":13419,"Ġcommentary":13420,"Ġspecialist":13421,"Ġhosting":13422,"Ġunfortunate":13423,"Ġgrandmother":13424,"Ġshifts":13425,"Ġcoalition":13426,"-quality":13427,"ĠEconomic":13428,"ĠMichel":13429,"Ġbuffer":13430,"FR":13431,"Link":13432,"Welcome":13433,"])Ċ":13434,"mal":13435,"Ġber":13436,"Ġpic":13437,"Ġdangers":13438,"omon":13439,"Ġrehab":13440,"ĠBol":13441,"Ġprolong":13442,"emon":13443,"Ġjar":13444,"Ġintest":13445,"Ġadverse":13446,"Ġunpre":13447,"Ġcaring":13448,"ĠHoward":13449,"Ġmonsters":13450,"Ġadvised":13451,"ĠArk":13452,"âĢĶa":13453,"ĠUSB":13454,"ufficient":13455,"ĠExample":13456,"ERE":13457,"Ġparenting":13458,"ĠPeace":13459,"Ġsunlight":13460,"event":13461,"Ġagrees":13462,"Ġlifting":13463,"ĠIntelligence":13464,"ĠEmily":13465,"September":13466,"Ġsatisfy":13467,"Ġbacterial":13468,"Ġtricky":13469,"ĠTurk":13470,"Ġruin":13471,"arency":13472,"Ġexplosion":13473,"Ġutterly":13474,"Ġtobacco":13475,"Ant":13476,"WS":13477,"Ġbay":13478,"Ġlap":13479,"ido":13480,"urring":13481,"ĠSide":13482,"ĠSpecific":13483,"Ġsegments":13484,"ĠHart":13485,"Ġalpha":13486,"ĠRachel":13487,"Ġjustified":13488,"ressive":13489,"Ġspont":13490,"Ġspider":13491,"reek":13492,"Ġthrust":13493,"Ġinvite":13494,"Ġlasting":13495,"Ġglory":13496,"orname":13497,"Str":13498,"Ġbreed":13499,"Ġcircular":13500,"Ġmixing":13501,"Ġstraightforward":13502,"Ġoccupation":13503,"Ġtumor":13504,"Ġclarity":13505,"Ġbothered":13506,"Ġagricultural":13507,"Ġmarginal":13508,"ĠUkraine":13509,"appropriate":13510,"operatorname":13511,"\"?":13512,"American":13513,"La":13514,"Rob":13515,"Ġtheft":13516,"atched":13517,"Ġpse":13518,"Ġmud":13519,"Ġhilar":13520,"ĠTai":13521,"rik":13522,"Ġshade":13523,"ĠGarden":13524,"ĠUI":13525,"Ġincons":13526,"105":13527,"Ġenters":13528,"Ġbuilds":13529,"ĠClark":13530,"Ġzones":13531,"Ġreplies":13532,"Ġhistorically":13533,"Ġarchae":13534,"ĠLaure":13535,"Ġmagnitude":13536,".png":13537,"writing":13538,"Ġpollution":13539,"ÂłÂłÂłÂłÂłÂłÂłÂłÂłÂłÂłÂłÂłÂłÂłÂł":13540,"Ġfifteen":13541,"ĠMoore":13542,"Ġpartnership":13543,"Build":13544,"Cain":13545,"GR":13546,"Life":13547,"current":13548,"wear":13549,"Ġtanks":13550,"Ġcrop":13551,"ĠSN":13552,"oder":13553,"ÂłThat":13554,"Ġprogression":13555,"Ġranging":13556,"Ġshaking":13557,"ĠRy":13558,"Ġjaw":13559,"ĠLanguage":13560,"early":13561,"ryption":13562,"Ġreset":13563,"ĠKids":13564,"hattan":13565,"Ġactress":13566,"Ġowns":13567,"Ġslots":13568,"Ġlocally":13569,"Ġcontinually":13570,"Ġpracticing":13571,"Ġexpectation":13572,"ĠExec":13573,"Ġsexually":13574,"Ġpropose":13575,"NAME":13576,"chem":13577,"ĠImport":13578,"Exp":13579,"Ġinjection":13580,"arbor":13581,"ritis":13582,"Ġrebell":13583,"Ġpromotion":13584,"Ġpalm":13585,"Ġsustained":13586,"Ġcartoon":13587,"Ġfifty":13588,"Ġromance":13589,"-being":13590,"Ġsovereign":13591,"Ġallergic":13592,"ĠLucas":13593,"Method":13594,"Ġrespiratory":13595,"BO":13596,"Tag":13597,"tag":13598,"Ġtire":13599,"esity":13600,"Ġnarc":13601,"Ġya":13602,"uty":13603,"ĠMagn":13604,"Ġexpend":13605,"Ġshore":13606,"ĠDu":13607,"Ġune":13608,"Ġdispar":13609,"Ġoverhead":13610,"Ġbuzz":13611,"ribution":13612,"Ġcarrier":13613,"psy":13614,"ĠAltern":13615,"Ġdistress":13616,"Ġboats":13617,"Ġtechnically":13618,"elson":13619,"Ġpriest":13620,"Ġorganize":13621,"Ġpressing":13622,"Ġmorality":13623,"Ġpicks":13624,"Ġcops":13625,"Ġpackaging":13626,"Ġpulls":13627,"Ġmiser":13628,"Ġnetworking":13629,"Ġemerge":13630,"ĠInstagram":13631,"Ġratings":13632,"Ġteenage":13633,"Ġfortune":13634,"Ġinduced":13635,"ĠFrancis":13636,"Ġceremony":13637,"Ġelectronics":13638,"Ġdelegates":13639,"ĠPalestinian":13640,"ĠBruce":13641,"healthy":13642,"ĠEventually":13643,"-gr":13644,"/P":13645,"Hope":13646,"_i":13647,"burn":13648,"dict":13649,"note":13650,"td":13651,"Ġæ":13652,"Ġdive":13653,"Ġinex":13654,"ete":13655,"ĠTel":13656,"ĠTitan":13657,"ractions":13658,"ĠCON":13659,"ulates":13660,"opia":13661,"ĠWatson":13662,"Ġsuits":13663,"ository":13664,"ĠRating":13665,"redict":13666,"akh":13667,"Ġknocked":13668,"ulty":13669,"neg":13670,"ector":13671,"ĠAnne":13672,"beit":13673,"Ġsigning":13674,"azines":13675,"Ġcontroller":13676,"ĠArthur":13677,"ika":13678,"Ġdesigning":13679,"Ġviewers":13680,"Ġairline":13681,"Ġdevoted":13682,"Ġcalcium":13683,"ospital":13684,"generation":13685,"Ġurine":13686,"security":13687,"Ġteaches":13688,"Ġtalented":13689,"ĠMorgan":13690,"Ġmurdered":13691,"ĠNazi":13692,"Download":13693,"Ġtragedy":13694,"akespeare":13695,"/pro":13696,"Field":13697,"WH":13698,"large":13699,"};Ċ":13700,"Ġion":13701,"Ġfame":13702,"Ġmi":13703,"Ġdan":13704,"arity":13705,"Ġnu":13706,"Ġnick":13707,"semble":13708,"ĠTok":13709,"adi":13710,"amination":13711,"ĠSab":13712,"ationally":13713,"Ġextends":13714,"ĠWinter":13715,"ĠEX":13716,"ounded":13717,"...\"Ċ":13718,"Ġquad":13719,"Ġspine":13720,"Ġcarb":13721,"Ġcarriers":13722,"Ġmarker":13723,"ricane":13724,"Ġtermin":13725,"Ask":13726,"ĠClin":13727,"Ġpromising":13728,"chester":13729,"Ġcampus":13730,"ĠApparently":13731,"obert":13732,"Ġsuscept":13733,"Ġcatast":13734,"Ġinvestigated":13735,"ACK":13736,"Ġappreciation":13737,"Ġsmartphone":13738,"ĠStudents":13739,"agonist":13740,"Ġsynthesis":13741,"Ġpassionate":13742,"Ġcoconut":13743,"Ġsatellites":13744,"Ġsurveys":13745,"Filter":13746,"Ġanalyses":13747,"cyclopedia":13748,"LD":13749,"nom":13750,"uu":13751,"itations":13752,"Ġbent":13753,"Ġflee":13754,"around":13755,"Ġlou":13756,"Ġnap":13757,"etal":13758,"amel":13759,"ĠCart":13760,"ilateral":13761,"ĠWolf":13762,"ĠPed":13763,"thood":13764,"ĠHur":13765,"ĠLocal":13766,"ĠâĢ¢":13767,"aux":13768,"Ġwhoever":13769,"âĢĿ)":13770,"Ġtwelve":13771,"Ġrecession":13772,"Ġincidents":13773,"being":13774,"ĠAlan":13775,"Ġdevelopments":13776,"Ġtreaty":13777,"Ġfailures":13778,"Ġencrypt":13779,"Ġvolcan":13780,"Ġstatistical":13781,"Ġtitled":13782,"ĠNeither":13783,"-state":13784,"Ġdatabases":13785,"marks":13786,"respons":13787,"News":13788,"Ġnavigate":13789,"Ġyields":13790,"ĠBrook":13791,"Ġinstitutional":13792,"Ġaccommodate":13793,"Ġdisplays":13794,"abulary":13795,".V":13796,".ui":13797,"Co":13798,"Paul":13799,"UST":13800,"World":13801,"bie":13802,"heres":13803,"omain":13804,"Ġnod":13805,"Ġnost":13806,"lli":13807,"ĠBreak":13808,"umi":13809,"Ġrays":13810,"ĠFant":13811,"pton":13812,"ogy":13813,"ogan":13814,"Ġadmin":13815,"Ġgrants":13816,"Ġsculpt":13817,"ĠHey":13818,"Ġrap":13819,"athon":13820,"arser":13821,"Ġcaution":13822,"Ġdesignated":13823,"Ġorganisms":13824,"Social":13825,"Ġpaste":13826,"ĠWarren":13827,"Ġescaped":13828,"Ġreminder":13829,"Ġrolls":13830,"Ġwitnesses":13831,"color":13832,"ĠFinancial":13833,"claimed":13834,"Ġarrangement":13835,"Ġhorizontal":13836,"ĠTaliban":13837,"ĠSquare":13838,"Ġvampire":13839,"Ġbrutal":13840,"Ġfranchise":13841,".set":13842,"MAN":13843,"dney":13844,"gree":13845,"hill":13846,"Ġslee":13847,"icop":13848,"std":13849,"Ġstressed":13850,"ĠMust":13851,"ÂłG":13852,"ĠWonder":13853,"ĠEdd":13854,"ogram":13855,"Ġenact":13856,"ensively":13857,"ordon":13858,"Ġbeta":13859,"Ġdiflucan":13860,"Ġrecovered":13861,"Ġcharging":13862,"commun":13863,"ĠReagan":13864,"iversary":13865,"ĠLeft":13866,"Ġmusicians":13867,"ĠImagine":13868,"Ġvoter":13869,"Ġcandy":13870,"Ġparks":13871,"Ġrobots":13872,"Ġscholar":13873,"Ġclinic":13874,"Ġquoted":13875,".js":13876,"Ġshifting":13877,"protected":13878,"ĠCasey":13879,"-O":13880,"Blog":13881,"bian":13882,"Ġpad":13883,"Ġtodd":13884,"ĠTarget":13885,"odine":13886,"ulent":13887,"ĠHong":13888,"ĠHunt":13889,"quin":13890,"Ġchapters":13891,"ĠRos":13892,"ĠRick":13893,"Ġlecture":13894,"ĠFuture":13895,"Ġjava":13896,"Ġoutrage":13897,"iple":13898,"Ġpermitted":13899,"Ġsymm":13900,"iances":13901,"Ġindividually":13902,"uckily":13903,"Ġtriv":13904,"Ġgameplay":13905,"Ġsexy":13906,"Ġfootage":13907,"Ġhosts":13908,"Nothing":13909,"ESS":13910,"Ġregulated":13911,"ĠDavis":13912,"ĠEmail":13913,"ĠJean":13914,"Ġsacred":13915,"Ġambig":13916,"Ġdelivering":13917,"ĠCommunist":13918,"Ġweaknesses":13919,"ĠEngineering":13920,"ĠPennsylvania":13921,"Ġtestimony":13922,"rapeutic":13923,"zo":13924,"Ùĳ":13925,"Ġfats":13926,"Ġinability":13927,"ĠAle":13928,"ĠHus":13929,"ĠGPS":13930,"ĠNut":13931,"plane":13932,"Ġups":13933,"Ġevolve":13934,"Ġoverly":13935,"Ġprone":13936,"Ġblown":13937,"ĠStories":13938,"ĠChi":13939,"Ġdeserves":13940,"Ġgenius":13941,"Ġattraction":13942,"Ġinvention":13943,"Ġprovisions":13944,"Ġmetric":13945,"Ġcorners":13946,"Ġsimilarities":13947,"Ġtablet":13948,"ĠEditor":13949,"ĠSimple":13950,"Ġachievement":13951,"Ġanalyzed":13952,"Ġfarming":13953,"Ġangles":13954,"Ġqualify":13955,"_data":13956,"Ġadvocate":13957,"Ġflew":13958,"Ġjacket":13959,"Ġsurveillance":13960,"Ġmoisture":13961,"Ġphotographs":13962,"-party":13963,"Ġclusters":13964,"Ġrhetoric":13965,"(D":13966,"Bar":13967,"Head":13968,"Mus":13969,"Wind":13970,"`Ċ":13971,"best":13972,"full":13973,"aned":13974,"ications":13975,"asive":13976,"ĠTool":13977,"ĠTheory":13978,"opard":13979,"ĠEsc":13980,"oof":13981,"astically":13982,"Ġoutline":13983,"ĠOwn":13984,"Ġblowing":13985,"ĠHeidi":13986,"erer":13987,"ĠAnthony":13988,"Ġ[[":13989,"Ġpotatoes":13990,"ĠBeaut":13991,"Ġsentiment":13992,"-point":13993,"Ġdetermines":13994,"Ġsensory":13995,"Ġconvicted":13996,"Ġillusion":13997,"ĠFlash":13998,"ĠHarvard":13999,"prints":14000,"Ġimplied":14001,"Meanwhile":14002,"Enter":14003,"Ġrelaxed":14004,"ulsion":14005,"Ġtrucks":14006,"ĠGolden":14007,"Ġobligations":14008,"Ġventure":14009,"ĠBlogger":14010,"Ġdepartments":14011,"Ġdisturbing":14012,"ĠHawai":14013,"Ġspirits":14014,"Ġdeliberately":14015,"#include":14016,"&rs":14017,".K":14018,"Min":14019,"pose":14020,"pool":14021,"times":14022,"hell":14023,"Ġbark":14024,"Ġeternal":14025,"ĠTotal":14026,"adel":14027,"Ġbypass":14028,"Ġlear":14029,"ĠFeng":14030,"oooo":14031,"Ġarter":14032,"Ġunlock":14033,"Ġ---":14034,"ocate":14035,"ĠHebrew":14036,"ĠStop":14037,"Ġflies":14038,"Ġbeloved":14039,"ĠSoon":14040,"Ġglance":14041,"ĠIsa":14042,"Star":14043,"Ġlightly":14044,"177":14045,"Ġfreed":14046,"ĠAlliance":14047,"Ġstealing":14048,"Should":14049,"regular":14050,"Example":14051,"Ġdemanded":14052,"Ġ>>":14053,"Ġpremise":14054,"Ġexplanations":14055,"Ġkicked":14056,"ochond":14057,"Ġgravit":14058,"ĠBetween":14059,"ĠAttorney":14060,"osterone":14061,"ĠOlympics":14062,"Ġpresumably":14063,"ĠColumbia":14064,"&rsquo":14065,"IST":14066,"Super":14067,"high":14068,"{R":14069,"Î±":14070,"Ġhood":14071,"omas":14072,"Ġgaze":14073,"aments":14074,"ĠMaking":14075,"ership":14076,"Ġdece":14077,"Ġvon":14078,"Ġaltered":14079,"ĠGDP":14080,"ĠEC":14081,"ĠNAT":14082,"acking":14083,"Ġcolored":14084,"Ġcuriosity":14085,"Ġsmallest":14086,"Ġprofiles":14087,"Ġpolitician":14088,"ĠBlock":14089,"Ġbreakdown":14090,"Chapter":14091,"Ġessays":14092,"Ġdamaging":14093,"Ġdominated":14094,"ĠObject":14095,"Ġarena":14096,"Ġensures":14097,"Ġultra":14098,"Ġcaptain":14099,"Ġclicking":14100,"Ġjournalist":14101,"ijing":14102,"Ġoptimization":14103,"Ġhabitat":14104,"Ġspinning":14105,"Ġsucceeded":14106,"Ġintentions":14107,"parents":14108,"Ġpulse":14109,"Ġdeployed":14110,"Ġvelocity":14111,"Ġamerican":14112,"Ġmembrane":14113,"Ġfossil":14114,".\\":14115,"/j":14116,"HH":14117,"Sw":14118,"len":14119,"Ġcows":14120,"asures":14121,"ctive":14122,"ĠTenn":14123,"ĠBitcoin":14124,"ĠHo":14125,"ques":14126,"Ġtrim":14127,"ĠJD":14128,"Ġenlight":14129,"Ġenabling":14130,"Ġcoaches":14131,"ixed":14132,"Ġposter":14133,"Ġdiapers":14134,"Ġeconomies":14135,"lette":14136,"Ġmagazines":14137,"Ġfunded":14138,"ĠGrid":14139,"Ġtraveled":14140,"........":14141,"ĠContact":14142,"Ġparticipating":14143,"Ġstrengths":14144,"Ġresistant":14145,"Ġmicrobi":14146,"default":14147,"Ġsatisfying":14148,"Ġempower":14149,"Ġbeaten":14150,"ĠCountry":14151,"Ġreserves":14152,"ĠBasically":14153,"Ġarranged":14154,"Ġinventory":14155,"Ġdesperately":14156,"Article":14157,"Ġstimulus":14158,"-way":14159,"Hy":14160,"OB":14161,"uci":14162,"itories":14163,"Ġps":14164,"Ġlane":14165,"Ġgast":14166,"imen":14167,"Ġforb":14168,"Ġstating":14169,"urate":14170,"ĠAB":14171,"ĠAmb":14172,"olitan":14173,"ĠCe":14174,"ÂłE":14175,"ĠPoly":14176,"abolic":14177,"andra":14178,"ĠGene":14179,"ĠEvil":14180,"ĠLat":14181,"achers":14182,"ĠYears":14183,"Ġpert":14184,"velength":14185,"Ġimpul":14186,"Ġcoe":14187,"Ġbacks":14188,"ĠVerm":14189,"issance":14190,"Ġmodes":14191,"Ġinsure":14192,"beging":14193,"Ġdistances":14194,"Ġheadaches":14195,"ĠProbably":14196,"process":14197,"-friendly":14198,"ĠFran":14199,"Ġmorph":14200,"Ġoptical":14201,"ĠNotice":14202,"ĠImp":14203,"rightarrow":14204,"regon":14205,"Ġresponding":14206,"Ġsouls":14207,"Gener":14208,"UTC":14209,"Ġcertified":14210,"Ġinteractive":14211,"Ġwitnessed":14212,"ĠDivision":14213,"ĠÃĹĊ":14214,"Ġirrelevant":14215,"ĠÂ»Ċ":14216,"Ġinclined":14217,"begingroup":14218,"&D":14219,"-ed":14220,"FP":14221,"ULL":14222,"double":14223,"pic":14224,"sim":14225,"Ġsized":14226,"Ġsisters":14227,"Ġpant":14228,"anas":14229,"ĠTP":14230,"Ġstared":14231,"aky":14232,"ĠâĢĿ":14233,"izational":14234,"Ġmanuscript":14235,"Ġanytime":14236,"Ġuncon":14237,"ellar":14238,"ometers":14239,"Ġindirect":14240,"Ġwrink":14241,"Ġgoodness":14242,"Ġinsisted":14243,"Its":14244,"Ġartic":14245,"Ġboil":14246,"Ġmeanings":14247,"Ġclassification":14248,"-sized":14249,"ooting":14250,"ployed":14251,"ĠBlu":14252,"ĠLeon":14253,"Ġimproves":14254,"Ġlabour":14255,"addle":14256,"Ġdocumented":14257,"nesota":14258,"à¥Ģ":14259,"ylon":14260,"ĠRomans":14261,"Ġfarms":14262,"ĠValue":14263,"Ġaccidentally":14264,"Ġmentions":14265,"ĠLibert":14266,"Ġgenuinely":14267,"mapsto":14268,"otherapy":14269,"Ġtemporarily":14270,"/g":14271,"DER":14272,"Person":14273,"Supp":14274,"ridge":14275,"whe":14276,"{}":14277,"~~":14278,"Ġmigration":14279,"aran":14280,"Ġgerm":14281,"ĠTs":14282,"ĠTour":14283,"Ġstunning":14284,"ĠSE":14285,"ĠSi":14286,"ĠCG":14287,"ĠBroad":14288,"ĠPa":14289,"Ġviable":14290,"Ġshar":14291,"ĠDru":14292,"ensor":14293,"Ġspam":14294,"Ġshelf":14295,"Ġpole":14296,"ishop":14297,"ĠAnaly":14298,"Ġgenerates":14299,"Ġartif":14300,"ugar":14301,"Ġplacement":14302,"Ġmindfulness":14303,"Ġlimiting":14304,"ĠFront":14305,"Ġsalad":14306,"enez":14307,"avorite":14308,"Ġenjoyable":14309,"boards":14310,"Ġdelayed":14311,"Ġlaying":14312,"-world":14313,"ĠGuy":14314,"Ġpublisher":14315,"Ġâī":14316,"Ġconsisting":14317,"Ġtourists":14318,"ĠConserv":14319,"writer":14320,"Ġpursuit":14321,"General":14322,"ĠTorah":14323,"ĠNevertheless":14324,"Ġallegedly":14325,"Ġmerchant":14326,"ĠMachine":14327,
[...]
