{"<pad>":0,"<bos>":1,"<eos>":2,"<unk>":3,"!":4,"\"":5,"#":6,"$":7,"%":8,"&":9,"'":10,"(":11,")":12,"*":13,"+":14,",":15,"-":16,".":17,"/":18,"0":19,"1":20,"2":21,"3":22,"4":23,"5":24,"6":25,"7":26,"8":27,"9":28,":":29,";":30,"<":31,"=":32,">":33,"?":34,"@":35,"A":36,"B":37,"C":38,"D":39,"E":40,"F":41,"G":42,"H":43,"I":44,"J":45,"K":46,"L":47,"M":48,"N":49,"O":50,"P":51,"Q":52,"R":53,"S":54,"T":55,"U":56,"V":57,"W":58,"X":59,"Y":60,"Z":61,"[":62,"\\":63,"]":64,"^":65,"_":66,"`":67,"a":68,"b":69,"c":70,"d":71,"e":72,"f":73,"g":74,"h":75,"i":76,"j":77,"k":78,"l":79,"m":80,"n":81,"o":82,"p":83,"q":84,"r":85,"s":86,"t":87,"u":88,"v":89,"w":90,"x":91,"y":92,"z":93,"{":94,"|":95,"}":96,"~":97,"¡":98,"¢":99,"£":100,"¤":101,"¥":102,"¦":103,"§":104,"¨":105,"©":106,"ª":107,"«":108,"¬":109,"®":110,"¯":111,"°":112,"±":113,"²":114,"³":115,"´":116,"µ":117,"¶":118,"·":119,"¸":120,"¹":121,"º":122,"»":123,"¼":124,"½":125,"¾":126,"¿":127,"Â":128,"Ã":129,"Ä":130,"Å":131,"Æ":132,"Ç":133,"È":134,"É":135,"Ê":136,"Ë":137,"Ì":138,"Í":139,"Î":140,"Ï":141,"Ð":142,"Ñ":143,"Ò":144,"Ó":145,"Ô":146,"Õ":147,"Ö":148,"×":149,"Ø":150,"Ù":151,"Ú":152,"Û":153,"Þ":154,"ß":155,"à":156,"á":157,"â":158,"ã":159,"ä":160,"å":161,"æ":162,"ç":163,"è":164,"é":165,"ê":166,"ë":167,"ì":168,"í":169,"î":170,"ï":171,"ð":172,"ô":173,"ā":174,"Ă":175,"Ć":176,"ć":177,"ĉ":178,"Ċ":179,"ě":180,"ğ":181,"Ġ":182,"Ģ":183,"ģ":184,"Ĥ":185,"ĥ":186,"Ħ":187,"ħ":188,"Ĩ":189,"ĩ":190,"Ī":191,"ī":192,"Ĭ":193,"ĭ":194,"Į":195,"į":196,"İ":197,"ı":198,"Ĳ":199,"ĳ":200,"Ĵ":201,"ĵ":202,"Ķ":203,"ķ":204,"ĸ":205,"Ĺ":206,"ĺ":207,"Ļ":208,"ļ":209,"Ľ":210,"ľ":211,"Ŀ":212,"ŀ":213,"Ł":214,"ł":215,"Ń":216,"Ġt":217,"Ġa":218,"he":219,"in":220,"re":221,"Ġthe":222,"on":223,"Ġs":224,"er":225,"Ġw":226,"at":227,"Ġo":228,"Ġc":229,"nd":230,"it":231,"is":232,"Ġb":233,"ou":234,"es":235,"en":236,"ing":237,"or":238,"Ġf":239,"Ġp":240,"Ġm":241,"an":242,"ed":243,"Ġto":244,"al":245,"Ġd":246,"ar":247,"Ġof":248,"Ġin":249,"Ġth":250,"Ġand":251,"Ġh":252,"le":253,"ic":254,"as":255,"om":256,"ion":257,"Ġl":258,"Ġn":259,"Ġe":260,"ll":261,"ve":262,"ly":263,"st":264,"ent":265,".Ċ":266,"ĠI":267,"Ġg":268,"Ġre":269,"Ġbe":270,"ot":271,"Ġy":272,"Ġis":273,"ct":274,"ut":275,"ow":276,"et":277,"âĢ":278,"Ġthat":279,"Ġyou":280,"se":281,"ro":282,"id":283,"im":284,"ĠT":285,"Ġon":286,"ay":287,"Ġu":288,"Ġit":289,"ad":290,"Ġfor":291,"ce":292,"ig":293,"ver":294,"ld":295,"am":296,"Ġst":297,"ur":298,"ch":299,"ĠS":300,"ĠA":301,"Ġhe":302,"Ġwh":303,"ith":304,"ir":305,"ation":306,"Ġan":307,"Ġas":308,"Ġwith":309,"Ġwe":310,"if":311,"Ġha":312,"ol":313,"ra":314,"ke":315,"ĠC":316,"il":317,"Ġare":318,"ter":319,"her":320,"od":321,"ill":322,"Ġcon":323,"ul":324,"ĠM":325,"ge":326,"Ġwas":327,"Ġor":328,"pe":329,"ers":330,"Ġse":331,"ore":332,"ck":333,"ate":334,"ĠThe":335,"Ġde":336,"âĢĻ":337,"ĠB":338,"Ġ(":339,"Âł":340,"op":341,"Ġcom":342,"ess":343,"us":344,"Ġpro":345,"Ġnot":346,"ri":347,"um":348,"'s":349,"ht":350,"Ġex":351,"Ġat":352,"ĠW":353,"Ġhave":354,"ould":355,"Ġr":356,"ĠP":357,"ist":358,"th":359,"est":360,"Ġne":361,"ab":362,"em":363,"ĠH":364,"rom":365,"ant":366,"Ġdo":367,"qu":368,"Ġthis":369,"pp":370,"nt":371,"Ġcan":372,"Ġsu":373,"ain":374,"Ġv":375,"ally":376,"ment":377,"res":378,"ust":379,"Ġsh":380,"ive":381,"os":382,"ĠD":383,"Ġal":384,"un":385,"ome":386,"ight":387,"Ġch":388,"Ġab":389,"Ġfrom":390,"ity":391,"Ġby":392,"and":393,"el":394,"art":395,"out":396,"ĠR":397,"Ġle":398,"Ġyour":399,"ĠF":400,"Ġthey":401,"ort":402,"Ġk":403,"ies":404,"Ġbut":405,"Ġgo":406,"Ġj":407,"Ġso":408,"Ġwor":409,"Ġwhe":410,"ie":411,"ost":412,"red":413,"Ġme":414,"all":415,"iv":416,"ĠG":417,"Ġall":418,"ĠE":419,"ĠN":420,"ĠL":421,"ak":422,"pt":423,"oug":424,"fe":425,"ard":426,"Ġ\"":427,"one":428,"oo":429,"Ġint":430,"ide":431,"ure":432,"ag":433,"Ġwill":434,"Ġus":435,"our":436,"Ġpl":437,"Ġli":438,"The":439,"ud":440,"ack":441,"ci":442,"ther":443,"ast":444,"pl":445,"Ġout":446,"'t":447,"ind":448,"ich":449,"ction":450,"ĠO":451,"ine":452,"ame":453,"Ġtheir":454,"âĢĻs":455,"Ġtr":456,"ĠâĢ":457,"ong":458,"ous":459,"per":460,"Ġhis":461,"ake":462,"Ġup":463,"Ġmy":464,"very":465,"ound":466,"Ġmore":467,"age":468,"Ġhas":469,"Ġone":470,"og":471,"Ġabout":472,"ime":473,"ac":474,"ĠJ":475,"au":476,"Ġim":477,"20":478,"ough":479,"Ġwho":480,"Ġlike":481,"Ġar":482,"Ġen":483,"iz":484,"ans":485,"Ġsome":486,"Ġwould":487,"..":488,"ĠTh":489,"are":490,"Ġcomp":491,"act":492,"ook":493,"ated":494,"Ġad":495,"so":496,"Ġthere":497,"Ġpe":498,"ice":499,"ap":500,"Ġcl":501,"ue":502,"Ġte":503,"Ġthem":504,"Ġwhat":505,"Ġfe":506,"Ġif":507,"Ġwhich":508,"Ġman":509,"Ġother":510,"Ġkn":511,"able":512,"Ġget":513,"ep":514,"Ġcont":515,"ite":516,"Ġev":517,"ople":518,"Ġwhen":519,"Ġwere":520,"cc":521,"ink":522,"Ġany":523,"Ġhad":524,"ib":525,"ĠU":526,"ical":527,"ear":528,"Ġbec":529,"ult":530,"Ġun":531,"ions":532,"ĠIt":533,"ry":534,"orm":535,"Ġres":536,"own":537,"ass":538,"Ġjust":539,"Ġtime":540,"ays":541,"Ġqu":542,"Ġher":543,"âĢĿ":544,"ose":545,"Ġpeople":546,"ile":547,"ip":548,"Ġsa":549,"Ġdis":550,"ber":551,"Ġ-":552,"ance":553,"ence":554,"ace":555,"ase":556,"ĠY":557,"?Ċ":558,"oc":559,"ach":560,"Ġwork":561,"reat":562,"ĠIn":563,"ause":564,"ire":565,"Ġag":566,"ary":567,"Ġthan":568,"Ġno":569,"ress":570,"ia":571,"ign":572,"ru":573,"Ġhow":574,"int":575,"cl":576,"ings":577,"ations":578,"av":579,"du":580,"Ġbeen":581,"ff":582,"Ġinto":583,"ĠK":584,"Ġper":585,"ne":586,"Ġalso":587,"ens":588,"Ġsp":589,"ub":590,"ick":591,"Ġpart":592,"ĠĠ":593,"Ġover":594,"ĠâĢľ":595,"Ġpr":596,"Ġgr":597,"ount":598,"hing":599,"ove":600,"ree":601,"Ġspe":602,"ond":603,"00":604,"Ġpre":605,"Ġknow":606,"nder":607,"vel":608,"ang":609,"ory":610,"te":611,"Ġimp":612,"Ġneed":613,"ial":614,"ord":615,"ren":616,"Ġshe":617,"Ġbl":618,"ood":619,"Ġoff":620,"ition":621,"Ġour":622,")Ċ":623,"Ġyear":624,"Ġonly":625,"ild":626,"Ġpo":627,"ents":628,"Ġbet":629,"Ġsc":630,"ark":631,"Ġam":632,"hat":633,"ail":634,"ors":635,"Ġcould":636,"ov":637,"we":638,"form":639,":Ċ":640,"Ġdif":641,"ĠHe":642,"Ġnew":643,"sel":644,"irst":645,"Ġbecause":646,"ob":647,"Ġapp":648,"itt":649,"âĢĻt":650,"Ġwant":651,"ect":652,"rent":653,"ces":654,"Ġthink":655,"ĠSt":656,"Ġdon":657,"Ġco":658,"Ġro":659,"ict":660,"Ġact":661,"fter":662,"Ġthen":663,"ple":664,"19":665,"Ġtw":666,"ish":667,"uch":668,"Ġhim":669,"Ġmake":670,"mer":671,"ons":672,"Ġmost":673,"ious":674,"urn":675,"Ġback":676,"âĢ¢":677,"ater":678,"Ġthese":679,"ĠCh":680,"Ġmay":681,"Ġsee":682,"ĠV":683,"Ġdid":684,"Ġevery":685,"Ġrec":686,"Ġits":687,"ade":688,"Ġuse":689,"Ġway":690,"Ġdoes":691,"ĠThis":692,"Ġeven":693,"Ġthr":694,"Ġunder":695,"ual":696,"Ġsy":697,"Ġshould":698,"Ġfl":699,"ates":700,"ell":701,"omet":702,"Ġsaid":703,"Ġlook":704,"Ġdes":705,"Ġcons":706,"oy":707,"Ġacc":708,"hed":709,"end":710,"hy":711,"wn":712,"Ġwhere":713,"ian":714,"xt":715,"fore":716,"other":717,"ull":718,"Ġfirst":719,"Ġmuch":720,"Ġvery":721,"ble":722,"fect":723,"vers":724,"erv":725,"ually":726,"Ġcomm":727,"Ġind":728,"igh":729,"hen":730,"ft":731,"Ġwr":732,"201":733,"Ġgood":734,"Ġtwo":735,"Ġmany":736,"Ġrel":737,"ise":738,"Ġdiffe":739,"ating":740,"ific":741,"ks":742,"Ġhel":743,"Ġbu":744,"Ġra":745,"ife":746,"Ġem":747,"ning":748,"Ġinc":749,"oss":750,"Ġtra":751,"Ġthrough":752,"ily":753,".\"":754,"lic":755,"Ġsm":756,"cess":757,"Ġtoo":758,"Ġbeing":759,"ath":760,"gr":761,"Ġke":762,"Ġinter":763,"Ġbr":764,"Ġwell":765,"Ġnow":766,"les":767,"Ġ=":768,"iss":769,"ower":770,"erm":771,"Ġrem":772,"Ġhelp":773,"10":774,"ange":775,"oth":776,"ject":777,"ful":778,"cial":779,"Ġright":780,"ert":781,"Ġafter":782,"Ġdown":783,"Ġpers":784,"ec":785,"get":786,"ĠYou":787,"Ġlong":788,"Ġgen":789,"pect":790,"aw":791,"ments":792,"aking":793,"Ġatt":794,"ting":795,"ible":796,"Ġsuch":797,"stem":798,"ced":799,"ty":800,"Ġadd":801,"),":802,"Ġthose":803,"self":804,"ock":805,"Ġsomet":806,"Ġagain":807,"oll":808,"ĠAnd":809,"ular":810,"Ġob":811,"Ġsay":812,").":813,"Ġsim":814,"lect":815,"iew":816,"ĠWe":817,"Ġinv":818,"ew":819,"ĠIf":820,"li":821,"ph":822,"Ġyears":823,"Ġrep":824,"Ġreally":825,"ics":826,"In":827,"old":828,"ative":829,"ars":830,"olog":831,"Ġused":832,"Ġstart":833,"Th":834,"Ġ$":835,"--":836,"ĠBut":837,"Ġgu":838,"Ġ'":839,"Ġown":840,"Ġcr":841,"Ġread":842,"Ġbel":843,"Ġsame":844,"ere":845,"Ġinst":846,"rib":847,"Ġdec":848,"its":849,"Ġplay":850,"Ġcall":851,"Ġend":852,"ever":853,"clud":854,"Ġpoint":855,"200":856,"Ġsec":857,"ont":858,"Ġstill":859,"ident":860,"Ġreg":861,"Ġbefore":862,"Ġprodu":863,"als":864,"ffect":865,"alk":866,"Ġsupp":867,"Ġfind":868,"day":869,"Ġgoing":870,"Ġset":871,"ĠThey":872,"Ġtake":873,"ility":874,"ote":875,"Ġcol":876,"Ġsystem":877,"hes":878,"Ġdifferent":879,"Ġac":880,"ities":881,"ows":882,"Ġsub":883,"Ġreal":884,"ven":885,"cept":886,"imes":887,"up":888,"!Ċ":889,"ave":890,"ought":891,"Ġnum":892,"Ġperson":893,"ody":894,"ween":895,";Ċ":896,"Ġph":897,"Ġstud":898,"Ġpol":899,"ased":900,"Ġent":901,"Ġaw":902,"Ġhand":903,"Ġche":904,"Ġsur":905,"ied":906,"ather":907,"Ġhapp":908,"Ġworld":909,"Ġhere":910,"ef":911,"'m":912,"Ġthings":913,"Ġprov":914,"akes":915,"Ġbetween":916,"Ġstr":917,"Ġmod":918,"Ġlife":919,"ism":920,"Ġchar":921,"cy":922,"ax":923,"Ġmade":924,"Ġday":925,"ince":926,"Ġfeel":927,"Ġsomething":928,"Ġins":929,"uring":930,"'re":931,"ving":932,"ution":933,"Ġwhile":934,"gg":935,"read":936,"ĠAs":937,"Ġaround":938,"owing":939,"ize":940,"ues":941,"ract":942,"Ġcar":943,"ying":944,"ata":945,"Ġpres":946,"Ġhigh":947,"tern":948,"ures":949,"Ġass":950,"Ġfact":951,"ness":952,"Ġtrans":953,"Ġform":954,"ward":955,"thing":956,"Ġsl":957,"Ġmet":958,"Ġexper":959,"ps":960,"Ġgreat":961,"ically":962,"ĠAn":963,"Ġlot":964,"ix":965,"the":966,"ins":967,"con":968,"Ġexp":969,"Ġcount":970,"ool":971,"ÂłÂł":972,"Ġeach":973,"ited":974,"com":975,"alth":976,"Ġinclud":977,"blem":978,"Ġdef":979,"ger":980,"any":981,"Ġexam":982,"Ġcre":983,"ĠĠĠĠ":984,"Ġcor":985,"Ġfin":986,"ĠHow":987,"...":988,"Ġmin":989,"Ġgener":990,"Ġty":991,"arch":992,"Ġmed":993,"ĠUn":994,"ĠSo":995,"ctions":996,"led":997,"Ġmon":998,"It":999,"gan":1000,"ittle":1001,"Ġquest":1002,"ĠRe":1003,"ank":1004,"Ġchild":1005,"air":1006,"ves":1007,"ways":1008,"Ġmight":1009,"ational":1010,"Ġfew":1011,"ten":1012,"ines":1013,"ives":1014,"Ġop":1015,"pr":1016,"Ġseem":1017,"Ġ[":1018,"ason":1019,"Ġdisc":1020,"ah":1021,"Ġboth":1022,"be":1023,"Ġproblem":1024,"12":1025,"Ġdet":1026,"Ġart":1027,"der":1028,"ublic":1029,"Ġmat":1030,"Ġnever":1031,"Ġear":1032,"Ġrequ":1033,"velop":1034,"ists":1035,"meric":1036,"Ġfoll":1037,"ex":1038,"ys":1039,"Ġap":1040,"ĠThere":1041,"Ġval":1042,"Ġusing":1043,"und":1044,"ices":1045,"Ġfun":1046,"Ġcur":1047,"fl":1048,"ense":1049,"vern":1050,"Ġsign":1051,"arm":1052,"Ġlittle":1053,"Ġbetter":1054,"Ġfound":1055,"ret":1056,"ork":1057,"Ġrun":1058,"hip":1059,"Ġimport":1060,"Ġwhy":1061,"Ġmark":1062,".\"Ċ":1063,"ved":1064,"ages":1065,"Ġfam":1066,"stand":1067,"ros":1068,"'ve":1069,"iness":1070,"ng":1071,"Ġaut":1072,"Ġfil":1073,"Ġser":1074,"Ġcomple":1075,"less":1076,"Ġide":1077,"Ġcle":1078,"Ġlast":1079,"Ġlet":1080,"Ġput":1081,"Ġcour":1082,"ern":1083,"Ġhum":1084,"erest":1085,"Ġposs":1086,"io":1087,"Ġanother":1088,"ute":1089,"ention":1090,"Ġprocess":1091,"ale":1092,"Ġlead":1093,"Ġret":1094,"Ġexpl":1095,"Ġeffect":1096,"az":1097,"ner":1098,"Ġresult":1099,"ric":1100,"Ġsk":1101,"Ġbelie":1102,"Ġkeep":1103,"ĠAmeric":1104,"Ġi":1105,"ode":1106,"Ġmov":1107,"Ġgot":1108,"Ġwithout":1109,"Ġlar":1110,"ets":1111,"ouse":1112,"ĠFor":1113,"ĠAl":1114,"Ġbest":1115,",Ċ":1116,"Ġalways":1117,"Ġhard":1118,"ash":1119,"riend":1120,"Ġgl":1121,"This":1122,"Ġdist":1123,"Ġeas":1124,"Ġdevelop":1125,"ug":1126,"oney":1127,"Ġel":1128,"Ġcome":1129,"Ġstate":1130,"Ġinform":1131,"ized":1132,"Ġbus":1133,"ably":1134,"Ġless":1135,"Ġext":1136,"ember":1137,"Ġfr":1138,"Ġpower":1139,"Ġthing":1140,"uss":1141,"ĠThat":1142,"ead":1143,"ient":1144,"Ġspec":1145,"Ġturn":1146,"Ġmust":1147,"Ġref":1148,"chn":1149,"11":1150,"ared":1151,"Ġask":1152,"Ġbo":1153,"Ġbook":1154,"ĠWhat":1155,"Ġwom":1156,"Ġplace":1157,"Ġserv":1158,"Ġresp":1159,"sw":1160,"What":1161,"pend":1162,"ined":1163,"Ġnumber":1164,"Ġpost":1165,"Ġav":1166,"Ġdire":1167,"ĠâĢĵ":1168,"Ġbig":1169,"Ġinterest":1170,"ertain":1171,"Ġsmall":1172,"Ġgovern":1173,"uc":1174,"Ġca":1175,"ts":1176,"Ġhome":1177,"Ġword":1178,",\"":1179,"iting":1180,"ters":1181,"uck":1182,"arn":1183,"here":1184,"Ġold":1185,"Ġmean":1186,"amp":1187,"oup":1188,"gy":1189,"...Ċ":1190,"Ġpat":1191,"Ġdata":1192,"ari":1193,"Ġunderstand":1194,"ption":1195,"ider":1196,"You":1197,"Ġincre":1198,"Ġsince":1199,"Ġpartic":1200,"18":1201,"ature":1202,"Ġcare":1203,"15":1204,"Ġiss":1205,"Ġhead":1206,"Ġwee":1207,"Ġexperi":1208,"Ġthought":1209,"view":1210,"chool":1211,"Ġwater":1212,"Ġsol":1213,"ĠIs":1214,".âĢĿ":1215,"ĠCom":1216,"Ġmain":1217,"oh":1218,"Ġadv":1219,"Ġdi":1220,"Ġclass":1221,"err":1222,"man":1223,"Ġexample":1224,"ames":1225,"-s":1226,"br":1227,"Ġthree":1228,"ired":1229,"Ġpass":1230,"rop":1231,"ately":1232,"ĠSh":1233,"line":1234,"Ġshow":1235,"Ġloc":1236,"Ġdidn":1237,"ural":1238,"ruct":1239,"atch":1240,"Ġagainst":1241,"Ġsure":1242,"Ġcontro":1243,"Ġactually":1244,"Ġed":1245,"to":1246,"Ġimportant":1247,"Ġplan":1248,"ants":1249,"oun":1250,"Ġtell":1251,"ier":1252,"Ġrest":1253,"osed":1254,"Ġlevel":1255,"Ġmoney":1256,"iving":1257,"Ġtri":1258,"ases":1259,"Ġinformation":1260,"Ġlaw":1261,"aj":1262,"Ġduring":1263,"Ġoften":1264,"Ġtest":1265,"Ġbody":1266,"Ġhealth":1267,"Ġbeh":1268,"ology":1269,"ĠShe":1270,"Ġable":1271,"Ġenough":1272,"Ġmus":1273,"Ġlist":1274,"ĠWh":1275,"Ġstand":1276,"ee":1277,"Ġcase":1278,"Ġvis":1279,"bs":1280,"Ġdoesn":1281,"Ġpay":1282,"Ġsays":1283,"Ġgra":1284,"me":1285,"ĠAr":1286,"Ġcharact":1287,"Ġaway":1288,"Ġtechn":1289,"Ġpop":1290,"ield":1291,"orn":1292,"'ll":1293,"Ġ\\":1294,"Ġpur":1295,"rence":1296,"Ġconf":1297,"Ġfriend":1298,"Ġkind":1299,"arent":1300,"Ġopen":1301,"Ġtalk":1302,"ĠBr":1303,"dd":1304,"If":1305,"âĢĶ":1306,"Ġcontin":1307,"St":1308,"Ġ&":1309,"land":1310,"Ġgive":1311,"bers":1312,"Ġgame":1313,"ety":1314,"Ġnext":1315,"gram":1316,"Ġname":1317,"ital":1318,"ross":1319,"//":1320,"Ġthough":1321,"Ġsecond":1322,"Ġunt":1323,"iven":1324,"Ġdr":1325,"Ġbre":1326,"Ġbusiness":1327,"Ġsupport":1328,"Ġhappen":1329,"Ġcent":1330,").Ċ":1331,"13":1332,"inal":1333,"Ġdem":1334,"Ġlove":1335,"oot":1336,"ither":1337,"Ġchange":1338,"Ġtop":1339,"We":1340,"Ġmem":1341,"Ġpos":1342,"Ġopp":1343,"ling":1344,"Ġconst":1345,"Ġgovernment":1346,"Ġfree":1347,"ĠWhen":1348,"Ġterm":1349,"-b":1350,"Ġquestion":1351,"Ġprof":1352,"Ġfull":1353,"ok":1354,"aug":1355,"ats":1356,"Ġsit":1357,"Ġchang":1358,"Ġmove":1359,"Ġbit":1360,"Ġsomeone":1361,"âĢ¦":1362,"Ġproduct":1363,"Ġdri":1364,"ĠDe":1365,"ĠQ":1366,"not":1367,"Ġprev":1368,"ĠNew":1369,"Ġbra":1370,"Ġdoing":1371,"Ġschool":1372,"Ġorder":1373,"Ġequ":1374,"ream":1375,"ality":1376,"Ġcost":1377,"ivid":1378,"Ġmeans":1379,"Ġbas":1380,"Ġbuild":1381,"14":1382,"Ġappe":1383,"Ġcalled":1384,"ron":1385,"Ġhaving":1386,"ids":1387,"Ġ{":1388,"ik":1389,"16":1390,"ope":1391,"oad":1392,"Ġhist":1393,"conom":1394,"ains":1395,"ently":1396,"Ġtimes":1397,"Ġansw":1398,"Ġreason":1399,"Ġlight":1400,"ides":1401,"Ġfar":1402,"Ġleg":1403,"ished":1404,"Ġhuman":1405,"Ġconc":1406,"Ġmonth":1407,"els":1408,"30":1409,"cing":1410,"Ġcommun":1411,"Ġfood":1412,"Ġmakes":1413,"port":1414,"Ġdone":1415,"arr":1416,"Ġmaking":1417,"Ġmarket":1418,"Ġleft":1419,"ered":1420,"Ġdesign":1421,"aps":1422,"med":1423,"Ġcertain":1424,"As":1425,"Ġpri":1426,"Ġstory":1427,"Ġdirect":1428,"How":1429,"ird":1430,"Ġes":1431,"-c":1432,"Ġprob":1433,"gin":1434,"Ġever":1435,"Ġuntil":1436,"50":1437,"ĠOn":1438,"ploy":1439,"eng":1440,"ining":1441,"Ġlarge":1442,"iter":1443,"ott":1444,"ering":1445,"ĠUS":1446,"Ġele":1447,"ised":1448,"Ġjob":1449,"Ġsw":1450,"reen":1451,"ann":1452,"Ġleast":1453,"ump":1454,"aring":1455,"Ġmind":1456,"Ġpublic":1457,"ision":1458,"Ġprogram":1459,"Ġcourse":1460,"ency":1461,"by":1462,"Ġpolit":1463,"Ġfamily":1464,"Ġside":1465,"Ġchildren":1466,"-d":1467,"Ġothers":1468,"ories":1469,"most":1470,"Ġorgan":1471,"ization":1472,"Ġperform":1473,"hod":1474,"Ġben":1475,"uff":1476,"'d":1477,"Ġsing":1478,"Ġeconom":1479,"\"Ċ":1480,"ready":1481,"Ġ/":1482,"Ġey":1483,"atic":1484,"Ġappro":1485,"Ġpar":1486,"hys":1487,"ĠCl":1488,"rist":1489,"rap":1490,"app":1491,"icle":1492,"att":1493,"ĠPro":1494,"Ġcap":1495,"Ġdays":1496,"Ġanything":1497,"of":1498,"000":1499,"ium":1500,"Ġprot":1501,"Ġbad":1502,"ĠZ":1503,"Ġ--":1504,"pro":1505,"lease":1506,"ional":1507,"itive":1508,"Ġet":1509,"ator":1510,"Ġpossible":1511,"lf":1512,"ustom":1513,"work":1514,"So":1515,"}Ċ":1516,"Ġstop":1517,"iqu":1518,"Ġbecome":1519,"ĠâĢĺ":1520,"sc":1521,"Ġgetting":1522,"And":1523,"Ġocc":1524,"Ġmen":1525,"Ġrese":1526,"hor":1527,"Ġwithin":1528,"à¤":1529,"ilar":1530,"17":1531,"An":1532,"Ġcountry":1533,"Ġeng":1534,"let":1535,"âĢĻre":1536,"ential":1537,"Ġteam":1538,"Ġinvest":1539,"Ġview":1540,"Ġcontrol":1541,"Ġalready":1542,"ided":1543,"ged":1544,"ĠInd":1545,"Ġidea":1546,"used":1547,"ffic":1548,"ajor":1549,"Ġcurrent":1550,"Ġline":1551,"ĠAt":1552,"ĠTo":1553,"Ġproper":1554,"There":1555,"Ġair":1556,"]Ċ":1557,"Ġris":1558,"ards":1559,"ĠTr":1560,"Ġtry":1561,"ĠSe":1562,"Ġlearn":1563,"Ġonce":1564,"ccess":1565,"ĠBl":1566,"Ġcell":1567,"Ġpast":1568,"ĠHowever":1569,"Ġpot":1570,"Ġmom":1571,"-f":1572,"âĢľ":1573,"Ġshort":1574,"aim":1575,"Ġclear":1576,"Ġ.":1577,"Ġve":1578,"idd":1579,"ified":1580,"ush":1581,"Ġelect":1582,"Ġtyp":1583,"sh":1584,"ries":1585,"Ġpa":1586,"Ġsound":1587,"Ġgroup":1588,"ox":1589,"Ġpain":1590,"Ġfore":1591,"Ġreport":1592,"ony":1593,"Ġbelieve":1594,"ured":1595,"ĠBe":1596,"ument":1597,");Ċ":1598,"ply":1599,"illion":1600,"Ġmil":1601,"Ġdra":1602,"ior":1603,"Ġsci":1604,"ane":1605,"Ġcreat":1606,"Ġcame":1607,"over":1608,"itions":1609,"Ġlim":1610,"ividual":1611,"Ġexperience":1612,"Ġdev":1613,"Ġcompany":1614,"Ġhouse":1615,"Ġnight":1616,"Ġtreat":1617,"ury":1618,"ained":1619,"Ġdiff":1620,"Ġcond":1621,"uro":1622,"Ġgiven":1623,"ination":1624,"Ġpract":1625,"Ġexpect":1626,"ulation":1627,"Ġelse":1628,"put":1629,"ots":1630,"But":1631,"Ġcomplete":1632,"Ġparticular":1633,"oid":1634,"Ġhour":1635,"Ġtrying":1636,"Ġisn":1637,"Ġallow":1638,"Ġwar":1639,"Ġ|":1640,"Ġspecific":1641,"cially":1642,"Ġprobably":1643,"Ġwhole":1644,"Ġcommon":1645,"ton":1646,"for":1647,"Ġseen":1648,"Ġeither":1649,"Ġz":1650,"Ġfilm":1651,"alf":1652,"Ġtype":1653,"Ġanswer":1654,"Ġcheck":1655,"cle":1656,"Ġwomen":1657,"ĠGod":1658,"ina":1659,"Ġworking":1660,"ral":1661,"25":1662,"Ġtoday":1663,"oint":1664,"Ġrather":1665,"Ġdesc":1666,"Ġtem":1667,"selves":1668,"Ġoper":1669,"Ġmajor":1670,"iron":1671,"par":1672,"oice":1673,"ource":1674,"Ġest":1675,"100":1676,"Ġnon":1677,"Ġconsider":1678,"Ġ:":1679,"Ġredu":1680,"Ġhold":1681,"Ġtoget":1682,"Ġinvol":1683,"Ġtogether":1684,"-m":1685,"ians":1686,"Ġindividual":1687,"Ġlater":1688,"aster":1689,"Ġwent":1690,"Ġcult":1691,"Ġsever":1692,"Ġanal":1693,"Ġdep":1694,"way":1695,"Ġprom":1696,"Ġarg":1697,"Ġmethod":1698,"Ġfre":1699,"ery":1700,"ortun":1701,"ivers":1702,"Ġident":1703,"Ġknown":1704,"ĠAll":1705,"ability":1706,"utes":1707,"Ġcomes":1708,"Ġlooking":1709,"Ġbased":1710,"side":1711,"Ġnothing":1712,"Ġlow":1713,"Ġcustom":1714,"Ġsocial":1715,"ived":1716,"Ġseems":1717,"ĠDo":1718,"ike":1719,"Ġmiss":1720,"por":1721,"Ġkill":1722,"He":1723,"ances":1724,"Ġcharacter":1725,"outh":1726,"Ġtrue":1727,"ĠFr":1728,"Ġrecord":1729,"Ġnear":1730,"Ġaccount":1731,"Ġyet":1732,"ĠLe":1733,"Ġpresent":1734,"Ġland":1735,"ched":1736,"Ġreturn":1737,"199":1738,"Ġcal":1739,"Ġincluding":1740,"ify":1741,"ĠMy":1742,"Ġimpro":1743,"ĠAmerican":1744,"gs":1745,"ences":1746,"ĠX":1747,"Ġhig":1748,"Ġtre":1749,"omm":1750,"Ġdeal":1751,"Ġlive":1752,"Ġamount":1753,"Ġneeds":1754,"Ġbenef":1755,"Ġseveral":1756,"aken":1757,"Ġalmost":1758,"Ġorig":1759,"-t":1760,"Ġvers":1761,"Ġface":1762,"ĠOr":1763,"ĠCon":1764,"Ġmar":1765,"Ġheart":1766,"ones":1767,"Ġweek":1768,"ĠSp":1769,"Ġant":1770,"Ġwhether":1771,"Ġvalue":1772,"Ġactiv":1773,"iously":1774,"Ġener":1775,"Ġproject":1776,"ted":1777,"ĠEx":1778,"ggest":1779,"ration":1780,"Ġphys":1781,"idence":1782,"Ġwon":1783,"Ġfollowing":1784,"Ġfour":1785,"Ġfunction":1786,"Ġintern":1787,"eral":1788,"Ġhy":1789,"Ġalong":1790,"Ġwords":1791,"Ġinf":1792,"Ġpress":1793,"Ġwa":1794,"Ġconne":1795,"wh":1796,"Ġsuccess":1797,"angu":1798,"Ġeverything":1799,"Ġstrong":1800,"Ġcreate":1801,"ape":1802,"Ġmult":1803,"ĠRep":1804,"Ġexist":1805,"ctor":1806,"ĠNo":1807,"Ġquick":1808,"Ġ<":1809,"Ġtax":1810,"Ġroom":1811,"aut":1812,"24":1813,"Ġ+":1814,"----":1815,"itional":1816,"Ġavail":1817,"Ġsuggest":1818,"ole":1819,"Ġphot":1820,"cer":1821,"Ġvide":1822,"mb":1823,"use":1824,"ĠOne":1825,"Ġcut":1826,"**":1827,"Ġsex":1828,"though":1829,"ĠChrist":1830,"Ġbro":1831,"Ġpret":1832,"Ġstarted":1833,"Ġtook":1834,"ĠPl":1835,"Ġlikely":1836,"Ġmor":1837,"Ġinfl":1838,"ĠCan":1839,"ression":1840,"Ġopt":1841,"Ġsal":1842,"Ġprovide":1843,"Ġabove":1844,"ER":1845,"icult":1846,"Ġquite":1847,"Ġtrad":1848,"Ġstep":1849,"Ġsimilar":1850,"Ġself":1851,"aces":1852,"ĠThese":1853,"min":1854,"Ġsense":1855,"Ġdeb":1856,"ohn":1857,"Ġsimply":1858,"ising":1859,"Ġago":1860,"Ġemploy":1861,"uture":1862,"Ġspace":1863,"ama":1864,"Ġmatter":1865,"Ġfollow":1866,"urther":1867,"Ġmess":1868,"Ġwin":1869,"For":1870,"ients":1871,"When":1872,"ene":1873,"Ġbuy":1874,"Ġfail":1875,"Ġusually":1876,"Ġclaim":1877,"ĠMar":1878,"pecially":1879,"Ġentire":1880,"Ġfoc":1881,"Ġvari":1882,"plic":1883,"leep":1884,"Ġkey":1885,"Ġmeas":1886,"irl":1887,"ills":1888,"Ġhistory":1889,"ully":1890,"lish":1891,"Ġrece":1892,"Ġpretty":1893,"Ġenergy":1894,"anks":1895,"ext":1896,".S":1897,"ler":1898,"Ġblood":1899,"my":1900,"Ġeveryone":1901,"Ġsingle":1902,"Ġnat":1903,"elt":1904,"wards":1905,"ples":1906,"Ġtold":1907,"Ġwrong":1908,"uation":1909,"Ġmag":1910,"urity":1911,"Ġobject":1912,"Ġbreak":1913,"Ġarea":1914,"Ġparent":1915,"ison":1916,"Ġrelations":1917,"cent":1918,"Ġdiscuss":1919,"Ġcou":1920,"ording":1921,",âĢĿ":1922,"Ġavailable":1923,"Ġsuper":1924,"Ġcomput":1925,"ĠNot":1926,"yn":1927,"Ġsent":1928,"Ġblack":1929,"ored":1930,"Ġevent":1931,"urs":1932,"Ch":1933,"ĠSc":1934,"Ġetc":1935,"Ġwalk":1936,"-p":1937,"ches":1938,"unt":1939,"nding":1940,"ney":1941,"olution":1942,"viron":1943,"enn":1944,"Ġissue":1945,"Ġanim":1946,"Ġclose":1947,"Ġgrow":1948,"Ġenc":1949,"ially":1950,"rect":1951,"iod":1952,"Ġnet":1953,"Ġaccess":1954,"Ġsn":1955,"Ġdue":1956,"son":1957,"Ġdifficult":1958,"ware":1959,"Ġabs":1960,"Ġfall":1961,"Ġearly":1962,"Ġpict":1963,"acy":1964,"Ġcir":1965,"gle":1966,"orth":1967,"Ġmot":1968,"Ġtot":1969,"pped":1970,"Ġattack":1971,"Ġwind":1972,"Ġnorm":1973,"Ġcannot":1974,"Ġhalf":1975,"ms":1976,"Ġbegin":1977,"aining":1978,"Ġwond":1979,"like":1980,"Ġmusic":1981,"ges":1982,"where":1983,".âĢĿĊ":1984,"Ġfuture":1985,"Ġage":1986,"ental":1987,"Ġdeath":1988,"Ġeasy":1989,"ĠAd":1990,"urope":1991,"verse":1992,"val":1993,"Ġ{Ċ":1994,"Ġfield":1995,"Ġcolle":1996,"Ġlocal":1997,"Ġsort":1998,"ĠWith":1999,"oud":2000,"Ġresults":2001,"Ġyoung":2002,"ires":2003,"lement":2004,"Re":2005,"Ġcause":2006,"Ġlab":2007,"soci":2008,"Ġlangu":2009,"rodu":2010,"Ġmeet":2011,"une":2012,"ively":2013,"empt":2014,"Ġtaking":2015,"Ġwanted":2016,"Ġpie":2017,"Ġworks":2018,"oke":2019,"ĠEng":2020,"oose":2021,"Ġsimple":2022,"Ġess":2023,"Ġhowever":2024,"\",":2025,"Ġstudy":2026,"Ġfriends":2027,"Ġvar":2028,"arget":2029,"Ġrad":2030,"lling":2031,"Ġmass":2032,"Ġlog":2033,"ÂłÂłÂłÂł":2034,"Ġresearch":2035,"Ġthemselves":2036,"Ġinstead":2037,"Ġnecess":2038,"de":2039,"fer":2040,"Ġstudents":2041,"Ġproblems":2042,"Ġimm":2043,"Ġdam":2044,"Ġneg":2045,"Ġanyone":2046,"ley":2047,"resent":2048,"ules":2049,"joy":2050,"Ġindust":2051,"ript":2052,"ĠPr":2053,"Ġsignific":2054,"Ġcomb":2055,"str":2056,"imate":2057,"Ġauthor":2058,"Ġstay":2059,"Ġdepend":2060,"verage":2061,"iol":2062,"Ġwatch":2063,"Ġoffic":2064,"Ġprop":2065,"ging":2066,"erc":2067,"Ġcra":2068,"Ġacross":2069,"Ġla":2070,"istic":2071,"Ġ*":2072,"Ġrespons":2073,"ĠMay":2074,"Ġarticle":2075,"ique":2076,"Ġ#":2077,"Ġcity":2078,"Ġsoft":2079,"40":2080,"Ġapplic":2081,"ĠUnited":2082,"rew":2083,"Ġhigher":2084,"Ġcompan":2085,"ĠSome":2086,"ands":2087,"ources":2088,"Ġlink":2089,"âĢĻve":2090,"Ġhope":2091,"oon":2092,"ites":2093,"irt":2094,"Wh":2095,"22":2096,"avor":2097,"Ġpolitical":2098,"Ġways":2099,"ued":2100,"ateg":2101,"Ġtext":2102,"Ġfig":2103,"ĠEurope":2104,"Ġ,":2105,"Ġitself":2106,"Ġdeterm":2107,"Ġgeneral":2108,"itor":2109,"Ġrisk":2110,"vironment":2111,"ask":2112,"Ġespecially":2113,"Ġpoints":2114,"Ġwasn":2115,"__":2116,"ried":2117,"Ġexact":2118,"Ġmonths":2119,"On":2120,"uses":2121,"Ġmodel":2122,"ibility":2123,"sy":2124,"Ġcomment":2125,"Ġmedia":2126,"Ġbehind":2127,"fully":2128,"Ġfund":2129,"âĢĵ":2130,"Ġpersonal":2131,"Ġsum":2132,"ume":2133,"Ġdefin":2134,"isc":2135,"osp":2136,"esp":2137,"Ġprote":2138,"Ġdescrib":2139,"Ġneeded":2140,"Ġwhite":2141,"ogn":2142,"Ġstruct":2143,"ĠĠĠĠĠĠĠĠ":2144,"Ġasked":2145,"Ġcode":2146,"Ġmoment":2147,"Ġfight":2148,"reme":2149,"NA":2150,"Ġspecial":2151,"Ġnews":2152,"Ġlonger":2153,"Ġperiod":2154,"Ġcred":2155,"Ġquestions":2156,"Ġdetail":2157,"Ġonline":2158,"Ġlo":2159,"back":2160,"ister":2161,"ule":2162,"Ġrelationship":2163,"Ġdest":2164,"ray":2165,"iet":2166,"21":2167,"Ġdou":2168,"Ġaccept":2169,"Ġpriv":2170,"vert":2171,"To":2172,"Ġeyes":2173,"body":2174,"Ġpolic":2175,"âĢĻm":2176,"error":2177,"==":2178,".,":2179,"unch":2180,"ĠJohn":2181,"che":2182,"ĠPh":2183,"ference":2184,"aterial":2185,"Ġbring":2186,"Ġyourself":2187,"23":2188,"book":2189,"ude":2190,"face":2191,"ĠStates":2192,"Ġrepl":2193,"haps":2194,"Ġann":2195,"action":2196,"Ġenjoy":2197,"Ġamong":2198,"Ġinclude":2199,"Ġtaken":2200,"Ġcy":2201,"Ġprofess":2202,"Ġchanges":2203,"Al":2204,"Ġwoman":2205,"Ġvideo":2206,"Ġgoes":2207,"yle":2208,"asing":2209,"Ġservice":2210,"ault":2211,"Ġbar":2212,"ift":2213,"Ġrequire":2214,"ilt":2215,"iction":2216,"omes":2217,"Ġliving":2218,"uge":2219,"gen":2220,"Ġcrit":2221,"Ġtakes":2222,"uly":2223,"Ġground":2224,"itten":2225,"hers":2226,"Ġblog":2227,"Ġfile":2228,"go":2229,"eed":2230,"ables":2231,"Ġchall":2232,"Ġhours":2233,"Ġposition":2234,"Ġobs":2235,"Ġsignificant":2236,"ĠâĢĶ":2237,"-l":2238,"Ġfront":2239,"itch":2240,"orld":2241,"Ġreview":2242,"Ġissues":2243,"Ġste":2244,"Ġsaw":2245,"Ġsaying":2246,"ma":2247,"Ġpick":2248,"Ġcontent":2249,"ators":2250,"Ġbi":2251,"Ġgets":2252,"ledge":2253,"Ġremember":2254,"Ġsens":2255,"Ġsleep":2256,".com":2257,"That":2258,"Ġminutes":2259,"onse":2260,"Ġcompet":2261,"Ġworth":2262,"miss":2263,"Ġdru":2264,"Ġcompanies":2265,"bo":2266,"Ġfurther":2267,"itting":2268,"Ġdel":2269,"ubl":2270,"Ġfac":2271,"ĠTe":2272,"ĠAfter":2273,"Ġkids":2274,"aged":2275,"Ġdom":2276,"Ġred":2277,"Ġmention":2278,"augh":2279,"nds":2280,"Ġenvironment":2281,"ĠGr":2282,"Ġprice":2283,"Ġdevelopment":2284,"Ġx":2285,"ĠHis":2286,"Ġincrease":2287,"Ġmovie":2288,"Ġrele":2289,"ĠOb":2290,"orr":2291,"Ġvol":2292,"Ġcamp":2293,"gress":2294,"Ġeduc":2295,"head":2296,"60":2297,"Ġfive":2298,"ĠCol":2299,"ĠPe":2300,"ster":2301,"!!":2302,"ĠSy":2303,"Ġskin":2304,"Ġvarious":2305,"oms":2306,"ecause":2307,"Ġeff":2308,"ze":2309,"Ġsubject":2310,"Ġsize":2311,"uth":2312,"Ġrate":2313,"ĠYour":2314,"Ġhimself":2315,"raph":2316,"Ġbehav":2317,"Ġgirl":2318,"Ġlower":2319,"Ġstore":2320,"ological":2321,"Ġcop":2322,"era":2323,"Ġmach":2324,"mit":2325,"Ġpack":2326,"Ġtool":2327,"iding":2328,"set":2329,"Ġconv":2330,"Ġnatural":2331,"orts":2332,"Ġrespect":2333,"ensive":2334,"Ġcoming":2335,"umb":2336,"Ġsystems":2337,"Ġlanguage":2338,"Ġweight":2339,"Ġmaterial":2340,"AT":2341,"osing":2342,"Ġsong":2343,"Ġsoci":2344,"Ġoutside":2345,"Ġstat":2346,"Ġdig":2347,"IN":2348,"Ġlay":2349,"Ġgames":2350,"ocr":2351,"RE":2352,"Ġsoon":2353,"Ġaddress":2354,"Ġrunning":2355,"Ġstuff":2356,"ips":2357,"eth":2358,"Ġinit":2359,"Ġmother":2360,"Ġwriting":2361,"Ġspeak":2362,"ĠAmerica":2363,"ST":2364,"Ġaffect":2365,"ĠNow":2366,"iddle":2367,"Ġaud":2368,"ĠWhy":2369,"Ġwrite":2370,"ĠAm":2371,"ring":2372,"Ġperfect":2373,"Ġstra":2374,"Ġdise":2375,"play":2376,"ĠThen":2377,"28":2378,"Ġcard":2379,"Ġmembers":2380,"ung":2381,"Ġversion":2382,"Ġcirc":2383,"Ġill":2384,"Ġsearch":2385,"Ġreading":2386,"Ġmanage":2387,"Ġrelig":2388,"Ġprotect":2389,"icro":2390,"Ġpred":2391,"chie":2392,"Ġlost":2393,"Ġpage":2394,"Ġthinking":2395,"Ġimag":2396,"No":2397,"Ġball":2398,"27":2399,"Ġviol":2400,"Ġfelt":2401,"ilities":2402,"izing":2403,"Ġconsum":2404,"Ġterms":2405,"ĠIm":2406,"Ġones":2407,"ĠMan":2408,"Ġheard":2409,"Ġtarget":2410,"Ġattempt":2411,"198":2412,"Ġmillion":2413,"Ġtrack":2414,"Ġrepresent":2415,"Ġdeep":2416,"Ġcomplex":2417,"Ġsometimes":2418,"medi":2419,"amed":2420,"atter":2421,"Ġdifference":2422,"Ġleave":2423,"rel":2424,"ai":2425,"Ġpercent":2426,"Ġblock":2427,"26":2428,"ification":2429,"Ġwebs":2430,"Ġupon":2431,"ĠJust":2432,"Ġaction":2433,"Ġoil":2434,"-w":2435,"Ġinside":2436,"Ġinteresting":2437,"oin":2438,"Ġcorrect":2439,"tt":2440,"Ġprim":2441,"My":2442,"using":2443,"Ġhands":2444,"oved":2445,"Ġpotential":2446,"ĠApp":2447,"ĠFl":2448,"usion":2449,"Ġimprove":2450,"ises":2451,"Ġshare":2452,"iversity":2453,"mon":2454,"Ġevidence":2455,"Ġconcern":2456,"Ġtechnology":2457,"bl":2458,"Ġpaper":2459,"aving":2460,"Ġcreated":2461,"Ġfire":2462,"Ġrole":2463,"ĠMe":2464,"lt":2465,"Ġimpact":2466,"Ġsituation":2467,"ĠBy":2468,"ĠBrit":2469,"tend":2470,"Ġpull":2471,"AN":2472,"atures":2473,"oe":2474,"Ġsecurity":2475,"Ġbecame":2476,"Ġport":2477,"Ġcells":2478,"Ġclean":2479,"overed":2480,"Ġapproach":2481,"oogle":2482,"right":2483,"Ġseries":2484,"Ġdoc":2485,"Ġknew":2486,"Ġbrain":2487,"hem":2488,"ĠCar":2489,"eter":2490,"Ġpopular":2491,"Ġtalking":2492,"Sh":2493,"Ġsqu":2494,"Ġsun":2495,"ober":2496,"Ġcases":2497,"Ġep":2498,"Ġcountries":2499,"Ġfinan":2500,"add":2501,"Ġsite":2502,"Ġheav":2503,"Ġquickly":2504,"Ġeat":2505,"reg":2506,"Ġaren":2507,"Ġens":2508,"Ã©":2509,"ON":2510,"Ġtravel":2511,"itted":2512,"ino":2513,"Ġpurp":2514,"bit":2515,"anger":2516,"Ġhot":2517,"af":2518,"ball":2519,"Ġparty":2520,"ming":2521,"Ġcompletely":2522,"Ġassoci":2523,"Ġproducts":2524,"Ġaff":2525,"ommend":2526,"Ġability":2527,"Ġbelow":2528,"reet":2529,"ams":2530,"ili":2531,"utions":2532,"ĠQu":2533,"Ġshows":2534,"âĢĻll":2535,"Ġcommunity":2536,"Ġswe":2537,"oor":2538,"Ġitem":2539,"()":2540,"Ġoffer":2541,"lex":2542,"Ġuser":2543,"Ġinflu":2544,"fra":2545,"mber":2546,"ysis":2547,"stit":2548,"Ġpath":2549,"Ġfoot":2550,"Ġhappened":2551,"asons":2552,"Ġbal":2553,"AR":2554,"ĠAf":2555,"Ġjud":2556,"het":2557,"Ġexc":2558,"Ġoriginal":2559,"Ġparents":2560,"Ġsat":2561,"Ġloss":2562,"Ġbab":2563,"Ġpicture":2564,"Ġmaybe":2565,"Ġopportun":2566,"Ġsus":2567,"Ġfill":2568,"Ġvot":2569,"ev":2570,"Ġlooked":2571,"ening":2572,"epend":2573,"Ġhit":2574,"Ġachie":2575,"Ġsource":2576,"oes":2577,"ĠEn":2578,"arning":2579,"Ġhear":2580,"Ġphone":2581,"ese":2582,"-in":2583,"Ġstates":2584,"Ġrange":2585,"ience":2586,"Ġslow":2587,"idered":2588,"Ġmyself":2589,"Ġcouple":2590,"Ġboy":2591,"Ġtried":2592,"oups":2593,"ension":2594,"Ġstri":2595,"erson":2596,"Ġexactly":2597,"Ġmis":2598,"Ex":2599,"Ġquality":2600,"Ġroad":2601,"Ġnumbers":2602,"Ġimage":2603,"Ġnormal":2604,"Ġfair":2605,"gest":2606,"Ġrequired":2607,"Ġeffects":2608,"Ġdrink":2609,"itary":2610,"Ġnice":2611,"Ġregard":2612,"Ġindustry":2613,"ached":2614,"obal":2615,"29":2616,"eb":2617,"aced":2618,"Ġcomputer":2619,"Ġspeed":2620,"Ġservices":2621,"Ġbed":2622,"aves":2623,"Ġtreatment":2624,"Ġconcept":2625,"Ġcam":2626,"Ġperformance":2627,"Ġresponse":2628,"One":2629,"Ġconnect":2630,"://":2631,"Ġtable":2632,"mp":2633,"Ġlevels":2634,"Ġcoun":2635,"Ġfat":2636,"Ġeconomic":2637,"uel":2638,"Ġbegan":2639,"Con":2640,"Ġlives":2641,"Ġwritten":2642,"Ġtypes":2643,"irth":2644,"Ġphysical":2645,"atory":2646,"ana":2647,"ĠPres":2648,">Ċ":2649,"apt":2650,"Ġengine":2651,"ped":2652,"ressed":2653,"Why":2654,"ĠMr":2655,"Ġconsidered":2656,"ades":2657,"come":2658,"ourn":2659,"-h":2660,"ww":2661,"Ġobv":2662,"ement":2663,"ny":2664,"ĠGu":2665,"Ġhon":2666,"ĠWhile":2667,"fort":2668,"amm":2669,"Ġrecogn":2670,"Ġsurpr":2671,"leg":2672,"Ġrev":2673,"Ġlooks":2674,"Ġindic":2675,"Ġemot":2676,"Ġsepar":2677,"Ġdark":2678,"Ġknowledge":2679,"Ġguy":2680,"Ġbott":2681,"Ġfavor":2682,"Ġprevent":2683,"rict":2684,"just":2685,"Ġmeaning":2686,"pping":2687,"ground":2688,"rences":2689,"Ġfeeling":2690,"ibly":2691,"Ġhuge":2692,"Ġlack":2693,"Is":2694,"atever":2695,"Ġturned":2696,"ops":2697,"ĠWar":2698,"Ġeasily":2699,"Ġtotal":2700,"load":2701,"Ġlate":2702,"anced":2703,"chan":2704,"Ġfast":2705,"Ġnational":2706,"Ġdead":2707,"They":2708,"Ġbuilding":2709,"Ġscient":2710,"uf":2711,"Ġappear":2712,"urch":2713,"Ġcontinue":2714,"Ġparts":2715,"Ġcoll":2716,"Ġwonder":2717,"astic":2718,"Ġfather":2719,"Ġrecommend":2720,"tain":2721,"Ġexcept":2722,"Ġinvolved":2723,"Ġcharacters":2724,"Ġregular":2725,"Ġextra":2726,"unk":2727,"Ġri":2728,"oring":2729,"Ġavoid":2730,"Ġforce":2731,"ĠRes":2732,"egr":2733,"Ġbase":2734,"sequ":2735,"light":2736,"Ġfrequ":2737,"Ġbeaut":2738,"Ġbank":2739,"duct":2740,"Ġwouldn":2741,"Ġsell":2742,"aught":2743,"Ġculture":2744,"Ġprin":2745,"Ġtit":2746,"ĠAb":2747,"Ġprep":2748,"ĠÂ":2749,"iff":2750,"Ġtowards":2751,"ĠGen":2752,"Ġdiv":2753,"cious":2754,"Ġcover":2755,"\".":2756,"fficient":2757,"Ġut":2758,"arth":2759,"arily":2760,"ĠMc":2761,"Ġsafe":2762,"Ġthird":2763,"erve":2764,"Ġlearning":2765,"Ġdecided":2766,"Ġnecessary":2767,"Ġattention":2768,"ĠCal":2769,"urance":2770,"lying":2771,"cul":2772,"Ġfocus":2773,"Ġnetwork":2774,"hel":2775,"AS":2776,"Ġcontrib":2777,"80":2778,"Ġcool":2779,"Ġfix":2780,"ĠPer":2781,"Ġemb":2782,"Ġcredit":2783,"ffe":2784,"Ġintrodu":2785,"ĠMed":2786,"Ġthreat":2787,"Ġnature":2788,"Ġfeed":2789,"ĠSte":2790,"ĠSec":2791,"reng":2792,"Ġextreme":2793,"Ġdefe":2794,"ruction":2795,"upp":2796,"Ġmultip":2797,"Ġbooks":2798,"Ġoccur":2799,"ĠEven":2800,"Ġbox":2801,"Ġareas":2802,"etic":2803,"Ġcolor":2804,"Ġreach":2805,"ĠWell":2806,"Ġdoor":2807,"Ġsold":2808,"Ġpan":2809,"ription":2810,"Ġscience":2811,"Ġpractice":2812,"::":2813,"ĠWorld":2814,"Ġcouldn":2815,"Ġautom":2816,"Ġhappy":2817,"Ġrecent":2818,"ĠDon":2819,"Ġcourt":2820,"Ġestab":2821,"ival":2822,"Ġcollect":2823,"By":2824,"Ġforward":2825,"Ġdecision":2826,"Ġaverage":2827,"Ġyes":2828,"Ġplaying":2829,"Now":2830,"artment":2831,"Ġpressure":2832,"Ġtou":2833,"Ġgroups":2834,"Ġdream":2835,"ĠEd":2836,"Com":2837,"urt":2838,"Ġweeks":2839,"Ġhair":2840,"now":2841,"Ġimmedi":2842,"more":2843,"lled":2844,"ivity":2845,"Ġtend":2846,"ky":2847,"Ġaccording":2848,"oph":2849,"Ġsix":2850,"Ġsociety":2851,"ran":2852,"Ġguess":2853,"attle":2854,"wise":2855,"Ġunderstanding":2856,"resh":2857,"na":2858,"ero":2859,"Ġtemper":2860,"Ġmodern":2861,"Ġagree":2862,"ishing":2863,"ager":2864,"Ġwebsite":2865,"Ġpubl":2866,"Ar":2867,"ĠGe":2868,"Ġliter":2869,"Ġinstall":2870,"Ġcommunic":2871,"Ġinj":2872,"ength":2873,"Ġuses":2874,"ada":2875,"osition":2876,"Ġdecl":2877,"ceed":2878,"aling":2879,"zz":2880,"ĠPart":2881,"Ġexec":2882,"Ġexerc":2883,"Ġpoor":2884,"Ġhappens":2885,"Ġpiece":2886,"Ġchoose":2887,"apan":2888,"ĠJan":2889,"ĠYork":2890,"Be":2891,"ĠNe":2892,"Ġtown":2893,"Ġgave":2894,"aff":2895,"32":2896,"Ġign":2897,"oura":2898,"Ġstru":2899,"Ġconvers":2900,"Ġgives":2901,"Ġwall":2902,"ĠWill":2903,"ief":2904,"Ġcook":2905,"Ġpolice":2906,"cies":2907,"Ġoption":2908,"Ġda":2909,"Ġfit":2910,"ĠMost":2911,"Ġpurch":2912,"Ġur":2913,"Ġalone":2914,"Ġcontact":2915,"ĠRuss":2916,"Ġreasons":2917,"Ġdeg":2918,"Ġmedical":2919,"Ġpolicy":2920,"ĠDr":2921,"vent":2922,"Ġbur":2923,"uted":2924,"Ġworked":2925,"ened":2926,"hood":2927,"Ġcat":2928,"Ġge":2929,"ĠGo":2930,"Ġevents":2931,"Le":2932,"Ġwide":2933,"aries":2934,"sec":2935,"oses":2936,"ĠEnglish":2937,"ĠDem":2938,"Ġfinancial":2939,"Ġfem":2940,"-y":2941,"aign":2942,"Ġopin":2943,"Ġfiles":2944,"lim":2945,"Ġseason":2946,"Ġchance":2947,"Ġchoice":2948,"ype":2949,"onents":2950,"Ġstandard":2951,"Ġsoftware":2952,"ping":2953,"Ġconditions":2954,"off":2955,"Ġagre":2956,"Ġvalues":2957,"Ġwants":2958,"##":2959,"ĠTw":2960,"Ġtraining":2961,"</":2962,"olute":2963,"ession":2964,"mm":2965,"Ġwarm":2966,"Ġdraw":2967,"minist":2968,"At":2969,"Ġce":2970,"hib":2971,"Ġaddition":2972,"ha":2973,"Ġbuilt":2974,"Ġfinal":2975,"Ġpositive":2976,"agn":2977,"Ġcomments":2978,"Ġdrive":2979,"Ġmeasure":2980,"Ġdisease":2981,"-st":2982,"Ġmorning":2983,"Ġson":2984,"lection":2985,"ivil":2986,"cient":2987,"irit":2988,"Ġadded":2989,"iday":2990,"ounds":2991,"ĠPresident":2992,"Ġrights":2993,"return":2994,"197":2995,"aging":2996,"....":2997,"ED":2998,"Ġeffective":2999,"Ġstreng":3000,"Ġfa":3001,"uments":3002,"Ġemail":3003,"Ġgun":3004,"Ġsett":3005,"Ġir":3006,"amb":3007,"Ġbenefits":3008,"ĠObama":3009,"ĠCont":3010,"Ġsolution":3011,"Ġ@":3012,"icles":3013,"lier":3014,"Ġsurv":3015,"co":3016,"Ġallows":3017,"ĠUs":3018,"sych":3019,"Ġfine":3020,"ĠGerm":3021,"Ġideas":3022,"zy":3023,"Ġmix":3024,"yond":3025,"ees":3026,"Ġlegal":3027,"Ġanalysis":3028,"rest":3029,"Ġpen":3030,"Ġdro":3031,"Ġlif":3032,"Ġrules":3033,"Ġobserv":3034,"Ġimplement":3035,"ĠChina":3036,"Ġrout":3037,"Ġreve":3038,"inally":3039,"Ġcold":3040,"Ġrecently":3041,"Ġeye":3042,"Ġsil":3043,"Ġperhaps":3044,"ID":3045,"iles":3046,"Ġrelated":3047,"Ġmilitary":3048,"ograp":3049,"Ġrock":3050,"aur":3051,"ux":3052,"Ġfigure":3053,"OR":3054,"90":3055,"Ġcosts":3056,"room":3057,"ĠHere":3058,"irm":3059,"Ġtrust":3060,"Ġlaws":3061,"Ġoffice":3062,"Ġcertainly":3063,"Ġcross":3064,"Ġgiving":3065,"Ġtheory":3066,"Ġhor":3067,"ighb":3068,"Ġmedic":3069,"inary":3070,"Ġfinally":3071,"Ġden":3072,"All":3073,"antly":3074,"ags":3075,"Ġcand":3076,"Ġhost":3077,"35":3078,"Ġcapital":3079,"bb":3080,".)":3081,"Ġbreat":3082,"ĠInt":3083,"Ġactual":3084,"Ġparticip":3085,"cell":3086,"Ġreality":3087,"Ġpresident":3088,"ners":3089,"ales":3090,"Ġmechan":3091,"Ġtruth":3092,"key":3093,"Ġcompl":3094,"=\"":3095,"king":3096,"Ġproduction":3097,"Ġteac":3098,"ederal":3099,"arb":3100,"Ġled":3101,"Ġmultiple":3102,"Ġsequ":3103,"Ġgrowth":3104,"Ġheld":3105,"olic":3106,"ech":3107,"ucle":3108,"ned":3109,"ĠMus":3110,"rit":3111,"itely":3112,"imum":3113,"Ġvict":3114,"rench":3115,"Ġgas":3116,"Ġcancer":3117,"Ġharm":3118,"Ġheat":3119,"order":3120,"ĠRepublic":3121,"uk":3122,"Ġprivate":3123,"Ġplayers":3124,"idge":3125,"Ġbirth":3126,"Ġfra":3127,"Ġweb":3128,"Ġver":3129,"Ġmessage":3130,"Pro":3131,"entially":3132,"ĠMin":3133,"Ġscreen":3134,"Not":3135,"Ġready":3136,"Ġeconomy":3137,"Ġwhatever":3138,"Ġmoving":3139,"70":3140,"Ġload":3141,"iation":3142,"Ġbud":3143,"Ġallowed":3144,"Ġshown":3145,"Ġfear":3146,"atives":3147,"Ġchem":3148,"Ġstress":3149,"Ġpopulation":3150,"aly":3151,"Ġdate":3152,"Ġvisit":3153,"Ġâ":3154,"Ġknows":3155,"Ġmer":3156,"ES":3157,"asc":3158,"IS":3159,"ĠUniversity":3160,"Ġapplication":3161,"Ġinvestig":3162,"enced":3163,"ĠJew":3164,"oul":3165,"ashing":3166,"Ġmiddle":3167,"?\"":3168,"itter":3169,"Ġvote":3170,"Ġgenerally":3171,"ĠOf":3172,"Ġmist":3173,"ropri":3174,"Ġintegr":3175,"isions":3176,"Ġrelative":3177,"Ġemer":3178,"With":3179,"mpt":3180,"ĠCent":3181,"Ġsurface":3182,"Ġnut":3183,"Ġchanged":3184,"iny":3185,"Ġprinci":3186,"Ġbasic":3187,"Ġband":3188,"EN":3189,"Ġaltern":3190,"Cl":3191,"dom":3192,"ĠJapan":3193,"Ġdemand":3194,"Ġord":3195,"mission":3196,".)Ċ":3197,"ĠÐ":3198,"itiz":3199,"Ġstock":3200,"Ġvoice":3201,"Ġspend":3202,"Un":3203,"ously":3204,"Ġpattern":3205,"Ġdirectly":3206,"how":3207,"Ġeducation":3208,"Ph":3209,"itude":3210,"arc":3211,"Ġbehavior":3212,"Ġpurpose":3213,"ĠEvery":3214,"Ġplaces":3215,"Ġteach":3216,"Ġaware":3217,"iment":3218,"Ġleaders":3219,"Ġthous":3220,"Ġsave":3221,"rs":3222,"imately":3223,"Ġdoll":3224,"Ġsuff":3225,"Ġrequest":3226,"Ġprevious":3227,"Ġdoub":3228,"Ġinn":3229,"Ġselect":3230,"Ġarri":3231,"-up":3232,"ken":3233,"Ġple":3234,"ĠIntern":3235,"Ġparticularly":3236,"pir":3237,"Ġgone":3238,"pper":3239,"OT":3240,"iced":3241,"Ġhistor":3242,"Ġbrought":3243,"ĠAlso":3244,"Ġcampaign":3245,"LL":3246,"Ġult":3247,"Ġalthough":3248,"Ġbecomes":3249,"Ġcapt":3250,"ĠNorth":3251,"Ġglobal":3252,"Ġpatients":3253,"Ġneighb":3254,"Ġserious":3255,"Ġcarry":3256,"Ġunique":3257,"ties":3258,"AC":3259,"Ġaspect":3260,"Ġdog":3261,"undred":3262,"Ġstructure":3263,"imin":3264,"ĠKing":3265,"onym":3266,"Ġconsist":3267,"ĠBritish":3268,"Ġmember":3269,"Ġsecret":3270,"rupt":3271,"Ġdesigned":3272,"Ġcustomers":3273,"ament":3274,"Ġdocument":3275,"Ġstories":3276,"ÂłI":3277,"Ġdistrib":3278,"Ġmovement":3279,"Ġstar":3280,"ĠEl":3281,"Ġdesp":3282,"Ġsam":3283,"Ġthus":3284,"Ġrepe":3285,"ĠBecause":3286,"gar":3287,"Ġoptions":3288,"iful":3289,"Ġtherefore":3290,"Ġexplain":3291,"Ġactivity":3292,"',":3293,"Ġresources":3294,"Ġbaby":3295,"Ġreduce":3296,"Here":3297,"Ġdeli":3298,"Ġslight":3299,"Ġofficial":3300,"ĠAct":3301,"Ġusers":3302,"Ġupd":3303,"Ġwrote":3304,"ara":3305,"oming":3306,"Ġadvant":3307,"oles":3308,"Ġnote":3309,"Ġfeet":3310,"itation":3311,"ĠEarth":3312,"?\"Ċ":3313,"cles":3314,"Ġpaid":3315,"nes":3316,"what":3317,"inese":3318,"uit":3319,"Ġlines":3320,"Ġindepend":3321,"Ġhelps":3322,"ĠLet":3323,"rast":3324,"Ġweap":3325,"Ġpow":3326,"Ġanimals":3327,"ĠYes":3328,"ava":3329,"Ġdemon":3330,"Ġproperty":3331,"Ġmemory":3332,"--------":3333,"Ġabsolute":3334,"ĠAfric":3335,"ournal":3336,"Ġplayed":3337,"ĠHar":3338,"Ġplayer":3339,"but":3340,"Ġvia":3341,"Ġeasier":3342,"Ġcry":3343,"Ġstick":3344,"ĠInst":3345,"ellig":3346,"Ġprogress":3347,"Ġhealthy":3348,"].":3349,"ĠSm":3350,"Ġgrad":3351,"IT":3352,"Ġwife":3353,"Ġgreen":3354,"Ġbrother":3355,"âĢĻd":3356,"Ġensure":3357,"Ġdanger":3358,"Ġmachine":3359,"Ġbeyond":3360,"aches":3361,"pre":3362,"âĢĿĊ":3363,"Ġwait":3364,"estern":3365,"Ġflow":3366,"45":3367,"aughter":3368,"ĠPeople":3369,"ufact":3370,"Ġchalleng":3371,"nown":3372,"Ġten":3373,"rael":3374,"hold":3375,"Ġnegative":3376,"Ġeffort":3377,"ram":3378,"Ġtast":3379,"ĠAug":3380,"ancy":3381,"Ġstyle":3382,"ĠKe":3383,"issue":3384,"airs":3385,"Ġinsurance":3386,"Ġincreasing":3387,"Ġprior":3388,"which":3389,"log":3390,"31":3391,"ĠMore":3392,"Ġspent":3393,"Ġanti":3394,"vere":3395,"Ġexpected":3396,"Ġbeginning":3397,"Ġstarting":3398,"Ġvac":3399,"aker":3400,"Ġscen":3401,"ils":3402,"gn":3403,"word":3404,"Ġfing":3405,"enty":3406,"Ġmeant":3407,"Ġbill":3408,"eah":3409,"ĠMon":3410,"Ġfeatures":3411,"Ġphoto":3412,"Ġmanagement":3413,"esus":3414,"roy":3415,"Ġseeing":3416,"Ġincreased":3417,"Ġnation":3418,"ald":3419,"Ġlose":3420,"Ġcondition":3421,"Ġearth":3422,"Ġpowerful":3423,"ouble":3424,"Ġhaven":3425,"rand":3426,"Ġcompared":3427,"Ġclearly":3428,"Ġstrugg":3429,"Ġcontext":3430,"à¥":3431,"Ġcommand":3432,"Ġcaused":3433,"aled":3434,"omb":3435,"sp":3436,"band":3437,"Ġplease":3438,"Ġspread":3439,"ĠChe":3440,"Ġdamage":3441,".g":3442,"ĠTV":3443,"ĠAre":3444,"iled":3445,"ĠMark":3446,"Ġgoal":3447,"ĠSouth":3448,"Ġwhose":3449,"Ġhop":3450,"Ġesc":3451,"han":3452,"Ġfell":3453,"-based":3454,"ĠFirst":3455,"Ġplat":3456,"Ġmax":3457,"Ġassum":3458,"Ġlearned":3459,"Ġlimited":3460,"Ġformer":3461,"Ġguys":3462,"Ġprovides":3463,"aul":3464,"kes":3465,"Ġnamed":3466,"Ġsend":3467,"ores":3468,"Ġindividuals":3469,"Ġlarger":3470,"ĠGoogle":3471,"Ġgreater":3472,"Ġdat":3473,"ĠState":3474,"Ġspecies":3475,"Ġunf":3476,"Ġtouch":3477,"ograph":3478,"Ġdeveloped":3479,"ĠHer":3480,"Ġcho":3481,"ĠOct":3482,"Ġclos":3483,"Ġprovided":3484,"Ġskills":3485,"Ġassist":3486,"yl":3487,"Ġcentury":3488,"Ġhundred":3489,"uary":3490,"``":3491,"ĠApr":3492,"Ġuseful":3493,"Ġearlier":3494,"ĠAg":3495,"ube":3496,"Ġassociated":3497,"eration":3498,"33":3499,"Ġrespond":3500,"Ġund":3501,"Ġmentioned":3502,"ĠFrom":3503,"ĠAust":3504,"hern":3505,"Ġhighly":3506,"Ġencoura":3507,"Ġseemed":3508,"Ġadditional":3509,"iant":3510,"Ġadult":3511,"Ġamaz":3512,"ĠSim":3513,"Ġinterview":3514,"ĠTra":3515,"Ġdevice":3516,"Ġregul":3517,"acebook":3518,"opt":3519,"ĠAny":3520,"She":3521,"urb":3522,"Ġcontract":3523,"Ġaccom":3524,"Ġfactors":3525,"Ġcomfort":3526,"Ġrequires":3527,"Ġshop":3528,"vant":3529,"Ġburn":3530,"Ġstraight":3531,"ris":3532,"Ġmatch":3533,"Ġlimit":3534,"ĠArt":3535,"Some":3536,"Your":3537,"Ġrule":3538,"Ġsupposed":3539,"Ġcreating":3540,"onymous":3541,"Ġpsych":3542,"Ġarch":3543,"Ġnarr":3544,"Ġshot":3545,"Ġthroughout":3546,"Ġvirt":3547,"Ġmill":3548,"ĠII":3549,"Ġproduce":3550,"org":3551,"Ġerror":3552,"ights":3553,"ĠChinese":3554,"Ġflu":3555,"ael":3556,"'Ċ":3557,"Ġcivil":3558,"ĠCor":3559,"ĠCong":3560,"Ġcontain":3561,"ĠRom":3562,"ĠPar":3563,"Ġmoved":3564,"Ġsounds":3565,"enge":3566,"ague":3567,"ĠComp":3568,"ĠAdd":3569,"Ġaccur":3570,"Ġkept":3571,"omen":3572,"Ġgrowing":3573,"ĠCo":3574,"Ġboard":3575,"Ġadminist":3576,"-to":3577,"alse":3578,"Ġmethods":3579,"oly":3580,"Ġtruly":3581,"Ġachieve":3582,"ĠGl":3583,"edom":3584,"Ġstudent":3585,"Ġgrand":3586,"Ġcollege":3587,"ĠPre":3588,"that":3589,"Ġtal":3590,"Ġcitiz":3591,"dden":3592,"Ġdetails":3593,"After":3594,"ocol":3595,"IC":3596,"36":3597,"Do":3598,"196":3599,"Ġrare":3600,"itc":3601,"Ġshoot":3602,"Ġforeign":3603,"Ġclot":3604,"Ġbroad":3605,"Ġstrength":3606,"Ġrelease":3607,"with":3608,"imal":3609,"Ġstudies":3610,"ptember":3611,"Ġmanufact":3612,"Ġsubst":3613,"Ġopportunity":3614,"Ġlat":3615,"pec":3616,"ĠDav":3617,"Ġrace":3618,"odes":3619,".e":3620,"Ġmid":3621,"ĠHouse":3622,"Ġinstance":3623,"earch":3624,"Ġframe":3625,"rief":3626,"Ġvir":3627,"Ġmarketing":3628,"mark":3629,"Ġeventually":3630,"Ġdefinitely":3631,"Ġcorpor":3632,"01":3633,"Ġsudden":3634,"Ġspirit":3635,"Ġsection":3636,"Ġresist":3637,"Ġimmediately":3638,"-year":3639,"Ġtree":3640,"Ġborn":3641,"Ġcharge":3642,"ett":3643,"Ġtele":3644,"ĠSw":3645,"Ġnearly":3646,"ÂłThe":3647,"Ġpredict":3648,"Ġopinion":3649,"Ġappropri":3650,"202":3651,"lam":3652,"apter":3653,"Ġunc":3654,"Ġdiet":3655,"Ġitems":3656,"Ġstage":3657,"isf":3658,"Ġmount":3659,"Ġinterested":3660,"Ġprimary":3661,"99":3662,"Ġbenefit":3663,"Ġdied":3664,"Ġnovel":3665,"Ġolder":3666,"ĠFrench":3667,"Ġtraditional":3668,"uper":3669,"ani":3670,"Ġforces":3671,"Ġfully":3672,"Ġcustomer":3673,"Ġdaily":3674,"Ġmur":3675,"Ġ>":3676,"umn":3677,"Ġcommit":3678,"rad":3679,"ĠMany":3680,"new":3681,"Ġplant":3682,"Ġcurrently":3683,"Ġscene":3684,"Ġdrug":3685,"Ġarm":3686,"ĠIndia":3687,"ortunately":3688,"ĠAcc":3689,"Ġworse":3690,"Ġmouth":3691,"ĠDemocr":3692,"bon":3693,"Ġprotein":3694,"orks":3695,"Ġround":3696,"ĠChristian":3697,"see":3698,"Ġwish":3699,"rab":3700,"ĠEm":3701,"ĠIsrael":3702,"Ġelements":3703,"Ġcounter":3704,"Ġble":3705,"roll":3706,"izes":3707,"pective":3708,"OS":3709,"Ġder":3710,"uild":3711,"ĠLike":3712,"34":3713,"ĠCour":3714,"Ġactions":3715,"Ġtoward":3716,"ĠJesus":3717,"Ġdie":3718,"Ġpeace":3719,"Ġargument":3720,"Ġnucle":3721,"Ġcauses":3722,"Ġmajority":3723,"Ġprofessional":3724,"Ġcandid":3725,"Ġnames":3726,"rain":3727,"Ġtrade":3728,"Ġanaly":3729,"05":3730,"Sc":3731,"Ġlength":3732,"ĠOur":3733,"Ġpublished":3734,"Ġremain":3735,"reci":3736,"ĠEuropean":3737,"Ġdoctor":3738,"Ġprefer":3739,"Ġthoughts":3740,"Ġnotice":3741,"term":3742,"Ġonto":3743,"Ġeating":3744,"this":3745,"Ġwilling":3746,"Ġprint":3747,"ĠChar":3748,"Ġtools":3749,"Ġexercise":3750,"actions":3751,"Ġextremely":3752,"atur":3753,"-g":3754,"AM":3755,"ET":3756,"Ġplatform":3757,"round":3758,"\"I":3759,"name":3760,"Ġdisp":3761,"Ġbalance":3762,"500":3763,"pes":3764,"Ġcast":3765,"ategy":3766,"iling":3767,"Ġrand":3768,"orge":3769,"Ġkid":3770,"ĠNational":3771,"Ġprices":3772,"Ġpatient":3773,"aper":3774,"Ġsteps":3775,"Ġblue":3776,"{Ċ":3777,"Ġtour":3778,"gers":3779,"itable":3780,"Ġdirection":3781,"OC":3782,"Ġmicro":3783,"Ġbeg":3784,"flict":3785,"Ġfarm":3786,"Ġliber":3787,"uing":3788,"Ġsuccessful":3789,"def":3790,"ae":3791,"Ġbeautiful":3792,"ĠMich":3793,"ustr":3794,"Ġcru":3795,"-M":3796,"osis":3797,"09":3798,"Ġincome":3799,"AP":3800,"iver":3801,"inc":3802,"Ġtransl":3803,"Ġjobs":3804,"acter":3805,"^{":3806,"Ġenter":3807,"Ġkilled":3808,"Ġsales":3809,"ĠBar":3810,"Ġtransform":3811,"Ġbasis":3812,"55":3813,"text":3814,"ls":3815,"Ġwild":3816,"lebr":3817,"Ġhosp":3818,"Ġpassed":3819,"iring":3820,"mitted":3821,"Ġtask":3822,"change":3823,"Ġmostly":3824,"Get":3825,"Ġsympt":3826,"comp":3827,"Ġrandom":3828,"ham":3829,"cast":3830,"edd":3831,"owd":3832,"resp":3833,"ĠFeb":3834,"ĠUK":3835,"onday":3836,"Ġstatement":3837,"clus":3838,"ternal":3839,"Yes":3840,"):":3841,"orry":3842,"Ġshall":3843,"ĠCongress":3844,"Well":3845,"anc":3846,"ĠSince":3847,"Ġveh":3848,"ĠCity":3849,"ception":3850,"From":3851,"ĠOther":3852,"Ġcalcul":3853,"board":3854,"ares":3855,"Ġhus":3856,"Ġtemperature":3857,"ĠPat":3858,"Ġglass":3859,"no":3860,"Ġwat":3861,"Ġreported":3862,"(\"":3863,"ĠSch":3864,"kay":3865,"adem":3866,"Ġ$\\":3867,"Ġdetermine":3868,"inct":3869,"Ġcateg":3870,"Ġapply":3871,"icks":3872,"Ġgod":3873,"Ġelectric":3874,"Se":3875,"Ġletter":3876,"Ġreceived":3877,"Ġmodels":3878,"Ġdespite":3879,"ss":3880,"udd":3881,"Ġinternet":3882,"ifying":3883,"Ġaudience":3884,"pret":3885,"Ġluck":3886,"istics":3887,"Ġprec":3888,"Ġbottom":3889,"Ġapparent":3890,"Ġforms":3891,"Ġfaith":3892,"obile":3893,"onent":3894,"Let":3895,"Ġsaf":3896,"Ġleading":3897,"ĠWind":3898,"Ġwatching":3899,"xy":3900,"Ġbackground":3901,"Ġdisplay":3902,"ronic":3903,"Ġhumans":3904,"Im":3905,"Ġwood":3906,"Ġtrain":3907,"Ġfish":3908,"Ġoffe":3909,"Ġworkers":3910,"While":3911,"!\"":3912,"><":3913,"overy":3914,"Ġscale":3915,"igure":3916,"Ġscript":3917,"atically":3918,"ĠBlack":3919,"Ġmut":3920,"Ġhous":3921,"Ġinternational":3922,"====":3923,"ography":3924,"ĠPost":3925,"Ġoverall":3926,"Ġlots":3927,"Ġdrugs":3928,"ĠAmericans":3929,"Ġfavorite":3930,"ĠMarch":3931,"Ġincludes":3932,"Ġappears":3933,"Ġgain":3934,"htt":3935,"abor":3936,"Ġtitle":3937,"Ġreflect":3938,"Ġfresh":3939,"Ġrid":3940,"Ġfollowed":3941,"Ð¾":3942,"Ġter":3943,"ĠPol":3944,"ked":3945,"Ġhonest":3946,"nect":3947,"ĠOnce":3948,"Ġresponsible":3949,"Ġincluded":3950,"Ġid":3951,"ests":3952,"Ġbelief":3953,"mun":3954,"Ġang":3955,"Ġrates":3956,"ĠPC":3957,"Ġeth":3958,"ugg":3959,"Ġcommer":3960,"Ġobvious":3961,"08":3962,"Ġfol":3963,"Ġfactor":3964,"48":3965,"ga":3966,"iers":3967,"Ġgold":3968,"Ġregion":3969,"Ġdescribed":3970,"iam":3971,"Ġbillion":3972,"ĠCons":3973,"Ġexpress":3974,"Ġsummer":3975,"ulated":3976,"Ġcenter":3977,"Ġreligious":3978,"Ġheavy":3979,"time":3980,"):Ċ":3981,"Us":3982,"ĠApril":3983,"Ġparam":3984,"Ġmeeting":3985,"gment":3986,"range":3987,"arian":3988,"Ġsetting":3989,"Ġproced":3990,"38":3991,"rig":3992,"ctors":3993,"Ġstrategy":3994,"Ġcopy":3995,"ĠGet":3996,"ocal":3997,"print":3998,"Ġcamera":3999,"PS":4000,"Ġfloor":4001,"la":4002,"Ġfederal":4003,"Ġslightly":4004,"ady":4005,"Ġdry":4006,"ĠOh":4007,"Ġdebt":4008,"/s":4009,"Ġcalls":4010,"Ġbudget":4011,"Ġconduct":4012,"Ġintellig":4013,"Ġreceive":4014,"Ġorganization":4015,"Don":4016,"Ġmale":4017,"Ġfinding":4018,"Ġchemical":4019,"Ġpark":4020,"well":4021,"Ġasking":4022,"Ġadvantage":4023,"vey":4024,"Ġweak":4025,"Ġsmaller":4026,"Ġhyp":4027,"37":4028,"Ġinfluence":4029,"ĠCr":4030,"Ġquant":4031,"ocked":4032,"Ġlisten":4033,"men":4034,"Ġrich":4035,"Ġconstit":4036,"coh":4037,"Ġconflict":4038,".m":4039,"ossible":4040,"Ġactivities":4041,"Ġconcent":4042,"Ð°":4043,"ĠSeptember":4044,"Ġkeeping":4045,"ĠJanuary":4046,"Ġprograms":4047,"Ġessential":4048,"AL":4049,"Ġmild":4050,"Ġcritical":4051,"iverse":4052,"alt":4053,"ynam":4054,"Ġchallenge":4055,"Ġadjust":4056,"unction":4057,"inated":4058,"Ġpus":4059,"Ġdestroy":4060,"Ġsexual":4061,"asion":4062,"oday":4063,"cience":4064,"known":4065,"Ġchurch":4066,"Ġepis":4067,"Ġdegree":4068,"Ġunless":4069,"US":4070,"Ġing":4071,"Ġreb":4072,"ading":4073,"tered":4074,"Ġdistance":4075,"Ġbrand":4076,"Ġamazing":4077,"Ġbul":4078,"Ġbattle":4079,"ĠLaw":4080,"Ġrealize":4081,"Ġmovies":4082,"Ġcontinued":4083,"Ġpun":4084,"ĠSer":4085,"ovember":4086,"Ġappreci":4087,"lied":4088,"Ġqual":4089,"Ġdouble":4090,"Ġcircum":4091,"ki":4092,"Ġaim":4093,"Ġegg":4094,"Ġcris":4095,"Ġvariety":4096,"Ġestabl":4097,"Ġ...":4098,"ĠAugust":4099,".[":4100,"Ġconsequ":4101,"Ġenem":4102,"ometimes":4103,"Ġcatch":4104,"odies":4105,"Ġdecide":4106,"Ġacqu":4107,"Ġdemonstr":4108,"Ġmental":4109,"Ġrefer":4110,"ulate":4111,"rial":4112,"Ġexpensive":4113,"Ġserver":4114,"Ġtim":4115,"oving":4116,"Ġrob":4117,"Ġlocation":4118,"Ġsafety":4119,"bum":4120,"Ġfaster":4121,"Ġcareer":4122,"Ġanimal":4123,"Ġdiscussion":4124,"Ġannoun":4125,"04":4126,"Ġimages":4127,"Ġleaving":4128,"aid":4129,"AD":4130,"ey":4131,"Ġoffers":4132,"Ġshowed":4133,"Ġgraph":4134,"However":4135,"ste":4136,"EM":4137,"Ġnor":4138,"Ġlibr":4139,"Ġinstit":4140,"Ġdigital":4141,"Ġimagine":4142,"isl":4143,"Ġuns":4144,"unday":4145,"Ġinitial":4146,"cks":4147,"oper":4148,"aint":4149,"ilies":4150,"Ġeval":4151,"Ġputting":4152,"Ġvictim":4153,"ĠMac":4154,"ĠPM":4155,"Ġseparate":4156,"tr":4157,"ĠDes":4158,"Ġ`":4159,"enses":4160,"Ġremind":4161,"Ġstring":4162,"Ðµ":4163,"Ġcore":4164,"ĠMod":4165,"ĠGreat":4166,"Ġremains":4167,"Ġcup":4168,"Ġactive":4169,"Ġplanet":4170,"ĠWho":4171,"Ġer":4172,"-S":4173,"ĠWest":4174,"ĠJuly":4175,"force":4176,"equ":4177,"ulf":4178,"encies":4179,"Ġreci":4180,"Ġminor":4181,"Ġleads":4182,"Ġwaiting":4183,"Ġreleased":4184,"Ġforget":4185,"Ġdetect":4186,"pid":4187,"vision":4188,"Ġmap":4189,"Ġspending":4190,"ĠAustral":4191,"kin":4192,"ĠLa":4193,"ĠGood":4194,"ius":4195,"Ġwindow":4196,"ĠAM":4197,"riv":4198,"Ġelement":4199,"oto":4200,"06":4201,"47":4202,"Ġcentral":4203,"lig":4204,"Ġmagn":4205,"Ġproduced":4206,"07":4207,"39":4208,"Ġsources":4209,"otic":4210,"Ġship":4211,"Ġshape":4212,"ror":4213,"onic":4214,"Ġfru":4215,"eds":4216,"These":4217,"ĠTrump":4218,"Ġcelebr":4219,"riage":4220,"Ġfeature":4221,"Ġspect":4222,"Ġhusband":4223,"],":4224,"ĠDis":4225,"Ġspeech":4226,"Ġexamples":4227,"Ġsmart":4228,"can":4229,"Ġbound":4230,"Ġvs":4231,"ĠAlthough":4232,"Ġcompar":4233,"ĠCourt":4234,"ãģ":4235,"Ġattract":4236,"Ġstarts":4237,"Ġplans":4238,"Ġreplace":4239,"Ġworry":4240,"ĠNet":4241,"Ġclimate":4242,"Ġtells":4243,"Ġrat":4244,"iber":4245,"Ġbecoming":4246,"Ġcash":4247,"Ġtesting":4248,"OM":4249,"Ġintend":4250,"Ġschools":4251,"Ġfreedom":4252,"Ġstatus":4253,"Ġodd":4254,"ĠSen":4255,"Ġhandle":4256,"que":4257,"ĠRec":4258,"_{":4259,"Ġstrateg":4260,"EC":4261,"Ġdrop":4262,"idden":4263,"Ġdoubt":4264,"Add":4265,"Oh":4266,"abase":4267,"oking":4268,"vis":4269,"Ġbasically":4270,"Ġpoly":4271,"ait":4272,"Ġfeels":4273,"Ġbag":4274,"ĠWhite":4275,"Ġsatisf":4276,"Ġstreet":4277,"Ġtypically":4278,"iliar":4279,"Ġcas":4280,"orage":4281,"ĠTH":4282,"aming":4283,"Ġwear":4284,"gor":4285,"ipp":4286,"ias":4287,"ooth":4288,"ĠMaybe":4289,"ĠKore":4290,"Ġsymptoms":4291,"Ġsche":4292,"Ġdecre":4293,"Ġadvice":4294,"arter":4295,"anging":4296,"Ġremove":4297,"hest":4298,"Ġhom":4299,"raw":4300,"ilos":4301,"ĠStud":4302,"Ġappropriate":4303,"Of":4304,"ĠAnt":4305,"Pl":4306,"pen":4307,"ĠÃ":4308,"Ġsurround":4309,"Ġexpression":4310,"ref":4311,"ĠRem":4312,"ml":4313,"Ġinput":4314,"uman":4315,"clusion":4316,"Ġmaintain":4317,"ĠMuslim":4318,"math":4319,"Ġterror":4320,"Ġhelped":4321,"ĠSpe":4322,"izations":4323,"Ġotherwise":4324,"Ġassess":4325,"file":4326,"uesday":4327,"BC":4328,"place":4329,"Ġclaims":4330,"Ġhol":4331,"Ġleader":4332,"illed":4333,"Ġtotally":4334,"Ġast":4335,"rol":4336,"aked":4337,"Ġadvert":4338,"ĠVal":4339,"Ġpresence":4340,"ka":4341,"anch":4342,"Ġforg":4343,"âĢ¦Ċ":4344,"Cont":4345,"Ġfuel":4346,"ednes":4347,"Ġcomplic":4348,"Tr":4349,"Ġ%":4350,"igned":4351,"Ġdefined":4352,"Ġahead":4353,"ache":4354,"ashington":4355,"cohol":4356,"Ġrise":4357,"Ġpieces":4358,"Ġfemale":4359,"Ġspl":4360,"Ġsites":4361,"olec":4362,"pan":4363,"ida":4364,"Ġpregn":4365,"Can":4366,"ĠPal":4367,"Ġcoffe":4368,"raft":4369,"ipment":4370,"Ġ_":4371,"Ġefficient":4372,"ibr":4373,"Ġice":4374,"Ġcrime":4375,"Ġhate":4376,"Ġclick":4377,"Ġclosed":4378,"Ġsweet":4379,"Ġabsolutely":4380,"Ġbow":4381,"Ġnone":4382,"ipe":4383,"Ġsad":4384,"Ġfuck":4385,"asy":4386,"urg":4387,"Ġpossibly":4388,"Ġthousands":4389,"ico":4390,"istan":4391,"iforn":4392,"Ġspot":4393,"Ġconnection":4394,"Ġnuclear":4395,"ednesday":4396,"from":4397,"Ġpet":4398,"Ġfailed":4399,"Ġbird":4400,"ĠJune":4401,"Ġtelling":4402,"Qu":4403,"arant":4404,"Ġlived":4405,"ĠAut":4406,"Ġcars":4407,"ula":4408,"ĠApple":4409,"Ġcitizens":4410,"Ġpush":4411,"cember":4412,"umm":4413,"Ġnumer":4414,"Ġfamilies":4415,"Ġtopic":4416,"down":4417,"Ùİ":4418,"Ġsymb":4419,"Ġexisting":4420,"Ġà¤":4421,"Ġprison":4422,"ios":4423,"olar":4424,"Ġjump":4425,"Ġdecisions":4426,"Ġentirely":4427,"igr":4428,"ĠSun":4429,"Ġjo":4430,"Ġprem":4431,"ĠIslam":4432,"dro":4433,"Ġfalse":4434,"irect":4435,"Ġsupply":4436,"Ġpromot":4437,"Ġidentify":4438,"Ġreference":4439,"Ġeight":4440,"uration":4441,"anted":4442,"Ġconserv":4443,"Ed":4444,"rible":4445,"ferences":4446,"Ġequal":4447,"vil":4448,"Ġinvestment":4449,"rough":4450,"apers":4451,"Ġclasses":4452,"ĠIS":4453,"Ġbiggest":4454,"prove":4455,"Just":4456,"OU":4457,"Ġsitting":4458,"Ġanyway":4459,"âĢĿ.":4460,"Ġelection":4461,".p":4462,"Ad":4463,"iable":4464,"tes":4465,"Ġhtt":4466,"ĠUp":4467,"Ġalternative":4468,"ban":4469,"ection":4470,"gu":4471,"Ġdaughter":4472,"Ġdevices":4473,"gorith":4474,"44":4475,"Ġil":4476,"iminal":4477,"Ġunit":4478,"ĠDay":4479,"Ġincred":4480,"New":4481,"uous":4482,"Ġinterpret":4483,"Ġexperiences":4484,"Ġlabor":4485,"Ġcoffee":4486,"you":4487,"Ġcards":4488,"Ġoutput":4489,"Tw":4490,"Ġemployees":4491,"istry":4492,"ĠOver":4493,"Ġturns":4494,"stitution":4495,"/esp":4496,"iance":4497,"ĠÎ":4498,"Ġknowing":4499,"Ġhappening":4500,"ifornia":4501,"Ġstream":4502,"Ġded":4503,"urrent":4504,"type":4505,"rapy":4506,"lin":4507,"Ġfan":4508,"Ġrul":4509,"Ġtrig":4510,"194":4511,"Ġbuying":4512,"Ġbought":4513,"Ġshut":4514,"do":4515,"acity":4516,"300":4517,"ĠTheir":4518,"Ġinstr":4519,"ername":4520,"Ġemp":4521,"orrow":4522,"edia":4523,"Ġcontains":4524,"Ġafford":4525,"Ġbond":4526,"cket":4527,"Ġtrouble":4528,"Ġcaught":4529,"Ġforced":4530,"ĠIndian":4531,"ursday":4532,"-r":4533,"ĠAc":4534,"Ġsolid":4535,"ĠOctober":4536,"wood":4537,"ĠNovember":4538,"Ġroll":4539,"Leave":4540,"erry":4541,"Ġsugar":4542,"Ġvill":4543,"Ġsets":4544,"Ġchanging":4545,"Ġconversation":4546,"Ġweapons":4547,"IV":4548,"ĠDavid":4549,"75":4550,"âĢĿ,":4551,"Ġdifferences":4552,"iques":4553,"Ø§":4554,"soft":4555,"Ġdiscovered":4556,"More":4557,"Ġloved":4558,"195":4559,"Ġobjects":4560,"Ġpurchase":4561,"Ġcultural":4562,"ĠLog":4563,"Ġleaves":4564,"Ġcrisis":4565,"Ġprocesses":4566,"ĠInstead":4567,"cription":4568,"mosp":4569,"uate":4570,"idents":4571,"De":4572,"Ġreached":4573,"oves":4574,"Ġcarbon":4575,"Ġgeneration":4576,"Ġmere":4577,"Ġrecords":4578,"class":4579,"iency":4580,"itness":4581,"Ġgoals":4582,"Ġreligion":4583,"Ġhospital":4584,"inter":4585,"ĠBra":4586,"osure":4587,"Ġalbum":4588,"ĠRed":4589,"ĠNews":4590,"arp":4591,"Ġbeat":4592,"ĠCount":4593,"ĠJack":4594,"Ġperspective":4595,"umber":4596,"64":4597,"lor":4598,"oom":4599,"inner":4600,"asks":4601,"Ġprove":4602,"ubb":4603,"Ġbroken":4604,"Ġdefinition":4605,"ses":4606,"Ġbrief":4607,"opy":4608,"Ġshowing":4609,"Ġstopped":4610,"uzz":4611,"ĠReply":4612,"Ġfighting":4613,"reate":4614,"Ġchann":4615,"ek":4616,"Ġimpossible":4617,"char":4618,"Ġwealth":4619,"Ġ\\<":4620,"part":4621,"ĠSl":4622,"gery":4623,"SS":4624,"ĠDep":4625,"ourney":4626,"193":4627,"Ġindeed":4628,"Ġdiagn":4629,"Ġcommercial":4630,"Ġshared":4631,"ĠReg":4632,"ta":4633,"Ġyell":4634,"Ġserve":4635,"Ġmuscle":4636,"Ġequipment":4637,"Ġmiles":4638,"Type":4639,"uries":4640,"Ġexpand":4641,".C":4642,"-time":4643,"ĠCanada":4644,"-term":4645,"Ġdriving":4646,"Ġdim":4647,"Ġflat":4648,"ĠTrans":4649,"Ġtick":4650,"athy":4651,"Ġprojects":4652,"Ġdefend":4653,"eters":4654,"roid":4655,"Ġmilk":4656,"Fr":4657,"ĠWashington":4658,"ĠPaul":4659,"ruary":4660,"ails":4661,"Ġhurt":4662,"semb":4663,"Ġwaste":4664,"Ġmissing":4665,"\".Ċ":4666,"Ġhearing":4667,"akers":4668,"Ġviolence":4669,"Ġroot":4670,"hens":4671,"Ġslowly":4672,"Ġstaff":4673,"illy":4674,"Ġtraffic":4675,"Ab":4676,"cellent":4677,"Ġlatest":4678,"Ġbatter":4679,"Ġreaction":4680,"Ġpros":4681,"ondon":4682,"box":4683,"antic":4684,"Ġbelong":4685,"Ġtransport":4686,"ĠThanks":4687,"\":":4688,"''":4689,"Ġallowing":4690,"Ġthanks":4691,"Ġremoved":4692,"____":4693,"Ġindependent":4694,"-C":4695,"uations":4696,"Ġstars":4697,"Ġproviding":4698,"Ġdefault":4699,"Ġapart":4700,"Rel":4701,"Ġrelatively":4702,"ĠMal":4703,"Ġconstruct":4704,"Ġproperties":4705,"Ġholding":4706,"ĠSam":4707,"raq":4708,"olf":4709,"IM":4710,"ayer":4711,"Ġscientific":4712,");":4713,"row":4714,"Ġsand":4715,"inding":4716,"Ġcrowd":4717,"Ġtransfer":4718,"Ġhell":4719,"Ġran":4720,"Ġplaced":4721,"Ġextend":4722,"ensity":4723,"Ġvalid":4724,"works":4725,"inate":4726,"Ġadapt":4727,"Ġpages":4728,"ĠJe":4729,"ribe":4730,"02":4731,"za":4732,"Ġterr":4733,"Ġsick":4734,"Ġanswers":4735,"Ġsuspect":4736,"Most":4737,"ym":4738,"hetic":4739,"imb":4740,"Ġsea":4741,"Ġsem":4742,"Ġestim":4743,"Ġapplications":4744,"Ġfant":4745,"ĠFacebook":4746,"Ġmassive":4747,"Ġjournal":4748,"-A":4749,"rees":4750,"fection":4751,"ĠCalifornia":4752,"Ġdollars":4753,"point":4754,"ĠMet":4755,"Ġmotiv":4756,"ĠServ":4757,"Ġliqu":4758,"Ġincor":4759,"Ġexplan":4760,"ĠDoes":4761,"Ġgirls":4762,"Ġtaste":4763,"care":4764,"Ġsoul":4765,"Ġpaying":4766,"Bl":4767,"wr":4768,"Ġowners":4769,"Ġmagic":4770,"ĠST":4771,"Ġweather":4772,"Ġbigger":4773,"Ġefforts":4774,"Ġmechanism":4775,"Ġalgorith":4776,"ĠUnion":4777,"Ġbelieved":4778,"Ġvision":4779,"ING":4780,"Ġconcerned":4781,"EO":4782,"Or":4783,"vest":4784,"inn":4785,"Ġsen":4786,"Ġwhom":4787,"osite":4788,"Ġbusinesses":4789,"Ġtests":4790,"var":4791,"ica":4792,"Ġplants":4793,"Ġruns":4794,"Ġexperienced":4795,"Ġmulti":4796,"appe":4797,"porary":4798,"Ġrent":4799,"Ġseven":4800,"mar":4801,"Ġsch":4802,"Ġhero":4803,"Ġacid":4804,"ingly":4805,"Ġcloud":4806,"Ġmaterials":4807,"aturday":4808,"fig":4809,"ishes":4810,"ĠRober":4811,"Ġquiet":4812,"Ġdangerous":4813,"tained":4814,"zen":4815,"asure":4816,"ĠGree":4817,"Ġswitch":4818,"03":4819,"Ġenh":4820,"Ġmanaged":4821,"Ġdescribe":4822,"Ġcovered":4823,"edy":4824,"ĠCD":4825,"ĠWindows":4826,"ĠWhere":4827,"Ġstanding":4828,"Ġlegisl":4829,"Ġvisual":4830,"Ġradio":4831,"Ġatmosp":4832,"ĠOut":4833,"Ġminute":4834,"Ġpure":4835,"Ġunlike":4836,"ĠDecember":4837,"ĠMichael":4838,"First":4839,"Ġcheap":4840,"Ġobviously":4841,"??":4842,"ij":4843,"ĠSee":4844,"Ġclin":4845,".c":4846,"reak":4847,"ologies":4848,"Ġbutton":4849,"Ġevolution":4850,"upid":4851,"Ġtrees":4852,"Ġalcohol":4853,"Ġfamous":4854,"Ġjudge":4855,"Ġfilled":4856,"Ġmort":4857,"Ġdynam":4858,"acing":4859,"ashion":4860,"Ġmission":4861,"Ġrelationships":4862,"zer":4863,"Ġreports":4864,"under":4865,"rie":4866,"Ġherself":4867,"Ġfoods":4868,"Ġengage":4869,"Ġsongs":4870,"-old":4871,"Ġking":4872,"Ġspecifically":4873,"Ġdebate":4874,"ĠIraq":4875,"ĠSan":4876,"Ġmeat":4877,"berg":4878,"ĠSystem":4879,"Ġguide":4880,"Ġstrange":4881,"Ġinternal":4882,"while":4883,"Ġcircumst":4884,"Ġhelpful":4885,"Ġscore":4886,"Ġadding":4887,"Ġaccompl":4888,"host":4889,"username":4890,"Ġnoticed":4891,"Ġfamiliar":4892,"Ġpictures":4893,"Ġlabel":4894,"->":4895,"Ġban":4896,"Ġopened":4897,"share":4898,"Ġwalking":4899,"Ġattacks":4900,"Ġparties":4901,"Ġempt":4902,"/or":4903,"lies":4904,"Ġsac":4905,"Ġmel":4906,"Ġmaster":4907,"Ġassume":4908,"Ġcritic":4909,"rum":4910,"Ð¸":4911,"Ġended":4912,"Ġseconds":4913,"Ġconstant":4914,"Ġarrest":4915,"Ġtrip":4916,"Ġproperly":4917,"icians":4918,"Ġsuddenly":4919,"amin":4920,"ĠPark":4921,"Ġveget":4922,"Post":4923,"Ġjoin":4924,"Ġclient":4925,"Ġoptim":4926,"Ġfailure":4927,"ĠSov":4928,"clude":4929,"Ġcollection":4930,"Ġstim":4931,"ĠĠĠ":4932,"Ġindex":4933,"rey":4934,"Ġpal":4935,"Ġlic":4936,"Ġreact":4937,"ission":4938,"www":4939,"Ġerr":4940,"Ġmanner":4941,"Ġlargest":4942,"-le":4943,"ien":4944,"Ġancient":4945,"Ġdesire":4946,"erg":4947,"esh":4948,"Ġdial":4949,"Ġimpl":4950,"Ġarms":4951,"Ġdefense":4952,"Ġprotection":4953,"Ġcycle":4954,"ĠMicro":4955,"Ġpoll":4956,"oyal":4957,"Any":4958,"Ġfirm":4959,"racy":4960,"Ġapplied":4961,"Ġphilos":4962,"Ġdeveloping":4963,"****":4964,"Ġhistorical":4965,"Our":4966,"Ġsides":4967,"ria":4968,"Ġrestrict":4969,"rim":4970,"isation":4971,"Ġidentity":4972,"ĠBen":4973,"Ġourselves":4974,"ĠIran":4975,"Ġzero":4976,"Ġdepending":4977,"400":4978,"Ġevil":4979,"Ġfairly":4980,"mod":4981,"race":4982,"Ġimportance":4983,"Ġestablished":4984,"Ġaccident":4985,"Ġraised":4986,"ĠMat":4987,"Ġkick":4988,"Ġsentence":4989,"46":4990,"Ġdiss":4991,"Ġemotional":4992,"ancing":4993,"rian":4994,"field":4995,"Ġresponsibility":4996,"respond":4997,"olve":4998,"Ġformat":4999,"-re":5000,"ours":5001,"95":5002,"ĠEast":5003,"ĠLondon":5004,"Ġneighbor":5005,"Ġreven":5006,"Ġjourney":5007,"Ġpair":5008,"Ġcalling":5009,"Ġdetermined":5010,"Ġnav":5011,"ÂłÂłÂłÂłÂłÂłÂłÂł":5012,"Ġexecut":5013,"()Ċ":5014,"ĠIts":5015,"AA":5016,"atar":5017,"Ġtom":5018,"Ġsomehow":5019,"Ġlawy":5020,"ĠRussia":5021,"ĠDec":5022,"ĠHealth":5023,"Ġcommunication":5024,"_t":5025,"Ġtight":5026,"Ġcomponents":5027,"Ġthank":5028,"gypt":5029,"night":5030,"ĠAP":5031,"Ġexpert":5032,"Ġexplained":5033,"Ġregarding":5034,"public":5035,"Ġmolec":5036,"import":5037,"ĠBig":5038,"rome":5039,"osh":5040,"Ġrain":5041,"Ob":5042,"ords":5043,"Ġshouldn":5044,"Ġdownload":5045,"ĠFrance":5046,"Ġconnected":5047,"Ġutil":5048,"ĠGeorge":5049,"Ġilleg":5050,"Me":5051,"Ġnotes":5052,"Ġaspects":5053,"Ġopening":5054,"Ġreduced":5055,"ented":5056,"olved":5057,"ĠCO":5058,"Ġstandards":5059,"ĠAp":5060,"Then":5061,"Ġposts":5062,"Ġexistence":5063,"42":5064,"Ġstret":5065,"alled":5066,"ander":5067,"och":5068,"Ġsust":5069,"Ġhelping":5070,"Ġpurs":5071,"-like":5072,"ario":5073,"ĠDef":5074,"Ġamb":5075,"Ġcloser":5076,"Ġworst":5077,"ĠUse":5078,"Ġunivers":5079,"Ġtrial":5080,"Ġhur":5081,"ĠTime":5082,"ĠHigh":5083,"Ġseek":5084,"ĠJewish":5085,"itors":5086,"Ġdogs":5087,"ĠDNA":5088,"Ġends":5089,"Ġideal":5090,"Ġkinds":5091,"Ġcontinues":5092,"Ġdatabase":5093,"cil":5094,"Ġtwice":5095,"Ġcriminal":5096,"ĠReview":5097,"erate":5098,"icon":5099,"Ġpolitics":5100,"Ġchallenges":5101,"ĠBo":5102,"Âłthe":5103,"Ġring":5104,"ĠJava":5105,"Ġplanning":5106,"Ġsuggests":5107,"gon":5108,"uy":5109,"iders":5110,"Ġspeaking":5111,"-D":5112,"ĠOff":5113,"rency":5114,"Ġaccepted":5115,"Ġrelevant":5116,"Ġlayer":5117,"En":5118,"ĠCle":5119,"ĠMake":5120,"ĠThose":5121,"Ġflight":5122,"Ġfunctions":5123,"Ġmarriage":5124,"xi":5125,"Ġbare":5126,"Ġstorage":5127,"ĠArab":5128,"Ġplus":5129,"Ġrapid":5130,"itect":5131,"Ġteacher":5132,"phone":5133,"Ġprepared":5134,"Ġbegins":5135,"ĠInternet":5136,"ĠFebruary":5137,"Ġinterests":5138,"Ġepisode":5139,"Ġwalked":5140,"ĠRob":5141,"ĠJames":5142,"Ġtechniques":5143,"itchen":5144,"^{-":5145,"?âĢĿ":5146,"rical":5147,"yth":5148,"alle":5149,"improve":5150,"Ġplug":5151,"Ġcolumn":5152,"Ġpolicies":5153,"Ġedge":5154,"Ġoperations":5155,"Ġoffered":5156,"ĠBush":5157,"Ġrough":5158,"Ġteen":5159,"ĠAss":5160,"orter":5161,"Ġattend":5162,"Ġchain":5163,"arden":5164,"Ġrestaur":5165,"-of":5166,"Ġexcellent":5167,"Ġuniverse":5168,"Ġfolks":5169,"Ġphen":5170,"phas":5171,"Ġfollows":5172,"Ġmotion":5173,"ront":5174,"Ġseat":5175,"Ġphr":5176,"Ġcombination":5177,"ums":5178,"Ġfeelings":5179,"cont":5180,"ÑĤ":5181,"Ġfold":5182,"Ġbright":5183,"Ġclub":5184,"Ġscientists":5185,"Please":5186,"quest":5187,"Ġmetal":5188,"Ġresearc":5189,"Ġmarried":5190,"43":5191,"encing":5192,"Ġsomewhat":5193,"espite":5194,"Ġingred":5195,"May":5196,"Ġfans":5197,"Ġmo":5198,"ructure":5199,"Ġforest":5200,"Ġimmune":5201,"Val":5202,"iest":5203,"ÙĦ":5204,"Ġselling":5205,"estic":5206,"Ġraise":5207,"Ġdepends":5208,"))":5209,"56":5210,"Read":5211,"omy":5212,"Ġnerv":5213,"ĠMex":5214,"Âłand":5215,"Ġplot":5216,"Ġlocated":5217,"Ġsymbol":5218,"ĠInter":5219,"ĠTwo":5220,"-e":5221,"mas":5222,"osen":5223,"Ġguarant":5224,"Ġhighest":5225,"(s":5226,"LE":5227,"Ġstation":5228,"Ġrealized":5229,"ĠTherefore":5230,"][":5231,"Ġmine":5232,"stood":5233,"illing":5234,"ulations":5235,"formation":5236,"idth":5237,"ĠEach":5238,"ĠInc":5239,"ighter":5240,"Ġmonitor":5241,"('":5242,"Ġthick":5243,"irty":5244,"kend":5245,"Ġrot":5246,"Ġfields":5247,"icit":5248,"Ġearn":5249,"Ġreturned":5250,"Ġplenty":5251,"tee":5252,"Ġtaxes":5253,"Ġadministration":5254,"|improve":5255,"rem":5256,"ĠRich":5257,"Ġton":5258,"Ġbodies":5259,"Ġfly":5260,"Ġmir":5261,"orders":5262,"ipped":5263,"pet":5264,"Ġsmell":5265,"rm":5266,"ĠMart":5267,"Ġteeth":5268,"Ġtreated":5269,"ĠGovern":5270,"esome":5271,"uts":5272,"idel":5273,"ĠSing":5274,"Ġexchange":5275,"ĠThom":5276,"Ġpool":5277,"-pro":5278,"Ġthread":5279,"Ġmarkets":5280,"Ġcrazy":5281,"rate":5282,"Ġbacter":5283,"Ġpartner":5284,"ĠAI":5285,"Ġsevere":5286,"Ġsav":5287,"lands":5288,"See":5289,"real":5290,"apping":5291,"Ġteams":5292,"ĠGerman":5293,"Ġcorner":5294,"Ġperformed":5295,"Ġestablish":5296,"Ġdiscover":5297,"Ġdeliver":5298,"lee":5299,"Ġstupid":5300,"Ġsignal":5301,"Ġcausing":5302,"Ind":5303,"Int":5304,"cher":5305,"Ġsomewhere":5306,"Ġthrow":5307,"Ġpowers":5308,"gl":5309,"house":5310,"Ġgar":5311,"Ġproof":5312,"Ġentertain":5313,"Ġchest":5314,"ĠAv":5315,"ĠBel":5316,"Ġfacts":5317,"Ġrequirements":5318,"ĠGermany":5319,"Gen":5320,"ĠAnsw":5321,"View":5322,"Ġdut":5323,"anda":5324,"Ġfunny":5325,"Ġpossibility":5326,"();Ċ":5327,"iate":5328,"ato":5329,"urally":5330,"Ġanymore":5331,"Ġtechnical":5332,"-the":5333,"road":5334,"aching":5335,"Ġincreases":5336,"Ġadvanced":5337,"Ġwonderful":5338,"Ġfixed":5339,"Ġempty":5340,"58":5341,"oub":5342,"ĠEgypt":5343,"Ġplays":5344,"Ġsequence":5345,"Ġque":5346,"Ġdecades":5347,"Ġperfectly":5348,"Ġapparently":5349,"ensions":5350,"Ġwriter":5351,"ĠJapanese":5352,"Ġwel":5353,"Ġconsidering":5354,"Ġsignificantly":5355,"Ġlibrary":5356,"wan":5357,"Ġment":5358,"SC":5359,"inem":5360,"Ġmode":5361,"ĠAN":5362,"Ġquot":5363,"Ġtypical":5364,"Ġsolutions":5365,"uke":5366,"ĠLord":5367,"Ġsmooth":5368,"Ġfinished":5369,"Ġbehavi":5370,"Ġintended":5371,"Ġcreation":5372,"Another":5373,"Ġvolume":5374,"Ġcart":5375,"Ġlosing":5376,"Ġreserv":5377,"Ġsports":5378,"Ġsurgery":5379,"Ġturning":5380,"ĠAfrica":5381,"ĠAlex":5382,"ĠHel":5383,"Ġharder":5384,"Ġappeared":5385,"Ġcreative":5386,"49":5387,"ĠDa":5388,"Ġopportunities":5389,"Are":5390,"ÂłM":5391,"agon":5392,"stitute":5393,"rd":5394,"OD":5395,"fortunately":5396,"Ġreform":5397,"ems":5398,"Ġcorrespond":5399,"Ġfilms":5400,"Ġpresented":5401,"lete":5402,"rog":5403,"ĠRussian":5404,"IP":5405,"Pr":5406,"UT":5407,"itory":5408,"Ġnoise":5409,"Ġconstruction":5410,"Ġhundreds":5411,"/Ċ":5412,"ĠBook":5413,"ĠEngland":5414,"related":5415,"-B":5416,"ĠRel":5417,"Ġeffectively":5418,"Ġnecessarily":5419,"Ġprofession":5420,"Ġbreath":5421,"Ġconscious":5422,"Ġbath":5423,"terday":5424,"outs":5425,"ogen":5426,"Ġopposite":5427,"Ġpreviously":5428,"Ġapprox":5429,"ĠGeneral":5430,"Ġchoices":5431,"rier":5432,"ĠWhich":5433,"Ġconfig":5434,"Ġcities":5435,"Ġfav":5436,"ĠBoth":5437,"Ġusual":5438,"Ġsky":5439,"Ġcert":5440,"ĠHy":5441,"Ġlegs":5442,"Ġmanufacture":5443,"Ġcircumstances":5444,"-F":5445,"lock":5446,"ĠIP":5447,"Ġplastic":5448,"Thanks":5449,"Ġmuscles":5450,"Ġviews":5451,"Ġrevolution":5452,"orb":5453,"asp":5454,"Ġstated":5455,"Ġintroduced":5456,"rix":5457,"itionally":5458,"Ġinteract":5459,"Ġseriously":5460,"Ġdu":5461,"ĠSa":5462,"Ġweird":5463,"vention":5464,"Ġlock":5465,"stream":5466,"Ġhabit":5467,"ĠUnder":5468,"-sh":5469,"Ġobserved":5470,"ĠMag":5471,"ĠLook":5472,"Ġgenerate":5473,"Ġconstantly":5474,"ĠBill":5475,"Ġexcess":5476,"(\\":5477,"Gr":5478,"den":5479,"Ġwearing":5480,"Ġentry":5481,"Ġelimin":5482,"Ġcapable":5483,"Ġphotos":5484,"utor":5485,"olly":5486,"Ġminimum":5487,"ĠRepublican":5488,"Ġbanks":5489,"ĠEv":5490,"ocracy":5491,"Ġmurder":5492,"ford":5493,"icip":5494,"57":5495,"Ġwire":5496,"ĠFe":5497,"Ġattrib":5498,"Ġcolon":5499,"Res":5500,"Ġmobile":5501,"ĠSal":5502,"ĠSub":5503,"ĠSchool":5504,"Ġcapacity":5505,"Ġpulled":5506,"hemat":5507,"Ġfrequently":5508,"ju":5509,"Ġ.Ċ":5510,"Ġlies":5511,"Ġshift":5512,"Ġsigns":5513,"Ġmoral":5514,"Who":5515,"Ġsurprised":5516,"ĠParty":5517,"Ġclothes":5518,"Every":5519,"ixt":5520,"ya":5521,"onium":5522,"ĠSuper":5523,"ĠGreen":5524,"ructions":5525,"Ġremark":5526,"Ġdriver":5527,"Ġinvolve":5528,"icated":5529,"Ġeffic":5530,"ulous":5531,"riz":5532,"aped":5533,"Ġrelax":5534,"PM":5535,"Ġfif":5536,"ĠThus":5537,"Ġanywhere":5538,"Ġcompetition":5539,"Ġsample":5540,"Data":5541,"icing":5542,"ĠAD":5543,"uls":5544,"ĠMo":5545,"Ġvan":5546,"uster":5547,"Ġorganizations":5548,"Ġsquare":5549,"fraid":5550,"Ġtasks":5551,"ÂłS":5552,"Ġalle":5553,"outhern":5554,"Ġflo":5555,"Ġselection":5556,"Ġcontrast":5557,"Ġweren":5558,"Ġcomfortable":5559,"eper":5560,"nger":5561,"Ġnegot":5562,"Ġagreement":5563,"Ġsalt":5564,"Ġwinter":5565,"fo":5566,"Ġclients":5567,".s":5568,"hors":5569,"Ġforth":5570,"Ġkilling":5571,"Also":5572,"-n":5573,"raction":5574,"Ġjoint":5575,"Ġfinish":5576,"aser":5577,"igration":5578,"ola":5579,"ĠPort":5580,"Ġexperiment":5581,"Ġultimately":5582,"PR":5583,"Ġ)":5584,"ormal":5585,"Ġacadem":5586,"Ġserved":5587,"Ġoccup":5588,"Ġproposed":5589,"bi":5590,"Ġexists":5591,"Ġalive":5592,"Ġsusp":5593,"Ġaccurate":5594,"amental":5595,"ĠPeter":5596,"ĠStep":5597,"Ġlinks":5598,"yr":5599,"Ġflex":5600,"ĠWhe":5601,"Ġmanager":5602,"Ġemphas":5603,"azon":5604,"Ġdescription":5605,"Ġintelligence":5606,"Pe":5607,"hips":5608,"ĠAccording":5609,"Ġfashion":5610,"Ġprofit":5611,"Ġmeasures":5612,"ython":5613,"-and":5614,"EL":5615,"Ġhorr":5616,"acc":5617,"Ġloop":5618,"Ġinnov":5619,"Ġcandidate":5620,"Rec":5621,"_s":5622,"ingu":5623,"Ġmal":5624,"ĠTom":5625,"Ġsynt":5626,"arsh":5627,"ounter":5628,"Ġpackage":5629,"Ġteaching":5630,"top":5631,"hered":5632,"ĠJud":5633,"Ġvehicle":5634,"ĠWeb":5635,"Ġsituations":5636,"TM":5637,"Ġwitness":5638,"ĠAir":5639,"ĠIns":5640,"Ġsolar":5641,"ĠOnly":5642,"Ġvideos":5643,"bra":5644,"ĠThank":5645,"Ġformed":5646,".j":5647,"II":5648,"Name":5649,"Ġbull":5650,"ĠSometimes":5651,"Ġvast":5652,"Ġfocused":5653,"Ġsnow":5654,"Ġtaught":5655,"Ġtow":5656,"Ġdress":5657,"oding":5658,"Ġsimpl":5659,"Ġgrav":5660,"ĠUSA":5661,"Ġessentially":5662,"Ġafraid":5663,"ĠStreet":5664,"Ġmillions":5665,"Ġ!":5666,"Ġtun":5667,"Ġgro":5668,"ĠMor":5669,"Ġshit":5670,"Ġsecure":5671,"Ġpaint":5672,"Ġroutine":5673,"OP":5674,"Ġbunch":5675,"Ġstood":5676,"ĠWestern":5677,"Ġsharing":5678,"Ġfunds":5679,"Ġcorporate":5680,"Ġsin":5681,"ĠSup":5682,"ĠDuring":5683,"ĠStar":5684,"standing":5685,"ĠCommun":5686,"Ġnumerous":5687,"Out":5688,"Ġsouth":5689,"Ġretire":5690,"Ġargue":5691,"pm":5692,"Ġtro":5693,"icial":5694,"alls":5695,"Ġatmosphere":5696,"Ġtruck":5697,"Ġidentified":5698,"Ġlaunch":5699,"Ġreaders":5700,"Ġmessages":5701,"Ġsister":5702,"Ġnorth":5703,"cean":5704,"ĠPlease":5705,"iveness":5706,"ĠAfrican":5707,"list":5708,"Ġtough":5709,"Ġlie":5710,"usiness":5711,"Ġthinks":5712,"Ġinsp":5713,"Ġoperation":5714,"Ġessay":5715,"ĠSecond":5716,"ĠSoviet":5717,"ĠMicrosoft":5718,"hent":5719,"Ġwine":5720,"ĠMary":5721,"Ġneither":5722,"Ġdistrict":5723,"Ġaffected":5724,"Ġliquid":5725,"Ġgrew":5726,"ĠâĢ¦":5727,"Ġauthority":5728,"59":5729,"Even":5730,"OL":5731,"ĠHam":5732,"ĠAnother":5733,"ronate":5734,"Ġdistribution":5735,"Ġadults":5736,"-th":5737,"cel":5738,"Ġconver":5739,"ĠNOT":5740,"CC":5741,"Ġaid":5742,"Ġsan":5743,"Ġtrick":5744,"Ġinvolves":5745,"Ġdomain":5746,"MS":5747,"}{":5748,"Ñģ":5749,"Ġpractices":5750,"App":5751,"Ġtiny":5752,"Ġexplanation":5753,"Ġdance":5754,"ĠSil":5755,"Ġchick":5756,"Ġresulting":5757,"Per":5758,"zing":5759,"ching":5760,"Ġneck":5761,"elf":5762,"Ġsyn":5763,"Ġsuggested":5764,"Ġfinger":5765,"uable":5766,"Ġhar":5767,"Ġgather":5768,"Ġyounger":5769,"illa":5770,"Ġpartners":5771,"Ġcream":5772,"Ġemerg":5773,"Ġkitchen":5774,"ĠLife":5775,"Ġadm":5776,"Ġconsult":5777,"Ġletters":5778,"Ġmoments":5779,"col":5780,"code":5781,"abilities":5782,"ician":5783,"ĠCam":5784,"cked":5785,"Ġnormally":5786,"List":5787,"Ġdisappe":5788,"Ġgoods":5789,"Ġexplore":5790,"ipping":5791,"Ġupper":5792,"icted":5793,"Ġexperim":5794,"_p":5795,"ĠTur":5796,"ĠWr":5797,"Ġspin":5798,"Ġkeeps":5799,"Ġaccounts":5800,"Ġsession":5801,"ado":5802,"Ġunderstood":5803,"Ġsubt":5804,"going":5805,"Ġleadership":5806,"Sp":5807,"Ġsuc":5808,"ĠYet":5809,"Ġowner":5810,"ĠSocial":5811,"iki":5812,"Ġmath":5813,"abled":5814,"Ġvit":5815,"Ġvirtual":5816,"Ð½":5817,"Ġdinner":5818,"ortion":5819,".'":5820,"Google":5821,"omic":5822,"ĠHave":5823,"comment":5824,"ĠFrank":5825,"ogue":5826,"UR":5827,"cript":5828,"hab":5829,"Ġhomes":5830,"Ġec":5831,"Ġcomponent":5832,"150":5833,"Ġconcerns":5834,"Ġliterally":5835,"Ġencourage":5836,"http":5837,"iat":5838,"ini":5839,"Ġmoves":5840,"Ġequival":5841,"Ġinjury":5842,"Ġhorse":5843,"Ġresistance":5844,"88":5845,"Acc":5846,"then":5847,"Ġnoted":5848,"Ġappoint":5849,"Ġdistinct":5850,"ĠĠĠĠĠĠĠĠĠĠĠĠĠĠĠĠ":5851,"Where":5852,"Ġarticles":5853,"Ġ/>":5854,"long":5855,"Ġride":5856,"inton":5857,"ĠAnge":5858,"Ġwatched":5859,"_d":5860,"Ġfort":5861,"Ġju":5862,"dule":5863,"ena":5864,"aded":5865,"empl":5866,"Ġunable":5867,"pha":5868,"Ġokay":5869,"65":5870,"urd":5871,"Ġproceed":5872,"Ġ==":5873,"Ġreader":5874,"Ġdirector":5875,"rete":5876,"ano":5877,"ĠBack":5878,"Ġsmile":5879,"Ġprocessing":5880,"Ġlargely":5881,"Once":5882,"Ġcolors":5883,"met":5884,"ĠTimes":5885,"Ġmeld":5886,"Ġmatters":5887,"ĠFriday":5888,"Ġhyper":5889,"Ġdetailed":5890,"Ġofficials":5891,"div":5892,"oration":5893,"ĠWork":5894,"Ġarmy":5895,"Ġextent":5896,"Ġrevealed":5897,"esides":5898,"ĠCat":5899,"istory":5900,"agers":5901,"Ġmedium":5902,"Ġexplains":5903,"TH":5904,"ĠâĪ":5905,"Ġarchitect":5906,"Ġconsequences":5907,"SD":5908,"Ġath":5909,">>":5910,"Te":5911,"Ġmoon":5912,"Ġborder":5913,"Ġpassing":5914,"Ġcreates":5915,"Ġwalls":5916,"Ġvacc":5917,"Id":5918,"Ġrecognize":5919,"Ġillegal":5920,"rep":5921,"Ġru":5922,"Ġdisapp":5923,"Go":5924,"ĠTex":5925,"Ġexternal":5926,"ĠHome":5927,"Ġarray":5928,"ĠTechn":5929,"Ġchair":5930,"ago":5931,"Ġjustice":5932,"Ġteachers":5933,"ĠRobert":5934,"Ġstom":5935,"Ġsolve":5936,"Ġpatterns":5937,"Ġrepeated":5938,"\\n":5939,"nam":5940,"Ġsorry":5941,"ĠFin":5942,"Ġbrings":5943,"Ġsupported":5944,"Ġreasonable":5945,"Ġoperating":5946,"Ġdrinking":5947,"stein":5948,"Ġhttp":5949,"bal":5950,"Ġsufficient":5951,"Ġgotten":5952,"ĠQue":5953,"Ġoccurs":5954,"Ġamounts":5955,"Ġconvention":5956,"Ġfootball":5957,"ĠRoman":5958,"Ġenemy":5959,"Other":5960,"RA":5961,"Ġiron":5962,"Ġnom":5963,"lder":5964,"ĠSur":5965,"ĠBet":5966,"Ġspring":5967,"Ġdealing":5968,"Ġprocedure":5969,"ĠMil":5970,"ĠDid":5971,"Ġ=>":5972,"uh":5973,"Ġshock":5974,"Ġcarried":5975,"ĠGold":5976,"Ġgrass":5977,"Ġtrend":5978,"look":5979,"Ġsight":5980,"Ġloud":5981,"ĠScience":5982,"ÂłIt":5983,"ĠLib":5984,"Ġdram":5985,"Ġboys":5986,"-se":5987,"craft":5988,"ota":5989,"ĠTy":5990,"ads":5991,"igation":5992,"Ġheight":5993,"ĠJul":5994,"Ġadvance":5995,"Ġbreast":5996,"ker":5997,"Ġreject":5998,"Ġisol":5999,"Ġscr":6000,"///":6001,"Ġholds":6002,"Ġmotor":6003,"Ġmedicine":6004,"ii":6005,"atural":6006,"Ġtox":6007,"arly":6008,"Ġlikes":6009,"Ġenvironmental":6010,"Ġresearchers":6011,"yan":6012,"ĠID":6013,"estion":6014,"Ġvary":6015,"Ġarrived":6016,"net":6017,"ystem":6018,"ita":6019,"oral":6020,"coming":6021,"Ġphenomen":6022,"Many":6023,"nic":6024,"}\\":6025,"inating":6026,"itle":6027,"frac":6028,"Ġdegrees":6029,"ĠMill":6030,"ĠAtt":6031,"Ġiniti":6032,"Ġfrequency":6033,"Ġinstrument":6034,"nel":6035,"Ġtired":6036,"Ġhunt":6037,"odd":6038,"Ġabuse":6039,"Ġartist":6040,"Ġstructures":6041,"Ġsoldiers":6042,"Ġstruggle":6043,"ĠAustralia":6044,"!\"Ċ":6045,"ĠTake":6046,"Ġhydro":6047,"41":6048,"66":6049,"ÑĢ":6050,"oman":6051,"adian":6052,"Ġconven":6053,"ollow":6054,"Ġpassion":6055,"Ġcomplicated":6056,"Ġfasc":6057,"ĠJer":6058,"Ġremaining":6059,"Ġguard":6060,"Ġlistening":6061,"Ġmaximum":6062,"Ġthin":6063,"ashed":6064,"192":6065,"Ġtherapy":6066,"âĢĺ":6067,"ceived":6068,"Ġposted":6069,"Ġmachines":6070,"Ġconsumer":6071,"Ġvirus":6072,"Ġforgot":6073,"Because":6074,"Ġmail":6075,"ample":6076,"Ġstorm":6077,"Ġrank":6078,"Ġblind":6079,"Ġsucceed":6080,"Ġhidden":6081,"Ġbear":6082,"igare":6083,"Ġstuck":6084,"rage":6085,"Ġtechnique":6086,"Ġtalked":6087,"Ġprotocol":6088,"onna":6089,"Ġunits":6090,"Ġevening":6091,"Ġpractical":6092,"ĠPlan":6093,"Ġconvin":6094,"aying":6095,"Ġbrows":6096,"frak":6097,"Ġmerely":6098,"hentic":6099,"OW":6100,"Ġhole":6101,"ĠMiss":6102,"Ġingredients":6103,"/c":6104,"Ġblame":6105,"Ġadvent":6106,"Ġpotentially":6107,"Wr":6108,"ĠTre":6109,"hesis":6110,"ĠCenter":6111,"Ġaside":6112,"anged":6113,"Ġgreatest":6114,"okes":6115,"ĠProf":6116,"Ġautomatically":6117,"ĠInternational":6118,"Ġwave":6119,"cking":6120,"Ġliked":6121,"Ġeditor":6122,"Ġfeedback":6123,"Ġagreed":6124,"Ġfingers":6125,"Ġlaugh":6126,"sey":6127,"ĠFre":6128,"Ġtrading":6129,"Ġsurprise":6130,"Ġprecise":6131,"Ġpersonally":6132,"Ġawesome":6133,"azine":6134,"Col":6135,"greg":6136,"Ġtum":6137,"ibilities":6138,"const":6139,"Ġcomputers":6140,"Ġpurposes":6141,"Ġupdate":6142,"78":6143,"CH":6144,"Since":6145,"oma":6146,"Ġrisks":6147,"ĠFlor":6148,"Ġescape":6149,"utation":6150,"ĠSand":6151,"Ġconclusion":6152,"Ġsector":6153,"Ġchapter":6154,"Ġplate":6155,"Ġsmoking":6156,"Ġnaturally":6157,"'.":6158,"Ġtone":6159,"Ġboost":6160,"Ġfruit":6161,"<issue":6162,"EP":6163,"Ġpin":6164,"anish":6165,"ĠSunday":6166,"Phone":6167,"Ġmistake":6168,"pecific":6169,"Back":6170,"iot":6171,"taining":6172,"Ġped":6173,"Ġintention":6174,"ears":6175,"Ġpossess":6176,"Ġweekend":6177,"Last":6178,"Ġmac":6179,"amily":6180,"Ġhasn":6181,"Ġimplic":6182,"Ġcompre":6183,"Ġtea":6184,"ĠVict":6185,"Ġrac":6186,"Ġreply":6187,"xiety":6188,"ui":6189,"ĠMem":6190,"ĠHill":6191,"Ġje":6192,"inking":6193,"Ġwrit":6194,"Ġconsumers":6195,"home":6196,"ĠGame":6197,"Ġacts":6198,"Ġacting":6199,"Ġphase":6200,"Ġskill":6201,"Ġappearance":6202,"inations":6203,"Ġhat":6204,"cend":6205,"Ġstone":6206,"Ġauthors":6207,"blog":6208,"Up":6209,"abet":6210,"Ġsubs":6211,"Ġbusy":6212,"Ġbroke":6213,"Ġsurvive":6214,"-on":6215,"_comment":6216,"mic":6217,"reens":6218,"eding":6219,"Ġdivid":6220,"Ġcommitted":6221,"Ġoblig":6222,"Ġdefine":6223,"rastructure":6224,"Ġsubstant":6225,"Ġdust":6226,"ĠTor":6227,"ĠBob":6228,"Ġrub":6229,"Ġtested":6230,"Ġarguments":6231,"Ġfundamental":6232,"Ġenhance":6233,"Ġphilosop":6234,"Ne":6235,"Ġbat":6236,"orthern":6237,"ĠØ":6238,"atin":6239,"Ġfault":6240,"ellect":6241,"Ġresolution":6242,"Ġdisag":6243,"omething":6244,"Ġcommonly":6245,"Although":6246,"Ġprinciple":6247,"orney":6248,"Ġoffering":6249,"bel":6250,"Ġinfection":6251,"Ġauto":6252,"ĠAgain":6253,"Ġincorpor":6254,"SA":6255,"ĠMel":6256,"ĠMonday":6257,"Ġhadn":6258,"Ġwinning":6259,"ville":6260,"Ġtag":6261,"Ġwarn":6262,"Ġboss":6263,"Ġprofile":6264,"Ġdepth":6265,"rary":6266,"ona":6267,"Ġcab":6268,"aning":6269,"ĠHen":6270,"Ġcheese":6271,"Ġpayment":6272,"----------------":6273,"TI":6274,"da":6275,"py":6276,"ora":6277,"cknow":6278,"Ġobtain":6279,"Ġplane":6280,"Ġcombined":6281,"Ġdiseases":6282,"Ġsuffer":6283,".M":6284,"Ġshoes":6285,"ĠRight":6286,"Ġbrown":6287,"Ġofficer":6288,"Ġlinked":6289,"fast":6290,"ĠTest":6291,"Ġshad":6292,"unc":6293,"ints":6294,"(x":6295,"Ġtissue":6296,"Ġasks":6297,"andon":6298,"ĠOpen":6299,"Ġstores":6300,"ĠPerhaps":6301,"xygen":6302,"TP":6303,"dis":6304,"Ġhook":6305,"ruption":6306,"Anonymous":6307,"Ġwidely":6308,"bits":6309,"ĠDOC":6310,"ĠFree":6311,"Ġinterface":6312,"ĠAmazon":6313,"iler":6314,"ĠPR":6315,"ĠDra":6316,"Ġmanip":6317,"ocation":6318,"Ġconfidence":6319,"Ġstrategies":6320,"-L":6321,".h":6322,"isher":6323,"Ġlaug":6324,"ĠToday":6325,"rip":6326,"abel":6327,"ĠRad":6328,"Ġcurrency":6329,"Ġstronger":6330,"Ġeggs":6331,"uated":6332,"Ĥ¬":6333,"Ġchart":6334,"ĠChurch":6335,"Ġvolunt":6336,"Ġhighlight":6337,"Ġreturns":6338,"ĠSupreme":6339,"sm":6340,"wide":6341,"ĠList":6342,"angers":6343,"Ġdesk":6344,"Ġpicked":6345,"hi":6346,"war":6347,"Ġsport":6348,"Ġbreaking":6349,"Ġpositions":6350,"Ġemotions":6351,")$":6352,"Ġdad":6353,"Ġvent":6354,"Ġsomebody":6355,"Ġopposed":6356,"ĠScott":6357,"df":6358,"Ġadopt":6359,"Ġcontrolled":6360,"Ġhousehold":6361,"reets":6362,"Ġnative":6363,"auc":6364,"inks":6365,"Ġcoord":6366,"ĠBritain":6367,"Ġsuffering":6368,".org":6369,"kins":6370,"Ġdoctors":6371,"Ġperman":6372,"cluding":6373,"Ġcarefully":6374,"enny":6375,"Ġprinciples":6376,"ĠDepartment":6377,"lines":6378,"Ġbread":6379,"Ġassemb":6380,"group":6381,"Ġgenerated":6382,"Ġcareful":6383,"ĠConstitution":6384,"ĠJews":6385,"user":6386,"Monday":6387,"Ġassets":6388,"win":6389,"igen":6390,"ĠPower":6391,"ĠDet":6392,"apped":6393,"Ġinstalled":6394,"Ġreferred":6395,"Ġdisappoint":6396,"?âĢĿĊ":6397,"IG":6398,"icy":6399,"state":6400,"Ġstored":6401,"ifies":6402,"ĠRock":6403,"Ġspr":6404,"Ġreviews":6405,"Ġmixed":6406,"Ġcomparison":6407,"ye":6408,"uting":6409,"Ġvul":6410,"ĠAssoci":6411,"Ġfilter":6412,"Ġyesterday":6413,"-P":6414,"otal":6415,"Ġstands":6416,"Ġdiscussed":6417,"Ġequivalent":6418,"Over":6419,"Ġfro":6420,"agraph":6421,"ansion":6422,"Ġscenes":6423,".A":6424,"52":6425,"Ġske":6426,"unning":6427,"Ġagent":6428,"ĠStr":6429,"ĠClinton":6430,"ĠChristmas":6431,"Ġtables":6432,"ican":6433,"Ġyield":6434,"essage":6435,"Ġchosen":6436,"Ġsole":6437,"aks":6438,"Ġdisci":6439,"Ġmainly":6440,"Ġterrible":6441,"\"The":6442,"ao":6443,"lets":6444,"ĠPress":6445,"Ġtheme":6446,"Ġimproved":6447,"*Ċ":6448,"-a":6449,"/m":6450,"olt":6451,"Âłs":6452,"resents":6453,"Ġintent":6454,"Ġenforce":6455,"bert":6456,"Ġnobody":6457,"Ġimpress":6458,"Ġcoast":6459,"Ġmathemat":6460,"Ġcutting":6461,"Ġnetworks":6462,"ographic":6463,"Ġtelevision":6464,"Ġbutter":6465,"Ġinteraction":6466,"Ġremote":6467,"Ġexposed":6468,"Ġemployee":6469,"ĠTexas":6470,"arry":6471,"ette":6472,"atell":6473,"osc":6474,"Ġeverybody":6475,"Ġcrew":6476,"Ġheads":6477,"Ġloan":6478,"Ġrecommended":6479,"Ġefficiency":6480,"hot":6481,"ston":6482,"Ġcontaining":6483,"Ġproud":6484,"Ġcharges":6485,"Ġenjoyed":6486,"Ġtips":6487,"Ġacknow":6488,"Ġwet":6489,"Ġbone":6490,"arl":6491,"Ġloose":6492,"ĠTop":6493,"ĠCir":6494,"ĠMiddle":6495,"Ġrecovery":6496,"Ġpharm":6497,"Ġvaluable":6498,"ĠArch":6499,"Ġpump":6500,"Ġshif":6501,"Ġgrown":6502,"Ġscream":6503,"Ġconstitution":6504,"ship":6505,"Ġsale":6506,"ĠBro":6507,"Ġrom":6508,"ĠFurther":6509,"Ġcompare":6510,"anny":6511,"Ġforever":6512,"Ġsteel":6513,"Ġregularly":6514,"ĠJun":6515,"Ġquote":6516,"Thursday":6517,"Ġlisted":6518,"Ġerrors":6519,"esc":6520,"Ġmic":6521,"osal":6522,"Ġunknown":6523,"Ġcharged":6524,"Ġvisible":6525,"appy":6526,"Ġexcited":6527,"ĠHarry":6528,"/p":6529,"CA":6530,"Ġtoler":6531,"Ġhide":6532,"Ġreward":6533,"allow":6534,"ĠEU":6535,"ĠNov":6536,"Ġimper":6537,"Ġpointed":6538,"ĠFlorida":6539,"inity":6540,"Ġbike":6541,"gend":6542,"Ġillness":6543,"Ġconsistent":6544,"Ġbattery":6545,"Ġstomach":6546,"IL":6547,"Ġtrib":6548,"Ġindu":6549,"Ġlit":6550,"Ġnations":6551,"Ġbell":6552,"ĠGal":6553,"ifications":6554,"pring":6555,"Ġbringing":6556,"Ġriver":6557,"ĠSmith":6558,"pal":6559,"ĠMer":6560,"Ġsees":6561,"ĠDel":6562,"Ġexposure":6563,"oken":6564,"Ġoccasion":6565,"Ġ:)Ċ":6566,"Ġsurprising":6567,"Ġsmoke":6568,"Ġsubsequ":6569,"Ġglad":6570,"ĠBlog":6571,"Ġparameters":6572,"Ġsplit":6573,"ested":6574,"Ġremained":6575,"Ġconfir":6576,"Ġlanguages":6577,"Ġconsumption":6578,"Ġcategory":6579,"zed":6580,"ĠFound":6581,"Ġmeal":6582,"apes":6583,"Ġcoverage":6584,"Ġsubsc":6585,"Ġadvertising":6586,"va":6587,"itar":6588,"Ġlun":6589,"Ġgent":6590,"wered":6591,"Ġradiation":6592,"Ġliterature":6593,"Ġroute":6594,"mes":6595,"ĠDisc":6596,"Ġalt":6597,"teen":6598,"Ġbeauty":6599,"Ġdelivery":6600,"68":6601,"Ġdelic":6602,"ĠDi":6603,"ĠJoe":6604,"Ġextract":6605,"who":6606,"Ġspiritual":6607,"Ġfab":6608,"alian":6609,"iform":6610,"191":6611,"Ġconfident":6612,"ployment":6613,"Ġtalks":6614,"ĠEr":6615,"ptions":6616,"Ġobtained":6617,"inos":6618,"ĠRet":6619,"ĠJim":6620,"Ġthousand":6621,"Ġannounced":6622,"Ġschedule":6623,"51":6624,"Ġera":6625,"Ġcro":6626,"Ġfiction":6627,"ushed":6628,"Ġmissed":6629,"cers":6630,"ih":6631,"ensus":6632,"comfort":6633,"Step":6634,"Ġlights":6635,"Ġcollabor":6636,"Ġpanel":6637,"Ġappreciate":6638,"Ġneighborhood":6639,"umps":6640,"anges":6641,"Ġrepresents":6642,"####":6643,"53":6644,"Ke":6645,"Ġwal":6646,"oster":6647,"Ġassign":6648,"Ġboat":6649,"Ġinvestigation":6650,"aniel":6651,"Cons":6652,"Ġgift":6653,"ĠBer":6654,"ĠLin":6655,"Ġadmit":6656,"Ġgenes":6657,"Ġdecade":6658,"Ġwondering":6659,"Ġannoy":6660,"Ġfellow":6661,"Ġhouses":6662,"Ġjoined":6663,"Like":6664,"orters":6665,"Ġclar":6666,"Ġresource":6667,"Ġagents":6668,"Ġcompleted":6669,"Ġillustr":6670,"Ġemotion":6671,"clusive":6672,"BS":6673,"Ġfaces":6674,"Ġstro":6675,"ĠSet":6676,"Ġprosec":6677,"Ġcock":6678,"Ġcraft":6679,"Ġreplaced":6680,"Ġsacr":6681,".D":6682,"whel":6683,"Ġscan":6684,"aze":6685,"Ġwindows":6686,"ĠResearch":6687,"upport":6688,"John":6689,"ĠId":6690,"eting":6691,"ĠBible":6692,"Ġchief":6693,"ĠOld":6694,"Ġending":6695,"Ġpromote":6696,"ĠAnswer":6697,"water":6698,"lege":6699,"lements":6700,"Ġgay":6701,"Ġspoke":6702,"Ġfinds":6703,"Ġinfrastructure":6704,"Ġtrigger":6705,"lymp":6706,"ĠIN":6707,"Ġregime":6708,"flow":6709,"anna":6710,"Image":6711,"Ġbirds":6712,"Ġphrase":6713,"Ġlatter":6714,"Ġanxiety":6715,"Ġquarter":6716,"Ġeverywhere":6717,"Ġinstructions":6718,"Ġcommunities":6719,"Ġfacing":6720,"Ġoccurred":6721,"Ġnose":6722,"ilit":6723,"ĠFore":6724,"ildren":6725,"Ġgene":6726,"ĠComment":6727,"Ġrecorded":6728,"ĠTwitter":6729,"ĠDemocrats":6730,"Ġcrucial":6731,"Related":6732,"67":6733,"rection":6734,"Ġfrustr":6735,"Ġignore":6736,"icide":6737,"Ġappeal":6738,"ĠFranc":6739,"ĠÂ£":6740,"she":6741,"ilty":6742,"ĠDist":6743,"Ġwhenever":6744,"ĠCounty":6745,"pass":6746,"Ġtall":6747,"Ġcere":6748,"orough":6749,"Ġreplic":6750,"ĠGrand":6751,"grade":6752,"Ġclassic":6753,"Ġtries":6754,"Ġdepartment":6755,"Ġengineering":6756,"PA":6757,"ĠCy":6758,"ĠBas":6759,"ĠPak":6760,"Ġwheel":6761,"Ġexperts":6762,"Ġadvoc":6763,"ĠUsing":6764,"Ġhorm":6765,"ĠBest":6766,"uma":6767,"estyle":6768,"plete":6769,"Ġdomestic":6770,"Ġpenal":6771,"Ġangry":6772,"Ġvictims":6773,"54":6774,"RM":6775,"gent":6776,"Ġintellect":6777,"Ġflood":6778,"Ġartists":6779,"Ġlimits":6780,"Ġcorrectly":6781,"Ġdropped":6782,"ĠRepublicans":6783,"ĠFil":6784,"Ġexpressed":6785,"Ġputs":6786,"Ġweapon":6787,"Ġshooting":6788,"Ġinfect":6789,"Ġinner":6790,"Ġgiant":6791,"Ġabandon":6792,"Ġadop":6793,"ĠVe":6794,"scape":6795,"Ġfalling":6796,"ĠKeep":6797,"Dr":6798,"parent":6799,"Ġtact":6800,"Ġkiss":6801,"Ġapartment":6802,"Ġalgorithm":6803,"Am":6804,"Ġvotes":6805,"Ġimplementation":6806,"========":6807,"Ġincredibly":6808,"DA":6809,"Wednesday":6810,"gage":6811,"uct":6812,"Ġisland":6813,"ĠBank":6814,"ĠUN":6815,"Ġofficers":6816,"Ġsubjects":6817,"ĠSecurity":6818,"Ġhang":6819,"ĠRiver":6820,"Ġdecent":6821,"Ġgovernments":6822,"ĠDev":6823,"ports":6824,"ĠBefore":6825,"Ġvariables":6826,"Ġpercentage":6827,"ns":6828,"ĠPut":6829,"Ġapps":6830,"About":6831,"QL":6832,"ala":6833,"Ġnic":6834,"Ġrecept":6835,"rav":6836,"Ġunw":6837,"Ġincident":6838,"Ġdrawn":6839,"ĠSteve":6840,"Ġsustain":6841,"Part":6842,"Tuesday":6843,"bar":6844,"Ġ?":6845,"Ġinsert":6846,"tenance":6847,"Ġimmediate":6848,"Ġax":6849,"Ġfool":6850,"ller":6851,"sters":6852,"aine":6853,"ĠVir":6854,"ĠRev":6855,"haust":6856,"According":6857,"ĠSol":6858,"ĠCap":6859,"Ġexhib":6860,"Ġworried":6861,"angle":6862,"Ġshoulder":6863,"Ġwarning":6864,"Ġprompt":6865,"Ġregardless":6866,"isted":6867,"ivered":6868,"oga":6869,"apse":6870,"ulture":6871,"Ġtransition":6872,"they":6873,"```":6874,"Ð¾Ð":6875,"Ġbowl":6876,"Rep":6877,"date":6878,"itan":6879,"essel":6880,"ideo":6881,"Ġplain":6882,"Ġagency":6883,"Ġflour":6884,"Reg":6885,"Ġfigures":6886,"Ġorders":6887,"ĠKorea":6888,"Good":6889,"Ġoxygen":6890,"Ġstreets":6891,"ĠLear":6892,"Ġraw":6893,"ĠRead":6894,"erring":6895,"Ġdomin":6896,"Ġtor":6897,"etime":6898,"ĠSu":6899,"Ġrig":6900,"Ġportion":6901,"Ġdreams":6902,"Ġrestaurant":6903,"SP":6904,"page":6905,"rc":6906,"ĠÙ":6907,"Ġorg":6908,"ĠWater":6909,"ĠLast":6910,"ĠLong":6911,"Ġfeat":6912,"Ġbelieves":6913,"Ġsupporting":6914,"Ġnervous":6915,"ĠVictor":6916,"-ex":6917,"Ġcos":6918,"Ġpill":6919,"icious":6920,"celer":6921,"ĠLou":6922,"Ġclimb":6923,"tending":6924,"Ġseeking":6925,"anned":6926,"Ġrising":6927,"Ġdollar":6928,"Have":6929,"edit":6930,"ĠBab":6931,"ĠPet":6932,"ĠFinally":6933,"Ġmyth":6934,"obe":6935,"Ġentered":6936,"Ġsensitive":6937,"Ġyellow":6938,"\")":6939,"Man":6940,"iac":6941,"Ġwake":6942,"Ġfewer":6943,"ĠGreek":6944,"Ġpig":6945,"emic":6946,"ĠLee":6947,"aren":6948,"rypt":6949,"Ġdish":6950,"ocratic":6951,"Ġcapture":6952,",\\":6953,"/n":6954,"Ġcow":6955,"itz":6956,"Ġpil":6957,"Ġstable":6958,"Ġblank":6959,"ĠSpanish":6960,"Ġattempts":6961,"ĠAbout":6962,"Ġparticipants":6963,"fix":6964,"herent":6965,"ĠTim":6966,"pel":6967,"Ġsuit":6968,"pected":6969,"ologist":6970,"cluded":6971,"Ġmenu":6972,"Ġcooking":6973,"Ġhoping":6974,"Ġdestroyed":6975,"ĠMexico":6976,"-day":6977,"IR":6978,"burg":6979,"Ġwra":6980,"imp":6981,"Ġarr":6982,"ishment":6983,"Ġswim":6984,"Ġoriginally":6985,"Ġexception":6986,"ĠGovernment":6987,"Ġbacteria":6988,"IA":6989,"SE":6990,"dr":6991,"Ġrein":6992,"Ġinvent":6993,"bered":6994,"Ġcontrovers":6995,"String":6996,"Comm":6997,"Ġflying":6998,"Ġinhib":6999,"lla":7000,"Ġcompens":7001,"aping":7002,"Ġunus":7003,"Ġsigned":7004,"Ġelectronic":7005,"Ġinfo":7006,"rivate":7007,"77":7008,"rition":7009,"Ġbomb":7010,"Ġclock":7011,"Ġstrict":7012,"Ġreducing":7013,"Ġcuts":7014,"Sec":7015,"ghan":7016,"},Ċ":7017,"Ġcinem":7018,"Ġreduction":7019,"Ġguns":7020,"pace":7021,"Ġwhis":7022,"ailed":7023,"aws":7024,"Ġdocuments":7025,"ĠWilliam":7026,".âĢĻ":7027,"ĠBre":7028,"Ġformation":7029,"Ġequally":7030,"Ġdirectory":7031,"Ġprimarily":7032,"Ġhousing":7033,"van":7034,"Â°":7035,"arg":7036,"Ġrational":7037,"asty":7038,"ĠVis":7039,"arrow":7040,"Ġcharacteristics":7041,"Ġgender":7042,"Ġelectricity":7043,".d":7044,"Ġgarden":7045,"etry":7046,"Ġproport":7047,"Ġchose":7048,"acks":7049,"Ġdesper":7050,"Ġhealthcare":7051,"Ġvoters":7052,"Ġliberal":7053,"/l":7054,"zil":7055,"eries":7056,"ĠCoun":7057,"cling":7058,"ups":7059,"Ġrevenue":7060,"Ġemergency":7061,"Ġcigare":7062,"Ġmeasured":7063,"Ġnewsp":7064,"Ġprepare":7065,"-T":7066,"Ġyouth":7067,"ĠMass":7068,"ĠDam":7069,"ipedia":7070,"Ġattached":7071,"Ġorigin":7072,"AG":7073,"PU":7074,"ayers":7075,"ura":7076,"claim":7077,"Thank":7078,"ĠClass":7079,"Ġheavily":7080,"Ġinnoc":7081,"ĠCheck":7082,"Ġrarely":7083,"uine":7084,"ĠMen":7085,"Ġsending":7086,"Ġbutt":7087,"Ġconcepts":7088,"Ġbirthday":7089,"VD":7090,"sl":7091,"ĠMax":7092,"ÂłA":7093,"Ġoutcome":7094,"active":7095,"Ġsaved":7096,"ificial":7097,"Ġprogramming":7098,"à¤¾":7099,"Ġclaimed":7100,"Ġhypot":7101,"Ġchannel":7102,".get":7103,"FL":7104,"Ġfulf":7105,"Ġneut":7106,"udes":7107,"pload":7108,"Ġmyst":7109,"Ġresc":7110,"duc":7111,"Ġ''":7112,"Ġformal":7113,"Ġsumm":7114,"Ġbias":7115,"250":7116,"98":7117,">username":7118,"ĠNext":7119,"Ġoverwhel":7120,"Ġlegit":7121,"Ġcontribute":7122,"ĠWould":7123,"Ġsharp":7124,"eline":7125,"ĠLove":7126,"Ġintense":7127,"Ġversions":7128,"ĠChristians":7129,"Ġindustrial":7130,"Ġproteins":7131,"Ġstrike":7132,"ĠMedic":7133,"Ġincreasingly":7134,"Ġnarrow":7135,"-R":7136,"roat":7137,"agues":7138,"obs":7139,"Ġremem":7140,"ikipedia":7141,"Ġannual":7142,"Ġsettings":7143,"ĠDemocratic":7144,"Ġ^":7145,"Ġcomplain":7146,"à¥į":7147,"\",Ċ":7148,"/b":7149,"ĠIT":7150,"ĠMad":7151,"Ġshel":7152,"Ġattitude":7153,"Ġelev":7154,"Ġmistakes":7155,"allel":7156,"Ġwelcome":7157,"Ġtail":7158,"Ġtoile":7159,"ĠWil":7160,"Ġrelation":7161,"Ġadds":7162,"Ġexplo":7163,"Ġbuildings":7164,"Ġlogic":7165,"Ġpushed":7166,"ether":7167,"rior":7168,"ĠPD":7169,"Ġeveryday":7170,"Ġguilty":7171,"Ġparagraph":7172,"Ġcontrols":7173,"Ġradical":7174,"ĠColor":7175,"Ġbot":7176,"enth":7177,"ĠFire":7178,"Ġdesert":7179,"Inst":7180,"gged":7181,"Ġfourth":7182,"Ġresponses":7183,"ĠTHE":7184,"Ġsurrounding":7185,"Aut":7186,"ĠSk":7187,"Ġbridge":7188,"Ġinspir":7189,"ĠReal":7190,"Ġvoting":7191,"Ġextended":7192,"Next":7193,"Ġhall":7194,"Ġgonna":7195,"Ġsty":7196,"isms":7197,"Store":7198,"Ġoperate":7199,"Ġfunding":7200,"Ġscenario":7201,"Ġbon":7202,"ĠSaturday":7203,"ibl":7204,"Ġbreathing":7205,"Ġnarrative":7206,"Ġridic":7207,"Er":7208,"friend":7209,"Ġsod":7210,"ĠSuch":7211,"ĠElect":7212,"Ġunion":7213,"Ġtrained":7214,"there":7215,"Ġmemories":7216,"Ġpromise":7217,"Ġvariable":7218,"Friday":7219,"Ġtank":7220,"ĠNever":7221,"-free":7222,"Comp":7223,"Ġbeliefs":7224,"People":7225,"-G":7226,"UN":7227,"vin":7228,"}v":7229,"Ġvital":7230,"ĠChris":7231,"Ġinvestors":7232,"edding":7233,"Ġconservative":7234,"-level":7235,"Ġapproximately":7236,"Ġvulner":7237,"!)":7238,"Ġwestern":7239,"ila":7240,"weet":7241,"190":7242,"Ġhardware":7243,"Ġtechnologies":7244,"Take":7245,"hand":7246,"Ġ}":7247,"inent":7248,"url":7249,"Ġdeeper":7250,"Ġauthentic":7251,"Ġfriendly":7252,"xx":7253,"sect":7254,"Ġvessel":7255,"Ġjoy":7256,"Ġflash":7257,"Ġphones":7258,"ĠAnn":7259,"Ġmusical":7260,"PC":7261,"Ã¡":7262,"Ġpul":7263,"ĠEmp":7264,"Ġrecru":7265,"ĠAnonymous":7266,"ĠShould":7267,"Ġdepart":7268,"boy":7269,"Ġdiam":7270,"Ġdepression":7271,"ĠGroup":7272,"Ġsamples":7273,"Ġduty":7274,"-ch":7275,"Sub":7276,"ulating":7277,"cker":7278,"ĠOK":7279,"ĠUnfortunately":7280,"Ġrecipe":7281,"Ġpregnant":7282,"ummary":7283,"ayed":7284,"Ġconfused":7285,"ĠCarol":7286,"Sim":7287,"Spe":7288,"oop":7289,"Ġtort":7290,"Ġmad":7291,"Ġnine":7292,"ĠMount":7293,"ersion":7294,"ĠData":7295,"Ġwrites":7296,"Ġsurvey":7297,"Ġlesson":7298,"180":7299,"Ġlucky":7300,"ĠSenate":7301,"_m":7302,"eras":7303,"asm":7304,"ĠOlymp":7305,"Ġspell":7306,"Ġcriter":7307,"Ġmovements":7308,"Ġdeeply":7309,"Ġ~":7310,"Ġcoc":7311,"Ġexhaust":7312,"ourse":7313,"aven":7314,"Ġrecon":7315,"Ġretail":7316,"Ġdivers":7317,"Ġbreaks":7318,"Ġselected":7319,"https":7320,"Fl":7321,"fit":7322,"Ġcable":7323,"ÂłP":7324,"Ġcha":7325,"Ġchances":7326,"ocolate":7327,"Ġconcentr":7328,"_c":7329,"inger":7330,"ĠTuesday":7331,"ĠBur":7332,"ĠOS":7333,"Ġspark":7334,"),Ċ":7335,"Ġsenior":7336,"OO":7337,"{\\":7338,"Ġstem":7339,"ĠMember":7340,"ferent":7341,"agram":7342,"Ġusage":7343,"acle":7344,"Ġgenetic":7345,"Ġdriven":7346,"Ġvehicles":7347,"à¥įà¤":7348,"Ġox":7349,"Ġhun":7350,"omp":7351,"omin":7352,"Ġsoil":7353,"ĠWithout":7354,"Ġcombat":7355,"Ġdescribes":7356,"ĠPhil":7357,"Ġlawyer":7358,"-be":7359,"-off":7360,"Ġpra":7361,"umer":7362,"Ġrow":7363,"ĠLand":7364,"Ġads":7365,"Ġblow":7366,"ĠDevelop":7367,"Ġelectrical":7368,"Che":7369,"Rem":7370,"Ġdict":7371,"Ġbeings":7372,"Ġwithd":7373,"ĠCath":7374,"Ġabst":7375,"ariju":7376,"Ġstrongly":7377,"Connect":7378,"âĤ¬":7379,"Ġloves":7380,"Ġproven":7381,"Ġsched":7382,"Ġpersonality":7383,"Ġimprovement":7384,"Ġinstitution":7385,"-H":7386,"fish":7387,"jection":7388,"Ġwise":7389,"Ġans":7390,"ĠRon":7391,"Ġlocations":7392,"Ġabsorb":7393,"ĠParis":7394,"120":7395,"RL":7396,"TC":7397,"xual":7398,"Ġwound":7399,"ĠHIV":7400,"Ġpassword":7401,"ĠArmy":7402,"ĠService":7403,"arijuana":7404,"Facebook":7405,"nda":7406,"Ġdating":7407,"asant":7408,"Ġrefers":7409,"Ġdemocracy":7410,"Ġburning":7411,"Ġvillage":7412,"Ġathlet":7413,"Ġcomprehens":7414,"ras":7415,"rive":7416,"Ġarrange":7417,"Ġfees":7418,"ĠKn":7419,"Ġsurf":7420,"Ġpoliticians":7421,"Ġclothing":7422,"Ġcandidates":7423,"Ġacademic":7424,"vy":7425,"ĠSat":7426,"Ġopposition":7427,"Ġsuccessfully":7428,"Ġfalls":7429,"Ġshopping":7430,"Ġbarely":7431,"Ġpuzz":7432,"Ġmand":7433,"Ġregist":7434,"Ġorganic":7435,"Ġcalm":7436,"Ġachieved":7437,"Ġindicate":7438,"ĠThomas":7439,"Def":7440,"VER":7441,"ji":7442,"noon":7443,"tw":7444,"viously":7445,"isters":7446,"icago":7447,"Ġshell":7448,"Ġtwenty":7449,"Ġrecall":7450,"Ġrelief":7451,"Ġdevelopers":7452,"Ġblocks":7453,"Ġinstitutions":7454,"Ġfavour":7455,"Ġchicken":7456,"struct":7457,"Ġrender":7458,"iger":7459,"Ġmaintenance":7460,"Ġhoriz":7461,"Ġratio":7462,"ï¼":7463,"Ġpapers":7464,"Ġinev":7465,"oded":7466,"Ġenable":7467,"-sc":7468,"Ġgear":7469,"Ġorient":7470,"ĠPhys":7471,"ĠHol":7472,"Ġdisorder":7473,"Ġrepair":7474,"Ġdelivered":7475,"ĠCollege":7476,"ersonal":7477,"Ġfraud":7478,"Ġmountain":7479,"Ġpregnancy":7480,"Note":7481,"aus":7482,"Ġ;":7483,"ĠHas":7484,"Ġshares":7485,"ĠBrown":7486,"Ġminds":7487,"ĠProject":7488,"Ġinspired":7489,"-v":7490,"Ġfle":7491,"Ġhoney":7492,"Ġemployment":7493,"ĠAfghan":7494,"\\)":7495,"Ġsatell":7496,"Ġwest":7497,"orse":7498,"ĠSure":7499,"Ġsuffe":7500,"ĠFederal":7501,"ĠJournal":7502,"Ġmetab":7503,"prot":7504,"ĠProt":7505,"Ġdensity":7506,"Ġyeah":7507,"riers":7508,"Ġdoors":7509,"ĠRE":7510,"ĠVer":7511,"ught":7512,"Ġdestruction":7513,"Ġcollected":7514,"Before":7515,"ãĤ":7516,"Ġhits":7517,"olars":7518,"abs":7519,"Ġchamp":7520,"ĠVol":7521,"Ġcurious":7522,"Ġhardly":7523,"Ġelected":7524,"His":7525,"Ġwis":7526,"Ġchat":7527,"ĠStart":7528,"ĠAtl":7529,"Ġframework":7530,"lers":7531,"ua":7532,"Ġdifferently":7533,"Ġimmun":7534,"Ġassistance":7535,"px":7536,"Ġfurn":7537,"ĠSar":7538,"obb":7539,"Ġstudied":7540,"lessly":7541,"Ġstatements":7542,"useum":7543,"Ġdedicated":7544,"Ġtroops":7545,"Ġgentle":7546,"ĠDown":7547,"ĠGM":7548,"ĠJose":7549,"Ġgenuine":7550,"Ġestimated":7551,"Ġunlikely":7552,"Ġdynamic":7553,"Ġexecutive":7554,"IF":7555,"yes":7556,"Ġpit":7557,"Ġbeer":7558,"ĠBusiness":7559,"ĠStill":7560,"Ġinflamm":7561,"Ġclosely":7562,"Today":7563,"orce":7564,"ĠIr":7565,"Ġneur":7566,"ĠJo":7567,"Ġretirement":7568,"Ġanswered":7569,"Em":7570,"Figure":7571,"Ġmood":7572,"ĠHistory":7573,"ĠRam":7574,"Ġjack":7575,"Ġcomprom":7576,"Ġflag":7577,"Ġ\\(":7578,"ĠCanadian":7579,"Ġprivacy":7580,"Ġroads":7581,"ĠRichard":7582,"Ġwriters":7583,"Ġhung":7584,"Ġlying":7585,"igan":7586,"ĠWas":7587,"ĠWednesday":7588,"endment":7589,"Ġholiday":7590,"gments":7591,"Ġconference":7592,"emporary":7593,"ĠHuman":7594,"eps":7595,"param":7596,"Ġrepeat":7597,"(Ċ":7598,"800":7599,"ĠNote":7600,"agan":7601,"Ġmanual":7602,"Ġregions":7603,"Ġminim":7604,"ĠMinister":7605,"Ġordered":7606,"ixture":7607,"Ġtill":7608,"Ġtong":7609,"inite":7610,"itis":7611,"start":7612,"Ġletting":7613,"Ġdrivers":7614,"Ġsorts":7615,"uilding":7616,"Ġpipe":7617,"âĢī":7618,"ĠEnd":7619,"ĠSecret":7620,"Ġurban":7621,"Ġopinions":7622,"Sunday":7623,"oil":7624,"Âłin":7625,"Ġkeys":7626,"Ġelections":7627,"Ġreceiving":7628,"ĠHind":7629,"ĠFind":7630,"ĠNAS":7631,"ĠThough":7632,"Ġcoal":7633,"Ġelsewhere":7634,"Ġlaun":7635,"Which":7636,"Ġlifestyle":7637,"Ġcarrying":7638,"CE":7639,"tra":7640,"Ġtheore":7641,"Ġwarr":7642,"Ġbother":7643,"Ġgall":7644,"ĠNav":7645,"Ġdistingu":7646,"Ġtopics":7647,"Ġpushing":7648,"Key":7649,"hh":7650,"ÂłC":7651,"ĠProp":7652,"ĠName":7653,"ĠItalian":7654,"ikes":7655,"Spec":7656,"ja":7657,"oft":7658,"ĠThink":7659,"Ġaward":7660,"Ġdisturb":7661,"Ġinflation":7662,"Ġdecline":7663,"/d":7664,"Ge":7665,"ĠTurn":7666,"Ġvo":7667,"Ġmanif":7668,"Ġsaving":7669,"erved":7670,"Ġcolour":7671,"Ġplanned":7672,"Ġdecrease":7673,"Ġpounds":7674,"Ġghost":7675,"Ġrely":7676,"Âłh":7677,"Ġformula":7678,"Ġdepos":7679,"}$":7680,"arge":7681,"utch":7682,"Ġangle":7683,"ĠWall":7684,"Ġelectro":7685,"Ġcalories":7686,"Ġbottle":7687,"Ġocean":7688,"ndrome":7689,"ĠCC":7690,"una":7691,"ĠForm":7692,"Ġgrade":7693,"Ġconfirm":7694,"Ġprotected":7695,"Ġhonor":7696,"Ġintroduction":7697,"ĠCentral":7698,"ĠPakistan":7699,"pack":7700,"eties":7701,"Ġstead":7702,"Ġsuppose":7703,"isco":7704,"Ġbabies":7705,"\">":7706,"++":7707,"-related":7708,"ca":7709,"function":7710,"etary":7711,"Ġanger":7712,"ĠPage":7713,"istent":7714,"abb":7715,"Ġuniversity":7716,"Ġlets":7717,"Ġpayments":7718,"Ġfemin":7719,"Ġtur":7720,"Ġhen":7721,"Ġvoc":7722,"uns":7723,"ensional":7724,"Ġdirected":7725,"Ġdraft":7726,"Hey":7727,"Ġexciting":7728,"Ġcommunicate":7729,"Ġcrypt":7730,"Ġtack":7731,"Ġloyal":7732,"abeth":7733,"Ġpeak":7734,"ultural":7735,"Ġproducing":7736,"Ġtradition":7737,"Ġprivile":7738,"Ġuncertain":7739,"ðŁ":7740,"ĠIll":7741,"udi":7742,"Ġwanting":7743,"issions":7744,"Ġsignals":7745,"Ġrespectively":7746,"ĠBrazil":7747,"even":7748,"orne":7749,"Ġlady":7750,"ĠTry":7751,"ĠItaly":7752,"Ġ->":7753,"Ġspaces":7754,"Ġanalog":7755,"Ġantib":7756,"Ġperiods":7757,"Ġprofessor":7758,"ĠCompany":7759,"components":7760,"Ġprofessionals":7761,"Ġnegoti":7762,"))Ċ":7763,"afe":7764,"hus":7765,"Ġbones":7766,"Ġgate":7767,"etch":7768,"Ġrhy":7769,"ĠLu":7770,"âĢĿ.Ċ":7771,"Ġdisk":7772,"ĠAndroid":7773,"Ġoccas":7774,"trans":7775,"Yeah":7776,"case":7777,"Ġsau":7778,"anes":7779,"ĠMatt":7780,"Ġrice":7781,"Ġreliable":7782,"Ġafternoon":7783,"Ġexpansion":7784,"Ġimproving":7785,"Ġsuperior":7786,"Ġsleeping":7787,"gressive":7788,"Med":7789,"je":7790,"pers":7791,"ener":7792,"Âłm":7793,"Ġalien":7794,"Ġtech":7795,"ĠStand":7796,"otted":7797,"Ġpainting":7798,"Ġballs":7799,"Ġchallenging":7800,"Ġlicense":7801,"69":7802,"},":7803,"tery":7804,"Ġalter":7805,"ĠEs":7806,"ĠNone":7807,"assion":7808,"ĠYeah":7809,"weight":7810,"iana":7811,"Ġbrill":7812,"Ġengaged":7813,"ĠExpl":7814,"Ġtemperatures":7815,"Art":7816,"abetes":7817,"don":7818,"ĠMa":7819,"ÂłD":7820,"ĠHand":7821,"ĠLight":7822,"ĠInstitute":7823,"Ġflavor":7824,"Ġstudying":7825,"Ġspectrum":7826,"Ġlegislation":7827,"ĠAPI":7828,"Ġdiscipl":7829,"ĠFour":7830,"Ġdemands":7831,"Ġzone":7832,"Ġsurvival":7833,"Ġadministr":7834,"ĠJeff":7835,"Look":7836,"MA":7837,"Âłis":7838,"anta":7839,"liament":7840,"Ġreprodu":7841,"atively":7842,"Ġfindings":7843,"Ġserving":7844,"Ġtemporary":7845,"Ġcompetitive":7846,"Ġdeclared":7847,"KE":7848,"LA":7849,"Ġtherm":7850,"eness":7851,"ĠIV":7852,"Ġgal":7853,"Ġgap":7854,"ĠMP":7855,"ĠMur":7856,"usal":7857,"ements":7858,"ĠGar":7859,"aste":7860,"oked":7861,"Ġcomplexity":7862,"Ġwarming":7863,"Ġupdated":7864,"Ġclinical":7865,"Ġsavings":7866,"Ġmas":7867,"Ġlad":7868,"Ġagencies":7869,"ologists":7870,"Ġacceler":7871,"ashi":7872,"Ġstaying":7873,"Ġwebsites":7874,"Ġcleaning":7875,"Ġreveal":7876,"Ġawareness":7877,"Act":7878,"Source":7879,"yal":7880,"Ġnull":7881,"raham":7882,"ĠBay":7883,"ĠDiv":7884,"ĠAsia":7885,"Ġparticles":7886,"Ġviolent":7887,"Ġtomorrow":7888,"FS":7889,"Par":7890,"oz":7891,"rick":7892,"Ġcher":7893,"ĠSS":7894,"Ġcomic":7895,"Ġjoke":7896,"ĠChicago":7897,"Ġreputation":7898,"Ġcorn":7899,"Ġfunctional":7900,"Ġregulations":7901,"Ġchannels":7902,"Ġrapidly":7903,"Ġalleged":7904,"Ġconfirmed":7905,"\"It":7906,"..Ċ":7907,"fall":7908,"requ":7909,"atus":7910,"Ġinher":7911,"Ġhealing":7912,"ĠBoy":7913,"essions":7914,"Ġroles":7915,"ĠChange":7916,"Ġwhereas":7917,"ommod":7918,"Ġfaced":7919,"Ġaudio":7920,"Ġcameras":7921,"Mr":7922,"tte":7923,"ãĢ":7924,"ÂłB":7925,"Ġprohib":7926,"ogether":7927,"Ġconsists":7928,"Ġlaid":7929,"ashes":7930,"ĠCreat":7931,"ĠSyria":7932,"Ġinitially":7933,"Ã¢":7934,"Ġmit":7935,"alysis":7936,"Ġstatic":7937,"Ġuniform":7938,"Ġunderlying":7939,"Ġconfront":7940,"ĠBlue":7941,"Ġbehaviour":7942,"Ġhorror":7943,"ds":7944,"ione":7945,"Ġrefe":7946,"Ġdefect":7947,"Ġroots":7948,"Ġrecover":7949,"Ġgreatly":7950,"Ġimmigr":7951,"Ġhotel":7952,"Ġconducted":7953,"',Ċ":7954,"idf":7955,"ĠFed":7956,"ials":7957,"ĠHell":7958,"Ġextension":7959,"Ġauthorities":7960,"Ġfacilities":7961,"Ġprocedures":7962,"ĠMuslims":7963,"Ġdivided":7964,"wing":7965,"idi":7966,"amps":7967,"izer":7968,"Ġcorrel":7969,"Ġdifficulty":7970,"Ġrecognized":7971,"Ġfucking":7972,"ĠHenry":7973,"/t":7974,"map":7975,"Ġreverse":7976,"umes":7977,"Ġfee":7978,"Ġapproaches":7979,"bre":7980,"ÙĬ":7981,"ckets":7982,"ustration":7983,"Ġunex":7984,"Ġguitar":7985,"gal":7986,"Ġthorough":7987,"Ġlens":7988,"ĠCN":7989,"pled":7990,"Ġhappiness":7991,"Ġorganized":7992,"Ġ//":7993,"Ġbits":7994,"alog":7995,"astern":7996,"ĠCamp":7997,"ĠMont":7998,"izabeth":7999,"Ġchecked":8000,"Ġinvolving":8001,"ĠSpace":8002,"Ġencounter":8003,"Ġfluid":8004,"idelines":8005,"press":8006,"Ġvert":8007,"orous":8008,"ĠDespite":8009,"ribed":8010,"Maybe":8011,"!!Ċ":8012,"Ġtied":8013,"erver":8014,"oted":8015,"istor":8016,"Ġdose":8017,"Ġmarked":8018,"Ġbiological":8019,"Ġdivision":8020,"Ġignor":8021,"Ġtoilet":8022,"62":8023,"break":8024,"rich":8025,"Ġgre":8026,"ĠFood":8027,"Ġrefused":8028,"Ġlayers":8029,"Ġenemies":8030,"(t":8031,"Does":8032,"Ġtube":8033,"ĠWood":8034,"Ġenorm":8035,"Ġsheet":8036,"Ġassert":8037,"comes":8038,"Ġexplicit":8039,"Ġsupports":8040,"ĠExper":8041,"Ġreplied":8042,"Ġcategories":8043,"Twitter":8044,"-he":8045,"600":8046,"].Ċ":8047,"cal":8048,"uan":8049,"void":8050,"ĠTal":8051,"Ġsovere":8052,"ĠLab":8053,"sole":8054,"ĠIsland":8055,"ambling":8056,"ĠRemember":8057,"Ġphilosophy":8058,"ĠCouncil":8059,"ME":8060,"Ġpub":8061,"ĠNor":8062,"aka":8063,"Ġlips":8064,"agement":8065,"Ġowned":8066,"Ġproved":8067,"Ġdiscount":8068,"Ġdiscovery":8069,"Ġcenturies":8070,"ĠBeing":8071,"Ġtracks":8072,"Ġrepresented":8073,"normal":8074,"inet":8075,"ima":8076,"ĠBad":8077,"Ġvoid":8078,"Ġimpression":8079,"Ġpoison":8080,"Ġcommission":8081,"Ġcrash":8082,"Ġrefuge":8083,"Ġdependent":8084,"Ġmedication":8085,"Ġvegetables":8086,"Pre":8087,"Ġlunch":8088,"Ġnotion":8089,"ĠWord":8090,"ĠOl":8091,"Ġcrimes":8092,"Ġpassage":8093,"Ġdrops":8094,"BA":8095,"fs":8096,"Ġfired":8097,"Ġlists":8098,"ĠMot":8099,"essed":8100,"ĠPublic":8101,"ĠEp":8102,"Ġgenre":8103,"Ġdivide":8104,"Ġincredible":8105,"85":8106,"Did":8107,"ati":8108,"Ġpm":8109,"anwhile":8110,"Ġdies":8111,"ÂłF":8112,"redit":8113,"grad":8114,"Ġpersons":8115,"Ġattorney":8116,"Ġtransaction":8117,"Ġ/><":8118,"Ġprotest":8119,"Ġchecking":8120,"Ġconnections":8121,"Ġpleasure":8122,"ĠDesign":8123,"Ġpermanent":8124,"een":8125,"ifferent":8126,"Ġsuitable":8127,"apor":8128,"Ġdont":8129,"Ġaccommod":8130,"Ġinformed":8131,"Ġrecording":8132,"Ġvictory":8133,"Ġchemicals":8134,"Ġbills":8135,"Ġnurs":8136,"ĠCare":8137,"Ġdisorders":8138,"Ġreads":8139,"archy":8140,"Ġsecondary":8141,"Ġconstra":8142,"Ġintellectual":8143,"ĠVirgin":8144,"ĠPS":8145,"ĠHolly":8146,"ĠDen":8147,"ĠDark":8148,"ĠLead":8149,"icking":8150,"away":8151,"Ġparallel":8152,"Ġnearby":8153,"Ġmurd":8154,"Ġarrested":8155,"Ġsuffered":8156,"Ġwaves":8157,"Ġstages":8158,"Ġtroub":8159,"obby":8160,"ÂłÂłÂł":8161,"Ġmagazine":8162,"ART":8163,"Ġdrawing":8164,"Mod":8165,"RI":8166,"kip":8167,"vt":8168,"rend":8169,"iser":8170,"Ġbatt":8171,"lean":8172,"Ġrenew":8173,"eta":8174,"ults":8175,"Ġresidents":8176,"Ġproduces":8177,"Ġcircle":8178,"Ġenforcement":8179,"cest":8180,"ĠCase":8181,"ĠCEO":8182,"ĠRoad":8183,"onscious":8184,"Ġinstruct":8185,"Ġcommitment":8186,"Ġweakness":8187,"Two":8188,"Will":8189,"such":8190,"ÙĨ":8191,"Ġtooth":8192,"ĠSum":8193,"Âłw":8194,"aved":8195,"Ġexpectations":8196,"Ġaccompan":8197,"Ġmanufacturing":8198,"Ġsubstance":8199,"ĠWhether":8200,"ĠAssociation":8201,"-E":8202,".t":8203,"ION":8204,"ĠWay":8205,"ĠHaw":8206,"iah":8207,"Ġfoundation":8208,"ussion":8209,"Ġloans":8210,"after":8211,"good":8212,"po":8213,"inst":8214,"Ġcats":8215,"organ":8216,"Ġupset":8217,"Ġknock":8218,"Ġdesired":8219,"Ġbranch":8220,"string":8221,"ĠPalest":8222,"rine":8223,"Ġdys":8224,"image":8225,"gel":8226,"âĢĻ,":8227,"Ġchronic":8228,"inds":8229,"Ġthrown":8230,"Ġlessons":8231,"Ġmemor":8232,"-cont":8233,"Ġlapt":8234,"Ġnutri":8235,"Ġchoosing":8236,"Ġderived":8237,"Ġscholars":8238,"ĠOffice":8239,"ĠNASA":8240,"reated":8241,"Ġbags":8242,"enger":8243,"Ġreferences":8244,"Âłd":8245,"Ġadequ":8246,"Ġcoach":8247,"erman":8248,"merican":8249,"Ġexplos":8250,"Ġcrack":8251,"Ġbaseball":8252,"Ġcriteria":8253,"aa":8254,"ket":8255,"orph":8256,"Ġyours":8257,"Ġcovers":8258,"prise":8259,"Ġestate":8260,"Ġphysically":8261,"ĠCharl":8262,"Object":8263,"ÂŃ":8264,"Ð»":8265,"Ġtip":8266,"ĠMaster":8267,"ÂłT":8268,"theless":8269,"Ġequation":8270,"Ġaffects":8271,"Ġrepresentation":8272,"ĠPosts":8273,"Ġticket":8274,"Ġroughly":8275,"%Ċ":8276,"ÃŃ":8277,"Ùħ":8278,"Ġwage":8279,"geon":8280,"ĠFigure":8281,"ĠKh":8282,"orses":8283,"Ġmaintaining":8284,"Ġsentences":8285,"Ġspeaker":8286,"ĠMedia":8287,"Ġintegration":8288,"Ġcalculated":8289,"ĠKorean":8290,"Ġscheme":8291,"Ġears":8292,"Ġreactions":8293,"ĠAC":8294,"Âłto":8295,"ĠEduc":8296,"ĠKim":8297,"Ġovercome":8298,"Ġactor":8299,"101":8300,"Ġsurve":8301,"ĠOnline":8302,"value":8303,"Ġassumed":8304,"ĠMartin":8305,"Ġconsciousness":8306,"Ġunusual":8307,"97":8308,"tical":8309,"Ġmask":8310,"Ġmarijuana":8311,"Ġbeach":8312,"oty":8313,"urse":8314,"Ġcompr":8315,"ĠYear":8316,"Ġscrew":8317,"Ġsupplement":8318,"Ġcourts":8319,"aneously":8320,"Ġaccomplish":8321,"ĠProfess":8322,"-qu":8323,"_b":8324,"awn":8325,"include":8326,"enter":8327,"ĠTable":8328,"Ġhabits":8329,"ĠWal":8330,"Ġlean":8331,"ieve":8332,"Ġadmitted":8333,"Ġflav":8334,"ervice":8335,"connect":8336,"ĠCommission":8337,"Ġargued":8338,"Ġassessment":8339,"ĠAuthor":8340,"BM":8341,"mat":8342,"Ġmob":8343,"Ġgained":8344,"ownt":8345,"Ġconvert":8346,"ĠMoon":8347,"umin":8348,"ĠDC":8349,"acts":8350,"eping":8351,"Ġampl":8352,"oval":8353,"Ġincent":8354,"Ġchildhood":8355,"Ġreporting":8356,"Ġ<<":8357,"Ġparticipate":8358,"Ġtension":8359,"itivity":8360,"Ġpace":8361,"ĠDan":8362,"orted":8363,"ĠEconom":8364,"agger":8365,"cip":8366,"izz":8367,"Ġages":8368,"Ġcultures":8369,"Ġsearching":8370,"Ġfitness":8371,"Ġmerch":8372,"Ġstretch":8373,"\")Ċ":8374,",'":8375,"During":8376,"iture":8377,"Ġhire":8378,"ĠThrough":8379,"ĠComm":8380,"Ġperforming":8381,"ĠSea":8382,"Ġtargets":8383,"Ġsequences":8384,"-idf":8385,"Make":8386,"Ġtape":8387,"ester":8388,"Ġcontained":8389,"Ġpron":8390,"Ġapplies":8391,"ometry":8392,"Ġdirections":8393,"Ġchecks":8394,"Ġlandscape":8395,"ĠPlus":8396,"Ġdamn":8397,"Ġimplemented":8398,"Ġultimate":8399,"Ġmortgage":8400,"NE":8401,"life":8402,"itled":8403,"isp":8404,"Ġfed":8405,"ĠAS":8406,"uled":8407,"ÂłThis":8408,"Ġuncle":8409,"ools":8410,"Ġphysics":8411,"Ġsilver":8412,"Ġexperiments":8413,"jo":8414,"iner":8415,"Ġham":8416,"ushing":8417,"ĠDar":8418,"onder":8419,"Ġinjuries":8420,"Ġordinary":8421,"Ġdistributed":8422,"Ġconcentration":8423,"Ġconventional":8424,"Ġbrowser":8425,"GB":8426,"_n":8427,"itals":8428,"Ġfur":8429,"stone":8430,"Ġgang":8431,"Ġ(\"":8432,"Ġabilities":8433,"asts":8434,"ubble":8435,"Ġgrid":8436,"Ġinsight":8437,"Ġcentre":8438,"Ġconcrete":8439,"Ġlinear":8440,"Ġconsideration":8441,"Ġobjective":8442,"Ġparameter":8443,"TML":8444,"Ġok":8445,"Ġgig":8446,"ĠCode":8447,"Âłc":8448,"Ġchocolate":8449,"Ġaccum":8450,"Ġcheaper":8451,"Ġassault":8452,"Christ":8453,"\"You":8454,".P":8455,"PD":8456,"jud":8457,"cho":8458,"ĠMic":8459,"Ġcompe":8460,"Ġsuicide":8461,"Ġships":8462,"ĠDig":8463,"Ġalign":8464,"Ġsymp":8465,"Ġstudio":8466,"Ġles":8467,"abil":8468,"Ġpocket":8469,"Ġobst":8470,"Ġfacilit":8471,"Ġconvinced":8472,"Tube":8473,"Ġå":8474,"Ġsed":8475,"Ġpitch":8476,"Ġlaser":8477,"ĠAG":8478,"Ġalert":8479,"ĠSoci":8480,"Ġmeetings":8481,"Ġpropag":8482,"Ġvoted":8483,"bbed":8484,"Ġrequests":8485,"ĠAcadem":8486,"-out":8487,"eath":8488,"oured":8489,"ceive":8490,"Ġextensive":8491,"Ġ</":8492,"Ġstayed":8493,"Ġstruggling":8494,"Ġethnic":8495,"User":8496,"-end":8497,"Form":8498,"_id":8499,"gression":8500,"uction":8501,"inction":8502,"Ġhanging":8503,"ĠTreat":8504,"ĠPop":8505,"Ġcomposition":8506,"Ġrose":8507,"version":8508,"Ġissued":8509,"Ġtreatments":8510,"ĠOrgan":8511,"Ġinterpretation":8512,"Ġtongue":8513,"Saturday":8514,"sis":8515,"Ġ**":8516,"Ġfake":8517,"left":8518,"omed":8519,"ĠTem":8520,"ĠAR":8521,"ĠBi":8522,"ĠNaz":8523,"ĠKen":8524,"Ġconspir":8525,"prene":8526,"Ġbathroom":8527,"BI":8528,"born":8529,"iams":8530,"uity":8531,"Ġbin":8532,"esis":8533,"Ġraising":8534,"Ġenthus":8535,"Ġedit":8536,"Ġapproved":8537,"Ġannounce":8538,"Ġstimul":8539,"Ġphenomenon":8540,"$Ċ":8541,"_l":8542,"gi":8543,"Ġ...Ċ":8544,"Ġsli":8545,"Ġcake":8546,"Ġporn":8547,"Ġmixture":8548,"ali":8549,"Ġnerve":8550,"othe":8551,"Ġshout":8552,"Ġjail":8553,"Ġmyster":8554,"Ġcorrupt":8555,"ĠProgram":8556,"Ġlogical":8557,"Ġhopes":8558,"-K":8559,"Ġease":8560,"amine":8561,"Ġveter":8562,"anguage":8563,"ĠKingdom":8564,"Ġfantasy":8565,"!âĢĿ":8566,"$\\":8567,"Ste":8568,"\\<":8569,"father":8570,"Ġsne":8571,"itical":8572,"Ġbands":8573,"ĠMS":8574,"Ġshame":8575,"Ġpresentation":8576,"Ġtalent":8577,"ĠCharles":8578,"Ġplatforms":8579,"Ġtoxic":8580,"CD":8581,"}}":8582,"reprene":8583,"ĠFar":8584,"Ġouts":8585,"ĠJones":8586,"ĠThings":8587,"Ġspots":8588,"Ġbuff":8589,"Ġrealistic":8590,"Ġemployed":8591,"Ġabsence":8592,"ĠArticle":8593,"Hz":8594,"_f":8595,"oat":8596,"aron":8597,"oli":8598,"Ġgranted":8599,"fulness":8600,"Ġdemocratic":8601,"ĠLeague":8602,"Finally":8603,"PG":8604,"TS":8605,"rics":8606,"Ġsouthern":8607,"ulin":8608,"ĠMars":8609,"Ġdeploy":8610,"ĠResp":8611,"ĠThree":8612,"ĠInformation":8613,"Ġgrant":8614,"Ġbeneficial":8615,"Ġcolleagues":8616,"ognitive":8617,"ĠJustice":8618,"Ġindicates":8619,"ĠEveryone":8620,"Ġdiagnosis":8621,"HA":8622,"Ġoh":8623,"itudes":8624,"Ġeast":8625,"ifer":8626,"ĠCost":8627,"Ġshower":8628,"ĠThursday":8629,"Ġanybody":8630,"Ġsmiled":8631,"Ġversus":8632,"Ġfest":8633,"ĠSn":8634,"ĠBell":8635,"Ġpoem":8636,"seless":8637,"Ġassigned":8638,"pson":8639,"Ġdeaths":8640,"ĠAdam":8641,"Share":8642,"Ġjudgment":8643,"ĠIII":8644,"ĠLouis":8645,"cd":8646,"ĠType":8647,"ĠSqu":8648,"olving":8649,"Ġexceed":8650,"Ġdismiss":8651,"Ġprofits":8652,"rizwan":8653,"%,":8654,")(":8655,"/rizwan":8656,"Br":8657,"Under":8658,"Ġwedding":8659,"Ġongoing":8660,"ĠWars":8661,"ĠPot":8662,"ĠHit":8663,"ĠFamily":8664,"ĠKat":8665,"Ġresulted":8666,"Ġstops":8667,"ĠEmpire":8668,"vi":8669,"Ġtons":8670,"Ġsegment":8671,"ĠBow":8672,"ĠDVD":8673,"Ġdisaster":8674,"Ġmonster":8675,"ounce":8676,"Ġfigured":8677,"Ġmildronate":8678,"Ġvolunte":8679,"Ġwisdom":8680,"[edit":8681,"vas":8682,"Ġcodes":8683,"inging":8684,"ication":8685,"Ġasleep":8686,"Âła":8687,"Ġrum":8688,"throp":8689,"Ġinches":8690,"Ġsurely":8691,"Ġvisited":8692,"Ġcreature":8693,"ictionary":8694,"Ġcounsel":8695,"Error":8696,"/components":8697,"TA":8698,"width":8699,"html":8700,"ĠWomen":8701,"Ġneuro":8702,"eless":8703,"irector":8704,"iox":8705,"Ġsinging":8706,"Ġguarantee":8707,"Ġ!=":8708,"ĠAfghanistan":8709,"Book":8710,"FD":8711,"itarian":8712,"Ġthroat":8713,"Ġholes":8714,"Ġnode":8715,"imer":8716,"ĠHaving":8717,"ictions":8718,"Ġprescription":8719,"Ġartificial":8720,"Ġelectron":8721,"Ġcyber":8722,"Ġreaching":8723,"Ġmagnetic":8724,"ĠÃĹ":8725,"Ġaer":8726,"Ġsilly":8727,"Ġstack":8728,"ĠSon":8729,"ĠPan":8730,"Ġven":8731,"eling":8732,"Ġarbit":8733,"ĠURL":8734,"icked":8735,"Ġrail":8736,"Ġinstant":8737,"Ġcurve":8738,"Ġfacility":8739,"Ġfrequent":8740,"ĠGeorg":8741,"ĠCatholic":8742,"Ġhence":8743,"FF":8744,"Time":8745,"some":8746,"Ġ}Ċ":8747,"Ġgaming":8748,"ĠBudd":8749,"Ġleather":8750,"alling":8751,"Ġarmed":8752,"necess":8753,"Ġdeserve":8754,"Ġhandling":8755,"Ġdrives":8756,"Ġmolecules":8757,"$,":8758,"cr":8759,"got":8760,"omatic":8761,"Ġdeleg":8762,"ĠNY":8763,"Ġ-Ċ":8764,"ĠKenn":8765,"Ġdefic":8766,"Ġspecified":8767,"ĠMarx":8768,"Ġaccessible":8769,"Ġcircuit":8770,"Ġpriority":8771,"ĠIslamic":8772,"Ġprospect":8773,"63":8774,"Hi":8775,"bably":8776,"Ġsle":8777,"roph":8778,"Ġarc":8779,"Ġroyal":8780,"Ġinteractions":8781,"Ġgenerations":8782,"ĠDeb":8783,"Ġtempt":8784,"Ġanticip":8785,"missions":8786,"Ġpulling":8787,"Ġruling":8788,"Ġterritory":8789,"ĠLinux":8790,"Connecting":8791,"gain":8792,"mond":8793,"ÙĲ":8794,"Ġrating":8795,"ntil":8796,"oston":8797,"ĠNeed":8798,"Ġevident":8799,"Ġquery":8800,"ĠInf":8801,"Ġprepar":8802,"....Ċ":8803,"Ġprobability":8804,"Ġviewed":8805,"ĠIndeed":8806,"Ġcreatures":8807,"ĠMoreover":8808,"erning":8809,"Ġcham":8810,"Ġresolve":8811,"Ġscared":8812,"thew":8813,"Ġcorruption":8814,"brid":8815,"Ġdrunk":8816,"Ġeducational":8817,"Ġcollapse":8818,"Ġnuts":8819,"Ġvirtually":8820,"Ġpreferred":8821,"ĠQueen":8822,"ĠFurthermore":8823,"LC":8824,"_name":8825,"gly":8826,"oir":8827,"item":8828,"owered":8829,"ĠCra":8830,"ondition":8831,"ĠShow":8832,"arrass":8833,"Ġthreats":8834,"Ġadvantages":8835,"words":8836,"Ġdemonstrated":8837,"Ġbonds":8838,"Ġarchitecture":8839,"ois":8840,"rons":8841,"west":8842,"ouch":8843,"Ġdirty":8844,"Ġnan":8845,"oline":8846,"Ġwash":8847,"Ġsear":8848,"ĠHope":8849,"iece":8850,"begin":8851,"Ġmarks":8852,"Ġserves":8853,"Ġsword":8854,"ĠNothing":8855,"Ġstatistics":8856,"Ġbrothers":8857,"Ġattractive":8858,"Ġuniversal":8859,"Top":8860,"isk":8861,"Ġmile":8862,"ĠCast":8863,"Ġsections":8864,"inder":8865,"ĠYoung":8866,"Ġentr":8867,"-called":8868,"Ġpainful":8869,"aneous":8870,"Ġidentical":8871,"Ġcommenting":8872,"Ġacceptable":8873,"Ġfilling":8874,"Ġirrit":8875,"Ġfantastic":8876,"Ġdialogue":8877,"rec":8878,"imm":8879,"ĠBern":8880,"Ġtends":8881,"ocy":8882,"Ġ:=":8883,"Ġsensor":8884,"Ġdisagree":8885,".<":8886,"pg":8887,"otype":8888,"ithub":8889,"ĠLatin":8890,"ernel":8891,"Ġrooms":8892,"Ġexecution":8893,"Ġconfiguration":8894,"MO":8895,"spe":8896,"Ġcute":8897,"otes":8898,"ilst":8899,"Ġdeals":8900,"isting":8901,"Ġresid":8902,"oven":8903,"Ġregister":8904,"Ġpresum":8905,"\"We":8906,"lo":8907,"uits":8908,"ĠJac":8909,"Ġtears":8910,"Ġagric":8911,"Ġspir":8912,"Ġtransactions":8913,"âĢĶand":8914,"Ġhumanity":8915,"Ġindicated":8916,"Ġstruck":8917,"ĠAND":8918,"HD":8919,"pot":8920,"Ġdump":8921,"ami":8922,"ĠNa":8923,"acon":8924,"Ġdiverse":8925,"Ġemployer":8926,"Ġlifetime":8927,"EG":8928,"Ġtheat":8929,"Ġsake":8930,"atoes":8931,"Ġpills":8932,"Ġrevers":8933,"ĠSign":8934,"Ġancest":8935,"Ġlegend":8936,"ocument":8937,"ĠTeam":8938,"Ġburst":8939,"ĠAustralian":8940,"********":8941,"Value":8942,"comfortable":8943,"-N":8944,"110":8945,"Gl":8946,"ba":8947,"edge":8948,"Ġhes":8949,"ĠHard":8950,"Ġmeals":8951,"achel":8952,"Ġquit":8953,"Ġboot":8954,"atching":8955,"Ġcontinuous":8956,"ĠPrime":8957,"Ġdeliber":8958,"Ġrecognition":8959,"Ġexercises":8960,"Ġtranslation":8961,"Ġreplacement":8962,"Ġadopted":8963,".I":8964,"AV":8965,"sub":8966,"Ġgam":8967,"ĠAge":8968,"ifice":8969,"Ġspons":8970,"athan":8971,"mittee":8972,"Ġignored":8973,"Ġconversations":8974,"Ġfraction":8975,"mathbb":8976,"Ġridiculous":8977,"Ġcomprehensive":8978,"occ":8979,"Ġcott":8980,"Ġpix":8981,"ĠHall":8982,"Ġminister":8983,"ĠPlay":8984,"Ġspeakers":8985,"Ġtracking":8986,"Ġintegrated":8987,"Ġcommittee":8988,"Ġodds":8989,"Ġsubsequent":8990,"Ġfabric":8991,"-W":8992,"Mar":8993,"RS":8994,"Sign":8995,"ä¸":8996,"ito":8997,"ĠSher":8998,"Ġunem":8999,"Ġpover":9000,"Ġmatrix":9001,"ĠEngine":9002,"Ġdamaged":9003,"Ġhonestly":9004,"Ġintelligent":9005,"PP":9006,"isa":9007,"ader":9008,"ĠMach":9009,"ĠBall":9010,"ÂłWe":9011,"Ġprovider":9012,"Ġmodified":9013,"Ġexpenses":9014,"Ġpowder":9015,"Ġjuice":9016,"72":9017,"?)":9018,"cut":9019,"Ġpupp":9020,"Ġhal":9021,"olves":9022,"Ġseeds":9023,"ĠNik":9024,"Ġconfusion":9025,"-min":9026,"!!!!":9027,"Ġhorrible":9028,"ĠAdditionally":9029,"Ret":9030,"|Ċ":9031,"Ġrib":9032,"ĠWalk":9033,"Ġshots":9034,"osa":9035,"ipher":9036,"Ġperm":9037,"Ġscores":9038,"Ġsetup":9039,"State":9040,"Ġbeneath":9041,"Ġpsychological":9042,"Trans":9043,"Ġwithdraw":9044,"Ġpoverty":9045,"FO":9046,"aire":9047,"uum":9048,"Ġfought":9049,"ĠNon":9050,"ĠJon":9051,"Ġentity":9052,"pending":9053,"Ġcontinuing":9054,"Ġtrends":9055,"ĠConf":9056,"Ġintroduce":9057,"Ġmonitoring":9058,"Ġgravity":9059,"Ġconvenient":9060,"Ġenormous":9061,"79":9062,"wen":9063,"Ñĥ":9064,"Ġmg":9065,"Ġhorses":9066,"ador":9067,"Ġactors":9068,"phones":9069,"azy":9070,"ĠSpain":9071,"Config":9072,"Ġpurchased":9073,"Ġsilence":9074,"Ġupdates":9075,"Ġmoist":9076,"Ġforgotten":9077,"à¤¾à¤":9078,"%.":9079,"AY":9080,"Tra":9081,"];Ċ":9082,"post":9083,"Ġought":9084,"Ġdying":9085,"Ġdumb":9086,"Ġstability":9087,"ĠRand":9088,"Ġlip":9089,"ĠComments":9090,"Ġtempl":9091,"Ġbreakfast":9092,"ĠElizabeth":9093,"when":9094,"including":9095,"ĠIre":9096,"Ġgif":9097,"ĠLos":9098,"Ġprime":9099,"Ġpreced":9100,"Ġnewly":9101,"Ġapplying":9102,"azz":9103,"iscal":9104,"ĠEnter":9105,"ĠGuide":9106,"Ġutter":9107,"Ġinjured":9108,"Photo":9109,"Ġaccuracy":9110,"ĠÏ":9111,"Ġgut":9112,"Ġdos":9113,"apore":9114,"Ġcontrad":9115,"asses":9116,"Ġworker":9117,"Ġscope":9118,"Ġthrowing":9119,"Ġinstances":9120,"Ġmodule":9121,"Ġbasket":9122,"Ġstrengthen":9123,"Ġsettled":9124,"Ġminority":9125,"Ġpremium":9126,"Ġassembly":9127,"Ġinnocent":9128,"-ray":9129,"EST":9130,"Log":9131,"Ġsought":9132,"uto":9133,"âĢĻ.":9134,"Ġabortion":9135,"obj":9136,"Ġsyndrome":9137,"Ġdiabetes":9138,"-de":9139,"Ġeconomics":9140,"ĠZe":9141,"Ġinfected":9142,"Ġwarrant":9143,"ĠMike":9144,"ĠFox":9145,"ptic":9146,"Ġcontemporary":9147,"ĠViet":9148,"Ġattach":9149,"Ġregulation":9150,"Ġpopulations":9151,"Ġphotograph":9152,"Ġattacked":9153,"Ġeliminate":9154,"Ġmystery":9155,"((":9156,"fol":9157,"Ġbars":9158,"Ġpod":9159,"lem":9160,"Ġseed":9161,"Ġvocal":9162,"ĠLittle":9163,"ĠUlt":9164,"Ġmainstream":9165,"Ġimmigration":9166,"Ġconversion":9167,"Ø§ÙĦ":9168,"Ġlaunched":9169,"':":9170,"CO":9171,"Des":9172,"RNA":9173,"rid":9174,"Ð²":9175,"Ġtrop":9176,"Ġcave":9177,"Ġlocked":9178,"Ġstir":9179,"ĠAh":9180,"ĠWin":9181,"Ġcann":9182,"Ġalarm":9183,"Ġkin":9184,"../":9185,"Ġcloth":9186,"Ġspray":9187,"elly":9188,"Ġpresc":9189,"Ġtransmission":9190,"array":9191,"Ġengaging":9192,"Ġpromised":9193,"ĠAdv":9194,"Ġaddressed":9195,"Ġcontribution":9196,"Ġlawyers":9197,"\"\"":9198,"Ġfits":9199,"Ġine":9200,"ĠHim":9201,"ĠFig":9202,"Ġjury":9203,"ĠInvest":9204,"Ġdrinks":9205,"Ġdefeat":9206,"Ġimpressive":9207,"Ġvulnerable":9208,"athered":9209,"Ġren":9210,"ĠCould":9211,"ĠExt":9212,"aph":9213,"Ġcontents":9214,"Ġremoving":9215,"Ġpointing":9216,"rosc":9217,"Ġopponent":9218,"ĠJohnson":9219,"Ġembarrass":9220,"Ġcorporations":9221,"Ġquantum":9222,"ĠNetwork":9223,"charge":9224,"Ġmechanisms":9225,"Ġcorresponding":9226,"mble":9227,"Ġol":9228,"idance":9229,"ĠSD":9230,"oln":9231,"ĠCard":9232,"ĠMult":9233,"ĠWild":9234,"ĠDream":9235,"everal":9236,"Ġseemingly":9237,"186":9238,"189":9239,"ĠCommon":9240,"Ġcapabilities":9241,"Ġengines":9242,"Ġfallen":9243,"Ġagenda":9244,"gener":9245,"Ġtitles":9246,"ĠWilliams":9247,"ĠEverything":9248,"ĠSimilar":9249,"Ã³":9250,"Ġtheories":9251,"Ġhip":9252,"igate":9253,"ĠHD":9254,"Ġchrom":9255,"ĠRay":9256,"agine":9257,"Ġperpet":9258,"Ġpride":9259,"ello":9260,"Ġintervention":9261,"Ġavatar":9262,"Ġexisted":9263,"Ġmechanical":9264,"Ġindependence":9265,"Ġsubstantial":9266,"ĠHollywood":9267,"-pl":9268,"Join":9269,"Mark":9270,"Ġfib":9271,"Ġpour":9272,"olen":9273,"ĠRyan":9274,"ĠNO":9275,"ĠLic":9276,"Ġminimal":9277,"exp":9278,"Ġposting":9279,"Ġpasses":9280,"Ġglasses":9281,"Ġtonight":9282,"Ġrhyth":9283,"-k":9284,"idation":9285,"cha":9286,"ĠNick":9287,"acher":9288,"ĠVery":9289,"Ġarts":9290,"Ġdestination":9291,"Ġrequirement":9292,"Ġvolt":9293,"Ġassociation":9294,"clusions":9295,"Ġsauce":9296,".</":9297,"Ġtub":9298,"Ġfir":9299,"Ġpy":9300,"Ġdates":9301,"ĠNob":9302,"rug":9303,"ĠKnow":9304,"Ġaccused":9305,"Ġgeneric":9306,"Ġirre":9307,"Ġpresidential":9308,"Ġstrategic":9309,"Ġtransportation":9310,"Ġrestrictions":9311,"Ġentertainment":9312,"ĠHelp":9313,"Ġbrilliant":9314,"-Ċ":9315,".l":9316,"Dec":9317,"HS":9318,"Sm":9319,"Ġtwe":9320,"Ġinqu":9321,"Ġheal":9322,"ĠCur":9323,"Ġshr":9324,"ĠRef":9325,"ĠRights":9326,"Ġallerg":9327,"ĠChamp":9328,"-cent":9329,"Ġenjoying":9330,"Ġcitizen":9331,"ĠConsider":9332,"Ġcertific":9333,"Ġnewspaper":9334,"-cl":9335,"ho":9336,"stra":9337,"Ġrend":9338,"rape":9339,"ĠGames":9340,"Ġshoulders":9341,"Ġincom":9342,"Ġentering":9343,"ĠAsian":9344,"Ġvisiting":9345,"Ġswit":9346,"Ġindustries":9347,"Ġsquee":9348,"Ġarrive":9349,"ĠâĪĴ":9350,"Ġbass":9351,"Ġfert":9352,"Ġdancing":9353,"Ġinsect":9354,"imensional":9355,"Ġupload":9356,"Ġemissions":9357,"âĢľI":9358,"ĠScot":9359,"ĠServices":9360,"TV":9361,"Ðº":9362,"Ġpand":9363,"owed":9364,"ĠMah":9365,"Ġoutl":9366,"Ġoutcomes":9367,"Ġdisg":9368,"-J":9369,"?!":9370,"Ġsizes":9371,"Ġwars":9372,"Ġfont":9373,"Ġloving":9374,"ĠMom":9375,"opl":9376,"ĠHot":9377,"ĠFort":9378,"Ġpresents":9379,"ĠBrad":9380,"Ġmonthly":9381,"Ġfails":9382,"Ġimagination":9383,"Ġsweat":9384,"opyright":9385,"vious":9386,"Ġorange":9387,"ÂłIn":9388,"ĠWikipedia":9389,"Ġshirt":9390,"udge":9391,"Ġpean":9392,"Ġuncomfortable":9393,"Ġcourses":9394,"Ġheaded":9395,"Ġconcerning":9396,"Ġvend":9397,"Ġwondered":9398,"-hand":9399,"Ġmeasurement":9400,"Ġcryst":9401,"Ġmeldonium":9402,"-line":9403,">T":9404,"FA":9405,"pse":9406,"Ġpound":9407,"cture":9408,"pling":9409,"owned":9410,"avid":9411,"Ġspoken":9412,"Ġgramm":9413,"Ġroof":9414,"ttes":9415,"ĠâĨ":9416,"Ġmanufacturers":9417,"Ġdramatic":9418,"Ġadventure":9419,"Ġsummary":9420,"because":9421,"door":9422,"ôĢ":9423,"Ġicon":9424,"itative":9425,"ethe":9426,"Ġforum":9427,"ĠScient":9428,"ifier":9429,"izza":9430,"Ġresident":9431,"ĠYOU":9432,"nergy":9433,"ATE":9434,"Ġtraveling":9435,"Ġcontainer":9436,"Ġprecisely":9437,"RP":9438,"Search":9439,"natural":9440,"Ġcough":9441,"Ġhill":9442,"fections":9443,"Ġcompound":9444,"Ġunp":9445,"ĠStan":9446,"ĠProv":9447,"Ġstocks":9448,"Ġgradually":9449,"Ġmirror":9450,"ĠFoundation":9451,"power":9452,"rooms":9453,"Ġconj":9454,"ĠEll":9455,"ĠEqu":9456,"ĠLink":9457,"Ġaggressive":9458,"ĠStory":9459,"Ġregional":9460,"Ġassumption":9461,"incoln":9462,"Ġsubtle":9463,"(i":9464,"-com":9465,"wart":9466,"Ġna":9467,"Ġgir":9468,"ĠDaniel":9469,"ĠLibr":9470,"Ġsimult":9471,"Ġasset":9472,"Ġestimate":9473,"ĠQuest":9474,"Ġflowers":9475,"Ġdemonstrate":9476,"Ġinstruments":9477,"Ġpenalty":9478,"(n":9479,"/C":9480,"89":9481,"Whe":9482,"data":9483,"Ġcrap":9484,"ĠPen":9485,"ĠPass":9486,"ĠRome":9487,"Ġpersu":9488,"Ġguidelines":9489,"Ġworldwide":9490,"Ġclassroom":9491,"Ġbrands":9492,"Ġapproval":9493,"Ġclaiming":9494,"aska":9495,"ĠGener":9496,"Ġdenied":9497,"Ġcasual":9498,"Ġsemi":9499,"Ġalgorithms":9500,"Gu":9501,"Her":9502,"dated":9503,"utors":9504,"Âłf":9505,"ĠGiven":9506,"ĠLED":9507,"ollowing":9508,"Ġlovely":9509,"Ġsignificance":9510,"Ġbedroom":9511,"Ġmountains":9512,"Ġhttps":9513,"Ġcriticism":9514,"Ġnavigation":9515,"uten":9516,"amples":9517,"ĠSir":9518,"ÂłL":9519,"Ġdozen":9520,"ĠRo":9521,"ĠLuc":9522,"Ġclosing":9523,"ova":9524,"Ġacids":9525,"Ġexamine":9526,"flu":9527,"Ġexperiencing":9528,"check":9529,"Ġinfluenced":9530,"Ġlosses":9531,"ependent":9532,"Ġmeaningful":9533,"Ġburden":9534,"olicy":9535,"Ġevaluate":9536,"ĠIreland":9537,"700":9538,"pa":9539,"Ġwider":9540,"Ġpink":9541,"Ġinh":9542,"Ġhitting":9543,"Ġnit":9544,"utive":9545,"Ġvamp":9546,"ĠDead":9547,"Ġcontra":9548,"Ġsupplies":9549,"ĠAdminist":9550,"Ġconvince":9551,"Ġexcuse":9552,"aptain":9553,"Ġmaxim":9554,"Ġathletes":9555,"ĠJoseph":9556,"func":9557,"Ġpants":9558,"ĠCreate":9559,"Ġdeck":9560,"ĠEric":9561,"Ġunnecess":9562,"Ġpermission":9563,"Ġawful":9564,"Ġmini":9565,"Ġopens":9566,"Ġdrag":9567,"Ġlanding":9568,"ĠReport":9569,"Ġbroadcast":9570,"Ġdominant":9571,"ĠAcademy":9572,"pi":9573,"Ġdil":9574,"ĠSky":9575,"ira":9576,"Ġwelf":9577,"Ġrural":9578,"Ġaggreg":9579,"Ġproviders":9580,"ĠBlood":9581,"puter":9582,"Click":9583,"Ġwalks":9584,"ĠEducation":9585,"Ġsoph":9586,"Ġmouse":9587,"Ġtoss":9588,"Ġnorthern":9589,"ĠCall":9590,"Ġexit":9591,"about":9592,"Ġkil":9593,"Ġliver":9594,"Ġscreens":9595,"ften":9596,"ĠĠĠĠĠ":9597,"Ġtempor":9598,"Ġaccounting":9599,"Ġremembered":9600,"Home":9601,"PL":9602,"mg":9603,"pread":9604,"Ø±":9605,"ÙĴ":9606,"Ġq":9607,"erk":9608,"ĠMuch":9609,"pered":9610,"uming":9611,"Ġperception":9612,"Ġrolled":9613,"Ġbrut":9614,"lected":9615,"Ġexplaining":9616,"screen":9617,"Ġaircraft":9618,"Ġmarg":9619,"Ġcovering":9620,"Ġboxes":9621,"Ġwelfare":9622,"Met":9623,"iar":9624,"ĠðŁ":9625,"Ġlux":9626,"otion":9627,"ĠSupp":9628,"ĠCa":9629,"ĠBoston":9630,"Ġplates":9631,"asting":9632,"berry":9633,"Ġentitled":9634,"inson":9635,"Ġapolog":9636,"-mail":9637,"Ġfocusing":9638,"Ġdiscussing":9639,"Ġamongst":9640,"Ġheaven":9641,"Ġlimitations":9642,"Ġfruits":9643,"Second":9644,"Set":9645,"Ġstere":9646,"Ġabund":9647,"Ġthemes":9648,"Ġflaw":9649,"ĠSoft":9650,"Ġservers":9651,"Ġparad":9652,"Ġfeeding":9653,"Ġvisitors":9654,"Ġcinema":9655,"Ġproportion":9656,"Ġmetabol":9657,"));Ċ":9658,"TF":9659,"bow":9660,"Ġwins":9661,"Ġgest":9662,"Ġgym":9663,"urable":9664,"ĠSep":9665,"ĠCurrent":9666,"ĠRather":9667,"Inter":9668,"Ġcaptured":9669,"Ġfifth":9670,"ĠSociety":9671,"Hel":9672,"TR":9673,"_in":9674,"Ġtap":9675,"Ġtherap":9676,"Ġwid":9677,"Ġbite":9678,"arters":9679,"emed":9680,"elcome":9681,"asted":9682,"Ġperceived":9683,"mann":9684,"Ġpopularity":9685,"Ġmildonium":9686,"Ġimplications":9687,"dy":9688,"Ġlift":9689,"ĠColl":9690,"Ġseats":9691,"ĠFriend":9692,"itty":9693,"atern":9694,"Ġhearts":9695,"Ġstyles":9696,"Despite":9697,"eger":9698,"ĠMain":9699,"gebra":9700,"Ġjun":9701,"Ġintr":9702,"Ġcompat":9703,"Ġimportantly":9704,"ĠMedical":9705,"Ġcollective":9706,"ĠInterest":9707,"Ġcampaigns":9708,"Ġacknowled":9709,"Ġoverwhelming":9710,"/h":9711,"overs":9712,"run":9713,"Ã¼":9714,"Ġcant":9715,"Ġfet":9716,"Ġdent":9717,"aunt":9718,"Ġmanaging":9719,"Ġflesh":9720,"Ġinterrupt":9721,"cycl":9722,"Ġmatches":9723,"Ġprocessed":9724,"ugs":9725,"Ġbadly":9726,"Ġ|Ċ":9727,"vironments":9728,"Ġhopefully":9729,"Ġsafely":9730,"Ġmeasurements":9731,"ĠChristianity":9732,"Ġfarmers":9733,"Ġflexible":9734,"Ġlaptop":9735,"Ġconspiracy":9736,".n":9737,"fire":9738,"Ġcure":9739,"Ġster":9740,"Ġstations":9741,"ĠJason":9742,"ĠHead":9743,"Those":9744,"bsp":9745,"-by":9746,"ĠDeath":9747,"Ġcopies":9748,"Ġattempting":9749,"Ġdocumentation":9750,"ĠJackson":9751,"Ġannoying":9752,"OV":9753,"bell":9754,"json":9755,"Ùı":9756,"Ġwidth":9757,"Ġcaps":9758,"oric":9759,"Ġnaked":9760,"ĠPac":9761,"Ġleague":9762,"ĠFred":9763,"ĠGirl":9764,"ĠNight":9765,"Ġcompassion":9766,"Ġmanagers":9767,"osexual":9768,"Ġreferring":9769,"ĠCloud":9770,"reshold":9771,"Ġharmful":9772,"Ġtransformation":9773,".T":9774,"86":9775,"ĠCell":9776,"Ġcontest":9777,"Ġconsent":9778,"Ġreturning":9779,"Ġinfinite":9780,"Ġbalanced":9781,"Ġintegrity":9782,"ĠOhio":9783,"Ġrobot":9784,"Ġevaluation":9785,"Ġboundaries":9786,"Ġlegitimate":9787,"Ġunexpected":9788,"](":9789,"gas":9790,"ãĥ":9791,"aton":9792,"Ġcod":9793,"Ġbes":9794,"Ġfate":9795,"Ġyoga":9796,"Ġjur":9797,"ogs":9798,"...\"":9799,"Ġthereby":9800,"merce":9801,"Ġsupporters":9802,"Ġclassical":9803,"âĢĶthe":9804,"engers":9805,"Ġcalend":9806,"Ġlogo":9807,"backs":9808,"Ġobservations":9809,"Ġneighbors":9810,"ĠAngeles":9811,"Ġlaughed":9812,"Ġic":9813,"Ġcav":9814,"asi":9815,"omer":9816,"ĠFile":9817,"Ġworkout":9818,"Ġscary":9819,"ateral":9820,"Ġguidance":9821,"ĠTrue":9822,"Ġtexts":9823,"ĠMusic":9824,"Ġpursue":9825,"Ġneutral":9826,"/f":9827,"EE":9828,"RC":9829,"uz":9830,"worth":9831,"Ġtab":9832,"Ġboring":9833,"Ġye":9834,"ummy":9835,"ĠLi":9836,"cia":9837,"Ġknife":9838,"Ġguest":9839,"Ġpossibilities":9840,"ĠBrother":9841,"lfriend":9842,"strong":9843,"Ġjudges":9844,"ĠDonald":9845,"Ġbullet":9846,"Ġmeldronate":9847,"-minute":9848,"-con":9849,"itate":9850,"Ġgains":9851,"ĠTell":9852,"Ġstake":9853,"Ġconvey":9854,"ĠPay":9855,"ĠRa":9856,"ĠRNA":9857,"Ġworship":9858,"ĠOp":9859,"common":9860,"Ġdrama":9861,"Ġphotograp":9862,"Ġdigest":9863,"Ġoccasionally":9864,"Ġdelicious":9865,".E":9866,"Use":9867,"may":9868,"pat":9869,"aration":9870,"Ġthrew":9871,"oting":9872,"ĠHi":9873,"ĠLy":9874,"ĠOk":9875,"acles":9876,"aphor":9877,"earing":9878,"Ġdistant":9879,"Ġpatent":9880,"ĠCommittee":9881,"-part":9882,"Ġdelight":9883,"Ġtargeted":9884,"Ġattempted":9885,"Ġreveals":9886,"Ġsilent":9887,"Ġpredicted":9888,"edded":9889,"Ġownership":9890,"emplate":9891,"Ġhunting":9892,"Ġshadow":9893,"Ġgalax":9894,"chers":9895,"urop":9896,"Ð¿":9897,"ĠBud":9898,"ĠPerson":9899,"istically":9900,"unes":9901,"ĠNic":9902,"pert":9903,"Ġoffense":9904,"Ġrefuse":9905,"ucks":9906,"Ġmaintained":9907,"Ġconcert":9908,"Ġdivorce":9909,"Ġsurrounded":9910,"Ġconstructed":9911,"Ġengagement":9912,".R":9913,"Ġborrow":9914,"Ġgently":9915,"ĠCivil":9916,"ĠBC":9917,"Âłof":9918,"ĠPoint":9919,"ĠPython":9920,"index":9921,"closed":9922,"Ġgrows":9923,"Ġscar":9924,"Ġinvestments":9925,"ĠLeg":9926,"Ġrocks":9927,"Each":9928,"Find":9929,"ql":9930,"aylor":9931,"kel":9932,"Ġvice":9933,"Ġintensity":9934,"ĠChief":9935,"Ġadvis":9936,"Ġcenters":9937,"Ġconsiderable":9938,"Ġgrounds":9939,"ublished":9940,"ĠImage":9941,"ĠSpecial":9942,"rimination":9943,"DP":9944,"File":9945,"Red":9946,"UL":9947,"Ġdownt":9948,"ĠCA":9949,"Ġleaf":9950,"ĠFund":9951,"Ġcompress":9952,"ensed":9953,"Ġtrail":9954,"ocks":9955,"ĠAndrew":9956,"ĠReally":9957,"Ġgrace":9958,"Ġbanking":9959,"Ġemails":9960,"Ġnutrition":9961,"Ġconsistently":9962,"73":9963,"world":9964,"Ġmart":9965,"ĠNE":9966,"Ġcommod":9967,"Ġraces":9968,"Ġavo":9969,"Ġtrem":9970,"Ġpicking":9971,"Ġvacation":9972,"Ġencouraged":9973,"Ġlungs":9974,"71":9975,"Ġwing":9976,"alpha":9977,"section":9978,"ĠSpring":9979,"ĠEffect":9980,"ĠEss":9981,"Ġconsensus":9982,"Ġbug":9983,"Ġentreprene":9984,"Ġdipl":9985,"Start":9986,"arring":9987,"ĠClick":9988,"Ġlands":9989,"Ġdiscussions":9990,"Ġportray":9991,"ĠMrs":9992,"Ġbulk":9993,"Ġpunishment":9994,"Ġcasino":9995,"Ġdiversity":9996,"Disc":9997,"mers":9998,"Ġho":9999,"icular":10000,"rogen":10001,"ĠSouthern":10002,"Ġhack":10003,"ĠBal":10004,"open":10005,"Ġcomics":10006,"ĠRub":10007,"Ġfears":10008,"ĠUt":10009,"Ġscal":10010,"ailing":10011,"ĠStrange":10012,"ugin":10013,"arently":10014,"Ġsuggesting":10015,"AND":10016,"Ġcontributions":10017,"Ġwaters":10018,"ĠServer":10019,"Ġdisappear":10020,"ĠPalestin":10021,"Fil":10022,"MD":10023,"TO":10024,"mn":10025,"summary":10026,"Ġinherent":10027,"ols":10028,"ĠMath":10029,"ĠBarb":10030,"ÂłAnd":10031,"Ġshorter":10032,"Ġenvironments":10033,"ĠVen":10034,"ĠForce":10035,"Ġproposal":10036,"iblical":10037,".f":10038,"Sy":10039,"Â®":10040,"Ġcum":10041,"ĠSC":10042,"ĠSex":10043,"ĠAli":10044,"oples":10045,"operation":10046,"unny":10047,"ĠEth":10048,"Ġcluster":10049,"Ġdisrupt":10050,"Ġrecy":10051,"Ġbran":10052,"Ġdecor":10053,"Ġedition":10054,"ounced":10055,"Ġgrab":10056,"âĢ¦âĢ¦":10057,"Ass":10058,"Ġdiffer":10059,"Ġsuggestions":10060,"Ġobserve":10061,"Ġcompete":10062,"ĠÂ»":10063,"Ġbegun":10064,"Ġemphasis":10065,"Ġrepeatedly":10066,"AB":10067,"[âĢĵ":10068,"Ġfishing":10069,"ĠTri":10070,"ĠSnow":10071,"ĠBid":10072,"ĠWH":10073,"Ġrush":10074,"Ġintake":10075,"Ġrelate":10076,"Ġexpense":10077,"bridge":10078,"ync":10079,"ĠAmendment":10080,"holders":10081,"Ġisolated":10082,"Ġfascinating":10083,"Write":10084,"ĠVirginia":10085,"Ġnutrients":10086,"iag":10087,"uce":10088,"ammed":10089,"Ġfever":10090,"Ġpolar":10091,"Ġmeters":10092,"Ġgrain":10093,"Ġprominent":10094,"Ġcourage":10095,"Ġpreventing":10096,"ĠMalays":10097,"Ġmotivation":10098,"Posted":10099,"```Ċ":10100,"vtb":10101,"*/Ċ":10102,"61":10103,"onal":10104,"erior":10105,"Ġwides":10106,"Ġelder":10107,"Ġouter":10108,"hyl":10109,"issues":10110,"160":10111,"Ġdisplayed":10112,"Ġparking":10113,"ĠValley":10114,"Ġuniversities":10115,"ĠTechnology":10116,"Ġstroke":10117,"Av":10118,"Fig":10119,"\\Ċ":10120,"nded":10121,"itual":10122,"Ġfiber":10123,"Ġforcing":10124,"ĠSP":10125,"ilation":10126,"ĠFord":10127,"Ġcontrary":10128,"Ġcoinc":10129,"Ġinstruction":10130,"Ġmagical":10131,"Ġengineer":10132,"Ġverb":10133,"Ġexpertise":10134,"Ġfrozen":10135,"Ġabstract":10136,"[âĢĵ]":10137,"Mon":10138,"Ġlung":10139,"Ġlenses":10140,"Ġuseless":10141,"ĠRoyal":10142,"ĠEst":10143,"annel":10144,"Ġstopping":10145,"ĠPrince":10146,"Ġobservation":10147,"ĠGlobal":10148,"Ġgarlic":10149,"Ġvoices":10150,"(c":10151,"hire":10152,"ïģ":10153,"Ġcul":10154,"Ġthirty":10155,"osystem":10156,"ĠOsc":10157,"erves":10158,"aha":10159,"ĠSpirit":10160,"Ġfollowers":10161,"Ġmothers":10162,"Ġinstallation":10163,"Ġinvestigate":10164,"Ġcompensation":10165,"Ġdiamond":10166,"ĠSecretary":10167,".'Ċ":10168,"private":10169,"ÙĪ":10170,"Ġoven":10171,"Ġharsh":10172,"Ġnons":10173,"Ġconce":10174,"ĠBru":10175,"ĠPur":10176,"Ġinstantly":10177,"Ġoldest":10178,"Ġlabels":10179,"Ġimprovements":10180,"ĠGuard":10181,"Ġreminded":10182,"Ġwealthy":10183,"ĠFrancisco":10184,"Big":10185,"Press":10186,"kind":10187,"mates":10188,"inci":10189,"Ġsons":10190,"Ġwishes":10191,"utter":10192,"ulum":10193,"Ġriding":10194,"ĠHTML":10195,"quo":10196,"ĠLincoln":10197,"ĠUk":10198,"ocaly":10199,"never":10200,"Ġoffensive":10201,"ometric":10202,"Ġdescend":10203,"arios":10204,"Ġdesigns":10205,"Ġwinner":10206,"Ġessence":10207,"Ġsteam":10208,"Ġcrying":10209,"Ġestimates":10210,"Ġrejected":10211,"Ġracism":10212,"Keep":10213,"Ġsacrifice":10214,"ĠSarah":10215,"Ġbinding":10216,"Ġbubble":10217,"Ġmaps":10218,"Ġtoys":10219,"Ġimpr":10220,"ĠVan":10221,"ĠView":10222,"Ġpreparing":10223,"ĠPolice":10224,"Ġquantity":10225,"ĠSingapore":10226,"ĠRevolution":10227,"Ġfirms":10228,"isode":10229,"Ġgathered":10230,"ĠPers":10231,"ĠLess":10232,"Ġdispl":10233,"Ġoverl":10234,"Ġbrush":10235,"Ġearned":10236,"rett":10237,"Ġheading":10238,"Ġsinger":10239,"proof":10240,"Ġspeaks":10241,"evin":10242,"Ġtiming":10243,"/S":10244,"uating":10245,"Ġ?Ċ":10246,"Ġdirt":10247,"Ġbeans":10248,"sell":10249,"ĠDO":10250,"ĠFA":10251,"ĠFoot":10252,"awa":10253,"Ġrepet":10254,"ĠAsh":10255,"Ġresemb":10256,"Ġairport":10257,"Ġfunctionality":10258,"ĠPhot":10259,"ĠColumb":10260,"Ġsettle":10261,"ascular":10262,"Ġunfortunately":10263,"Ġinterviews":10264,"Ġcontracts":10265,"Ġgraphics":10266,"operative":10267,"Ġmathematical":10268,"MP":10269,"mo":10270,"isy":10271,"Ġpas":10272,"Ġthumb":10273,"Ġgambling":10274,"ĠTR":10275,"Ġstolen":10276,"chain":10277,"Ġate":10278,"ĠPo":10279,"ĠPenn":10280,"elve":10281,"ĠNumber":10282,"ĠLine":10283,"ĠOs":10284,"Ġcarries":10285,"Ġfactory":10286,"Ġhumor":10287,"letter":10288,"Comments":10289,"bbing":10290,"Ġastron":10291,"ĠStephen":10292,"ĠMiller":10293,"Ġbonus":10294,"Ã¶":10295,"Ġtheater":10296,"ÂłOut":10297,"ĠWW":10298,"Ġovert":10299,"Ġoverse":10300,"Ġsubmit":10301,"Ġtransp":10302,"187":10303,"-bl":10304,"Ġbrains":10305,"Ġlighting":10306,"Ġbench":10307,"Ġlowest":10308,"Request":10309,"Ġstepped":10310,"Ġgolden":10311,"Ġincorrect":10312,"Ġaccomplished":10313,"Ġquotes":10314,"Perhaps":10315,"Ġmathematics":10316,"Ġinspiration":10317,"Produ":10318,"des":10319,"Ġchop":10320,"arding":10321,"ĠOF":10322,"airy":10323,"188":10324,"Ġzomb":10325,"**Ċ":10326,"Ġvariations":10327,"Ġblogs":10328,"Ġpacked":10329,"ĠControl":10330,"ĠIsraeli":10331,"Ġdimensions":10332,"ĠMethod":10333,"Ġexperimental":10334,"ĠHillary":10335,"Ġrescue":10336,"Ġimmigrants":10337,".B":10338,"El":10339,"base":10340,"Ġ×":10341,"iti":10342,"also":10343,"Ġreaches":10344,"ĠSearch":10345,"irable":10346,"ĠCH":10347,"Ġdelete":10348,"Ġcomposed":10349,"Ġflip":10350,"Ġcommands":10351,"Ġregards":10352,"Ġdrain":10353,"Ġbloggers":10354,"Ġseparation":10355,"ĠMarket":10356,"Ġgods":10357,"Ġorgans":10358,"ĠCarolina":10359,"ĠHitler":10360,"PN":10361,"\\,":10362,"Ġgarb":10363,"ĠCub":10364,"iller":10365,"Ġconcluded":10366,"ĠBat":10367,"else":10368,"Ġpretend":10369,"ĠStone":10370,"Ġdistract":10371,"Ġalongside":10372,"Ġdrove":10373,"Ġprogressive":10374,"Edit":10375,"Ġdefendant":10376,"\");Ċ":10377,".N":10378,"Att":10379,"God":10380,"link":10381,"was":10382,"Ġtang":10383,"Ġhier":10384,"ĠSelf":10385,"irts":10386,"Ġathe":10387,"istical":10388,"ĠGi":10389,"Ġhandled":10390,"ucky":10391,"Ġmarry":10392,"Ġemployers":10393,"books":10394,"Ġpowered":10395,"Ġresponded":10396,"Ġacquired":10397,"ĠPortug":10398,"Ġadoption":10399,"Ġcontroversial":10400,"Check":10401,"Ġunnecessary":10402,"Ġwidespread":10403,"')":10404,"74":10405,"Long":10406,"Ġbure":10407,"lections":10408,"lyn":10409,"ĠTalk":10410,"aya":10411,"thur":10412,"Ġshops":10413,"ĠDave":10414,"Ġworn":10415,"Ġclust":10416,"Ġactively":10417,"Ġfounded":10418,"181":10419,"183":10420,"Ġvariation":10421,"Ġdelay":10422,"Ġstrikes":10423,"Ġassistant":10424,"Ġaimed":10425,"Ġjoining":10426,"Ġimplies":10427,"Ġpreparation":10428,"HT":10429,"Ps":10430,"aired":10431,"sen":10432,"vals":10433,"âĪ":10434,"Ġtie":10435,"info":10436,"Ġcous":10437,"Ġlighter":10438,"Ġnodes":10439,"Ġgolf":10440,"idays":10441,"ĠMir":10442,"tha":10443,"esty":10444,"ĠHug":10445,"Ġshield":10446,"ĠLive":10447,"ĠChildren":10448,"Ġfinance":10449,"Ġelves":10450,"Ġpublicly":10451,"ĠClub":10452,"Ġtreating":10453,"!!!":10454,"Ġdarkness":10455,"Ġburied":10456,"Ġcapitalism":10457,"Ġexcessive":10458,"Ġregistered":10459,"Ġinflammation":10460,"Ġvertical":10461,"ĠKennedy":10462,"bus":10463,"health":10464,"Ġsore":10465,"Ġlately":10466,"âĢĬ":10467,"rag":10468,"ĠPsych":10469,"ĠJr":10470,"arest":10471,"Stud":10472,"-def":10473,"ĠProcess":10474,"Ġtendency":10475,"LLY":10476,"Ġassuming":10477,"Ġaccurately":10478,"Ġqualified":10479,"Ġlibraries":10480,"Ġmolecular":10481,"Ġmanufacturer":10482,"Ġlaughing":10483,"ĠCirc":10484,"Ġpeanut":10485,"bd":10486,"Ġsoup":10487,"ims":10488,"igma":10489,"ĠSomething":10490,"ĠMajor":10491,"Ġrou":10492,"ĠLake":10493,"Ġenables":10494,"Ġjustify":10495,"rub":10496,"Ġpartially":10497,"lix":10498,"ologically":10499,"Ġacute":10500,"Ġmoderate":10501,"Ġrequiring":10502,"-specific":10503,"ĠArm":10504,"irds":10505,"Ġdescribing":10506,"Ġboyfriend":10507,"Ġinevitable":10508,"-or":10509,"Â©":10510,"Ġrear":10511,"ĠHad":10512,"Ġchip":10513,"Ġmeets":10514,"ĠEvent":10515,"actory":10516,"---":10517,"Ġcontrolling":10518,"Ġplanets":10519,"Ġconfusing":10520,"Ġreasoning":10521,"Ġexpecting":10522,"Ġreduces":10523,"Ġargues":10524,"okemon":10525,"Ġsensitivity":10526,"ĠManagement":10527,"Ġautomatic":10528,"Ġterrorist":10529,"Right":10530,"Ġtutor":10531,"Ġsessions":10532,"Ġpunch":10533,"Ġincl":10534,"Ġnil":10535,"ĠAL":10536,"usive":10537,"Ġchips":10538,"ourne":10539,"Ġevolved":10540,"Ġunre":10541,"formed":10542,"ĠHeart":10543,"Ġrape":10544,"Ġtrave":10545,"Ġesp":10546,"Ġcondem":10547,"ENT":10548,"Ġterrorism":10549,"Ġruled":10550,"Ġsubsid":10551,"ĠLearning":10552,"Ġvoltage":10553,"ĠScotland":10554,"Ġsimultaneously":10555,"!)Ċ":10556,"96":10557,"EA":10558,"mu":10559,"Ġvel":10560,"Ġwings":10561,"Ġbold":10562,"Ġduration":10563,"Ġinfections":10564,"stop":10565,"ĠMid":10566,"ĠMess":10567,"Ġdoct":10568,"ĠRest":10569,"ĠEastern":10570,"Ġamer":10571,"Ġinvited":10572,"Ġbelt":10573,"Ġdistinction":10574,"Ġequality":10575,"Ġoptimal":10576,"Ġpolymer":10577,"Ġaffordable":10578,"Ġpilot":10579,"Ġchaos":10580,"Ġsatellite":10581,"Fe":10582,"Jan":10583,"MB":10584,"Sl":10585,"Tom":10586,"aver":10587,"reation":10588,"Ġnodd":10589,"Ġrubb":10590,"ĠRose":10591,"ivia":10592,"ĠOper":10593,"aware":10594,"Ġdirectors":10595,"Ġanalys":10596,"white":10597,"Only":10598,"Ġdestro":10599,"Ġsuspend":10600,"Ġautomation":10601,"Ġcommunications":10602,"Ġsubstances":10603,"Ġanalyze":10604,"Black":10605,"ĠDaily":10606,"Ġadequate":10607,"esy":10608,"Ġfut":10609,"args":10610,"Ġinhab":10611,"ĠSource":10612,"ille":10613,"Ġexclusive":10614,"ĠDate":10615,"ĠRun":10616,"ĠGro":10617,"ichael":10618,"Ġmeth":10619,"config":10620,"Ġdevast":10621,"Ġdescript":10622,"Ġaddresses":10623,"Ġfolk":10624,"Using":10625,"ĠDistrict":10626,"ĠDevelopment":10627,"SR":10628,"Table":10629,"free":10630,"}(":10631,"Ġpairs":10632,"Ġthreshold":10633,"through":10634,"oser":10635,"ĠFather":10636,"Ġtear":10637,"Ġgrate":10638,"lication":10639,"Ġslave":10640,"ierce":10641,"-down":10642,"ĠPlace":10643,"Ġscreening":10644,"Ġloaded":10645,"ĠKey":10646,"Ġepisodes":10647,"Ġdynamics":10648,"ĠBoard":10649,"Ġinvolvement":10650,"Okay":10651,"[i":10652,"bid":10653,"attered":10654,"Ġdual":10655,"icate":10656,"ĠToo":10657,"Ġugly":10658,"chi":10659,"ĠHay":10660,"ĠYe":10661,"erving":10662,"Ġinvasion":10663,"Ġcounts":10664,"Ġsnaps":10665,"Ġcircles":10666,"Ġdeny":10667,"Ġburned":10668,"Ġinnovation":10669,"Ġinnovative":10670,"Ġappointment":10671,"Ġrubber":10672,"Ġdisappointed":10673,"Ġabandoned":10674,"-known":10675,"Dear":10676,"erator":10677,"Ġbesides":10678,"Ġpp":10679,"Ġdressed":10680,"asters":10681,"sts":10682,"Ġstiff":10683,"ĠMother":10684,"Ġexch":10685,"ĠHence":10686,"ĠDirector":10687,"ieval":10688,"izar":10689,"Ġscales":10690,"plex":10691,"Ġconsume":10692,"Ġaddiction":10693,"Ġawk":10694,"Ġprovision":10695,"retion":10696,"asha":10697,"ĠProduct":10698,"Ġrecommendations":10699,"Ġdivine":10700,"Ġprincipal":10701,"Ġdimension":10702,"Ġvessels":10703,"VID":10704,"fil":10705,"Ġtel":10706,"inates":10707,"aria":10708,"chron":10709,"andal":10710,"Ġupgrade":10711,"achus":10712,"Ġremoval":10713,"Ġguards":10714,"Ġinstinct":10715,"Ġinsane":10716,"Ġforming":10717,"Ġexport":10718,"Ġexploring":10719,"Ġcombine":10720,"Ġprotecting":10721,"Ġcooling":10722,"Ġmedications":10723,"Ġvaccine":10724,"-pr":10725,"cery":10726,"Ġbinary":10727,"Ġhiding":10728,"ignt":10729,"irus":10730,"Ġsends":10731,"Ġ($":10732,"Âłt":10733,"quer":10734,"Ġalleg":10735,"agen":10736,"acked":10737,"Ġpeoples":10738,"ĠChapter":10739,"Ġracial":10740,"Ġopponents":10741,"-col":10742,"Ġcapability":10743,"Ġfailing":10744,"ennis":10745,"Ġsteal":10746,"ĠContent":10747,"Ġscenarios":10748,"ĠModel":10749,"ĠâĨĴ":10750,"har":10751,"makers":10752,"wich":10753,"Ġtu":10754,"Ġtale":10755,"Ġcm":10756,"Ġmice":10757,"ÂłH":10758,"Ġritual":10759,"mented":10760,"ĠLow":10761,"Ġovernight":10762,"Ġnowhere":10763,"Ġobsc":10764,"ĠĠĠĠĠĠĠ":10765,"arms":10766,"Ġclever":10767,"Ġrespir":10768,"Ġcalc":10769,"dev":10770,"irtual":10771,"ĠCarl":10772,"Ġemerged":10773,"Ġtouching":10774,"_{\\":10775,"Ġclouds":10776,"ĠMatthew":10777,"Ġromantic":10778,"-res":10779,"Best":10780,"UI":10781,"rans":10782,"vation":10783,"Ġmigr":10784,"Ġgri":10785,"ĠTerm":10786,"ĠCook":10787,"ĠCold":10788,"ĠCustom":10789,"umble":10790,"ĠPy":10791,"Ġgoog":10792,"Ġjet":10793,"Ġrolling":10794,"Ġhanded":10795,"gging":10796,"Ġtrials":10797,"Ġgrabbed":10798,"Ġproductive":10799,"-dimensional":10800,"Ġfocuses":10801,"Ġimpacts":10802,"ĠEdward":10803,"Ġemerging":10804,"Ġmatching":10805,"________":10806,"Ġfolder":10807,"ĠIrish":10808,"Ġsteady":10809,"ĠProfessor":10810,"front":10811,"mother":10812,"oons":10813,"your":10814,"lly":10815,"ighed":10816,"ÂłIf":10817,"ĠHun":10818,"Ġvague":10819,"Ġprecious":10820,"âĢ¦.":10821,"Ġidentification":10822,"Ġaudi":10823,"Ġthreatened":10824,"Ġtouched":10825,"Ġcalculate":10826,"Ġrestaurants":10827,"Ġwrapped":10828,"tics":10829,"Ġtune":10830,"Ġmm":10831,"Ġyard":10832,"Ġheating":10833,"Ġ(#":10834,"aund":10835,"Ġenzy":10836,"ressing":10837,"Ġcounty":10838,"Ġmeditation":10839,"Ġprocessor":10840,"Ġeasiest":10841,"Ġoperator":10842,"Ġcompeting":10843,"Ġscientist":10844,"ĠSmall":10845,"ĠRomney":10846,"ĠSwed":10847,"Ġconsequence":10848,"Ġsatisfaction":10849,"iatric":10850,"-ind":10851,"Page":10852,"Sometimes":10853,"inue":10854,"Ġborders":10855,"Ġinch":10856,"idate":10857,"ĠSaf":10858,"ĠBu":10859,"ĠBry":10860,"Âłp":10861,"opes":10862,"Ġvibr":10863,"Ġpartial":10864,"ĠVideo":10865,"Ġtrace":10866,"Ġsignature":10867,"Ġreflection":10868,"Ġnights":10869,"Ġexcit":10870,"Ġpenet":10871,"Ġhoped":10872,"blogger":10873,"Ġsustainable":10874,"-work":10875,"=\\":10876,"Oct":10877,"bec":10878,"Ġfence":10879,"Ġeager":10880,"Ġchains":10881,"arted":10882,"Ġwheat":10883,"interest":10884,"ottom":10885,"ĠTrust":10886,"Ġtemple":10887,"ĠOrder":10888,"addy":10889,"ugged":10890,"Ġdetected":10891,"ĠLicense":10892,"(a":10893,"76":10894,"['":10895,"iens":10896,"uis":10897,"uously":10898,"vo":10899,"Ġ)Ċ":10900,"Ġcognitive":10901,"ĠIce":10902,"ĠHarr":10903,"Ġalloc":10904,"actor":10905,"Ġstrings":10906,"Ġretain":10907,"Ġsuggestion":10908,"Ġextraord":10909,"Ġbankrupt":10910,"Ġbillions":10911,"Ġunfair":10912,"Ġregulatory":10913,"Ġtickets":10914,"ĠGeorgia":10915,"Ġsophistic":10916,"-one":10917,"92":10918,"CL":10919,"Great":10920,"aud":10921,"iary":10922,"Ġwages":10923,"Ġcord":10924,"inge":10925,"orious":10926,"iche":10927,"ĠText":10928,"osph":10929,"ĠRen":10930,"ĠLo":10931,"aga":10932,"acco":10933,"ĠChild":10934,"Ġdecides":10935,"Ġequations":10936,"ercury":10937,"Ġbehaviors":10938,"ĠSaudi":10939,"oscow":10940,"Ġmysterious":10941,"CR":10942,"Dis":10943,"bur":10944,"ï»":10945,"Ġtoy":10946,"static":10947,"ctic":10948,"rolled":10949,"ĠChem":10950,"ĠDat":10951,"hyd":10952,"Ġcheer":10953,"Ġdiscrimination":10954,"Ġdetection":10955,"arma":10956,"Ġstraw":10957,"Ġfatig":10958,"Ġembrace":10959,"Ġmutual":10960,"rizona":10961,"Ġcigarettes":10962,"Author":10963,"ĠAtlantic":10964,"360":10965,"Aug":10966,"tion":10967,"Ġties":10968,"Ġthesis":10969,"eron":10970,"Ġhint":10971,"ĠTaylor":10972,"ĠSin":10973,"âĢĻĊ":10974,"ĠNature":10975,"ĠLind":10976,"Ġmanually":10977,"Ġknees":10978,"Ġflower":10979,"ometer":10980,"Ġediting":10981,"Ġinfant":10982,"Ġworthy":10983,"Ġregarded":10984,"Ġwooden":10985,"Ġsymbols":10986,"Ġguaranteed":10987,"Ġreserved":10988,"-fl":10989,"Condition":10990,"XX":10991,"cs":10992,"Ġsink":10993,"Ġmim":10994,"icient":10995,"Ġbeating":10996,"ĠMind":10997,"ĠBon":10998,"ÂłBut":10999,"Ġintu":11000,"Ġintrig":11001,"perty":11002,"arks":11003,"formance":11004,"ĠDoctor":11005,"Real":11006,"Ġreleases":11007,"Ġseparated":11008,"Ġrival":11009,"Ġvacuum":11010,"ĠSilver":11011,"Ġreceptor":11012,"Ġgirlfriend":11013,"AF":11014,"Message":11015,"Ġaest":11016,"Ġbid":11017,"Ġboo":11018,"Ġgross":11019,"ige":11020,"ĠSem":11021,"Ġash":11022,"raine":11023,"ĠMs":11024,"ÂłJ":11025,"Ġvapor":11026,"Ġshaped":11027,"ĠLater":11028,"Ġcoat":11029,"Ġassass":11030,"Ġmedi":11031,"Ġbuyers":11032,"Ġutility":11033,"Ġrecip":11034,"Ġfloat":11035,"ĠTurkey":11036,"Ġsolely":11037,"ï»¿":11038,"Create":11039,"NS":11040,"Pad":11041,"cor":11042,"hma":11043,"Ġrect":11044,"ĠSF":11045,"ĠSci":11046,"Ġwhilst":11047,"Ġhaunt":11048,"ĠMoh":11049,"ĠBox":11050,"ĠBattle":11051,"Ġ(âĢľ":11052,"Ġvig":11053,"Ġclim":11054,"ĠUr":11055,"ellow":11056,"Ġsla":11057,"125":11058,"Ġlegacy":11059,"Ġliterary":11060,"Ġcrossed":11061,"olester":11062,"Ġmotivated":11063,"Ġecosystem":11064,"Ġconstitutional":11065,"Ġfavourite":11066,"Ġmanifest":11067,"ĠQuestions":11068,"IE":11069,"Pol":11070,"Ñĭ":11071,"Ġwand":11072,"ancial":11073,"Ġhref":11074,"ĠAst":11075,"ĠFull":11076,"Ġkm":11077,"ĠGive":11078,"ĠLim":11079,"Ġdisabled":11080,"odynam":11081,"ĠProte":11082,"Ġcritics":11083,"Ġcollaps":11084,"Ġsettlement":11085,"Ġdocumentary":11086,"ĠMichigan":11087,"Ġexpanded":11088,"Group":11089,"Ġattributes":11090,"Ġtremend":11091,")-":11092,"-)Ċ":11093,"-type":11094,"Both":11095,"OK":11096,"TER":11097,"bet":11098,"first":11099,"vard":11100,"Ġod":11101,"Ġcust":11102,"Ġfart":11103,"Ġmales":11104,"Ġhorn":11105,"Ġlazy":11106,"Ġbeef":11107,"etc":11108,"umph":11109,"ĠWatch":11110,"ĠPract":11111,"ĠJane":11112,"Ġknee":11113,"Ġdishes":11114,"Ġundert":11115,"ĠAng":11116,"Ġpassengers":11117,"Still":11118,"Ġprofound":11119,"Ġmilit":11120,"Ġmeasuring":11121,"umbled":11122,"Ġsooner":11123,"ĠImages":11124,"Ġtowns":11125,"clusively":11126,"Ġefficiently":11127,"Ġpromoting":11128,"Ġpurely":11129,"Ġacknowledge":11130,"etheless":11131,".html":11132,"Down":11133,"iy":11134,"odge":11135,"Ġrhet":11136,"ĠDun":11137,"ĠDirect":11138,"arded":11139,"ĠJenn":11140,"Ġcomparing":11141,"rup":11142,"closure":11143,"Ġperipher":11144,"ected":11145,"Ġregret":11146,"ĠIss":11147,"Ġapproached":11148,"Ġwaited":11149,"Ġrobust":11150,"ĠColorado":11151,"Ġaccompanied":11152,"($":11153,"-class":11154,"vable":11155,"wa":11156,"Ã¤":11157,"Ġ]Ċ":11158,"ĠØ§ÙĦ":11159,"reply":11160,"ĠSus":11161,"ĠSEO":11162,"iry":11163,"Ġsevent":11164,"ÂłHe":11165,"ĠHoly":11166,"andy":11167,"ĠRoy":11168,"Ġjunk":11169,"Ġprayer":11170,"Ġcoin":11171,"Ġdeveloper":11172,"-spe":11173,"Ġdragon":11174,"ĠUser":11175,"Ġassumptions":11176,"Ġbuttons":11177,"Remember":11178,"-cell":11179,"David":11180,"ML":11181,"_D":11182,"Ġaf":11183,"Ġbump":11184,"ĠIL":11185,"aden":11186,"urities":11187,"Ġdear":11188,"riving":11189,"ĠPri":11190,"ĠPokemon":11191,"Ġbytes":11192,"Ġintim":11193,"Ġenabled":11194,"izers":11195,"apters":11196,"ccer":11197,"Ġimpressed":11198,"lihood":11199,"Ġtransf":11200,"ĠĠĠĠĠĠ":11201,"Ġserial":11202,"Ġfright":11203,"Ġ&&":11204,"Ġfreely":11205,"Ġpolitically":11206,"shop":11207,"Ġcreativity":11208,"!!!Ċ":11209,"Ġexecuted":11210,"Ġpenis":11211,"Ġparticipation":11212,"iminals":11213,"Ġcelebrate":11214,"ĠWilson":11215,"Ġbattles":11216,"ignty":11217,"$.":11218,"Count":11219,"Iam":11220,"ori":11221,"Ġdental":11222,"Ġdimin":11223,"Ġweigh":11224,"ĠCome":11225,"Ġshook":11226,"Ġshocked":11227,"Ġshapes":11228,"ospel":11229,"ĠNorthern":11230,"Ġspat":11231,"Ġoverr":11232,"Ġunderm":11233,"iano":11234,"Ġhandful":11235,"Ġcardi":11236,"Ġepid":11237,"Ġbreathe":11238,"Ġarrival":11239,"Script":11240,"Ġadvertis":11241,"Ġvitamin":11242,"Ġcalendar":11243,"Ġtissues":11244,"Ġcort":11245,"itage":11246,"isons":11247,"Ġfancy":11248,"Ġpale":11249,"Ġhired":11250,"Ġcongress":11251,"ĠEnergy":11252,"Ġtrap":11253,"Ġtraits":11254,"ontal":11255,"Ġsupplements":11256,"Ġelite":11257,"Ġdifficulties":11258,"Ġconsumed":11259,"Ġensuring":11260,"Ġinfluences":11261,"Ġbriefly":11262,"Ġgathering":11263,".J":11264,"cm":11265,"github":11266,"rame":11267,"Ġtar":11268,"ppers":11269,"Ġbacked":11270,"Ġconsol":11271,"Ġguests":11272,"Ġvector":11273,"Ġarguing":11274,"Ġmissions":11275,"Ġmomentum":11276,"Ġgraduate":11277,"Ġcruel":11278,"Ġsatisfied":11279,"Ġjumped":11280,"Ġflexibility":11281,"iotics":11282,"Ġswimming":11283,"ôĢģ":11284,"olesterol":11285,"bf":11286,"rat":11287,"Ġfo":11288,"Ġpizza":11289,"Ġmold":11290,"star":11291,"adays":11292,"amins":11293,"ĠSQL":11294,"ĠAud":11295,"Ġoral":11296,"ĠFat":11297,"nell":11298,"Ġminer":11299,"Ġbelieving":11300,"Ġbehalf":11301,"ategory":11302,"Ġengineers":11303,"Ġpoorly":11304,"roller":11305,"Ġderiv":11306,"ĠDisney":11307,"Ġremarkable":11308,"ĠRadio":11309,"ĠPacific":11310,"Ġawkward":11311,"Ġslavery":11312,"CT":11313,"Cor":11314,"Would":11315,"bot":11316,"Ġbind":11317,"Ġram":11318,"ĠRog":11319,"ipes":11320,"Ġreluct":11321,"Ġpersonnel":11322,"oxy":11323,"Ġidentifying":11324,"ommy":11325,"Ġmargin":11326,"Ġkeyboard":11327,"Ġcontributed":11328,"Ġloading":11329,"Ġappreciated":11330,"ĠModern":11331,"Ġquietly":11332,"/nan":11333,"Ġrefugees":11334,"Ġunemployment":11335,"Bas":11336,"iro":11337,"lib":11338,"path":11339,"rust":11340,"tic":11341,"Ġtens":11342,"Ġcoup":11343,"urches":11344,"Ġconsole":11345,"ÂłN":11346,"Ġkit":11347,"Ġjokes":11348,"Ġsail":11349,"ocus":11350,"tends":11351,"Ġinsulin":11352,"Ġgluc":11353,"Ġpatri":11354,"Ġvisits":11355,"Ġcouples":11356,"Ġdesperate":11357,"Ġpandemic":11358,"Free":11359,"uced":11360,"onut":11361,"Ġcache":11362,"Ġpond":11363,"ĠIde":11364,"etts":11365,"ĠArizona":11366,"irk":11367,"ĠHa":11368,"mental":11369,"unks":11370,"Ġallies":11371,"ĠEnt":11372,"Ġupcoming":11373,"ounding":11374,"ĠKind":11375,"Ġbackup":11376,"Ġunderground":11377,"Ġafterwards":11378,"Ġaddict":11379,"Ġinsights":11380,"ĠAsk":11381,"azing":11382,"Ġinvesting":11383,"Ġcultiv":11384,"Ġkiller":11385,"Ġtaxp":11386,"Ġbarrier":11387,"Ġrepresenting":11388,"Ġcooked":11389,"Ġchemistry":11390,"Donald":11391,"Ġkingdom":11392,"Ġrevolutionary":11393,"Ġwarned":11394,"!âĢĿĊ":11395,"Off":11396,"via":11397,"ĠTony":11398,"igo":11399,"ĠALL":11400,".....":11401,"Ġaccord":11402,"ĠUnlike":11403,"111":11404,"Ġsolved":11405,"ĠShort":11406,"Ġpreval":11407,"idding":11408,"Ġoperators":11409,"roduction":11410,"Ġstructural":11411,"ĠQuestion":11412,"Ġalternatives":11413,"Ġencouraging":11414,"Ġbatteries":11415,"Ġrental":11416,"Ġcigarette":11417,"Ġscheduled":11418,"Ac":11419,"Map":11420,"_,":11421,"wed":11422,"yer":11423,"reement":11424,"isd":11425,"Ġbol":11426,"Ġpension":11427,"Ġlake":11428,"ĠAven":11429,"irc":11430,"ÂłYou":11431,"Ġshake":11432,"ĠEve":11433,"akashi":11434,"peror":11435,"102":11436,"jects":11437,"ffective":11438,"Ġcares":11439,"ĠSection":11440,"Ġweekly":11441,"Ġhybrid":11442,"Ġviolation":11443,"Ġdeadly":11444,"Ġautomated":11445,"Ġcomplaint":11446,"Ġduties":11447,"Ġthoroughly":11448,"Ġbranches":11449,"900":11450,"Car":11451,"gh":11452,"alan":11453,"Ġnurse":11454,"ĠTam":11455,"ĠMu":11456,"Ġshipping":11457,"Ġexploration":11458,"mega":11459,"Ġkinda":11460,"Ġmembr":11461,"Ġorganisation":11462,"ĠIndust":11463,"Ġoils":11464,"Ġceiling":11465,"Ġdemanding":11466,"Ġfrustrating":11467,"Ġfeatured":11468,"Ġfurniture":11469,"Ġdiscipline":11470,"Ġnodded":11471,"SM":11472,"Text":11473,"gic":11474,"ko":11475,"mony":11476,"tains":11477,"yo":11478,"Ġpays":11479,"ĠIF":11480,"ĠSU":11481,"gered":11482,"istant":11483,"Ġabroad":11484,"Ġaging":11485,"Ġspare":11486,"Ġbless":11487,"ĠReading":11488,"Ġrestore":11489,"Ġproductivity":11490,"140":11491,"ĠIndex":11492,"Ġ:)":11493,"Ġrepresentative":11494,"Ġpaths":11495,"Ġplugin":11496,"Ġforests":11497,"Ġestablishment":11498,"Ġfloating":11499,"igenous":11500,"Ġgarbage":11501,"%)":11502,"(b":11503,"-per":11504,"91":11505,"GE":11506,"Mat":11507,"nbsp":11508,"isition":11509,"rod":11510,"iments":11511,"verted":11512,"Ġstones":11513,"ĠAw":11514,"Ġconclusions":11515,"ĠMuseum":11516,"Ġkernel":11517,"ardless":11518,"Ġinvis":11519,"although":11520,"ĠExp":11521,"-style":11522,"Ġqualities":11523,"Ġorientation":11524,"Ġtroubles":11525,"Ġoverseas":11526,"Ġexcitement":11527,"84":11528,"Cal":11529,"wall":11530,"Ġcub":11531,"Ġcoding":11532,"Ġpile":11533,"Ġhiring":11534,"Ġiter":11535,"ĠSad":11536,"opic":11537,"ĠWat":11538,"aki":11539,"ĠOcc":11540,"ocity":11541,"intend":11542,"Ġovers":11543,"Ġawake":11544,"Ġanimation":11545,"Ġradi":11546,"Ġapplicable":11547,"-life":11548,"Ġavoiding":11549,"Ġsurviv":11550,"Ġverify":11551,"Unfortunately":11552,"Ġviral":11553,"Ġdecreased":11554,"belie":11555,"Ġfulfill":11556,"Ġrendering":11557,"Ġcompelling":11558,"Ġentrance":11559,"_file":11560,"zes":11561,"athetic":11562,"Ġdense":11563,"ĠCru":11564,"ĠThird":11565,"Ġspouse":11566,"icker":11567,"Ġpartly":11568,"Ġgrin":11569,"ordan":11570,"Ġrealm":11571,"Ġauton":11572,"Ġframes":11573,"130":11574,"Ġmasses":11575,"Ġexecute":11576,"Ġbleeding":11577,"Ġidi":11578,"Contact":11579,"ĠWrite":11580,"ĠHindu":11581,"ĠLibrary":11582,"Ġgrateful":11583,".The":11584,"Lear":11585,"atest":11586,"oust":11587,"owers":11588,"idal":11589,"ĠAccess":11590,"Ġcanon":11591,"ĠOx":11592,"Ġcompounds":11593,"Ġadj":11594,"Ġgray":11595,"hydr":11596,"Ġentities":11597,"Ġlanded":11598,"Ġcycles":11599,"Ġpanels":11600,"Ġmechanics":11601,"Ġconvenience":11602,"Ġdesktop":11603,"ĠCNN":11604,"Ty":11605,"zone":11606,"oned":11607,"onia":11608,"Ġbored":11609,"Ġbeast":11610,"ĠDie":11611,"Ġwheels":11612,"ĠEver":11613,"udo":11614,"Ġpepper":11615,"Ġamino":11616,"Ġdesires":11617,"Ġslide":11618,"Item":11619,"185":11620,"Ġedges":11621,"Ġlegally":11622,"Ġpackages":11623,"Exception":11624,"Ġthreatening":11625,"Ġconverted":11626,"Ġhormone":11627,"Ġtactics":11628,"Ġhungry":11629,"Ġcorrelation":11630,"achusetts":11631,")\\":11632,"Max":11633,"Ref":11634,"tan":11635,"ĠAff":11636,"abling":11637,"Ġbackwards":11638,"Ġdeficit":11639,"ĠOrig":11640,"Ġtraditions":11641,"Ġbuyer":11642,"Ġresponsibilities":11643,"Ġdetermining":11644,"second":11645,"Ġstruggles":11646,"Ġdiagnosed":11647,"Ġphilosoph":11648,"Ġracist":11649,"Ġimperial":11650,"Ġconstraints":11651,"\"What":11652,"#Ċ":11653,"(d":11654,"(self":11655,"eous":11656,"max":11657,"Ħ¢":11658,"Ġtags":11659,"Ġturb":11660,"Ġbanned":11661,"Ġrevel":11662,"ĠCaptain":11663,"ĠMD":11664,"ĠHon":11665,"ĠLie":11666,"ĠOil":11667,"ĠKar":11668,"Ġpray":11669,"001":11670,"Ġscam":11671,"Ġrelatives":11672,"Ġproducer":11673,"ĠZh":11674,"leted":11675,"Ġshortly":11676,"Ġsounded":11677,"Ġeducated":11678,"Ġpanic":11679,"Ġsupposedly":11680,"Ġhospitals":11681,"Ġgrocery":11682,"83":11683,"brew":11684,"ington":11685,"Ġthy":11686,"Ġnasty":11687,"âĢĭ":11688,"iva":11689,"ĠNorm":11690,"Ġeffectiveness":11691,"Ġelabor":11692,"Ġsolo":11693,"-bit":11694,"leton":11695,"Ġfriendship":11696,"Ġreplacing":11697,"ĠObviously":11698,"Ġaffairs":11699,"Ġstrip":11700,"Class":11701,"elligence":11702,"à¥ĩ":11703,"Ġcomplaints":11704,"Ġsodium":11705,"Apr":11706,"CP":11707,"Skip":11708,"Vis":11709,"fan":11710,"his":11711,"iper":11712,"Ã¨":11713,"anning":11714,"âĢħ":11715,"ĠTax":11716,"ĠSav":11717,"ĠCPU":11718,"ilton":11719,"ulk":11720,"Ġsup":11721,"Ġchlor":11722,"ĠFair":11723,"ĠGa":11724,"Ġsheets":11725,"Ġoffices":11726,"format":11727,"ceptions":11728,"Ġboards":11729,"Ġ::":11730,"Ġcraw":11731,"Ġcookies":11732,"ĠActually":11733,"points":11734,"ĠGreece":11735,"Ġdisappeared":11736,"-te":11737,"FI":11738,"flix":11739,"inition":11740,"Ġbust":11741,"alin":11742,"olutions":11743,"Ġseal":11744,"opher":11745,"ĠPolicy":11746,"ĠDutch":11747,"Ġliability":11748,"ĠOR":11749,"Ġinvented":11750,"Ġworlds":11751,"Ġfrustration":11752,"Ġspecify":11753,"arians":11754,"Ġreasonably":11755,"elta":11756,"Ġofficially":11757,"Ġrespective":11758,"Ġstrain":11759,"Ġclosest":11760,"ĠOthers":11761,"visor":11762,"ĠStudies":11763,"Ġmentally":11764,"yrics":11765,"ĠCharlie":11766,"cyclop":11767,"Call":11768,"\\end":11769,"hav":11770,"storm":11771,"ĠIM":11772,"Ġhaz":11773,"people":11774,"ĠBBC":11775,"ĠBesides":11776,"ÂłThey":11777,"Ġramp":11778,"Ġsuck":11779,"Ġalgebra":11780,"Ġreson":11781,"neath":11782,"Ġretrie":11783,"Ġpatch":11784,"Ġviewing":11785,"Ġstriking":11786,"Ġbottles":11787,"Ġempire":11788,"Ġduplic":11789,"Ġdramatically":11790,"Ġtorture":11791,"Ġcotton":11792,"Ġbeside":11793,"Date":11794,"Follow":11795,"TE":11796,"label":11797,"eda":11798,"Ġinject":11799,"ĠMoscow":11800,"ÂłSo":11801,"abl":11802,"ĠRod":11803,"ĠOften":11804,"Ġtrash":11805,"Ġupgr":11806,"acent":11807,"Ġtwist":11808,"econ":11809,"Ġguilt":11810,"Ġendless":11811,"Ġfiled":11812,"Ġtestim":11813,"Ġphotography":11814,"Ġlawsuit":11815,"write":11816,"Ġrestricted":11817,"ĠAnonymousreply":11818,"')Ċ":11819,"Ñı":11820,"Ġtent":11821,"Ġsits":11822,"Ġdough":11823,"Ġgrip":11824,"uther":11825,"ĠTO":11826,"ĠTer":11827,"amous":11828,"rained":11829,"Ġalike":11830,"Ġtrillion":11831,"Ġclip":11832,"Ġaged":11833,"ountered":11834,"ĠString":11835,"Ġgenet":11836,"Though":11837,"Ġreadily":11838,"Ġfranch":11839,"Ġgrave":11840,"oker":11841,"Ġpractically":11842,"Ġfunctioning":11843,"Ġobjectives":11844,"Ġlayout":11845,"ĠAmong":11846,"Ġimaging":11847,"Ġembra":11848,"ĠMarketing":11849,"iosity":11850,"Anyway":11851,"ĠAlexander":11852,"Ġassignment":11853,"connected":11854,"uccess":11855,"rea":11856,"Ġwrap":11857,"ĠIron":11858,"adow":11859,"ĠBuy":11860,"ĠRoll":11861,"Ġleak":11862,"Ġplacing":11863,"arer":11864,"ighters":11865,"Ġslip":11866,"Ġslower":11867,"Ġmature":11868,"atson":11869,"ĠScript":11870,"Ġeaten":11871,"Ġpsychology":11872,"Ġreflected":11873,"Ġethical":11874,"-scale":11875,"Ġtheoretical":11876,"ĠDigital":11877,"ĠVietnam":11878,"Having":11879,"bat":11880,"itzer":11881,"ilon":11882,"Ġattending":11883,"Ġjew":11884,"pless":11885,"ĠOffic":11886,"Ġarise":11887,"Ġbetray":11888,"Ġmining":11889,"182":11890,"Ġterminal":11891,"Ġbitter":11892,"Ġkills":11893,"Ġcopyright":11894,"Index":11895,"ĠPDF":11896,"Ġpuzzle":11897,"Return":11898,"-en":11899,"/M":11900,"93":11901,"AW":11902,"LY":11903,"aci":11904,"gun":11905,"lan":11906,"lation":11907,"uv":11908,"Ġslic":11909,"Ġgaining":11910,"Ġconclude":11911,"ĠBand":11912,"Ġcomedy":11913,"Ġrif":11914,"ĠHan":11915,"ĠEither":11916,"ĠNation":11917,"ĠLen":11918,"Ġmanages":11919,"Ġgrasp":11920,"Ġpoetry":11921,"ĠAnderson":11922,"Ġmeter":11923,"ĠAlice":11924,"Ġextrem":11925,"appropri":11926,"Ġcharacteristic":11927,"author":11928,"ĠMaria":11929,"Ġencountered":11930,"Ġexceptions":11931,"iffs":11932,"Ġembedded":11933,"Ġprinted":11934,"Ġprisoners":11935,"sembly":11936,"Ġevolutionary":11937,"Ġtemplate":11938,"Ġluxury":11939,"Ġmetabolism":11940,"Again":11941,"Eng":11942,"Never":11943,"_pro":11944,"nie":11945,"âĦ¢":11946,"Ġbio":11947,"especially":11948,"Ġnp":11949,"Ġbears":11950,"advant":11951,"igious":11952,"Ġhem":11953,"Ġwashing":11954,"istence":11955,"Ġabdom":11956,"ĠFall":11957,"Ġprejud":11958,"ĠWeek":11959,"liest":11960,"beat":11961,"Ġeastern":11962,"Ġcouch":11963,"Ġaffecting":11964,"Ġoccurring":11965,"Ġcollecting":11966,"Ġtrusted":11967,"Ġattended":11968,"Ġvarying":11969,"Ġexplicitly":11970,"izarre":11971,"Event":11972,"Given":11973,"Hand":11974,"SON":11975,"Sorry":11976,"aith":11977,"ela":11978,"ĠRing":11979,"ĠLady":11980,"Ġclue":11981,"Ġcooperation":11982,"Ġtrapped":11983,"Ġpublication":11984,"Ġcredits":11985,"ĠMeanwhile":11986,"Ġdropping":11987,"Ġdatas":11988,"Ġliberty":11989,"Ġexpressions":11990,"Ġacquire":11991,"Ġrecipes":11992,".jpg":11993,"Ġuncertainty":11994,"Ġchamber":11995,".L":11996,"Ms":11997,"NC":11998,"_P":11999,"db":12000,"rimin":12001,"zens":12002,"hero":12003,"heast":12004,"Ġfoss":12005,"Ġpup":12006,"Ġgrey":12007,"Ġstairs":12008,"ĠBan":12009,"ĠBurn":12010,"Ġneat":12011,"ĠGra":12012,"ĠLabor":12013,"ĠON":12014,"Ġflags":12015,"Ġinterior":12016,"Ġproducers":12017,"Ġfounder":12018,"Ġhomeless":12019,"Ġtechnological":12020,"Ġswallow":12021,"Ġpressed":12022,"Ġwaist":12023,"Array":12024,"Ġneighbour":12025,"Question":12026,"Ġtower":12027,"Ġscreaming":12028,"Ġtribes":12029,"Ġaltogether":12030,"Ġcollaboration":12031,"uros":12032,"why":12033,"erb":12034,"Ġbom":12035,"Ġholy":12036,"adium":12037,"ĠAz":12038,"Ġexclusively":12039,"ĠWorks":12040,"Ġoutdoor":12041,"ansas":12042,"runt":12043,"Ġtraged":12044,"Ġsecular":12045,"Ġmodify":12046,"Ġmonetary":12047,"Ġcycl":12048,"block":12049,"Ġtablets":12050,"Ġdefeated":12051,"Ġloads":12052,"ĠArticles":12053,"Ø§Ø":12054,"Ġexpanding":12055,"Ġprosper":12056,"ĠSystems":12057,"Ġpaintings":12058,"Ġshelter":12059,"ĠSoftware":12060,"350":12061,"Bel":12062,"VC":12063,"Was":12064,"]]":12065,"rt":12066,"Ġfer":12067,"Ġmarch":12068,"ĠSO":12069,"Ġanx":12070,"olis":12071,"Ġpeer":12072,"close":12073,"rencies":12074,"icture":12075,"Ġrab":12076,"Ġpreserve":12077,"ĠUnless":12078,"riendly":12079,"Ġdesigner":12080,"Ġaccepting":12081,"Ġindicating":12082,"Ġpurchasing":12083,"Ġsurvived":12084,"ĠUsually":12085,"Ġrequested":12086,"Ġcounterpart":12087,"Ġhormones":12088,"\";Ċ":12089,"MR":12090,"onze":12091,"Ġdrew":12092,"levant":12093,"Ġlol":12094,"Ġaspir":12095,"opular":12096,"Ġsoap":12097,"ĠNFL":12098,"Ġpermit":12099,"elling":12100,"Ġintermedi":12101,"Ġfinite":12102,"Ġskip":12103,"Ġreceives":12104,"Ġfundament":12105,"Ġsocieties":12106,"Ġhistoric":12107,"Ġenhancement":12108,"card":12109,"iors":12110,"initely":12111,"Ġwww":12112,"atile":12113,"alous":12114,"ĠHold":12115,"anti":12116,"ĠLuke":12117,"rying":12118,"duction":12119,"Ġblur":12120,"Ġinterference":12121,"Ġcriminals":12122,"Ġdeciding":12123,"Ġinsult":12124,"Ġslot":12125,"Ġdefence":12126,"184":12127,"apper":12128,"forced":12129,"Ġcomputing":12130,"Ġabsurd":12131,"Review":12132,"Ġimmense":12133,"Ġbarrel":12134,"Ġimagined":12135,"inois":12136,"Ġcouncil":12137,"ĠÐ¿":12138,"Ġcorporation":12139,"Ġholidays":12140,"Ġjournalists":12141,"ĠMassachusetts":12142,"Ġsurfaces":12143,"Ġinherit":12144,"Ġpublish":12145,"Ġenthusi":12146,"ĠOscar":12147,"\"},Ċ":12148,"HP":12149,"High":12150,"SF":12151,"ni":12152,"oen":12153,"Äģ":12154,"atal":12155,"Ġbaking":12156,"Ġpose":12157,"Ġpiss":12158,"Ġmes":12159,"Ġloses":12160,"eterm":12161,"ĠTown":12162,"ĠSong":12163,"ĠAk":12164,"Ġweaken":12165,"ĠCross":12166,"ĠBang":12167,"uscript":12168,"Ġrings":12169,"cium":12170,"izard":12171,"Ġinvested":12172,"forward":12173,"-making":12174,"Ġreviewed":12175,"Ġcompliance":12176,"Ġnovels":12177,"Ġpeaceful":12178,"ymph":12179,"Ġsurprisingly":12180,"Ġsovereignty":12181,"Ġunclear":12182,"Ġcalculation":12183,"LI":12184,"iability":12185,"Ġwore":12186,"Ġlone":12187,"Ġecho":12188,"Ġgum":12189,"ĠAT":12190,"Ġprol":12191,"ĠEli":12192,"iley":12193,"Ġoverlook":12194,"Ġcoins":12195,"Ġreporter":12196,"Ġcoron":12197,"Ġgenerating":12198,"Ġartistic":12199,"Ġgovernor":12200,"Ġprize":12201,"Ġswing":12202,"Ġpromises":12203,"Ġspeeds":12204,"Ġcomplications":12205,"Ġheroes":12206,"ĠThompson":12207,"Ġsuspension":12208,"ĠJersey":12209,"ĠTemple":12210,"Ġgifts":12211,"ĠAdministration":12212,"-j":12213,"='":12214,"MI":12215,"\\begin":12216,"cos":12217,"every":12218,"luc":12219,"pically":12220,"{code":12221,"Ġmos":12222,"Ġinequ":12223,"Ġgreet":12224,"idity":12225,"ĠTen":12226,"ĠCut":12227,"Ġconform":12228,"Ġseasons":12229,"ochem":12230,"Ġworkplace":12231,"Ġshed":12232,"ĠStore":12233,"ĠAndy":12234,"Ġretired":12235,"Ġbehave":12236,"hysical":12237,"Ġcirculation":12238,"ĠAbraham":12239,"ĠCoast":12240,"Ġblend":12241,"Ġreflects":12242,"ĠAnton":12243,"True":12244,"Ġcolumns":12245,"Ġentertaining":12246,"Ġdysfunction":12247,"Ġdosage":12248,"Ġgrammar":12249,"Ġavoided":12250,"Ġgoogle":12251,"Ġsophisticated":12252,"'.Ċ":12253,":\"":12254,"RO":12255,"SI":12256,"eq":12257,"names":12258,"will":12259,"Ð¼":12260,"instein":12261,"Ġpets":12262,"Ġdread":12263,"Ġstabil":12264,"ĠCB":12265,"ĠMO":12266,"ĠHop":12267,"ostic":12268,"ĠGulf":12269,"actic":12270,"oca":12271,"ĠKong":12272,"Ġpreference":12273,"Ġhandy":12274,"Ġtransparent":12275,"Ġproblematic":12276,"Ġfrank":12277,"Ġpainted":12278,"Ġsalary":12279,"ÂłÂłÂłÂłÂł":12280,"Ġtargeting":12281,"Ġescal":12282,"ĠDemocrat":12283,"Ġprinting":12284,"Ġlaboratory":12285,"Ġsimpler":12286,"Ġpharmacy":12287,"ĠIdent":12288,"rapeut":12289,"Ġdisgust":12290,"-est":12291,"Further":12292,"Sn":12293,"isations":12294,"Ġgel":12295,"ĠSeveral":12296,"ĠCas":12297,"ĠMA":12298,"ĠHal":12299,"Ġshoe":12300,"ĠDoug":12301,"ĠFive":12302,"inded":12303,"perm":12304,"Ġunh":12305,"Ġresur":12306,"Ġspy":12307,"Inv":12308,"Ġdefensive":12309,"Ġrefres":12310,"Ġrefrig":12311,"ĠShare":12312,"adding":12313,"Ġassociate":12314,"Ġignoring":12315,"Ġfemales":12316,"Ġalternate":12317,"ĠAccount":12318,"Ġdispute":12319,"Ġboundary":12320,"Ġjumping":12321,"================":12322,"Ġaxis":12323,"Ġoccasions":12324,"Product":12325,"BN":12326,"Cle":12327,"lvan":12328,"only":12329,"ishers":12330,"Ġnest":12331,"rait":12332,"ĠCass":12333,"ulative":12334,"ĠMove":12335,"ĠLew":12336,"ionship":12337,"Ġreserve":12338,"Ġexamination":12339,"ĠUniverse":12340,"128":12341,"float":12342,"Ġfridge":12343,"eek":12344,"ikh":12345,"Ġprotests":12346,"Ġdealt":12347,"Ġreligions":12348,"Ġsoldier":12349,"limited":12350,"Ġgasoline":12351,"Ġwoods":12352,"Ġbelongs":12353,"Ġcrops":12354,"Ġfrustrated":12355,"Ġprivilege":12356,"Ġoccasional":12357,"usalem":12358,"Ġimprison":12359,"$.Ċ":12360,"UD":12361,"Yet":12362,"km":12363,"piece":12364,"Ġdia":12365,"imation":12366,"ĠSay":12367,"Ġhey":12368,"ĠCup":12369,"ĠBul":12370,"ĠBased":12371,"Ġrounds":12372,"aby":12373,"Ġcholesterol":12374,"iph":12375,"Ġpref":12376,"Ġraises":12377,"theta":12378,"ertainly":12379,"Ġclassified":12380,"Ġnamely":12381,"ĠProblem":12382,"ĠPhoto":12383,"Ġnicely":12384,"Ġarmor":12385,"ugging":12386,"Ġconflicts":12387,"Ġhomosexual":12388,"ogenic":12389,"Ġsacrific":12390,"Ġhypothesis":12391,"ĠEspecially":12392,"-V":12393,"Michael":12394,"Talk":12395,"wer":12396,"Ġsour":12397,"atable":12398,"itial":12399,"oro":12400,"Ġfires":12401,"Ġmamm":12402,"vector":12403,"ĠTol":12404,"uru":12405,"ĠSix":12406,"Ġanch":12407,"ĠCow":12408,"Âłthat":12409,"agle":12410,"iped":12411,"nection":12412,"Ġspite":12413,"Ġnewer":12414,"onto":12415,"ggy":12416,"Ġcarbo":12417,"Ġelig":12418,"à¤¿":12419,"Ġtexture":12420,"Ġsummar":12421,"Ġcycling":12422,"Ġblocked":12423,"eroids":12424,"Ġdeclare":12425,"Ġtolerance":12426,"Ġhunger":12427,"Ġarbitrary":12428,"ĠSimilarly":12429,"Ġrhythm":12430,".;":12431,"Ext":12432,"cite":12433,"rous":12434,"yard":12435,"Â·":12436,"orie":12437,"Ġhub":12438,"owth":12439,"igs":12440,"ĠSleep":12441,"keys":12442,"ĠCP":12443,"oresc":12444,"Ġrust":12445,"ouses":12446,"Ġpeers":12447,"Ġtender":12448,"Ġapple":12449,"Ġrage":12450,"except":12451,"Ġhomework":12452,"Ġdrum":12453,"Ġphysician":12454,"ĠSomeone":12455,"Ġacceptance":12456,"ĠEnvironment":12457,"Ġagreements":12458,"Ġimplementing":12459,"Ġgraphic":12460,"Ġempathy":12461,"ĠMedicine":12462,"Ġfatigue":12463,".w":12464,"/L":12465,"Hello":12466,"Je":12467,"_st":12468,"fare":12469,"hal":12470,"have":12471,"last":12472,"}^":12473,"Ġ..":12474,"render":12475,"Ġcried":12476,"isan":12477,"riel":12478,"abul":12479,"ĠDM":12480,"ptr":12481,"fee":12482,"plot":12483,"iban":12484,"Ġresolved":12485,"Ġoffs":12486,"ovie":12487,"Ġunderneath":12488,"Ġdried":12489,"Ġpleased":12490,"Ġenterprise":12491,"Ġattracted":12492,"ECT":12493,"Ġdistricts":12494,"########":12495,"folio":12496,"Ġnonsense":12497,"Ġbureauc":12498,"Test":12499,"mand":12500,"nders":12501,"ingle":12502,"Ġbeam":12503,"utical":12504,"think":12505,"ĠDue":12506,"ĠGall":12507,"Ġcompression":12508,"owners":12509,"ribly":12510,"aza":12511,"ussy":12512,"ĠIndians":12513,"Char":12514,"Ġlawn":12515,"Ġdetermination":12516,"Ġbiology":12517,"Ġmembership":12518,"help":12519,"Ġembry":12520,"ĠSimon":12521,"Ġaims":12522,"ÙİØ":12523,"Ġstreaming":12524,"Ġtransferred":12525,"Ġharvest":12526,"Ġhydrogen":12527,"ĠDragon":12528,".âĢĻĊ":12529,"âĪĴ":12530,"(*":12531,"Ben":12532,"IO":12533,"Member":12534,"UC":12535,"Ġ:Ċ":12536,"Ġov":12537,"itated":12538,"Ġpir":12539,"ĠTar":12540,"illance":12541,"ÂłR":12542,"ÂłW":12543,"Ġatoms":12544,"thony":12545,"Ġteens":12546,"Ġunl":12547,"achy":12548,"ĠInv":12549,"Ġimposed":12550,"Ġschem":12551,"obic":12552,"Ġrod":12553,"ervation":12554,"cludes":12555,"Ġpatience":12556,"170":12557,"Ġfatal":12558,"Ġlifted":12559,"ĠIntel":12560,"ĠAnyone":12561,"Ġcivilization":12562,"Ġviruses":12563,"ĠStudy":12564,"Ġconservation":12565,"ĠDefense":12566,"Ġscratch":12567,"Ġconvincing":12568,"ĠVictoria":12569,"Ġrecruit":12570,"Ġelderly":12571,"-al":12572,"-we":12573,"-ins":12574,"Point":12575,"coin":12576,"giving":12577,"pin":12578,"rot":12579,"Ð´":12580,"reed":12581,"Ġhated":12582,"Ġlas":12583,"ĠSanta":12584,"Ġ()":12585,"opping":12586,"istance":12587,"ĠHu":12588,"Ġdozens":12589,"ĠRaj":12590,"ĠStat":12591,"Ġattitudes":12592,"Info":12593,"Ġdecay":12594,"Ġentries":12595,"Ġcountless":12596,"Ġdefining":12597,"Ġcreep":12598,"Ġcurs":12599,"Ġskilled":12600,"Ġedited":12601,"ĠConst":12602,"Ġactivation":12603,"ĠSyrian":12604,"Ġcopper":12605,"Ġpublishing":12606,"ĠParliament":12607,"ĠPrem":12608,"ĠOtherwise":12609,"Ġclubs":12610,"81":12611,"Tim":12612,"])":12613,"las":12614,"Ùĩ":12615,"Ġtribe":12616,"onge":12617,"itably":12618,"imated":12619,"ĠTQ":12620,"Ġhed":12621,"Ġdeemed":12622,"ĠBart":12623,"ĠBuild":12624,"emption":12625,"Ġvine":12626,"ĠRain":12627,"ĠFarm":12628,"ĠNations":12629,"Ġinval":12630,"ĠArgent":12631,"Ġprevention":12632,"Ġorigins":12633,"ĠManager":12634,"Ġepic":12635,"Ġpurchases":12636,"Ġsecrets":12637,"Ġtelephone":12638,"Ġcups":12639,"Content":12640,"ĠMexican":12641,"Ġcolonial":12642,"ĠADHD":12643,"Ġsanctions":12644,"ĠOlympic":12645,"ĠNavy":12646,"ĠSummer":12647,"Ġpropaganda":12648,"Ġsuspended":12649,"([":12650,"Base":12651,"Very":12652,"faces":12653,"oard":12654,"uates":12655,"||":12656,"Ġapt":12657,"Ġmun":12658,"ĠAction":12659,"riven":12660,"ths":12661,"ĠRab":12662,"ĠGOP":12663,"acular":12664,"lient":12665,"atherine":12666,"123":12667,"Ġsolving":12668,"Ġoperational":12669,"Ġabsor":12670,"Ġdamages":12671,"Ġcompetitors":12672,"uclear":12673,"Ġfragment":12674,"Ġemotionally":12675,"Ġannouncement":12676,"Ġtremendous":12677,"-man":12678,"/w":12679,"87":12680,"js":12681,"oa":12682,"pol":12683,"Ùĥ":12684,"esters":12685,"orig":12686,"asury":12687,"stairs":12688,"Ġstats":12689,"ĠMun":12690,"ĠMoney":12691,"agg":12692,"ailable":12693,"Ġcrown":12694,"Ġrealise":12695,"Ġprovince":12696,"Ġexamined":12697,"Ġfilters":12698,"ĠWhatever":12699,"Ġparas":12700,"âĢľThe":12701,"ĠConnect":12702,"Ġsensation":12703,"ĠImm":12704,"Ġfatty":12705,"Ġcrossing":12706,"Ġspreading":12707,"Ġenhanced":12708,"Ġinitiative":12709,"Ġladies":12710,"ĠRespons":12711,"Jack":12712,"Orig":12713,"oning":12714,"oria":12715,"Ġdull":12716,"Ġreass":12717,"Ġstays":12718,"heric":12719,"ateur":12720,"ĠBull":12721,"ĠBrian":12722,"Ġric":12723,"ĠPA":12724,"ĠNatural":12725,"ĠUV":12726,"Ġresume":12727,"Ġpricing":12728,"ella":12729,"Ġtrauma":12730,"Ġgenome":12731,"hess":12732,"Ġcharity":12733,"Ġmedieval":12734,"Ġcomplement":12735,"bytes":12736,"Ġaccordingly":12737,"Ġcontacts":12738,"Ġbehavioral":12739,"Ġconsistency":12740,"Score":12741,"Ġadjusted":12742,"Ġevaluated":12743,"ĠEgyptian":12744,"ĠBetter":12745,"ĠJerusalem":12746,"Ġblanket":12747,"Instead":12748,"Ġdeposit":12749,"ioxide":12750,"Ġminerals":12751,".ex":12752,"ILL":12753,"core":12754,"matic":12755,"rams":12756,"});Ċ":12757,"Ġtorn":12758,"Ġpel":12759,"rox":12760,"rock":12761,"iral":12762,"ĠCredit":12763,"ista":12764,"Ġleverage":12765,"Ġjson":12766,"plus":12767,"ĠJordan":12768,"avy":12769,"next":12770,"ĠChair":12771,"Ġbrick":12772,"Ġende":12773,"Ġideology":12774,"scribe":12775,"Ġspecialized":12776,"ĠÂ©":12777,"Being":12778,"Ġgeometry":12779,"ĠCorpor":12780,"market":12781,"Ġtranslated":12782,"rivacy":12783,"Ġlabeled":12784,"Ġappointed":12785,"Ġincorporate":12786,"Ġdistinguish":12787,"ĠJacob":12788,"Ġcertificate":12789,"Ġcompatible":12790,"ocalypse":12791,"Ġglucose":12792,".]Ċ":12793,"94":12794,"SW":12795,"Ġwoke":12796,"Ġbases":12797,"arious":12798,"Ġneural":12799,"ĠRaz":12800,"ĠFro":12801,"ĠLA":12802,"Ġhash":12803,"ĠJu":12804,"Ġthrows":12805,"Ġdiscont":12806,"Ġlesser":12807,"Ġlistened":12808,"178":12809,"Ġdepict":12810,"Ġavailability":12811,"Ġwonders":12812,"Ġcompanion":12813,"Ġdefinitions":12814,"Ġmisunder":12815,"Ġfacial":12816,"Ġtranslate":12817,"ĠBarack":12818,"ĠReviews":12819,"Ġharass":12820,"Ġmicrosc":12821,"Ġhorizon":12822,"Ġcompromise":12823,"Ġextraordinary":12824,".b":12825,"/k":12826,"GA":12827,"Pat":12828,"bags":12829,"cat":12830,"lon":12831,"non":12832,"}_":12833,"Ġbizarre":12834,"Ġrewards":12835,"Ġanthrop":12836,"ĠCab":12837,"ÂłK":12838,"usr":12839,"ĠEuro":12840,"ibration":12841,"Ġtransmit":12842,"Ġcounting":12843,"ĠAlways":12844,"Ġopenly":12845,"Ġprofitable":12846,"iking":12847,"sylvan":12848,"iliation":12849,"ammad":12850,"space":12851,"Ġrandomly":12852,"Ġpunish":12853,"ĠSeries":12854,"ĠCOVID":12855,"Ġreceptors":12856,"ĠStandard":12857,"Ġjurisd":12858,"count":12859,"kers":12860,"orable":12861,"Ġfict":12862,"Ġpor":12863,"chlor":12864,"ĠSel":12865,"ĠCore":12866,"pection":12867,"ĠBond":12868,"opath":12869,"Ġprox":12870,"anting":12871,"ĠDog":12872,"ĠFBI":12873,"ĠGreg":12874,"ptical":12875,"ĠObs":12876,"Ġarrog":12877,"Ġresort":12878,"Ġfled":12879,"ĠZak":12880,"ĠIndones":12881,"Ġpractition":12882,"ortunate":12883,"Ġphysi":12884,"system":12885,"Ġconnecting":12886,"Ġlacking":12887,"-ups":12888,"ĠTravel":12889,"options":12890,"Ġdietary":12891,"Ġcategor":12892,"Ġprecision":12893,"Ġconcentrate":12894,"ĠNetflix":12895,"ĠAnswers":12896,"Ġjoints":12897,"Ġcabin":12898,"Ġbasketball":12899,"Ġswitched":12900,"Whether":12901,",y":12902,".add":12903,"Main":12904,"SL":12905,"mare":12906,"wind":12907,"enly":12908,"Ġmast":12909,"omo":12910,"ioned":12911,"utable":12912,"root":12913,"ĠSupport":12914,"ÂłThere":12915,"oping":12916,"ĠPu":12917,"ante":12918,"ĠDad":12919,"ĠField":12920,"plit":12921,"Ġoutstanding":12922,"ĠOcean":12923,"Ġinterfe":12924,"108":12925,"gets":12926,"conf":12927,"Ġdiscoura":12928,"ahoo":12929,"flamm":12930,"Ġglobe":12931,"ucker":12932,"ohan":12933,"Ġtrips":12934,"Ġhealthier":12935,"oku":12936,"Ġparliament":12937,"ĠCancer":12938,"Ġmassage":12939,"Ġbarriers":12940,"Ġsenses":12941,"-hour":12942,"Ġswitching":12943,"Ġearnings":12944,"Ġisolation":12945,"ĠFreedom":12946,"Ġelevated":12947,"ĠCircuit":12948,"Ġaudiences":12949,"Ġinvisible":12950,"-int":12951,".x":12952,"Jump":12953,"Open":12954,"ais":12955,"metic":12956,"Ġbool":12957,"Ġfu":12958,"Ġfond":12959,"ĠCorn":12960,"illage":12961,"rium":12962,"ĠPack":12963,"ĠParent":12964,"Ġaliens":12965,"ĠOkay":12966,"reating":12967,"Ġpreferences":12968,"Ġsheep":12969,"Ġblond":12970,"orship":12971,"obias":12972,"Ġbugs":12973,"Ġplanes":12974,"ounters":12975,"Ġeleg":12976,"Ġforecast":12977,"Ġprophe":12978,"Ġfrequencies":12979,"Comment":12980,"ĠArabia":12981,"Ġconcentrations":12982,"Ġnegotiations":12983,",âĢĻ":12984,"-so":12985,"FC":12986,"Sure":12987,"hole":12988,"test":12989,"ĠÑģ":12990,"Ġbearing":12991,"etric":12992,"Ġstain":12993,"Ġstaring":12994,"uri":12995,"ĠBa":12996,"thod":12997,"abases":12998,"Ġsoccer":12999,"ryst":13000,"ĠChrome":13001,"ĠVersion":13002,"Ġaccent":13003,"fty":13004,"Ġformats":13005,"Ġcorrection":13006,"Ġpossession":13007,"ussian":13008,"Ġunderstands":13009,"Ġparticle":13010,"Ġactivated":13011,"Ġdigit":13012,"Ġprotective":13013,"Ġrepresentatives":13014,"ilipp":13015,"Ġquantities":13016,"Ġinterpreted":13017,"Ġfirmly":13018,"ĠLooking":13019,"Ġattribute":13020,"Ġtunnel":13021,"Ġobligation":13022,"Ġstrictly":13023,"ĠDarwin":13024,"Ap":13025,"Work":13026,"_C":13027,"bes":13028,"bone":13029,"hard":13030,"rer":13031,"owa":13032,"eman":13033,"Ġtricks":13034,"ĠJosh":13035,"Ġsafer":13036,"Ġdisput":13037,"Ġracing":13038,"Three":13039,"Ġsubstitute":13040,"ructive":13041,"ĠDeep":13042,"Ġprevents":13043,"Ġbrave":13044,"Ġequity":13045,"Ġdesigners":13046,"Ġconsiderably":13047,"Ġenerg":13048,"Ġprevented":13049,"ASE":13050,"Ġcontributing":13051,"Ġpleasant":13052,"Ġtastes":13053,"ĠAnyway":13054,"Ġcruise":13055,"Ġethics":13056,"Ġwireless":13057,"ĠBaby":13058,"Ġminimize":13059,"ĠIllinois":13060,"sylvania":13061,"/**Ċ":13062,"Current":13063,"Size":13064,"corn":13065,"Ġaffe":13066,"Ġwre":13067,"Ġtob":13068,"Ġdictionary":13069,"arse":13070,"otine":13071,"search":13072,"Ġrally":13073,"ĠProm":13074,"abe":13075,"ĠER":13076,"Ġcompact":13077,"Ġresidence":13078,"Ġprefix":13079,"Ġrope":13080,"Ġwherever":13081,"Ġrepublic":13082,"before":13083,"Ġcurric":13084,"ĠTrade":13085,"Ġhyd":13086,"Change":13087,"Ġnecessity":13088,"Ġapproaching":13089,"Ġachieving":13090,"Ġintegral":13091,"-American":13092,"ĠRoberts":13093,"Ġvegetable":13094,"Ġutilize":13095,"Ġnerves":13096,"Ġignorance":13097,"lucan":13098,"(k":13099,"None":13100,"Î¿":13101,"inth":13102,"inery":13103,"Ġmuseum":13104,"Ġreign":13105,"ifting":13106,"Ġsectors":13107,"ĠHum":13108,"Ġcance":13109,"Ġclause":13110,"Ġdisability":13111,"Ġdisadvant":13112,"Ġblast":13113,"ĠStaff":13114,"Ġacted":13115,"Ġbund":13116,"ocking":13117,"Ins":13118,"Think":13119,"Ġsubmitted":13120,"ĠAssembly":13121,"Ġassured":13122,"Ġtyr":13123,"ĠBridge":13124,"ĠTruth":13125,"-for":13126,"Ġcharacterized":13127,"ĠWithin":13128,"Ġfights":13129,"Ġaddressing":13130,"Ġblocking":13131,"Ġcontroversy":13132,"Ġsoda":13133,"Ġfestival":13134,"Ġinhabit":13135,"-go":13136,"220":13137,"Number":13138,"Ok":13139,"dam":13140,"kle":13141,"roup":13142,"uilt":13143,"hew":13144,"aland":13145,"Ġlin":13146,"Ġlyrics":13147,"Ġego":13148,"othy":13149,"aman":13150,"oler":13151,"Ġvag":13152,"mentation":13153,"resident":13154,"Ġabnormal":13155,"ĠGB":13156,"ogene":13157,"ĠKakashi":13158,"akespe":13159,"Ġ{\\":13160,"Ġwinds":13161,"Ġneglig":13162,"Ġconviction":13163,"Ġbroader":13164,"operat":13165,"Ġsuspic":13166,"Ġshadows":13167,"Consider":13168,"Ġloyalty":13169,"Ġsearches":13170,"-ad":13171,"/D":13172,"Net":13173,"Node":13174,"SQL":13175,"],Ċ":13176,"}.":13177,"atisf":13178,"Ġfiscal":13179,"stick":13180,"Ġyards":13181,"immer":13182,"champ":13183,"ĠSH":13184,"Ġorbit":13185,"umbers":13186,"Ġranks":13187,"ĠPFD":13188,"Ġchurches":13189,"ĠJay":13190,"ĠKevin":13191,"ango":13192,"Ġpockets":13193,"Ġflows":13194,"Ġslaves":13195,"ucking":13196,"Ġpassenger":13197,"Ġequipped":13198,"Answ":13199,"-made":13200,"ĠLevel":13201,"Ġsimilarly":13202,"Ġattacking":13203,"Ġ*Ċ":13204,"Ġdomains":13205,"Show":13206,"Ġurge":13207,"ambda":13208,"Ġindependently":13209,"ĠAgency":13210,"Ġcomparable":13211,"Ġsuspected":13212,"Ġphrases":13213,"ĠFranklin":13214,"Similar":13215,"Param":13216,"Ġperipheral":13217,"-over":13218,"eks":13219,"lar":13220,"pub":13221,"rin":13222,"size":13223,"walk":13224,"Ġwrest":13225,"ĠSony":13226,"ĠBody":13227,"Âłfor":13228,"Ġneurop":13229,"ĠEarly":13230,"Ġoutbreak":13231,"acies":13232,"cca":13233,"aceutical":13234,"002":13235,"Ġsheer":13236,"Ġours":13237,"uality":13238,"Ġhighway":13239,"Ġtransmitted":13240,"Ġgenerous":13241,"Ġskull":13242,"Ġmindset":13243,"ĠSelect":13244,"should":13245,"Ġbloody":13246,"Ġchallenged":13247,"Ġgrandfather":13248,"Ġscripts":13249,"Ġestablishing":13250,"Ġreminds":13251,"Ġvitamins":13252,"Ġhypert":13253,"ĠBerlin":13254,"Default":13255,"Ġneurons":13256,"Ġtackle":13257,"Ġthermal":13258,"ĠLabour":13259,"ĠOlivia":13260,"Ġolive":13261,"82":13262,"Ah":13263,"SO":13264,"bed":13265,"iel":13266,"node":13267,"onies":13268,"Ġsir":13269,"itches":13270,"isen":13271,"Ġfiring":13272,"Ġmakers":13273,"Ġdioxide":13274,"Ġgard":13275,"Ġgrief":13276,"Ġreck":13277,"rose":13278,"idency":13279,"Ġsteroids":13280,"Ġanonymous":13281,"ĠCSS":13282,"ulpt":13283,"Ġnotable":13284,"ĠUntil":13285,"Ġgrat":13286,"Ġcope":13287,"Ġbuck":13288,"Ġtrailer":13289,"Ġpurple":13290,"Ġvaries":13291,"amsung":13292,"Ġdraws":13293,"ĠScholar":13294,"Ġqueen":13295,"Ġremarks":13296,"ĠSanders":13297,"Ġhatred":13298,"Ġbelly":13299,"Ġsubsequently":13300,"ĠCapital":13301,"Ġignorant":13302,"Ġincentive":13303,"Ġfacilitate":13304,"Ġprescribed":13305,"Ġdoctrine":13306,"/*":13307,"Men":13308,"NO":13309,"PH":13310,"Resp":13311,"bro":13312,"cin":13313,"human":13314,"mail":13315,"vised":13316,"ĠâĢĻ":13317,"Ġ__":13318,"Ġgly":13319,"ĠMap":13320,"orer":13321,"ĠBrand":13322,"ĠWol":13323,"Ġrows":13324,"ositive":13325,"ĠDoc":13326,"ĠFDA":13327,"Ġunions":13328,"Ġperceive":13329,"Ġneeding":13330,"Ġseeks":13331,"ollar":13332,"ĠComputer":13333,"Ġdiver":13334,"Ġbasics":13335,"Ġlandl":13336,"Ġ+Ċ":13337,"Ġcolleges":13338,"ĠPrice":13339,"Ġ*/Ċ":13340,"ĠJohnny":13341,"Ġfinancially":13342,"Ġrevealing":13343,"Ġsticks":13344,"Ġunconscious":13345,"Ġtransformed":13346,"ĠPatrick":13347,"ĠPolish":13348,"ĠCommunity":13349,"--------------------------------":13350,"Ġoxid":13351,"bin":13352,"fly":13353,"Ġtires":13354,"Ġborr":13355,"leading":13356,"omorph":13357,"Ġerect":13358,"sto":13359,"ĠAbs":13360,"Ġproc":13361,"auge":13362,"ooking":13363,"ĠStock":13364,"Ġmakeup":13365,"Ġmetaphor":13366,"ĠAnalysis":13367,"ĠUnivers":13368,"amped":13369,"Ġpassive":13370,"Ġgrains":13371,"Ġcostly":13372,"Ġweights":13373,"ĠJustin":13374,"Ġrivers":13375,"Ġwarmth":13376,"Ġmedicines":13377,"arbon":13378,"Ġmistaken":13379,"itcoin":13380,"ĠIncre":13381,"ĠBooks":13382,"icycle":13383,"jections":13384,"Ġdestroying":13385,"low":13386,"nut":13387,"input":13388,"Ġcited":13389,"Ġbip":13390,"Ġmapping":13391,"Ġlen":13392,"Ġlaund":13393,"Ġforty":13394,"ĠCR":13395,"Ġnoting":13396,"ositions":13397,"ĠDick":13398,"ĠLyn":13399,"api":13400,"Ġunity":13401,"ipse":13402,"Ġoverview":13403,"ovascular":13404,"Ġappet":13405,"Ġflowing":13406,"olds":13407,"upiter":13408,"bean":13409,"Ġcontinuously":13410,"Web":13411,"ividually":13412,"Ġanswering":13413,"à¤°":13414,"ĠAllen":13415,"Ġmissiles":13416,"Ġcommentary":13417,"Ġspecialist":13418,"Ġhosting":13419,"Ġunfortunate":13420,"Ġgrandmother":13421,"Ġshifts":13422,"Ġcoalition":13423,"-quality":13424,"ĠEconomic":13425,"ĠMichel":13426,"Ġbuffer":13427,"FR":13428,"Link":13429,"Welcome":13430,"])Ċ":13431,"mal":13432,"Ġber":13433,"Ġpic":13434,"Ġdangers":13435,"omon":13436,"Ġrehab":13437,"ĠBol":13438,"Ġprolong":13439,"emon":13440,"Ġjar":13441,"Ġintest":13442,"Ġadverse":13443,"Ġunpre":13444,"Ġcaring":13445,"ĠHoward":13446,"Ġmonsters":13447,"Ġadvised":13448,"ĠArk":13449,"âĢĶa":13450,"ĠUSB":13451,"ufficient":13452,"ĠExample":13453,"ERE":13454,"Ġparenting":13455,"ĠPeace":13456,"Ġsunlight":13457,"event":13458,"Ġagrees":13459,"Ġlifting":13460,"ĠIntelligence":13461,"ĠEmily":13462,"September":13463,"Ġsatisfy":13464,"Ġbacterial":13465,"Ġtricky":13466,"ĠTurk":13467,"Ġruin":13468,"arency":13469,"Ġexplosion":13470,"Ġutterly":13471,"Ġtobacco":13472,"Ant":13473,"WS":13474,"Ġbay":13475,"Ġlap":13476,"ido":13477,"urring":13478,"ĠSide":13479,"ĠSpecific":13480,"Ġsegments":13481,"ĠHart":13482,"Ġalpha":13483,"ĠRachel":13484,"Ġjustified":13485,"ressive":13486,"Ġspont":13487,"Ġspider":13488,"reek":13489,"Ġthrust":13490,"Ġinvite":13491,"Ġlasting":13492,"Ġglory":13493,"orname":13494,"Str":13495,"Ġbreed":13496,"Ġcircular":13497,"Ġmixing":13498,"Ġstraightforward":13499,"Ġoccupation":13500,"Ġtumor":13501,"Ġclarity":13502,"Ġbothered":13503,"Ġagricultural":13504,"Ġmarginal":13505,"ĠUkraine":13506,"appropriate":13507,"operatorname":13508,"\"?":13509,"American":13510,"La":13511,"Rob":13512,"Ġtheft":13513,"atched":13514,"Ġpse":13515,"Ġmud":13516,"Ġhilar":13517,"ĠTai":13518,"rik":13519,"Ġshade":13520,"ĠGarden":13521,"ĠUI":13522,"Ġincons":13523,"105":13524,"Ġenters":13525,"Ġbuilds":13526,"ĠClark":13527,"Ġzones":13528,"Ġreplies":13529,"Ġhistorically":13530,"Ġarchae":13531,"ĠLaure":13532,"Ġmagnitude":13533,".png":13534,"writing":13535,"Ġpollution":13536,"ÂłÂłÂłÂłÂłÂłÂłÂłÂłÂłÂłÂłÂłÂłÂłÂł":13537,"Ġfifteen":13538,"ĠMoore":13539,"Ġpartnership":13540,"Build":13541,"Cain":13542,"GR":13543,"Life":13544,"current":13545,"wear":13546,"Ġtanks":13547,"Ġcrop":13548,"ĠSN":13549,"oder":13550,"ÂłThat":13551,"Ġprogression":13552,"Ġranging":13553,"Ġshaking":13554,"ĠRy":13555,"Ġjaw":13556,"ĠLanguage":13557,"early":13558,"ryption":13559,"Ġreset":13560,"ĠKids":13561,"hattan":13562,"Ġactress":13563,"Ġowns":13564,"Ġslots":13565,"Ġlocally":13566,"Ġcontinually":13567,"Ġpracticing":13568,"Ġexpectation":13569,"ĠExec":13570,"Ġsexually":13571,"Ġpropose":13572,"NAME":13573,"chem":13574,"ĠImport":13575,"Exp":13576,"Ġinjection":13577,"arbor":13578,"ritis":13579,"Ġrebell":13580,"Ġpromotion":13581,"Ġpalm":13582,"Ġsustained":13583,"Ġcartoon":13584,"Ġfifty":13585,"Ġromance":13586,"-being":13587,"Ġsovereign":13588,"Ġallergic":13589,"ĠLucas":13590,"Method":13591,"Ġrespiratory":13592,"BO":13593,"Tag":13594,"tag":13595,"Ġtire":13596,"esity":13597,"Ġnarc":13598,"Ġya":13599,"uty":13600,"ĠMagn":13601,"Ġexpend":13602,"Ġshore":13603,"ĠDu":13604,"Ġune":13605,"Ġdispar":13606,"Ġoverhead":13607,"Ġbuzz":13608,"ribution":13609,"Ġcarrier":13610,"psy":13611,"ĠAltern":13612,"Ġdistress":13613,"Ġboats":13614,"Ġtechnically":13615,"elson":13616,"Ġpriest":13617,"Ġorganize":13618,"Ġpressing":13619,"Ġmorality":13620,"Ġpicks":13621,"Ġcops":13622,"Ġpackaging":13623,"Ġpulls":13624,"Ġmiser":13625,"Ġnetworking":13626,"Ġemerge":13627,"ĠInstagram":13628,"Ġratings":13629,"Ġteenage":13630,"Ġfortune":13631,"Ġinduced":13632,"ĠFrancis":13633,"Ġceremony":13634,"Ġelectronics":13635,"Ġdelegates":13636,"ĠPalestinian":13637,"ĠBruce":13638,"healthy":13639,"ĠEventually":13640,"-gr":13641,"/P":13642,"Hope":13643,"_i":13644,"burn":13645,"dict":13646,"note":13647,"td":13648,"Ġæ":13649,"Ġdive":13650,"Ġinex":13651,"ete":13652,"ĠTel":13653,"ĠTitan":13654,"ractions":13655,"ĠCON":13656,"ulates":13657,"opia":13658,"ĠWatson":13659,"Ġsuits":13660,"ository":13661,"ĠRating":13662,"redict":13663,"akh":13664,"Ġknocked":13665,"ulty":13666,"neg":13667,"ector":13668,"ĠAnne":13669,"beit":13670,"Ġsigning":13671,"azines":13672,"Ġcontroller":13673,"ĠArthur":13674,"ika":13675,"Ġdesigning":13676,"Ġviewers":13677,"Ġairline":13678,"Ġdevoted":13679,"Ġcalcium":13680,"ospital":13681,"generation":13682,"Ġurine":13683,"security":13684,"Ġteaches":13685,"Ġtalented":13686,"ĠMorgan":13687,"Ġmurdered":13688,"ĠNazi":13689,"Download":13690,"Ġtragedy":13691,"akespeare":13692,"/pro":13693,"Field":13694,"WH":13695,"large":13696,"};Ċ":13697,"Ġion":13698,"Ġfame":13699,"Ġmi":13700,"Ġdan":13701,"arity":13702,"Ġnu":13703,"Ġnick":13704,"semble":13705,"ĠTok":13706,"adi":13707,"amination":13708,"ĠSab":13709,"ationally":13710,"Ġextends":13711,"ĠWinter":13712,"ĠEX":13713,"ounded":13714,"...\"Ċ":13715,"Ġquad":13716,"Ġspine":13717,"Ġcarb":13718,"Ġcarriers":13719,"Ġmarker":13720,"ricane":13721,"Ġtermin":13722,"Ask":13723,"ĠClin":13724,"Ġpromising":13725,"chester":13726,"Ġcampus":13727,"ĠApparently":13728,"obert":13729,"Ġsuscept":13730,"Ġcatast":13731,"Ġinvestigated":13732,"ACK":13733,"Ġappreciation":13734,"Ġsmartphone":13735,"ĠStudents":13736,"agonist":13737,"Ġsynthesis":13738,"Ġpassionate":13739,"Ġcoconut":13740,"Ġsatellites":13741,"Ġsurveys":13742,"Filter":13743,"Ġanalyses":13744,"cyclopedia":13745,"LD":13746,"nom":13747,"uu":13748,"itations":13749,"Ġbent":13750,"Ġflee":13751,"around":13752,"Ġlou":13753,"Ġnap":13754,"etal":13755,"amel":13756,"ĠCart":13757,"ilateral":13758,"ĠWolf":13759,"ĠPed":13760,"thood":13761,"ĠHur":13762,"ĠLocal":13763,"ĠâĢ¢":13764,"aux":13765,"Ġwhoever":13766,"âĢĿ)":13767,"Ġtwelve":13768,"Ġrecession":13769,"Ġincidents":13770,"being":13771,"ĠAlan":13772,"Ġdevelopments":13773,"Ġtreaty":13774,"Ġfailures":13775,"Ġencrypt":13776,"Ġvolcan":13777,"Ġstatistical":13778,"Ġtitled":13779,"ĠNeither":13780,"-state":13781,"Ġdatabases":13782,"marks":13783,"respons":13784,"News":13785,"Ġnavigate":13786,"Ġyields":13787,"ĠBrook":13788,"Ġinstitutional":13789,"Ġaccommodate":13790,"Ġdisplays":13791,"abulary":13792,".V":13793,".ui":13794,"Co":13795,"Paul":13796,"UST":13797,"World":13798,"bie":13799,"heres":13800,"omain":13801,"Ġnod":13802,"Ġnost":13803,"lli":13804,"ĠBreak":13805,"umi":13806,"Ġrays":13807,"ĠFant":13808,"pton":13809,"ogy":13810,"ogan":13811,"Ġadmin":13812,"Ġgrants":13813,"Ġsculpt":13814,"ĠHey":13815,"Ġrap":13816,"athon":13817,"arser":13818,"Ġcaution":13819,"Ġdesignated":13820,"Ġorganisms":13821,"Social":13822,"Ġpaste":13823,"ĠWarren":13824,"Ġescaped":13825,"Ġreminder":13826,"Ġrolls":13827,"Ġwitnesses":13828,"color":13829,"ĠFinancial":13830,"claimed":13831,"Ġarrangement":13832,"Ġhorizontal":13833,"ĠTaliban":13834,"ĠSquare":13835,"Ġvampire":13836,"Ġbrutal":13837,"Ġfranchise":13838,".set":13839,"MAN":13840,"dney":13841,"gree":13842,"hill":13843,"Ġslee":13844,"icop":13845,"std":13846,"Ġstressed":13847,"ĠMust":13848,"ÂłG":13849,"ĠWonder":13850,"ĠEdd":13851,"ogram":13852,"Ġenact":13853,"ensively":13854,"ordon":13855,"Ġbeta":13856,"Ġdiflucan":13857,"Ġrecovered":13858,"Ġcharging":13859,"commun":13860,"ĠReagan":13861,"iversary":13862,"ĠLeft":13863,"Ġmusicians":13864,"ĠImagine":13865,"Ġvoter":13866,"Ġcandy":13867,"Ġparks":13868,"Ġrobots":13869,"Ġscholar":13870,"Ġclinic":13871,"Ġquoted":13872,".js":13873,"Ġshifting":13874,"protected":13875,"ĠCasey":13876,"-O":13877,"Blog":13878,"bian":13879,"Ġpad":13880,"Ġtodd":13881,"ĠTarget":13882,"odine":13883,"ulent":13884,"ĠHong":13885,"ĠHunt":13886,"quin":13887,"Ġchapters":13888,"ĠRos":13889,"ĠRick":13890,"Ġlecture":13891,"ĠFuture":13892,"Ġjava":13893,"Ġoutrage":13894,"iple":13895,"Ġpermitted":13896,"Ġsymm":13897,"iances":13898,"Ġindividually":13899,"uckily":13900,"Ġtriv":13901,"Ġgameplay":13902,"Ġsexy":13903,"Ġfootage":13904,"Ġhosts":13905,"Nothing":13906,"ESS":13907,"Ġregulated":13908,"ĠDavis":13909,"ĠEmail":13910,"ĠJean":13911,"Ġsacred":13912,"Ġambig":13913,"Ġdelivering":13914,"ĠCommunist":13915,"Ġweaknesses":13916,"ĠEngineering":13917,"ĠPennsylvania":13918,"Ġtestimony":13919,"rapeutic":13920,"zo":13921,"Ùĳ":13922,"Ġfats":13923,"Ġinability":13924,"ĠAle":13925,"ĠHus":13926,"ĠGPS":13927,"ĠNut":13928,"plane":13929,"Ġups":13930,"Ġevolve":13931,"Ġoverly":13932,"Ġprone":13933,"Ġblown":13934,"ĠStories":13935,"ĠChi":13936,"Ġdeserves":13937,"Ġgenius":13938,"Ġattraction":13939,"Ġinvention":13940,"Ġprovisions":13941,"Ġmetric":13942,"Ġcorners":13943,"Ġsimilarities":13944,"Ġtablet":13945,"ĠEditor":13946,"ĠSimple":13947,"Ġachievement":13948,"Ġanalyzed":13949,"Ġfarming":13950,"Ġangles":13951,"Ġqualify":13952,"_data":13953,"Ġadvocate":13954,"Ġflew":13955,"Ġjacket":13956,"Ġsurveillance":13957,"Ġmoisture":13958,"Ġphotographs":13959,"-party":13960,"Ġclusters":13961,"Ġrhetoric":13962,"(D":13963,"Bar":13964,"Head":13965,"Mus":13966,"Wind":13967,"`Ċ":13968,"best":13969,"full":13970,"aned":13971,"ications":13972,"asive":13973,"ĠTool":13974,"ĠTheory":13975,"opard":13976,"ĠEsc":13977,"oof":13978,"astically":13979,"Ġoutline":13980,"ĠOwn":13981,"Ġblowing":13982,"ĠHeidi":13983,"erer":13984,"ĠAnthony":13985,"Ġ[[":13986,"Ġpotatoes":13987,"ĠBeaut":13988,"Ġsentiment":13989,"-point":13990,"Ġdetermines":13991,"Ġsensory":13992,"Ġconvicted":13993,"Ġillusion":13994,"ĠFlash":13995,"ĠHarvard":13996,"prints":13997,"Ġimplied":13998,"Meanwhile":13999,"Enter":14000,"Ġrelaxed":14001,"ulsion":14002,"Ġtrucks":14003,"ĠGolden":14004,"Ġobligations":14005,"Ġventure":14006,"ĠBlogger":14007,"Ġdepartments":14008,"Ġdisturbing":14009,"ĠHawai":14010,"Ġspirits":14011,"Ġdeliberately":14012,"#include":14013,"&rs":14014,".K":14015,"Min":14016,"pose":14017,"pool":14018,"times":14019,"hell":14020,"Ġbark":14021,"Ġeternal":14022,"ĠTotal":14023,"adel":14024,"Ġbypass":14025,"Ġlear":14026,"ĠFeng":14027,"oooo":14028,"Ġarter":14029,"Ġunlock":14030,"Ġ---":14031,"ocate":14032,"ĠHebrew":14033,"ĠStop":14034,"Ġflies":14035,"Ġbeloved":14036,"ĠSoon":14037,"Ġglance":14038,"ĠIsa":14039,"Star":14040,"Ġlightly":14041,"177":14042,"Ġfreed":14043,"ĠAlliance":14044,"Ġstealing":14045,"Should":14046,"regular":14047,"Example":14048,"Ġdemanded":14049,"Ġ>>":14050,"Ġpremise":14051,"Ġexplanations":14052,"Ġkicked":14053,"ochond":14054,"Ġgravit":14055,"ĠBetween":14056,"ĠAttorney":14057,"osterone":14058,"ĠOlympics":14059,"Ġpresumably":14060,"ĠColumbia":14061,"&rsquo":14062,"IST":14063,"Super":14064,"high":14065,"{R":14066,"Î±":14067,"Ġhood":14068,"omas":14069,"Ġgaze":14070,"aments":14071,"ĠMaking":14072,"ership":14073,"Ġdece":14074,"Ġvon":14075,"Ġaltered":14076,"ĠGDP":14077,"ĠEC":14078,"ĠNAT":14079,"acking":14080,"Ġcolored":14081,"Ġcuriosity":14082,"Ġsmallest":14083,"Ġprofiles":14084,"Ġpolitician":14085,"ĠBlock":14086,"Ġbreakdown":14087,"Chapter":14088,"Ġessays":14089,"Ġdamaging":14090,"Ġdominated":14091,"ĠObject":14092,"Ġarena":14093,"Ġensures":14094,"Ġultra":14095,"Ġcaptain":14096,"Ġclicking":14097,"Ġjournalist":14098,"ijing":14099,"Ġoptimization":14100,"Ġhabitat":14101,"Ġspinning":14102,"Ġsucceeded":14103,"Ġintentions":14104,"parents":14105,"Ġpulse":14106,"Ġdeployed":14107,"Ġvelocity":14108,"Ġamerican":14109,"Ġmembrane":14110,"Ġfossil":14111,".\\":14112,"/j":14113,"HH":14114,"Sw":14115,"len":14116,"Ġcows":14117,"asures":14118,"ctive":14119,"ĠTenn":14120,"ĠBitcoin":14121,"ĠHo":14122,"ques":14123,"Ġtrim":14124,"ĠJD":14125,"Ġenlight":14126,"Ġenabling":14127,"Ġcoaches":14128,"ixed":14129,"Ġposter":14130,"Ġdiapers":14131,"Ġeconomies":14132,"lette":14133,"Ġmagazines":14134,"Ġfunded":14135,"ĠGrid":14136,"Ġtraveled":14137,"........":14138,"ĠContact":14139,"Ġparticipating":14140,"Ġstrengths":14141,"Ġresistant":14142,"Ġmicrobi":14143,"default":14144,"Ġsatisfying":14145,"Ġempower":14146,"Ġbeaten":14147,"ĠCountry":14148,"Ġreserves":14149,"ĠBasically":14150,"Ġarranged":14151,"Ġinventory":14152,"Ġdesperately":14153,"Article":14154,"Ġstimulus":14155,"-way":14156,"Hy":14157,"OB":14158,"uci":14159,"itories":14160,"Ġps":14161,"Ġlane":14162,"Ġgast":14163,"imen":14164,"Ġforb":14165,"Ġstating":14166,"urate":14167,"ĠAB":14168,"ĠAmb":14169,"olitan":14170,"ĠCe":14171,"ÂłE":14172,"ĠPoly":14173,"abolic":14174,"andra":14175,"ĠGene":14176,"ĠEvil":14177,"ĠLat":14178,"achers":14179,"ĠYears":14180,"Ġpert":14181,"velength":14182,"Ġimpul":14183,"Ġcoe":14184,"Ġbacks":14185,"ĠVerm":14186,"issance":14187,"Ġmodes":14188,"Ġinsure":14189,"beging":14190,"Ġdistances":14191,"Ġheadaches":14192,"ĠProbably":14193,"process":14194,"-friendly":14195,"ĠFran":14196,"Ġmorph":14197,"Ġoptical":14198,"ĠNotice":14199,"ĠImp":14200,"rightarrow":14201,"regon":14202,"Ġresponding":14203,"Ġsouls":14204,"Gener":14205,"UTC":14206,"Ġcertified":14207,"Ġinteractive":14208,"Ġwitnessed":14209,"ĠDivision":14210,"ĠÃĹĊ":14211,"Ġirrelevant":14212,"ĠÂ»Ċ":14213,"Ġinclined":14214,"begingroup":14215,"&D":14216,"-ed":14217,"FP":14218,"ULL":14219,"double":14220,"pic":14221,"sim":14222,"Ġsized":14223,"Ġsisters":14224,"Ġpant":14225,"anas":14226,"ĠTP":14227,"Ġstared":14228,"aky":14229,"ĠâĢĿ":14230,"izational":14231,"Ġmanuscript":14232,"Ġanytime":14233,"Ġuncon":14234,"ellar":14235,"ometers":14236,"Ġindirect":14237,"Ġwrink":14238,"Ġgoodness":14239,"Ġinsisted":14240,"Its":14241,"Ġartic":14242,"Ġboil":14243,"Ġmeanings":14244,"Ġclassification":14245,"-sized":14246,"ooting":14247,"ployed":14248,"ĠBlu":14249,"ĠLeon":14250,"Ġimproves":14251,"Ġlabour":14252,"addle":14253,"Ġdocumented":14254,"nesota":14255,"à¥Ģ":14256,"ylon":14257,"ĠRomans":14258,"Ġfarms":14259,"ĠValue":14260,"Ġaccidentally":14261,"Ġmentions":14262,"ĠLibert":14263,"Ġgenuinely":14264,"mapsto":14265,"otherapy":14266,"Ġtemporarily":14267,"/g":14268,"DER":14269,"Person":14270,"Supp":14271,"ridge":14272,"whe":14273,"{}":14274,"~~":14275,"Ġmigration":14276,"aran":14277,"Ġgerm":14278,"ĠTs":14279,"ĠTour":14280,"Ġstunning":14281,"ĠSE":14282,"ĠSi":14283,"ĠCG":14284,"ĠBroad":14285,"ĠPa":14286,"Ġviable":14287,"Ġshar":14288,"ĠDru":14289,"ensor":14290,"Ġspam":14291,"Ġshelf":14292,"Ġpole":14293,"ishop":14294,"ĠAnaly":14295,"Ġgenerates":14296,"Ġartif":14297,"ugar":14298,"Ġplacement":14299,"Ġmindfulness":14300,"Ġlimiting":14301,"ĠFront":14302,"Ġsalad":14303,"enez":14304,"avorite":14305,"Ġenjoyable":14306,"boards":14307,"Ġdelayed":14308,"Ġlaying":14309,"-world":14310,"ĠGuy":14311,"Ġpublisher":14312,"Ġâī":14313,"Ġconsisting":14314,"Ġtourists":14315,"ĠConserv":14316,"writer":14317,"Ġpursuit":14318,"General":14319,"ĠTorah":14320,"ĠNevertheless":14321,"Ġallegedly":14322,"Ġmerchant":14323,"ĠMachine":14324,"-century":14325,"Ġlaundry":14326,"+)":14327,"/v":14328,
[...]
