#version: 0.2
Ġ t
Ġ a
h e
i n
r e
Ġt he
o n
Ġ s
e r
Ġ w
a t
Ġ o
Ġ c
n d
i t
i s
Ġ b
o u
e s
e n
in g
o r
Ġ f
Ġ p
Ġ m
a n
e d
Ġt o
a l
Ġ d
a r
Ġo f
Ġ in
Ġt h
Ġa nd
Ġ h
l e
i c
a s
o m
i on
Ġ l
Ġ n
Ġ e
l l
v e
l y
s t
en t
. Ċ
Ġ I
Ġ g
Ġ re
Ġb e
o t
Ġ y
Ġ is
c t
u t
o w
e t
â Ģ
Ġth at
Ġy ou
s e
r o
i d
i m
Ġ T
Ġ on
a y
Ġ u
Ġ it
a d
Ġf or
c e
i g
v er
l d
a m
Ġs t
u r
c h
Ġ S
Ġ A
Ġ he
Ġw h
it h
i r
at ion
Ġa n
Ġa s
Ġw ith
Ġw e
i f
Ġh a
o l
r a
k e
Ġ C
i l
Ġa re
t er
he r
o d
i ll
Ġc on
u l
Ġ M
g e
Ġw as
Ġo r
p e
er s
Ġs e
o re
c k
at e
ĠT he
Ġd e
âĢ Ļ
Ġ B
Ġ (
Â ł
o p
Ġc om
es s
u s
Ġp ro
Ġn ot
r i
u m
' s
h t
Ġe x
Ġa t
Ġ W
Ġha ve
ou ld
Ġ r
Ġ P
is t
t h
es t
Ġn e
a b
e m
Ġ H
r om
an t
Ġd o
q u
Ġth is
p p
n t
Ġc an
Ġs u
a in
Ġ v
al ly
m ent
re s
u st
Ġs h
i ve
o s
Ġ D
Ġa l
u n
om e
ig ht
Ġc h
Ġa b
Ġf rom
it y
Ġb y
a nd
e l
ar t
ou t
Ġ R
Ġ le
Ġyou r
Ġ F
Ġthe y
or t
Ġ k
i es
Ġb ut
Ġg o
Ġ j
Ġs o
Ġw or
Ġw he
i e
o st
re d
Ġm e
al l
i v
Ġ G
Ġa ll
Ġ E
Ġ N
Ġ L
a k
p t
ou g
f e
ar d
Ġ "
on e
o o
Ġin t
id e
u re
a g
Ġw ill
Ġu s
ou r
Ġp l
Ġl i
T he
u d
a ck
c i
t her
as t
p l
Ġo ut
' t
in d
ic h
ct ion
Ġ O
in e
am e
Ġthe ir
âĢĻ s
Ġt r
Ġ âĢ
on g
ou s
p er
Ġh is
a ke
Ġu p
Ġm y
ver y
ou nd
Ġm ore
a ge
Ġh as
Ġon e
o g
Ġab out
im e
a c
Ġ J
a u
Ġ im
2 0
oug h
Ġwh o
Ġli ke
Ġa r
Ġ en
i z
an s
Ġs ome
Ġw ould
. .
ĠT h
a re
Ġcom p
a ct
oo k
at ed
Ġa d
s o
Ġthe re
Ġp e
ic e
a p
Ġc l
u e
Ġt e
Ġthe m
Ġwh at
Ġf e
Ġ if
Ġwh ich
Ġm an
Ġo ther
Ġk n
ab le
Ġg et
e p
Ġcon t
it e
Ġe v
op le
Ġwhe n
Ġwe re
c c
in k
Ġan y
Ġh ad
i b
Ġ U
ic al
e ar
Ġbe c
ul t
Ġu n
ion s
ĠI t
r y
or m
Ġre s
ow n
as s
Ġj ust
Ġt ime
ay s
Ġ qu
Ġhe r
âĢ Ŀ
o se
Ġpe ople
i le
i p
Ġs a
Ġd is
b er
Ġ -
an ce
en ce
a ce
as e
Ġ Y
? Ċ
o c
a ch
Ġwor k
re at
ĠI n
au se
i re
Ġa g
ar y
Ġth an
Ġn o
res s
i a
ig n
r u
Ġh ow
in t
c l
ing s
ation s
a v
d u
Ġbe en
f f
Ġint o
Ġ K
Ġp er
n e
Ġal so
en s
Ġs p
u b
ic k
Ġp art
Ġ Ġ
Ġo ver
ĠâĢ ľ
Ġp r
Ġg r
ou nt
h ing
o ve
re e
Ġs pe
on d
0 0
Ġp re
Ġkn ow
nd er
ve l
an g
or y
t e
Ġim p
Ġne ed
i al
or d
re n
Ġs he
Ġb l
o od
Ġof f
it ion
Ġo ur
) Ċ
Ġy ear
Ġon ly
i ld
Ġp o
ent s
Ġbe t
Ġs c
ar k
Ġa m
h at
a il
or s
Ġc ould
o v
w e
f orm
: Ċ
Ġd if
ĠH e
Ġne w
se l
ir st
Ġbec ause
o b
Ġa pp
it t
âĢĻ t
Ġw ant
e ct
re nt
c es
Ġth ink
ĠS t
Ġd on
Ġc o
Ġ ro
ic t
Ġa ct
f ter
Ġthe n
p le
1 9
Ġt w
is h
u ch
Ġh im
Ġm ake
m er
on s
Ġm ost
i ous
ur n
Ġb ack
âĢ ¢
at er
Ġthe se
ĠC h
Ġm ay
Ġse e
Ġ V
Ġd id
Ġe very
Ġre c
Ġit s
ad e
Ġu se
Ġw ay
Ġdo es
ĠTh is
Ġev en
Ġth r
Ġu nder
u al
Ġs y
Ġsh ould
Ġf l
at es
e ll
om et
Ġsa id
Ġl ook
Ġd es
Ġcon s
o y
Ġa cc
he d
e nd
h y
w n
Ġwhe re
i an
x t
f ore
ot her
u ll
Ġf irst
Ġm uch
Ġ very
b le
fe ct
ver s
er v
u ally
Ġcom m
Ġin d
ig h
he n
f t
Ġw r
20 1
Ġgo od
Ġtw o
Ġman y
Ġre l
is e
Ġdif fe
at ing
if ic
k s
Ġhe l
Ġb u
Ġ ra
if e
Ġe m
n ing
Ġin c
os s
Ġt ra
Ġthr ough
i ly
. "
l ic
Ġs m
c ess
Ġto o
Ġbe ing
at h
g r
Ġ ke
Ġin ter
Ġb r
Ġwe ll
Ġn ow
l es
Ġ =
is s
ow er
er m
Ġre m
Ġhel p
1 0
an ge
ot h
j ect
f ul
ci al
Ġr ight
er t
Ġa fter
Ġd own
Ġp ers
e c
g et
ĠY ou
Ġl ong
Ġg en
pe ct
a w
ment s
ak ing
Ġat t
t ing
ib le
Ġsu ch
st em
c ed
t y
Ġad d
) ,
Ġth ose
sel f
o ck
Ġs omet
Ġag ain
o ll
ĠA nd
ul ar
Ġo b
Ġs ay
) .
Ġs im
le ct
ie w
ĠW e
Ġin v
e w
ĠI f
l i
p h
Ġyear s
Ġre p
Ġre ally
ic s
I n
o ld
at ive
ar s
ol og
Ġus ed
Ġst art
T h
Ġ $
- -
ĠB ut
Ġg u
Ġ '
Ġo wn
Ġc r
Ġre ad
Ġbe l
Ġs ame
e re
Ġin st
ri b
Ġde c
it s
Ġpl ay
Ġc all
Ġe nd
e ver
cl ud
Ġpo int
20 0
Ġse c
on t
Ġst ill
id ent
Ġre g
Ġbe fore
Ġpro du
al s
f fect
al k
Ġsu pp
Ġf ind
d ay
Ġgo ing
Ġs et
ĠThe y
Ġt ake
il ity
ot e
Ġc ol
Ġsy stem
he s
Ġdiffe rent
Ġa c
it ies
ow s
Ġsu b
Ġre al
v en
ce pt
im es
u p
! Ċ
a ve
oug ht
Ġn um
Ġpers on
od y
we en
; Ċ
Ġp h
Ġst ud
Ġp ol
as ed
Ġ ent
Ġa w
Ġha nd
Ġc he
Ġs ur
i ed
at her
Ġha pp
Ġwor ld
Ġhe re
e f
' m
Ġth ings
Ġpro v
ak es
Ġbet ween
Ġst r
Ġm od
Ġl ife
is m
Ġch ar
c y
a x
Ġm ade
Ġd ay
in ce
Ġfe el
Ġsomet hing
Ġin s
ur ing
' re
v ing
ut ion
Ġwh ile
g g
re ad
ĠA s
Ġar ound
ow ing
iz e
u es
ra ct
Ġc ar
y ing
at a
Ġp res
Ġh igh
ter n
u res
Ġas s
Ġf act
n ess
Ġtr ans
Ġfor m
w ard
th ing
Ġs l
Ġm et
Ġex per
p s
Ġg reat
ic ally
ĠA n
Ġl ot
i x
t he
in s
c on
Ġex p
Ġc ount
o ol
Âł Âł
Ġe ach
it ed
c om
al th
Ġin clud
ble m
Ġde f
g er
an y
Ġex am
Ġc re
ĠĠ ĠĠ
Ġc or
Ġf in
ĠH ow
.. .
Ġm in
Ġgen er
Ġt y
ar ch
Ġm ed
ĠU n
ĠS o
ction s
l ed
Ġm on
I t
g an
itt le
Ġqu est
ĠR e
an k
Ġch ild
a ir
v es
w ays
Ġm ight
ation al
Ġfe w
t en
in es
iv es
Ġo p
p r
Ġse em
Ġ [
as on
Ġdis c
a h
Ġb oth
b e
Ġpro blem
1 2
Ġd et
Ġar t
d er
ub lic
Ġm at
Ġne ver
Ġe ar
Ġre qu
vel op
ist s
mer ic
Ġf oll
e x
y s
Ġa p
ĠThe re
Ġv al
Ġus ing
u nd
ic es
Ġf un
Ġc ur
f l
en se
ver n
Ġs ign
ar m
Ġl ittle
Ġbet ter
Ġf ound
re t
or k
Ġr un
h ip
Ġimp ort
Ġwh y
Ġm ark
." Ċ
v ed
ag es
Ġf am
st and
ro s
' ve
in ess
n g
Ġa ut
Ġf il
Ġs er
Ġcomp le
l ess
Ġ ide
Ġc le
Ġl ast
Ġle t
Ġp ut
Ġc our
er n
Ġh um
ere st
Ġp oss
i o
Ġan other
ut e
ent ion
Ġpro cess
al e
Ġle ad
Ġre t
Ġex pl
Ġe ffect
a z
n er
Ġres ult
r ic
Ġs k
Ġbel ie
Ġke ep
ĠA meric
Ġ i
od e
Ġm ov
Ġg ot
Ġwith out
Ġl ar
et s
ou se
ĠF or
ĠA l
Ġb est
, Ċ
Ġal ways
Ġh ard
as h
ri end
Ġg l
Th is
Ġd ist
Ġe as
Ġde velop
u g
one y
Ġe l
Ġcom e
Ġst ate
Ġin form
iz ed
Ġb us
ab ly
Ġl ess
Ġex t
em ber
Ġf r
Ġp ower
Ġth ing
us s
ĠTh at
e ad
i ent
Ġspe c
Ġt urn
Ġm ust
Ġre f
ch n
1 1
a red
Ġas k
Ġb o
Ġb ook
ĠW hat
Ġw om
Ġpl ace
Ġs erv
Ġres p
s w
W hat
pe nd
in ed
Ġnum ber
Ġp ost
Ġa v
Ġd ire
ĠâĢ ĵ
Ġb ig
Ġint erest
ert ain
Ġsm all
Ġgo vern
u c
Ġc a
t s
Ġh ome
Ġwor d
, "
it ing
ter s
u ck
ar n
he re
Ġo ld
Ġme an
am p
ou p
g y
.. .Ċ
Ġp at
Ġd ata
ar i
Ġunder stand
pt ion
id er
Y ou
Ġinc re
Ġs ince
Ġpart ic
1 8
at ure
Ġc are
1 5
Ġis s
Ġhe ad
Ġwe e
Ġexper i
Ġth ought
v iew
ch ool
Ġw ater
Ġs ol
ĠI s
. âĢĿ
ĠC om
Ġm ain
o h
Ġad v
Ġd i
Ġcl ass
er r
m an
Ġexam ple
am es
- s
b r
Ġth ree
i red
Ġp ass
ro p
ate ly
ĠS h
l ine
Ġsh ow
Ġl oc
Ġdid n
ur al
ru ct
at ch
Ġagain st
Ġsu re
Ġcont ro
Ġact ually
Ġ ed
t o
Ġimport ant
Ġpl an
ant s
ou n
Ġte ll
i er
Ġre st
os ed
Ġle vel
Ġm oney
iv ing
Ġt ri
as es
Ġinform ation
Ġl aw
a j
Ġd uring
Ġof ten
Ġt est
Ġb ody
Ġhe alth
Ġbe h
olog y
ĠS he
Ġab le
Ġen ough
Ġm us
Ġl ist
ĠW h
Ġst and
e e
Ġc ase
Ġv is
b s
Ġdoes n
Ġp ay
Ġs ays
Ġg ra
m e
ĠA r
Ġchar act
Ġaw ay
Ġte chn
Ġp op
ie ld
or n
' ll
Ġ \
Ġp ur
ren ce
Ġcon f
Ġf riend
Ġk ind
are nt
Ġop en
Ġt alk
ĠB r
d d
I f
âĢ Ķ
Ġcont in
S t
Ġ &
l and
Ġg ive
b ers
Ġg ame
et y
Ġne xt
gr am
Ġn ame
it al
ros s
/ /
Ġth ough
Ġsec ond
Ġu nt
iv en
Ġd r
Ġb re
Ġbus iness
Ġsupp ort
Ġhapp en
Ġc ent
) .Ċ
1 3
in al
Ġde m
Ġl ove
o ot
it her
Ġch ange
Ġto p
W e
Ġm em
Ġp os
Ġo pp
l ing
Ġcon st
Ġgovern ment
Ġf ree
ĠW hen
Ġt erm
- b
Ġquest ion
Ġpro f
Ġf ull
o k
au g
at s
Ġs it
Ġch ang
Ġm ove
Ġb it
Ġsome one
âĢ ¦
Ġprodu ct
Ġd ri
ĠD e
Ġ Q
n ot
Ġpre v
ĠN ew
Ġb ra
Ġdo ing
Ġs chool
Ġor der
Ġe qu
re am
al ity
Ġc ost
iv id
Ġme ans
Ġb as
Ġbu ild
1 4
Ġap pe
Ġcall ed
r on
Ġha ving
id s
Ġ {
i k
1 6
o pe
o ad
Ġh ist
con om
ain s
ent ly
Ġt imes
Ġan sw
Ġre ason
Ġl ight
id es
Ġf ar
Ġle g
is hed
Ġhum an
Ġcon c
Ġmon th
el s
3 0
c ing
Ġcomm un
Ġf ood
Ġm akes
p ort
Ġd one
ar r
Ġm aking
Ġmark et
Ġle ft
e red
Ġdes ign
ap s
m ed
Ġc ertain
A s
Ġp ri
Ġst ory
Ġdire ct
H ow
ir d
Ġ es
- c
Ġpro b
g in
Ġe ver
Ġunt il
5 0
ĠO n
pl oy
en g
in ing
Ġlar ge
it er
ot t
er ing
ĠU S
Ġe le
is ed
Ġj ob
Ġs w
re en
an n
Ġle ast
um p
ar ing
Ġm ind
Ġp ublic
is ion
Ġpro gram
Ġcour se
en cy
b y
Ġpol it
Ġfam ily
Ġs ide
Ġchild ren
- d
Ġother s
or ies
m ost
Ġor gan
iz ation
Ġper form
h od
Ġb en
u ff
' d
Ġs ing
Ġe conom
" Ċ
read y
Ġ /
Ġe y
at ic
Ġapp ro
Ġp ar
hy s
ĠC l
r ist
ra p
a pp
ic le
at t
ĠP ro
Ġc ap
Ġd ays
Ġany thing
o f
00 0
i um
Ġpr ot
Ġb ad
Ġ Z
Ġ- -
p ro
le ase
ion al
it ive
Ġe t
at or
Ġposs ible
l f
ust om
w ork
S o
} Ċ
Ġst op
i qu
Ġbec ome
ĠâĢ ĺ
s c
Ġget ting
A nd
Ġo cc
Ġm en
Ġre se
h or
Ġwith in
à ¤
il ar
1 7
A n
Ġcount ry
Ġen g
le t
âĢĻ re
ent ial
Ġte am
Ġinv est
Ġv iew
Ġcontro l
Ġal ready
id ed
g ed
ĠI nd
Ġide a
us ed
ff ic
aj or
Ġcur rent
Ġl ine
ĠA t
ĠT o
Ġpro per
The re
Ġa ir
] Ċ
Ġr is
ard s
ĠT r
Ġtr y
ĠS e
Ġle arn
Ġon ce
cc ess
ĠB l
Ġc ell
Ġp ast
ĠHow ever
Ġp ot
Ġm om
- f
âĢ ľ
Ġsh ort
a im
Ġcle ar
Ġ .
Ġ ve
id d
if ied
us h
Ġe lect
Ġty p
s h
ri es
Ġp a
Ġs ound
Ġgr oup
o x
Ġp ain
Ġf ore
Ġrep ort
on y
Ġbelie ve
u red
ĠB e
um ent
) ;Ċ
p ly
ill ion
Ġm il
Ġd ra
i or
Ġs ci
an e
Ġc reat
Ġc ame
o ver
it ions
Ġl im
ivid ual
Ġexperi ence
Ġde v
Ġcomp any
Ġh ouse
Ġn ight
Ġt reat
ur y
ain ed
Ġdif f
Ġcon d
u ro
Ġg iven
in ation
Ġp ract
Ġex pect
ul ation
Ġel se
p ut
ot s
B ut
Ġcomple te
Ġpartic ular
o id
Ġh our
Ġtr ying
Ġis n
Ġall ow
Ġw ar
Ġ |
Ġspec ific
ci ally
Ġprob ably
Ġwho le
Ġcomm on
t on
f or
Ġse en
Ġe ither
Ġ z
Ġfil m
al f
Ġty pe
Ġansw er
Ġche ck
c le
Ġwom en
ĠG od
in a
Ġwork ing
r al
2 5
Ġto day
o int
Ġr ather
Ġdes c
Ġt em
sel ves
Ġo per
Ġm ajor
ir on
p ar
o ice
our ce
Ġ est
1 00
Ġn on
Ġcons ider
Ġ :
Ġre du
Ġh old
Ġto get
Ġinv ol
Ġtoget her
- m
i ans
Ġind ividual
Ġl ater
as ter
Ġw ent
Ġc ult
Ġse ver
Ġan al
Ġde p
w ay
Ġp rom
Ġar g
Ġmet hod
Ġf re
er y
ort un
i vers
Ġ ident
Ġkn own
ĠA ll
ab ility
ut es
Ġcom es
Ġlook ing
Ġb ased
s ide
Ġnot hing
Ġl ow
Ġc ustom
Ġso cial
iv ed
Ġseem s
ĠD o
i ke
Ġm iss
p or
Ġk ill
H e
an ces
Ġcharact er
ou th
Ġtr ue
ĠF r
Ġrec ord
Ġne ar
Ġacc ount
Ġy et
ĠL e
Ġpres ent
Ġl and
c hed
Ġret urn
19 9
Ġc al
Ġinclud ing
if y
ĠM y
Ġimp ro
ĠAmeric an
g s
en ces
Ġ X
Ġh ig
Ġt re
om m
Ġde al
Ġl ive
Ġam ount
Ġneed s
Ġben ef
Ġsever al
ak en
Ġal most
Ġor ig
- t
Ġ vers
Ġf ace
ĠO r
ĠC on
Ġm ar
Ġhe art
on es
Ġwee k
ĠS p
Ġan t
Ġwhe ther
Ġval ue
Ġact iv
ious ly
Ġen er
Ġpro ject
t ed
ĠE x
gg est
r ation
Ġp hys
id ence
Ġw on
Ġfoll owing
Ġf our
Ġfun ction
Ġinter n
er al
Ġh y
Ġal ong
Ġword s
Ġin f
Ġp ress
Ġw a
Ġcon ne
w h
Ġsu ccess
ang u
Ġevery thing
Ġstr ong
Ġcre ate
a pe
Ġm ult
ĠR ep
Ġex ist
ct or
ĠN o
Ġqu ick
Ġ <
Ġt ax
Ġro om
a ut
2 4
Ġ +
-- --
ition al
Ġav ail
Ġsu ggest
o le
Ġph ot
c er
Ġv ide
m b
u se
ĠO ne
Ġc ut
* *
Ġse x
th ough
ĠCh rist
Ġb ro
Ġpre t
Ġstart ed
Ġtoo k
ĠP l
Ġlike ly
Ġm or
Ġin fl
ĠC an
ress ion
Ġo pt
Ġs al
Ġprov ide
Ġab ove
E R
ic ult
Ġqu ite
Ġtr ad
Ġst ep
Ġsim ilar
Ġse lf
ac es
ĠThe se
m in
Ġs ense
Ġde b
oh n
Ġsim ply
is ing
Ġag o
Ġem ploy
ut ure
Ġsp ace
am a
Ġmat ter
Ġfoll ow
ur ther
Ġm ess
Ġw in
F or
i ents
W hen
en e
Ġbu y
Ġf ail
Ġus ually
Ġcl aim
ĠM ar
pe cially
Ġent ire
Ġf oc
Ġv ari
pl ic
le ep
Ġke y
Ġme as
ir l
ill s
Ġhist ory
ull y
l ish
Ġre ce
Ġpret ty
Ġener gy
an ks
e xt
. S
l er
Ġbl ood
m y
Ġevery one
Ġsing le
Ġn at
el t
ward s
pl es
Ġto ld
Ġwr ong
u ation
Ġm ag
ur ity
Ġob ject
Ġbre ak
Ġare a
Ġp arent
is on
Ġrel ations
c ent
Ġdisc uss
Ġc ou
ord ing
, âĢĿ
Ġavail able
Ġsu per
Ġcomp ut
ĠN ot
y n
Ġs ent
Ġbl ack
ore d
Ġev ent
ur s
C h
ĠS c
Ġet c
Ġw alk
- p
c hes
u nt
nd ing
ne y
ol ution
v iron
en n
Ġiss ue
Ġan im
Ġcl ose
Ġgr ow
Ġen c
i ally
re ct
i od
Ġn et
Ġacc ess
Ġs n
Ġd ue
s on
Ġdiff icult
w are
Ġab s
Ġf all
Ġear ly
Ġp ict
ac y
Ġc ir
g le
or th
Ġm ot
Ġto t
pp ed
Ġatt ack
Ġw ind
Ġn orm
Ġcan not
Ġh alf
m s
Ġbe gin
ain ing
Ġw ond
li ke
Ġmus ic
g es
w here
.âĢĿ Ċ
Ġf uture
Ġa ge
ent al
Ġde ath
Ġeas y
ĠA d
uro pe
ver se
v al
Ġ{ Ċ
Ġf ield
Ġcol le
Ġloc al
Ġs ort
ĠW ith
ou d
Ġresult s
Ġyou ng
i res
le ment
R e
Ġc ause
Ġl ab
so ci
Ġl angu
ro du
Ġme et
un e
ive ly
em pt
Ġt aking
Ġwant ed
Ġp ie
Ġwork s
o ke
ĠE ng
oo se
Ġsim ple
Ġ ess
Ġhow ever
" ,
Ġstud y
Ġfriend s
Ġv ar
ar get
Ġr ad
ll ing
Ġm ass
Ġl og
ÂłÂł ÂłÂł
Ġrese arch
Ġthem selves
Ġinst ead
Ġne cess
d e
f er
Ġstud ents
Ġproblem s
Ġim m
Ġd am
Ġne g
Ġany one
le y
res ent
ul es
j oy
Ġind ust
ri pt
ĠP r
Ġsign ific
Ġcom b
st r
im ate
Ġaut hor
Ġst ay
Ġde pend
ver age
i ol
Ġw atch
Ġoff ic
Ġpro p
g ing
er c
Ġc ra
Ġac ross
Ġl a
ist ic
Ġ *
Ġresp ons
ĠM ay
Ġart icle
iqu e
Ġ #
Ġc ity
Ġso ft
4 0
Ġapp lic
ĠUn ited
re w
Ġhig her
Ġcomp an
ĠS ome
and s
our ces
Ġl ink
âĢĻ ve
Ġh ope
o on
it es
ir t
W h
2 2
av or
Ġpolit ical
Ġw ays
u ed
ate g
Ġte xt
Ġf ig
ĠE urope
Ġ ,
Ġit self
Ġdet erm
Ġgener al
it or
Ġris k
viron ment
as k
Ġes pecially
Ġpoint s
Ġwas n
_ _
ri ed
Ġex act
Ġmonth s
O n
us es
Ġmod el
ib ility
s y
Ġcom ment
Ġmed ia
Ġbeh ind
f ully
Ġf und
âĢ ĵ
Ġperson al
Ġs um
um e
Ġdef in
is c
os p
es p
Ġpr ote
Ġdesc rib
Ġneed ed
Ġwh ite
og n
Ġst ruct
ĠĠĠĠ ĠĠĠĠ
Ġask ed
Ġc ode
Ġmom ent
Ġf ight
re me
N A
Ġspe cial
Ġnew s
Ġlong er
Ġper iod
Ġc red
Ġquest ions
Ġdet ail
Ġon line
Ġl o
b ack
is ter
u le
Ġrelations hip
Ġd est
r ay
i et
2 1
Ġd ou
Ġac cept
Ġpri v
ver t
T o
Ġey es
b ody
Ġpol ic
âĢĻ m
err or
= =
. ,
un ch
ĠJ ohn
c he
ĠP h
fe rence
ater ial
Ġbr ing
Ġyour self
2 3
b ook
ud e
f ace
ĠSt ates
Ġre pl
h aps
Ġan n
a ction
Ġen joy
Ġam ong
Ġinclud e
Ġt aken
Ġc y
Ġprof ess
Ġchang es
A l
Ġwom an
Ġvide o
Ġgo es
y le
as ing
Ġserv ice
a ult
Ġb ar
if t
Ġrequ ire
il t
ict ion
om es
Ġl iving
u ge
g en
Ġcr it
Ġt akes
u ly
Ġgr ound
itt en
her s
Ġbl og
Ġf ile
g o
e ed
ab les
Ġch all
Ġhour s
Ġpos ition
Ġob s
Ġsignific ant
ĠâĢ Ķ
- l
Ġfr ont
it ch
or ld
Ġre view
Ġiss ues
Ġst e
Ġsa w
Ġsay ing
m a
Ġp ick
Ġcont ent
at ors
Ġb i
Ġget s
led ge
Ġrem ember
Ġs ens
Ġs leep
. com
T hat
Ġmin utes
on se
Ġcomp et
Ġwor th
m iss
Ġd ru
Ġcompan ies
b o
Ġf urther
itt ing
Ġde l
ub l
Ġf ac
ĠT e
ĠA fter
Ġk ids
ag ed
Ġd om
Ġre d
Ġm ention
aug h
nd s
Ġen vironment
ĠG r
Ġpr ice
Ġdevelop ment
Ġ x
ĠH is
Ġincre ase
Ġmov ie
Ġre le
ĠO b
or r
Ġv ol
Ġc amp
g ress
Ġed uc
he ad
6 0
Ġf ive
ĠC ol
ĠP e
st er
! !
ĠS y
Ġsk in
Ġvar ious
om s
ec ause
Ġe ff
z e
Ġsub ject
Ġs ize
ut h
Ġr ate
ĠY our
Ġhim self
ra ph
Ġbeh av
Ġg irl
Ġl ower
Ġst ore
olog ical
Ġc op
er a
Ġm ach
m it
Ġp ack
Ġto ol
id ing
s et
Ġcon v
Ġnat ural
ort s
Ġres pect
ens ive
Ġcom ing
um b
Ġsystem s
Ġlangu age
Ġwe ight
Ġm aterial
A T
os ing
Ġs ong
Ġso ci
Ġout side
Ġst at
Ġd ig
I N
Ġl ay
Ġg ames
oc r
R E
Ġso on
Ġadd ress
Ġrun ning
Ġst uff
ip s
et h
Ġin it
Ġm other
Ġwr iting
Ġspe ak
ĠAmeric a
S T
Ġa ffect
ĠN ow
idd le
Ġa ud
ĠW hy
Ġwr ite
ĠA m
r ing
Ġper fect
Ġst ra
Ġdis e
pl ay
ĠThe n
2 8
Ġc ard
Ġmem bers
un g
Ġvers ion
Ġcir c
Ġ ill
Ġse arch
Ġread ing
Ġman age
Ġrel ig
Ġprot ect
ic ro
Ġp red
ch ie
Ġl ost
Ġp age
Ġthink ing
Ġim ag
N o
Ġb all
2 7
Ġv iol
Ġf elt
il ities
iz ing
Ġcons um
Ġterm s
ĠI m
Ġon es
ĠM an
Ġhe ard
Ġt arget
Ġatt empt
19 8
Ġm illion
Ġtra ck
Ġrep resent
Ġde ep
Ġcomple x
Ġsomet imes
med i
am ed
at ter
Ġdiffe rence
Ġle ave
re l
a i
Ġper cent
Ġbl ock
2 6
ific ation
Ġwe bs
Ġup on
ĠJ ust
Ġa ction
Ġo il
- w
Ġins ide
Ġinterest ing
o in
Ġcor rect
t t
Ġpr im
M y
us ing
Ġhand s
ov ed
Ġpot ential
ĠA pp
ĠF l
us ion
Ġimpro ve
is es
Ġsh are
ivers ity
m on
Ġev idence
Ġconc ern
Ġtechn ology
b l
Ġpa per
av ing
Ġcre ated
Ġf ire
Ġro le
ĠM e
l t
Ġimp act
Ġsit uation
ĠB y
ĠBr it
te nd
Ġp ull
A N
at ures
o e
Ġsec urity
Ġbec ame
Ġp ort
Ġcell s
Ġcle an
ove red
Ġappro ach
oo gle
r ight
Ġser ies
Ġdo c
Ġkn ew
Ġbra in
he m
ĠC ar
et er
Ġpop ular
Ġtalk ing
S h
Ġs qu
Ġsu n
o ber
Ġc ases
Ġe p
Ġcount ries
Ġfin an
ad d
Ġs ite
Ġhe av
Ġquick ly
Ġe at
re g
Ġare n
Ġen s
Ã ©
O N
Ġtra vel
itt ed
in o
Ġpur p
b it
ang er
Ġh ot
a f
b all
Ġpart y
m ing
Ġcomplete ly
Ġas soci
Ġproduct s
Ġa ff
omm end
Ġab ility
Ġbel ow
re et
am s
il i
ut ions
ĠQ u
Ġsh ows
âĢĻ ll
Ġcommun ity
Ġs we
o or
Ġit em
( )
Ġoff er
le x
Ġus er
Ġinfl u
f ra
m ber
ys is
st it
Ġp ath
Ġf oot
Ġhappen ed
as ons
Ġb al
A R
ĠA f
Ġj ud
he t
Ġex c
Ġorig inal
Ġparent s
Ġs at
Ġl oss
Ġb ab
Ġpict ure
Ġmay be
Ġopp ortun
Ġs us
Ġf ill
Ġv ot
e v
Ġlook ed
en ing
e pend
Ġh it
Ġa chie
Ġs ource
o es
ĠE n
ar ning
Ġhe ar
Ġph one
es e
- in
Ġst ates
Ġr ange
i ence
Ġsl ow
ide red
Ġmy self
Ġcou ple
Ġb oy
Ġtri ed
ou ps
ens ion
Ġ Âł
Ġst ri
ers on
Ġexact ly
Ġm is
E x
Ġqu ality
Ġro ad
Ġnum bers
Ġim age
Ġnorm al
Ġf air
g est
Ġrequ ired
Ġeffect s
Ġdr ink
it ary
Ġn ice
Ġreg ard
Ġindust ry
ac hed
ob al
2 9
e b
ac ed
Ġcomput er
Ġspe ed
Ġserv ices
Ġb ed
av es
Ġtreat ment
Ġcon cept
Ġc am
Ġperform ance
Ġresp onse
O ne
Ġconne ct
: //
Ġt able
m p
Ġlevel s
Ġc oun
Ġf at
Ġeconom ic
u el
Ġbe gan
C on
Ġl ives
Ġwr itten
Ġtyp es
ir th
Ġphys ical
at ory
an a
ĠP res
> Ċ
a pt
Ġeng ine
p ed
ress ed
W hy
ĠM r
Ġcons idered
ad es
c ome
our n
- h
w w
Ġob v
em ent
n y
ĠG u
Ġh on
ĠWh ile
f ort
am m
Ġrec ogn
Ġsur pr
le g
Ġre v
Ġlook s
Ġind ic
Ġem ot
Ġse par
Ġd ark
Ġknow ledge
Ġgu y
Ġb ott
Ġf avor
Ġprev ent
r ict
j ust
Ġmean ing
pp ing
gr ound
ren ces
Ġfeel ing
ib ly
Ġh uge
Ġl ack
I s
ate ver
Ġturn ed
op s
ĠW ar
Ġeas ily
Ġtot al
l oad
Ġl ate
an ced
ch an
Ġf ast
Ġn ational
Ġde ad
The y
Ġbuild ing
Ġsci ent
u f
Ġappe ar
ur ch
Ġcontin ue
Ġpart s
Ġco ll
Ġwond er
ast ic
Ġf ather
Ġrec ommend
t ain
Ġex cept
Ġinvol ved
Ġcharact ers
Ġreg ular
Ġext ra
un k
Ġ ri
or ing
Ġav oid
Ġfor ce
ĠR es
e gr
Ġb ase
se qu
l ight
Ġfre qu
Ġbe aut
Ġb ank
du ct
Ġwould n
Ġse ll
aug ht
Ġcult ure
Ġpr in
Ġt it
ĠA b
Ġpre p
Ġ Â
if f
Ġto wards
ĠG en
Ġd iv
ci ous
Ġco ver
" .
ffic ient
Ġ ut
ar th
ar ily
ĠM c
Ġsa fe
Ġth ird
er ve
Ġle arning
Ġdec ided
Ġnecess ary
Ġatt ention
ĠC al
ur ance
ly ing
c ul
Ġfoc us
Ġnet work
he l
A S
Ġcont rib
8 0
Ġco ol
Ġf ix
ĠP er
Ġem b
Ġcred it
f fe
Ġint rodu
ĠM ed
Ġth reat
Ġn ature
Ġfe ed
ĠS te
ĠS ec
ren g
Ġext reme
Ġde fe
ru ction
u pp
Ġmult ip
Ġbook s
Ġocc ur
ĠE ven
Ġbo x
Ġare as
et ic
Ġcol or
Ġre ach
ĠW ell
Ġdo or
Ġso ld
Ġp an
ri ption
Ġsci ence
Ġpract ice
: :
ĠW orld
Ġcould n
Ġaut om
Ġhapp y
Ġrec ent
ĠD on
Ġcour t
Ġest ab
iv al
Ġcol lect
B y
Ġfor ward
Ġdec ision
Ġa verage
Ġy es
Ġplay ing
N ow
art ment
Ġpress ure
Ġt ou
Ġgr oups
Ġd ream
ĠE d
C om
ur t
Ġwee ks
Ġha ir
n ow
Ġim medi
m ore
ll ed
iv ity
Ġte nd
k y
Ġacc ording
op h
Ġs ix
Ġsoci ety
r an
Ġgu ess
att le
w ise
Ġunderstand ing
res h
n a
er o
Ġtem per
Ġmod ern
Ġag ree
is hing
ag er
Ġwebs ite
Ġp ubl
A r
ĠG e
Ġl iter
Ġinst all
Ġcommun ic
Ġin j
eng th
Ġus es
ad a
os ition
Ġde cl
ce ed
al ing
z z
ĠP art
Ġex ec
Ġex erc
Ġpo or
Ġhapp ens
Ġpie ce
Ġch oose
ap an
ĠJ an
ĠY ork
B e
ĠN e
Ġto wn
Ġg ave
a ff
3 2
Ġ ign
ou ra
Ġst ru
Ġcon vers
Ġg ives
Ġw all
ĠW ill
ie f
Ġc ook
Ġpol ice
c ies
Ġo ption
Ġd a
Ġf it
ĠM ost
Ġpur ch
Ġu r
Ġal one
Ġcont act
ĠR uss
Ġre asons
Ġde g
Ġmed ical
Ġpolic y
ĠD r
v ent
Ġb ur
ut ed
Ġwork ed
en ed
h ood
Ġc at
Ġg e
ĠG o
Ġev ents
L e
Ġw ide
ar ies
se c
os es
ĠEng lish
ĠD em
Ġfinan cial
Ġf em
- y
a ign
Ġop in
Ġfil es
l im
Ġse ason
Ġch ance
Ġch oice
y pe
on ents
Ġstand ard
Ġsoft ware
p ing
Ġcond itions
o ff
Ġag re
Ġval ues
Ġwant s
# #
ĠT w
Ġtra ining
< /
ol ute
ess ion
m m
Ġw arm
Ġdra w
min ist
A t
Ġc e
h ib
Ġadd ition
h a
Ġbu ilt
Ġfin al
Ġpos itive
ag n
Ġcom ments
Ġdri ve
Ġmeas ure
Ġdise ase
- st
Ġmor ning
Ġs on
le ction
iv il
ci ent
ir it
Ġadd ed
id ay
ound s
ĠPres ident
Ġright s
ret urn
19 7
ag ing
.. ..
E D
Ġeffect ive
Ġst reng
Ġf a
um ents
Ġem ail
Ġg un
Ġset t
Ġ ir
am b
Ġbenef its
ĠOb ama
ĠC ont
Ġsol ution
Ġ @
ic les
li er
Ġsur v
c o
Ġall ows
ĠU s
sy ch
Ġf ine
ĠG erm
Ġide as
z y
Ġm ix
y ond
e es
Ġleg al
Ġanal ysis
re st
Ġp en
Ġd ro
Ġl if
Ġr ules
Ġobs erv
Ġimp lement
ĠCh ina
Ġr out
Ġre ve
in ally
Ġco ld
Ġrec ently
Ġey e
Ġs il
Ġper haps
I D
il es
Ġrel ated
Ġmil itary
og rap
Ġro ck
a ur
u x
Ġfig ure
O R
9 0
Ġcost s
ro om
ĠHe re
ir m
Ġtr ust
Ġlaw s
Ġoff ice
Ġcertain ly
Ġc ross
Ġg iving
Ġthe ory
Ġh or
igh b
Ġmed ic
in ary
Ġfin ally
Ġd en
A ll
ant ly
ag s
Ġc and
Ġh ost
3 5
Ġcap ital
b b
. )
Ġb reat
ĠI nt
Ġact ual
Ġpartic ip
ce ll
Ġreal ity
Ġpres ident
n ers
al es
Ġme chan
Ġtr uth
ke y
Ġcom pl
= "
k ing
Ġprodu ction
Ġte ac
ed eral
ar b
Ġl ed
Ġmultip le
Ġse qu
Ġgrow th
Ġhe ld
ol ic
e ch
uc le
n ed
ĠM us
r it
ite ly
im um
Ġv ict
ren ch
Ġg as
Ġcan cer
Ġh arm
Ġhe at
ord er
ĠRep ublic
u k
Ġpriv ate
Ġplay ers
id ge
Ġb irth
Ġf ra
Ġwe b
Ġ ver
Ġmess age
P ro
ent ially
ĠM in
Ġsc reen
N ot
Ġread y
Ġeconom y
Ġwh atever
Ġmov ing
7 0
Ġl oad
i ation
Ġb ud
Ġallow ed
Ġsh own
Ġfe ar
at ives
Ġche m
Ġst ress
Ġpop ulation
al y
Ġd ate
Ġvis it
Ġ â
Ġknow s
Ġm er
E S
as c
I S
ĠUn iversity
Ġapplic ation
Ġinvest ig
en ced
ĠJ ew
ou l
as hing
Ġm iddle
? "
it ter
Ġv ote
Ġgener ally
ĠO f
Ġm ist
rop ri
Ġint egr
is ions
Ġrel ative
Ġe mer
W ith
m pt
ĠC ent
Ġsur face
Ġn ut
Ġchang ed
in y
Ġprin ci
Ġbas ic
Ġb and
E N
Ġal tern
C l
d om
ĠJ apan
Ġdem and
Ġor d
miss ion
. )Ċ
Ġ Ð
it iz
Ġst ock
Ġv oice
Ġspe nd
U n
ous ly
Ġpat tern
Ġdirect ly
h ow
Ġeduc ation
P h
it ude
ar c
Ġbehav ior
Ġpurp ose
ĠE very
Ġpl aces
Ġte ach
Ġaw are
im ent
Ġlead ers
Ġth ous
Ġsa ve
r s
im ately
Ġdo ll
Ġsu ff
Ġrequ est
Ġprev ious
Ġdou b
Ġin n
Ġse lect
Ġar ri
- up
k en
Ġp le
ĠIn tern
Ġparticular ly
p ir
Ġg one
pp er
O T
ic ed
Ġhist or
Ġbr ought
ĠAl so
Ġcamp aign
L L
Ġu lt
Ġal though
Ġbec omes
Ġca pt
ĠN orth
Ġgl obal
Ġpat ients
Ġne ighb
Ġser ious
Ġcar ry
Ġun ique
t ies
A C
Ġas pect
Ġdo g
und red
Ġstruct ure
im in
ĠK ing
ony m
Ġcons ist
ĠBrit ish
Ġm ember
Ġsec ret
ru pt
Ġdesign ed
Ġcustom ers
am ent
Ġdoc ument
Ġst ories
Âł I
Ġdist rib
Ġmove ment
Ġst ar
ĠE l
Ġdes p
Ġs am
Ġth us
Ġre pe
ĠB ecause
g ar
Ġopt ions
if ul
Ġthere fore
Ġexpl ain
Ġactiv ity
' ,
Ġres ources
Ġbab y
Ġredu ce
H ere
Ġde li
Ġsl ight
Ġoffic ial
ĠA ct
Ġus ers
Ġup d
Ġwr ote
ar a
om ing
Ġadv ant
ol es
Ġnot e
Ġfe et
it ation
ĠE arth
? "Ċ
cl es
Ġpa id
n es
w hat
ines e
u it
Ġl ines
Ġind epend
Ġhelp s
ĠL et
r ast
Ġwe ap
Ġp ow
Ġanim als
ĠY es
av a
Ġdem on
Ġproper ty
Ġmem ory
---- ----
Ġabs olute
ĠAf ric
ourn al
Ġplay ed
ĠH ar
Ġplay er
b ut
Ġv ia
Ġeas ier
Ġc ry
Ġst ick
ĠIn st
ell ig
Ġpro gress
Ġhealth y
] .
ĠS m
Ġgr ad
I T
Ġw ife
Ġg reen
Ġbr other
âĢĻ d
Ġens ure
Ġd anger
Ġmach ine
Ġbe yond
ac hes
p re
âĢĿ Ċ
Ġwa it
es tern
Ġfl ow
4 5
augh ter
ĠPe ople
uf act
Ġchall eng
n own
Ġt en
ra el
h old
Ġneg ative
Ġeff ort
r am
Ġt ast
ĠA ug
an cy
Ġst yle
ĠK e
iss ue
air s
Ġins urance
Ġincre asing
Ġpri or
wh ich
l og
3 1
ĠM ore
Ġsp ent
Ġant i
ve re
Ġexpect ed
Ġbegin ning
Ġstart ing
Ġv ac
ak er
Ġsc en
il s
g n
w ord
Ġf ing
ent y
Ġme ant
Ġb ill
e ah
ĠM on
Ġfe atures
Ġphot o
Ġmanage ment
es us
ro y
Ġsee ing
Ġincre ased
Ġn ation
al d
Ġl ose
Ġcond ition
Ġear th
Ġpower ful
ou ble
Ġha ven
ra nd
Ġcomp ared
Ġclear ly
Ġstru gg
Ġcont ext
à ¥
Ġcomm and
Ġca used
al ed
om b
s p
b and
Ġp lease
Ġsp read
ĠC he
Ġdam age
. g
ĠT V
ĠA re
il ed
ĠM ark
Ġgo al
ĠS outh
Ġwho se
Ġh op
Ġes c
h an
Ġfe ll
-b ased
ĠF irst
Ġpl at
Ġm ax
Ġass um
Ġlearn ed
Ġlim ited
Ġfor mer
Ġgu ys
Ġprov ides
a ul
k es
Ġn amed
Ġse nd
ore s
Ġindividual s
Ġlar ger
ĠG oogle
Ġgreat er
Ġd at
ĠSt ate
Ġspec ies
Ġun f
Ġtou ch
og raph
Ġdevelop ed
ĠH er
Ġch o
ĠO ct
Ġcl os
Ġprov ided
Ġsk ills
Ġass ist
y l
Ġcent ury
Ġh undred
u ary
` `
ĠA pr
Ġuse ful
Ġear lier
ĠA g
ub e
Ġassoci ated
er ation
3 3
Ġresp ond
Ġu nd
Ġmention ed
ĠF rom
ĠA ust
her n
Ġhigh ly
Ġenc oura
Ġseem ed
Ġadd itional
i ant
Ġad ult
Ġam az
ĠS im
Ġinter view
ĠT ra
Ġdev ice
Ġreg ul
ace book
op t
ĠAn y
S he
ur b
Ġcont ract
Ġacc om
Ġfact ors
Ġcom fort
Ġrequ ires
Ġsh op
v ant
Ġb urn
Ġstra ight
r is
Ġmat ch
Ġlim it
ĠAr t
S ome
Y our
Ġr ule
Ġsupp osed
Ġcreat ing
onym ous
Ġp sych
Ġar ch
Ġn arr
Ġsh ot
Ġthrough out
Ġv irt
Ġm ill
ĠI I
Ġprodu ce
or g
Ġ error
ight s
ĠCh inese
Ġfl u
a el
' Ċ
Ġc ivil
ĠC or
ĠC ong
Ġcont ain
ĠR om
ĠP ar
Ġmov ed
Ġsound s
en ge
ag ue
ĠCom p
ĠA dd
Ġacc ur
Ġke pt
om en
Ġgr owing
ĠC o
Ġbo ard
Ġad minist
- to
al se
Ġmethod s
o ly
Ġtr uly
Ġachie ve
ĠG l
ed om
Ġstud ent
Ġgra nd
Ġcolle ge
ĠP re
th at
Ġt al
Ġc itiz
dd en
Ġdetail s
A fter
oc ol
I C
3 6
D o
19 6
Ġra re
it c
Ġsh oot
Ġfore ign
Ġcl ot
Ġbro ad
Ġstreng th
Ġre lease
w ith
im al
Ġstud ies
pt ember
Ġman ufact
Ġsub st
Ġopportun ity
Ġl at
pe c
ĠD av
Ġra ce
od es
. e
Ġm id
ĠH ouse
Ġinst ance
ear ch
Ġfr ame
ri ef
Ġv ir
Ġmarket ing
m ark
Ġevent ually
Ġdefin itely
Ġcor por
0 1
Ġsu dden
Ġsp irit
Ġse ction
Ġres ist
Ġimmedi ately
-y ear
Ġt ree
Ġb orn
Ġchar ge
et t
Ġte le
ĠS w
Ġnear ly
Âł The
Ġpred ict
Ġopin ion
Ġapp ropri
20 2
l am
ap ter
Ġun c
Ġdi et
Ġitem s
Ġst age
is f
Ġm ount
Ġinterest ed
Ġprim ary
9 9
Ġbenef it
Ġd ied
Ġno vel
Ġold er
ĠF rench
Ġtrad itional
u per
an i
Ġfor ces
Ġfull y
Ġcustom er
Ġda ily
Ġm ur
Ġ >
um n
Ġcomm it
r ad
ĠM any
ne w
Ġpl ant
Ġcurrent ly
Ġsc ene
Ġdru g
Ġar m
ĠInd ia
ortun ately
ĠA cc
Ġwor se
Ġm outh
ĠDem ocr
b on
Ġprote in
or ks
Ġr ound
ĠChrist ian
se e
Ġw ish
ra b
ĠE m
ĠIs rael
Ġele ments
Ġcoun ter
Ġb le
ro ll
iz es
pect ive
O S
Ġd er
u ild
ĠL ike
3 4
ĠC our
Ġa ctions
Ġto ward
ĠJ esus
Ġd ie
Ġpe ace
Ġarg ument
Ġn ucle
Ġca uses
Ġmajor ity
Ġprofess ional
Ġcand id
Ġn ames
ra in
Ġtr ade
Ġanal y
0 5
S c
Ġl ength
ĠO ur
Ġpubl ished
Ġrem ain
re ci
ĠEurope an
Ġdo ctor
Ġpre fer
Ġthought s
Ġnot ice
ter m
Ġon to
Ġe ating
th is
Ġwill ing
Ġpr int
ĠCh ar
Ġtool s
Ġexerc ise
a ctions
Ġextreme ly
at ur
- g
A M
E T
Ġplat form
r ound
" I
n ame
Ġdis p
Ġbal ance
5 00
p es
Ġc ast
ate gy
il ing
Ġra nd
or ge
Ġk id
ĠN ational
Ġpr ices
Ġpat ient
a per
Ġstep s
Ġbl ue
{ Ċ
Ġt our
g ers
it able
Ġdire ction
O C
Ġm icro
Ġbe g
fl ict
Ġf arm
Ġli ber
u ing
Ġsuccess ful
d ef
a e
Ġbeaut iful
ĠM ich
ust r
Ġc ru
- M
os is
0 9
Ġinc ome
A P
i ver
in c
Ġtrans l
Ġjob s
act er
^ {
Ġent er
Ġkill ed
Ġsal es
ĠB ar
Ġtrans form
Ġbas is
5 5
te xt
l s
Ġw ild
le br
Ġh osp
Ġpass ed
ir ing
m itted
Ġt ask
ch ange
Ġmost ly
G et
Ġsy mpt
com p
Ġrand om
h am
c ast
ed d
ow d
res p
ĠF eb
ĠU K
ond ay
Ġstate ment
cl us
tern al
Y es
) :
or ry
Ġsh all
ĠCong ress
W ell
an c
ĠS ince
Ġve h
ĠC ity
cept ion
F rom
ĠO ther
Ġcal cul
bo ard
a res
Ġh us
Ġtemper ature
ĠP at
Ġgl ass
n o
Ġw at
Ġreport ed
( "
ĠS ch
k ay
ad em
Ġ$ \
Ġdeterm ine
in ct
Ġc ateg
Ġapp ly
ick s
Ġg od
Ġelect ric
S e
Ġlet ter
Ġrece ived
Ġmod els
Ġdesp ite
s s
ud d
Ġintern et
if ying
Ġaud ience
p ret
Ġl uck
ist ics
Ġpre c
Ġbott om
Ġapp arent
Ġform s
Ġfa ith
ob ile
on ent
L et
Ġsa f
Ġlead ing
ĠW ind
Ġwatch ing
x y
Ġback ground
Ġdis play
ron ic
Ġhum ans
I m
Ġw ood
Ġtra in
Ġf ish
Ġof fe
Ġwork ers
Wh ile
! "
> <
o very
Ġsc ale
ig ure
Ġsc ript
at ically
ĠBl ack
Ġm ut
Ġh ous
Ġintern ational
== ==
ograp hy
ĠP ost
Ġover all
Ġlot s
Ġdru gs
ĠAmeric ans
Ġfavor ite
ĠM arch
Ġinclud es
Ġappe ars
Ġg ain
ht t
ab or
Ġtit le
Ġref lect
Ġf resh
Ġr id
Ġfollow ed
Ð ¾
Ġt er
ĠP ol
k ed
Ġhon est
ne ct
ĠOn ce
Ġrespons ible
Ġinclud ed
Ġ id
est s
Ġbelie f
m un
Ġan g
Ġr ates
ĠP C
Ġe th
u gg
Ġcom mer
Ġobv ious
0 8
Ġf ol
Ġfact or
4 8
g a
i ers
Ġgo ld
Ġreg ion
Ġdescrib ed
i am
Ġb illion
ĠC ons
Ġexp ress
Ġsum mer
ul ated
Ġcent er
Ġrelig ious
Ġheav y
t ime
) :Ċ
U s
ĠApr il
Ġpar am
Ġmeet ing
g ment
r ange
ar ian
Ġset ting
Ġpro ced
3 8
r ig
ct ors
Ġstr ategy
Ġcop y
ĠG et
oc al
pr int
Ġcam era
P S
Ġfl oor
l a
Ġf ederal
Ġslight ly
ad y
Ġd ry
ĠO h
Ġdeb t
/ s
Ġcall s
Ġbud get
Ġcon duct
Ġint ellig
Ġrece ive
Ġorgan ization
D on
Ġm ale
Ġfind ing
Ġchem ical
Ġp ark
we ll
Ġask ing
Ġadvant age
ve y
Ġwe ak
Ġsmall er
Ġhy p
3 7
Ġinflu ence
ĠC r
Ġqu ant
ock ed
Ġlist en
m en
Ġr ich
Ġconst it
c oh
Ġcon flict
. m
oss ible
Ġactiv ities
Ġconc ent
Ð °
ĠSe ptember
Ġkeep ing
ĠJan uary
Ġprogram s
Ġess ential
A L
Ġm ild
Ġcrit ical
i verse
al t
yn am
Ġchall enge
Ġad just
un ction
in ated
Ġp us
Ġdest roy
Ġsex ual
as ion
od ay
ci ence
k nown
Ġch urch
Ġep is
Ġdeg ree
Ġun less
U S
Ġ ing
Ġre b
ad ing
te red
Ġdist ance
Ġbra nd
Ġamaz ing
Ġb ul
Ġb attle
ĠL aw
Ġreal ize
Ġmov ies
Ġcontin ued
Ġp un
ĠS er
ove mber
Ġapp reci
li ed
Ġqu al
Ġdou ble
Ġcirc um
k i
Ġa im
Ġe gg
Ġcr is
Ġvari ety
Ġestab l
Ġ ...
ĠAug ust
. [
Ġcon sequ
Ġen em
omet imes
Ġc atch
od ies
Ġdec ide
Ġac qu
Ġdemon str
Ġm ental
Ġref er
ul ate
ri al
Ġexp ensive
Ġser ver
Ġt im
ov ing
Ġro b
Ġloc ation
Ġsaf ety
b um
Ġf aster
Ġcare er
Ġanim al
Ġdiscuss ion
Ġann oun
0 4
Ġim ages
Ġle aving
a id
A D
e y
Ġoff ers
Ġshow ed
Ġgra ph
How ever
st e
E M
Ġn or
Ġli br
Ġinst it
Ġdig ital
Ġimag ine
is l
Ġun s
und ay
Ġinit ial
ck s
op er
ain t
il ies
Ġev al
Ġput ting
Ġvict im
ĠM ac
ĠP M
Ġsepar ate
t r
ĠD es
Ġ `
ens es
Ġrem ind
Ġstr ing
Ð µ
Ġc ore
ĠM od
ĠG reat
Ġrem ains
Ġc up
Ġact ive
Ġplan et
ĠWh o
Ġ er
- S
ĠW est
ĠJ uly
for ce
e qu
ul f
en cies
Ġre ci
Ġmin or
Ġlead s
Ġwa iting
Ġrele ased
Ġfor get
Ġdet ect
p id
v ision
Ġm ap
Ġspe nding
ĠAust ral
k in
ĠL a
ĠG ood
i us
Ġwind ow
ĠA M
ri v
Ġele ment
ot o
0 6
4 7
Ġcent ral
l ig
Ġmag n
Ġprodu ced
0 7
3 9
Ġs ources
ot ic
Ġsh ip
Ġsh ape
r or
on ic
Ġf ru
ed s
The se
ĠTr ump
Ġce lebr
ri age
Ġfe ature
Ġspe ct
Ġhus band
] ,
ĠD is
Ġspe ech
Ġexam ples
Ġsm art
c an
Ġb ound
Ġv s
ĠAl though
Ġcomp ar
ĠCour t
ã ģ
Ġatt ract
Ġstart s
Ġpl ans
Ġrepl ace
Ġwor ry
ĠN et
Ġcl imate
Ġtell s
Ġr at
ib er
Ġbec oming
Ġc ash
Ġtest ing
O M
Ġint end
Ġschool s
Ġfre edom
Ġstat us
Ġo dd
ĠS en
Ġhand le
qu e
ĠR ec
_ {
Ġstr ateg
E C
Ġd rop
idd en
Ġdoub t
A dd
O h
ab ase
ok ing
v is
Ġbas ically
Ġpo ly
a it
Ġfeel s
Ġb ag
ĠWh ite
Ġsat isf
Ġst reet
Ġtyp ically
ili ar
Ġc as
or age
ĠT H
am ing
Ġwe ar
g or
i pp
i as
o oth
ĠMay be
ĠK ore
Ġsympt oms
Ġsc he
Ġdec re
Ġadv ice
ar ter
ang ing
Ġrem ove
he st
Ġh om
ra w
il os
ĠSt ud
Ġappropri ate
O f
ĠA nt
P l
p en
Ġ Ã
Ġsur round
Ġexp ression
re f
ĠR em
m l
Ġin put
um an
cl usion
Ġmain tain
ĠMus lim
m ath
Ġt error
Ġhelp ed
ĠS pe
iz ations
Ġother wise
Ġass ess
f ile
ues day
B C
pl ace
Ġclaim s
Ġh ol
Ġlead er
ill ed
Ġtot ally
Ġa st
ro l
ak ed
Ġad vert
ĠV al
Ġpres ence
k a
an ch
Ġfor g
âĢ¦ Ċ
C ont
Ġf uel
ed nes
Ġcom plic
T r
Ġ %
ign ed
Ġdef ined
Ġa head
ac he
ashing ton
coh ol
Ġr ise
Ġpie ces
Ġfem ale
Ġs pl
Ġsit es
ole c
p an
id a
Ġpre gn
C an
ĠP al
Ġco ffe
ra ft
ip ment
Ġ _
Ġe fficient
ib r
Ġ ice
Ġcr ime
Ġh ate
Ġcl ick
Ġcl osed
Ġswe et
Ġabsolute ly
Ġb ow
Ġn one
i pe
Ġs ad
Ġf uck
as y
ur g
Ġposs ibly
Ġthous ands
ic o
ist an
if orn
Ġsp ot
Ġconne ction
Ġnucle ar
ednes day
f rom
Ġp et
Ġfail ed
Ġb ird
ĠJ une
Ġtell ing
Q u
ar ant
Ġl ived
ĠA ut
Ġc ars
ul a
ĠApp le
Ġcitiz ens
Ġp ush
ce mber
um m
Ġnum er
Ġfam ilies
Ġtop ic
d own
Ù İ
Ġsy mb
Ġexist ing
Ġ à¤
Ġpr ison
i os
ol ar
Ġj ump
Ġdec isions
Ġentire ly
ig r
ĠS un
Ġj o
Ġpre m
ĠIs lam
d ro
Ġf alse
ire ct
Ġsupp ly
Ġprom ot
Ġident ify
Ġre ference
Ġe ight
ur ation
ant ed
Ġcons erv
E d
ri ble
fe rences
Ġequ al
v il
Ġinvest ment
r ough
ap ers
Ġclass es
ĠI S
Ġbig gest
pro ve
J ust
O U
Ġs itting
Ġany way
âĢĿ .
Ġele ction
. p
A d
i able
t es
Ġh tt
ĠU p
Ġaltern ative
b an
e ction
g u
Ġd aughter
Ġdev ices
gor ith
4 4
Ġ il
im inal
Ġun it
ĠD ay
Ġinc red
N ew
u ous
Ġinter pret
Ġexperi ences
Ġlab or
Ġcoffe e
y ou
Ġc ards
Ġout put
T w
Ġemploy ees
ist ry
ĠO ver
Ġturn s
stit ution
/ esp
i ance
Ġ Î
Ġknow ing
Ġhappen ing
iforn ia
Ġst ream
Ġd ed
ur rent
ty pe
rap y
l in
Ġf an
Ġr ul
Ġtr ig
19 4
Ġbu ying
Ġb ought
Ġsh ut
d o
ac ity
3 00
ĠThe ir
Ġinst r
ern ame
Ġem p
orr ow
ed ia
Ġcont ains
Ġaff ord
Ġb ond
ck et
Ġtr ouble
Ġc aught
Ġfor ced
ĠInd ian
urs day
- r
ĠA c
Ġsol id
ĠOct ober
w ood
ĠN ovember
Ġro ll
Le ave
er ry
Ġsu gar
Ġv ill
Ġset s
Ġchang ing
Ġconvers ation
Ġweap ons
I V
ĠDav id
7 5
âĢĿ ,
Ġdiffe rences
iqu es
Ø §
so ft
Ġdisc overed
M ore
Ġl oved
19 5
Ġobject s
Ġpurch ase
Ġcult ural
ĠL og
Ġle aves
Ġcris is
Ġprocess es
ĠInst ead
c ription
m osp
u ate
id ents
D e
Ġre ached
ov es
Ġcar bon
Ġgener ation
Ġme re
Ġrecord s
cl ass
i ency
it ness
Ġgo als
Ġrelig ion
Ġhosp ital
in ter
ĠB ra
os ure
Ġal bum
ĠR ed
ĠNew s
ar p
Ġbe at
ĠC ount
ĠJ ack
Ġpers pective
um ber
6 4
l or
o om
in ner
as ks
Ġpro ve
ub b
Ġbro ken
Ġdefin ition
s es
Ġb rief
op y
Ġsh owing
Ġstop ped
u zz
ĠRep ly
Ġfight ing
re ate
Ġch ann
e k
Ġimp ossible
ch ar
Ġwe alth
Ġ\ <
p art
ĠS l
ger y
S S
ĠD ep
our ney
19 3
Ġind eed
Ġdi agn
Ġcommer cial
Ġsh ared
ĠRe g
t a
Ġy ell
Ġser ve
Ġmus cle
Ġequ ipment
Ġmil es
T ype
ur ies
Ġexp and
. C
-t ime
ĠCan ada
- term
Ġdri ving
Ġd im
Ġfl at
ĠTr ans
Ġt ick
at hy
Ġproject s
Ġdefe nd
et ers
ro id
Ġmil k
F r
ĠW ashington
ĠP aul
ru ary
ail s
Ġh urt
se mb
Ġwas te
Ġmiss ing
" .Ċ
Ġhe aring
ak ers
Ġviol ence
Ġro ot
hen s
Ġslow ly
Ġst aff
ill y
Ġtra ffic
A b
cell ent
Ġlat est
Ġb atter
Ġre action
Ġpro s
ond on
b ox
ant ic
Ġbel ong
Ġtrans port
ĠTh anks
" :
' '
Ġall owing
Ġthan ks
Ġrem oved
__ __
Ġindepend ent
- C
u ations
Ġst ars
Ġprov iding
Ġdef ault
Ġap art
R el
Ġrelative ly
ĠM al
Ġconst ruct
Ġproper ties
Ġhold ing
ĠS am
ra q
ol f
I M
ay er
Ġscient ific
) ;
r ow
Ġs and
ind ing
Ġcr owd
Ġtrans fer
Ġhe ll
Ġr an
Ġpl aced
Ġex tend
ens ity
Ġval id
w orks
in ate
Ġad apt
Ġp ages
ĠJ e
rib e
0 2
z a
Ġt err
Ġs ick
Ġansw ers
Ġsus pect
M ost
y m
het ic
im b
Ġse a
Ġse m
Ġest im
Ġapplic ations
Ġf ant
ĠF acebook
Ġmass ive
Ġj ournal
- A
re es
fe ction
ĠCal ifornia
Ġdoll ars
p oint
ĠM et
Ġmot iv
ĠS erv
Ġli qu
Ġinc or
Ġexpl an
ĠDo es
Ġgirl s
Ġtast e
c are
Ġs oul
Ġpay ing
B l
w r
Ġown ers
Ġmag ic
ĠS T
Ġwe ather
Ġbig ger
Ġeff orts
Ġmechan ism
Ġal gorith
ĠUn ion
Ġbelie ved
Ġvis ion
IN G
Ġconcern ed
E O
O r
v est
in n
Ġs en
Ġwh om
os ite
Ġbusiness es
Ġtest s
v ar
ic a
Ġpl ants
Ġrun s
Ġexperi enced
Ġmult i
ap pe
por ary
Ġre nt
Ġse ven
m ar
Ġs ch
Ġhe ro
Ġac id
ing ly
Ġcl oud
Ġmaterial s
atur day
f ig
is hes
ĠR ober
Ġqu iet
Ġdanger ous
t ained
z en
as ure
ĠG ree
Ġsw itch
0 3
Ġen h
Ġman aged
Ġdescrib e
Ġc overed
ed y
ĠC D
ĠWind ows
ĠW here
Ġstand ing
Ġleg isl
Ġvis ual
Ġrad io
Ġat mosp
ĠO ut
Ġmin ute
Ġp ure
Ġun like
ĠDe cember
ĠMich ael
F irst
Ġche ap
Ġobv iously
? ?
i j
ĠS ee
Ġcl in
. c
re ak
olog ies
Ġbut ton
Ġev olution
up id
Ġtre es
Ġal cohol
Ġfam ous
Ġjud ge
Ġfill ed
Ġm ort
Ġd ynam
ac ing
ash ion
Ġmiss ion
Ġrelationship s
z er
Ġreport s
u nder
ri e
Ġher self
Ġfood s
Ġeng age
Ġsong s
- old
Ġk ing
Ġspecific ally
Ġdeb ate
ĠI raq
ĠS an
Ġme at
ber g
ĠSy stem
Ġgu ide
Ġstr ange
Ġintern al
wh ile
Ġcircum st
Ġhelp ful
Ġsc ore
Ġadd ing
Ġaccom pl
h ost
us ername
Ġnot iced
Ġfam iliar
Ġpict ures
Ġlab el
- >
Ġb an
Ġopen ed
sh are
Ġwalk ing
Ġattack s
Ġpart ies
Ġem pt
/ or
l ies
Ġs ac
Ġm el
Ġm aster
Ġass ume
Ġcrit ic
r um
Ð ¸
Ġend ed
Ġsecond s
Ġconst ant
Ġar rest
Ġtri p
Ġproper ly
ic ians
Ġsudden ly
am in
ĠP ark
Ġve get
P ost
Ġj oin
Ġcl ient
Ġopt im
Ġfail ure
ĠS ov
clud e
Ġcolle ction
Ġst im
ĠĠ Ġ
Ġind ex
re y
Ġp al
Ġl ic
Ġre act
iss ion
ww w
Ġ err
Ġman ner
Ġlar gest
- le
i en
Ġan cient
Ġdes ire
er g
es h
Ġd ial
Ġim pl
Ġar ms
Ġdef ense
Ġprote ction
Ġcy cle
ĠM icro
Ġpo ll
oy al
An y
Ġf irm
ra cy
Ġapp lied
Ġph ilos
Ġdevelop ing
** **
Ġhistor ical
O ur
Ġs ides
ri a
Ġrest rict
r im
is ation
Ġident ity
ĠB en
Ġour selves
ĠI ran
Ġz ero
Ġdepend ing
4 00
Ġev il
Ġfair ly
m od
ra ce
Ġimport ance
Ġestabl ished
Ġacc ident
Ġra ised
ĠM at
Ġk ick
Ġsent ence
4 6
Ġdis s
Ġemot ional
an cing
ri an
f ield
Ġrespons ibility
resp ond
ol ve
Ġform at
- re
our s
9 5
ĠE ast
ĠL ondon
Ġneighb or
Ġre ven
Ġj ourney
Ġp air
Ġcall ing
Ġdeterm ined
Ġn av
ÂłÂłÂłÂł ÂłÂłÂłÂł
Ġexec ut
( )Ċ
ĠIt s
A A
at ar
Ġto m
Ġsome how
Ġlaw y
ĠRuss ia
ĠD ec
ĠHe alth
Ġcommunic ation
_ t
Ġt ight
Ġcomp onents
Ġthan k
gy pt
n ight
ĠA P
Ġexper t
Ġexpl ained
Ġregard ing
p ublic
Ġm olec
im port
ĠB ig
rom e
os h
Ġra in
O b
ord s
Ġshould n
Ġdown load
ĠFr ance
Ġconnect ed
Ġut il
ĠGe orge
Ġil leg
M e
Ġnot es
Ġaspect s
Ġopen ing
Ġredu ced
ent ed
ol ved
ĠC O
Ġstand ards
ĠA p
The n
Ġpost s
Ġexist ence
4 2
Ġst ret
all ed
and er
o ch
Ġsu st
Ġhelp ing
Ġpur s
- like
ar io
ĠD ef
Ġam b
Ġclos er
Ġwor st
ĠU se
Ġun ivers
Ġtri al
Ġh ur
ĠT ime
ĠH igh
Ġsee k
ĠJew ish
it ors
Ġdo gs
ĠD NA
Ġend s
Ġide al
Ġkind s
Ġcontin ues
Ġdat abase
c il
Ġtw ice
Ġcr iminal
ĠRe view
er ate
ic on
Ġpolit ics
Ġchalleng es
ĠB o
Âł the
Ġr ing
ĠJ ava
Ġplan ning
Ġsuggest s
g on
u y
id ers
Ġspe aking
- D
ĠO ff
ren cy
Ġaccept ed
Ġrele vant
Ġlay er
E n
ĠC le
ĠM ake
ĠTh ose
Ġfl ight
Ġfun ctions
Ġmar riage
x i
Ġb are
Ġst orage
ĠA rab
Ġpl us
Ġra pid
ite ct
Ġteac her
ph one
Ġprep ared
Ġbeg ins
ĠIntern et
ĠFeb ruary
Ġinterest s
Ġepis ode
Ġwalk ed
ĠR ob
ĠJ ames
Ġtechn iques
itc hen
^{ -
? âĢĿ
r ical
y th
al le
im prove
Ġpl ug
Ġcol umn
Ġpolic ies
Ġed ge
Ġoper ations
Ġoffe red
ĠB ush
Ġr ough
Ġte en
ĠAs s
or ter
Ġat tend
Ġch ain
ard en
Ġrest aur
- of
Ġex cellent
Ġun iverse
Ġfol ks
Ġp hen
ph as
Ġfoll ows
Ġmot ion
r ont
Ġse at
Ġph r
Ġcomb ination
um s
Ġfeel ings
c ont
Ñ Ĥ
Ġf old
Ġbr ight
Ġcl ub
Ġscient ists
P lease
qu est
Ġmet al
Ġrese arc
Ġmar ried
4 3
en cing
Ġsome what
esp ite
Ġing red
M ay
Ġf ans
Ġm o
ruct ure
Ġfore st
Ġimm une
V al
i est
Ù Ħ
Ġse lling
est ic
Ġra ise
Ġdepend s
) )
5 6
R ead
om y
Ġn erv
ĠM ex
Âł and
Ġpl ot
Ġloc ated
Ġsymb ol
ĠIn ter
ĠTw o
- e
m as
os en
Ġgu arant
Ġhig hest
( s
L E
Ġst ation
Ġreal ized
ĠThere fore
] [
Ġm ine
st ood
ill ing
ul ations
form ation
id th
ĠE ach
ĠIn c
igh ter
Ġmon itor
( '
Ġth ick
ir ty
ke nd
Ġr ot
Ġfield s
ic it
Ġear n
Ġreturn ed
Ġpl enty
te e
Ġtax es
Ġadminist ration
| improve
re m
ĠR ich
Ġt on
Ġb odies
Ġf ly
Ġm ir
ord ers
i pped
p et
Ġsm ell
r m
ĠM art
Ġte eth
Ġtre ated
ĠGo vern
es ome
ut s
id el
ĠS ing
Ġex change
ĠTh om
Ġpo ol
- pro
Ġth read
Ġmark ets
Ġcra zy
r ate
Ġb acter
Ġpart ner
ĠA I
Ġse vere
Ġsa v
land s
S ee
re al
app ing
Ġteam s
ĠGerm an
Ġcor ner
Ġperform ed
Ġestab lish
Ġdisc over
Ġdeli ver
le e
Ġst upid
Ġsign al
Ġca using
I nd
I nt
c her
Ġsome where
Ġthr ow
Ġpow ers
g l
h ouse
Ġg ar
Ġpro of
Ġent ertain
Ġche st
ĠA v
ĠB el
Ġfact s
Ġrequire ments
ĠGerm any
G en
ĠAn sw
V iew
Ġd ut
and a
Ġfun ny
Ġposs ibility
( );Ċ
i ate
at o
ur ally
Ġany more
Ġtechn ical
- the
ro ad
ach ing
Ġincre ases
Ġadv anced
Ġwonder ful
Ġfix ed
Ġempt y
5 8
ou b
ĠE gypt
Ġpl ays
Ġsequ ence
Ġqu e
Ġdec ades
Ġperfect ly
Ġapparent ly
ens ions
Ġwr iter
ĠJapan ese
Ġwe l
Ġconsider ing
Ġsignificant ly
Ġlibr ary
w an
Ġm ent
S C
in em
Ġmod e
ĠA N
Ġqu ot
Ġtyp ical
Ġsol utions
u ke
ĠL ord
Ġsm ooth
Ġfin ished
Ġbehav i
Ġintend ed
Ġcre ation
An other
Ġvol ume
Ġc art
Ġl osing
Ġres erv
Ġsp orts
Ġsur gery
Ġturn ing
ĠAfric a
ĠA lex
ĠH el
Ġhard er
Ġappe ared
Ġcreat ive
4 9
ĠD a
Ġopportun ities
A re
Âł M
ag on
stit ute
r d
ĠÂł ĠÂł
O D
f ortunately
Ġre form
em s
Ġcor respond
Ġfilm s
Ġpresent ed
le te
ro g
ĠRuss ian
I P
P r
U T
it ory
Ġno ise
Ġconst ruction
Ġhundred s
/ Ċ
ĠB ook
ĠEng land
rel ated
- B
ĠR el
Ġeffect ively
Ġnecess arily
Ġprofess ion
Ġbreat h
Ġcons cious
Ġb ath
ter day
out s
og en
Ġopp osite
Ġprev iously
Ġappro x
ĠGen eral
Ġcho ices
ri er
ĠWh ich
Ġconf ig
Ġc ities
Ġf av
ĠB oth
Ġus ual
Ġsk y
Ġc ert
ĠH y
Ġleg s
Ġmanufact ure
Ġcircumst ances
- F
l ock
ĠI P
Ġpl astic
Th anks
Ġmus cles
Ġview s
Ġrev olution
or b
as p
Ġst ated
Ġintrodu ced
ri x
ition ally
Ġinter act
Ġser iously
Ġd u
ĠS a
Ġwe ird
v ention
Ġl ock
st ream
Ġha bit
ĠU nder
-s h
Ġobserv ed
ĠM ag
ĠL ook
Ġgener ate
Ġconst antly
ĠB ill
Ġex cess
( \
G r
d en
Ġwe aring
Ġent ry
Ġel imin
Ġcap able
Ġphot os
ut or
oll y
Ġmin imum
ĠRepublic an
Ġb anks
ĠE v
oc racy
Ġmur der
f ord
ic ip
5 7
Ġw ire
ĠF e
Ġatt rib
Ġcol on
R es
Ġm obile
ĠS al
ĠS ub
ĠS chool
Ġcap acity
Ġpull ed
hem at
Ġfrequ ently
j u
Ġ .Ċ
Ġl ies
Ġsh ift
Ġsign s
Ġmor al
Wh o
Ġsurpr ised
ĠPart y
Ġclot hes
E very
i xt
y a
on ium
ĠS uper
ĠG reen
ru ctions
Ġrem ark
Ġdri ver
Ġinvol ve
ic ated
Ġe ffic
ul ous
ri z
ap ed
Ġrel ax
P M
Ġf if
ĠTh us
Ġany where
Ġcompet ition
Ġsam ple
D ata
ic ing
ĠA D
ul s
ĠM o
Ġv an
ust er
Ġorgan izations
Ġsqu are
fra id
Ġt asks
Âł S
Ġal le
out hern
Ġfl o
Ġse lection
Ġcont rast
Ġwere n
Ġcomfort able
e per
n ger
Ġneg ot
Ġagre ement
Ġsal t
Ġwin ter
f o
Ġcl ients
. s
h ors
Ġfor th
Ġkill ing
Al so
- n
ra ction
Ġj oint
Ġfin ish
as er
ig ration
ol a
ĠP ort
Ġexper iment
Ġult imately
P R
Ġ )
orm al
Ġac adem
Ġserv ed
Ġocc up
Ġprop osed
b i
Ġex ists
Ġal ive
Ġsus p
Ġaccur ate
am ental
ĠP eter
ĠSt ep
Ġlink s
y r
Ġf lex
ĠW he
Ġman ager
Ġem phas
az on
Ġdesc ription
Ġintellig ence
P e
hip s
ĠAcc ording
Ġf ashion
Ġprof it
Ġmeas ures
yth on
- and
E L
Ġh orr
ac c
Ġlo op
Ġinn ov
Ġcandid ate
R ec
_ s
ing u
Ġm al
ĠT om
Ġsy nt
ars h
oun ter
Ġpack age
Ġteach ing
t op
he red
ĠJ ud
Ġveh icle
ĠWe b
Ġsit uations
T M
Ġw itness
ĠA ir
ĠIn s
Ġsol ar
ĠOn ly
Ġvide os
b ra
ĠTh ank
Ġform ed
. j
I I
N ame
Ġb ull
ĠS ometimes
Ġv ast
Ġfoc used
Ġsn ow
Ġt aught
Ġto w
Ġd ress
od ing
Ġsim pl
Ġgra v
ĠUS A
Ġess entially
Ġa fraid
ĠSt reet
Ġmill ions
Ġ !
Ġt un
Ġg ro
ĠM or
Ġsh it
Ġsec ure
Ġpain t
Ġrout ine
O P
Ġb unch
Ġst ood
ĠW estern
Ġsh aring
Ġfund s
Ġcorpor ate
Ġs in
ĠS up
ĠD uring
ĠSt ar
stand ing
ĠCom mun
Ġnumer ous
O ut
Ġs outh
Ġret ire
Ġarg ue
p m
Ġt ro
ic ial
all s
Ġatmosp here
Ġtr uck
Ġident ified
Ġla unch
Ġread ers
Ġmess ages
Ġs ister
Ġn orth
ce an
ĠP lease
iven ess
ĠAfric an
l ist
Ġt ough
Ġl ie
us iness
Ġthink s
Ġins p
Ġoper ation
Ġess ay
ĠSec ond
ĠSov iet
ĠMicro soft
he nt
Ġw ine
ĠM ary
Ġne ither
Ġdist rict
Ġaffect ed
Ġliqu id
Ġg rew
ĠâĢ ¦
Ġauthor ity
5 9
E ven
O L
ĠH am
ĠAn other
ron ate
Ġdistrib ution
Ġadult s
- th
ce l
Ġcon ver
ĠN OT
C C
Ġa id
Ġs an
Ġtr ick
Ġinvol ves
Ġdom ain
M S
} {
Ñ ģ
Ġpract ices
A pp
Ġt iny
Ġexplan ation
Ġd ance
ĠS il
Ġch ick
Ġresult ing
P er
z ing
ch ing
Ġne ck
el f
Ġsy n
Ġsuggest ed
Ġfing er
u able
Ġh ar
Ġg ather
Ġyou nger
ill a
Ġpart ners
Ġcre am
Ġemer g
Ġk itchen
ĠL ife
Ġad m
Ġcons ult
Ġlet ters
Ġmom ents
c ol
c ode
ab ilities
ic ian
ĠC am
ck ed
Ġnorm ally
L ist
Ġdis appe
Ġgood s
Ġexpl ore
i pping
Ġu pper
ict ed
Ġexper im
_ p
ĠT ur
ĠW r
Ġsp in
Ġkeep s
Ġaccount s
Ġs ession
ad o
Ġunder stood
Ġsub t
go ing
Ġleaders hip
S p
Ġsu c
ĠY et
Ġown er
ĠSo cial
ik i
Ġm ath
ab led
Ġv it
Ġvirt ual
Ð ½
Ġd inner
ort ion
. '
G oogle
om ic
ĠH ave
com ment
ĠFr ank
og ue
U R
c ript
h ab
Ġh omes
Ġe c
Ġcomp onent
15 0
Ġconcern s
Ġliter ally
Ġencoura ge
htt p
i at
in i
Ġmov es
Ġequ ival
Ġinj ury
Ġhor se
Ġresist ance
8 8
A cc
t hen
Ġnot ed
Ġapp oint
Ġdist inct
ĠĠĠĠĠĠĠĠ ĠĠĠĠĠĠĠĠ
W here
Ġart icles
Ġ/ >
l ong
Ġr ide
int on
ĠAn ge
Ġwat ched
_ d
Ġfor t
Ġj u
du le
en a
ad ed
em pl
Ġun able
ph a
Ġo kay
6 5
ur d
Ġpro ceed
Ġ= =
Ġread er
Ġdirect or
re te
an o
ĠB ack
Ġsm ile
Ġprocess ing
Ġlarge ly
On ce
Ġcol ors
m et
ĠT imes
Ġme ld
Ġmat ters
ĠFr iday
Ġhy per
Ġdetail ed
Ġofficial s
d iv
or ation
ĠW ork
Ġar my
Ġext ent
Ġreve aled
es ides
ĠC at
ist ory
ag ers
Ġmed ium
Ġexpl ains
T H
Ġâ Ī
Ġarch itect
Ġconsequ ences
S D
Ġat h
> >
T e
Ġm oon
Ġb order
Ġpass ing
Ġcreat es
Ġwall s
Ġvac c
I d
Ġrecogn ize
Ġilleg al
re p
Ġr u
Ġdis app
G o
ĠT ex
Ġex ternal
ĠH ome
Ġar ray
ĠTe chn
Ġch air
ag o
Ġjust ice
Ġteac hers
ĠRober t
Ġst om
Ġsol ve
Ġpattern s
Ġrepe ated
\ n
n am
Ġs orry
ĠF in
Ġbr ings
Ġsupport ed
Ġreason able
Ġoper ating
Ġdrink ing
ste in
Ġhtt p
b al
Ġsu fficient
Ġgot ten
ĠQ ue
Ġocc urs
Ġamount s
Ġconv ention
Ġfoot ball
ĠRom an
Ġenem y
O ther
R A
Ġ iron
Ġn om
ld er
ĠS ur
ĠB et
Ġsp ring
Ġdeal ing
Ġproced ure
ĠM il
ĠD id
Ġ= >
u h
Ġsh ock
Ġcar ried
ĠG old
Ġgr ass
Ġtre nd
l ook
Ġs ight
Ġl oud
ĠS cience
Âł It
ĠL ib
Ġdr am
Ġboy s
- se
c raft
ot a
ĠT y
ad s
ig ation
Ġhe ight
ĠJ ul
Ġadv ance
Ġbre ast
k er
Ġre ject
Ġis ol
Ġsc r
// /
Ġhold s
Ġmot or
Ġmedic ine
i i
at ural
Ġto x
ar ly
Ġli kes
Ġenvironment al
Ġresearc hers
y an
ĠI D
est ion
Ġv ary
Ġarri ved
n et
y stem
it a
or al
com ing
Ġphen omen
M any
n ic
} \
in ating
it le
fra c
Ġdeg rees
ĠM ill
ĠAt t
Ġinit i
Ġfrequ ency
Ġinstr ument
n el
Ġt ired
Ġh unt
od d
Ġab use
Ġart ist
Ġstruct ures
Ġsold iers
Ġstrugg le
ĠAustral ia
! "Ċ
ĠT ake
Ġhy dro
4 1
6 6
Ñ Ģ
om an
ad ian
Ġcon ven
oll ow
Ġpass ion
Ġcomplic ated
Ġf asc
ĠJ er
Ġrem aining
Ġgu ard
Ġlist ening
Ġmax imum
Ġth in
as hed
19 2
Ġthe rapy
âĢ ĺ
ce ived
Ġpost ed
Ġmach ines
Ġconsum er
Ġvir us
Ġforg ot
B ecause
Ġm ail
am ple
Ġst orm
Ġr ank
Ġbl ind
Ġsuc ceed
Ġh idden
Ġbe ar
ig are
Ġst uck
ra ge
Ġtechn ique
Ġtalk ed
Ġprot ocol
on na
Ġun its
Ġeven ing
Ġpract ical
ĠPl an
Ġconv in
ay ing
Ġbr ows
fra k
Ġmere ly
hent ic
O W
Ġh ole
ĠM iss
Ġingred ients
/ c
Ġbl ame
Ġadv ent
Ġpot entially
W r
ĠT re
hes is
ĠCent er
Ġas ide
ang ed
Ġgreat est
ok es
ĠPro f
Ġautom atically
ĠIntern ational
Ġw ave
ck ing
Ġli ked
Ġed itor
Ġfeed back
Ġagre ed
Ġfing ers
Ġl augh
se y
ĠF re
Ġtrad ing
Ġsurpr ise
Ġprec ise
Ġperson ally
Ġaw esome
az ine
C ol
g reg
Ġt um
ib ilities
con st
Ġcomput ers
Ġpurp oses
Ġupd ate
7 8
C H
S ince
om a
Ġris ks
ĠFl or
Ġesc ape
ut ation
ĠS and
Ġcon clusion
Ġse ctor
Ġch apter
Ġpl ate
Ġsm oking
Ġnat urally
' .
Ġt one
Ġbo ost
Ġfru it
< issue
E P
Ġp in
an ish
ĠS unday
Ph one
Ġmist ake
pec ific
B ack
i ot
t aining
Ġp ed
Ġint ention
ear s
Ġposs ess
Ġwee kend
L ast
Ġm ac
am ily
Ġhas n
Ġim plic
Ġcomp re
Ġte a
ĠV ict
Ġra c
Ġrep ly
xi ety
u i
ĠM em
ĠH ill
Ġj e
ink ing
Ġwr it
Ġconsum ers
h ome
ĠG ame
Ġact s
Ġact ing
Ġph ase
Ġsk ill
Ġappear ance
in ations
Ġh at
ce nd
Ġst one
Ġaut hors
bl og
U p
ab et
Ġsub s
Ġbus y
Ġbro ke
Ġsurv ive
- on
_ comment
m ic
re ens
ed ing
Ġd ivid
Ġcomm itted
Ġob lig
Ġdef ine
rast ructure
Ġsubst ant
Ġd ust
ĠT or
ĠB ob
Ġr ub
Ġtest ed
Ġarg uments
Ġfund amental
Ġenh ance
Ġphilos op
N e
Ġb at
ort hern
Ġ Ø
at in
Ġf ault
el lect
Ġres olution
Ġdis ag
omet hing
Ġcommon ly
Al though
Ġprinci ple
or ney
Ġoff ering
b el
Ġin fection
Ġaut o
ĠAg ain
Ġincor por
S A
ĠM el
ĠM onday
Ġhad n
Ġwin ning
vil le
Ġt ag
Ġw arn
Ġb oss
Ġprof ile
Ġdep th
r ary
on a
Ġc ab
an ing
ĠH en
Ġche ese
Ġpay ment
-------- --------
T I
d a
p y
or a
ck now
Ġob tain
Ġplan e
Ġcomb ined
Ġdise ases
Ġsuff er
. M
Ġsh oes
ĠR ight
Ġbr own
Ġoffic er
Ġlink ed
f ast
ĠT est
Ġsh ad
un c
int s
( x
Ġt issue
Ġas ks
and on
ĠO pen
Ġstore s
ĠPer haps
xy gen
T P
d is
Ġh ook
ru ption
An onymous
Ġwide ly
b its
ĠD OC
ĠF ree
Ġinter face
ĠAm azon
il er
ĠP R
ĠD ra
Ġman ip
oc ation
Ġconf idence
Ġstrateg ies
- L
. h
is her
Ġl aug
ĠT oday
ri p
ab el
ĠR ad
Ġcur rency
Ġstrong er
Ġegg s
u ated
Ĥ ¬
Ġch art
ĠCh urch
Ġvol unt
Ġhigh light
Ġreturn s
ĠSup reme
s m
w ide
ĠL ist
ang ers
Ġdes k
Ġpick ed
h i
w ar
Ġsp ort
Ġbre aking
Ġpos itions
Ġemot ions
) $
Ġd ad
Ġv ent
Ġsome body
Ġopp osed
ĠSc ott
d f
Ġad opt
Ġcontro lled
Ġhouse hold
re ets
Ġn ative
au c
ink s
Ġco ord
ĠBrit ain
Ġsuff ering
. org
k ins
Ġdo ctors
Ġper man
clud ing
Ġcare fully
enn y
Ġprinci ples
ĠDep artment
l ines
Ġb read
Ġas semb
gr oup
Ġgener ated
Ġcare ful
ĠCon stitution
ĠJew s
us er
M onday
Ġass ets
w in
ig en
ĠP ower
ĠD et
app ed
Ġinstall ed
Ġrefer red
Ġdisapp oint
? âĢĿĊ
I G
ic y
st ate
Ġst ored
if ies
ĠR ock
Ġsp r
Ġreview s
Ġmix ed
Ġcompar ison
y e
ut ing
Ġv ul
ĠAs soci
Ġfil ter
Ġyes terday
- P
ot al
Ġstand s
Ġdiscuss ed
Ġequival ent
O ver
Ġf ro
ag raph
ans ion
Ġscen es
. A
5 2
Ġs ke
un ning
Ġag ent
ĠSt r
ĠCl inton
ĠChrist mas
Ġt ables
ic an
Ġy ield
ess age
Ġch osen
Ġso le
ak s
Ġdis ci
Ġmain ly
Ġter rible
" The
a o
le ts
ĠP ress
Ġthem e
Ġimpro ved
* Ċ
- a
/ m
ol t
Âł s
res ents
Ġint ent
Ġen force
ber t
Ġno body
Ġimp ress
Ġco ast
Ġmat hemat
Ġcut ting
Ġnet works
ograph ic
Ġtele vision
Ġbut ter
Ġinter action
Ġrem ote
Ġexp osed
Ġemploy ee
ĠTex as
ar ry
et te
ate ll
os c
Ġevery body
Ġcre w
Ġhead s
Ġlo an
Ġrecommend ed
Ġeffic iency
h ot
st on
Ġcont aining
Ġpr oud
Ġchar ges
Ġenjoy ed
Ġt ips
Ġa cknow
Ġw et
Ġb one
ar l
Ġl oose
ĠT op
ĠC ir
ĠM iddle
Ġrec overy
Ġph arm
Ġval uable
ĠAr ch
Ġp ump
Ġsh if
Ġgr own
Ġsc ream
Ġconstit ution
s hip
Ġs ale
ĠB ro
Ġr om
ĠF urther
Ġcomp are
ann y
Ġfore ver
Ġste el
Ġregular ly
ĠJ un
Ġqu ote
Th ursday
Ġlist ed
Ġerr ors
es c
Ġm ic
os al
Ġun known
Ġchar ged
Ġvis ible
app y
Ġexc ited
ĠHar ry
/ p
C A
Ġto ler
Ġh ide
Ġre ward
all ow
ĠE U
ĠN ov
Ġim per
Ġpoint ed
ĠFlor ida
in ity
Ġb ike
ge nd
Ġill ness
Ġconsist ent
Ġbatter y
Ġstom ach
I L
Ġt rib
Ġin du
Ġl it
Ġn ations
Ġbe ll
ĠG al
ific ations
pr ing
Ġbring ing
Ġri ver
ĠSm ith
p al
ĠM er
Ġse es
ĠD el
Ġexp osure
ok en
Ġocc asion
Ġ: )Ċ
Ġsurpr ising
Ġsm oke
Ġsub sequ
Ġgl ad
ĠBl og
Ġparam eters
Ġspl it
est ed
Ġrem ained
Ġconf ir
Ġlangu ages
Ġconsum ption
Ġcateg ory
z ed
ĠF ound
Ġme al
ap es
Ġco verage
Ġsub sc
Ġadvert ising
v a
it ar
Ġl un
Ġg ent
we red
Ġrad iation
Ġliter ature
Ġrout e
m es
ĠD isc
Ġal t
te en
Ġbeaut y
Ġdeli very
6 8
Ġde lic
ĠD i
ĠJ oe
Ġext ract
wh o
Ġspirit ual
Ġf ab
al ian
if orm
19 1
Ġconf ident
ploy ment
Ġtal ks
ĠE r
pt ions
Ġob tained
in os
ĠR et
ĠJ im
Ġthous and
Ġannoun ced
Ġsche dule
5 1
Ġ era
Ġc ro
Ġf iction
us hed
Ġmiss ed
c ers
i h
ens us
com fort
St ep
Ġlight s
Ġcoll abor
Ġpan el
Ġappreci ate
Ġneighbor hood
um ps
ang es
Ġrep resents
## ##
5 3
K e
Ġw al
ost er
Ġass ign
Ġbo at
Ġinvestig ation
ani el
C ons
Ġg ift
ĠB er
ĠL in
Ġad mit
Ġgen es
Ġdec ade
Ġwond ering
Ġann oy
Ġfell ow
Ġhous es
Ġjo ined
L ike
or ters
Ġcl ar
Ġres ource
Ġag ents
Ġcomple ted
Ġill ustr
Ġemot ion
clus ive
B S
Ġf aces
Ġst ro
ĠS et
Ġpro sec
Ġco ck
Ġcra ft
Ġrepl aced
Ġsac r
. D
w hel
Ġsc an
az e
Ġwind ows
ĠRes earch
upp ort
J ohn
ĠI d
et ing
ĠB ible
Ġch ief
ĠO ld
Ġend ing
Ġprom ote
ĠAnsw er
w ater
le ge
le ments
Ġg ay
Ġsp oke
Ġfind s
Ġinf rastructure
Ġtrig ger
ly mp
ĠI N
Ġreg ime
fl ow
ann a
Im age
Ġbird s
Ġphr ase
Ġl atter
Ġan xiety
Ġqu arter
Ġevery where
Ġinst ructions
Ġcommun ities
Ġfac ing
Ġoccur red
Ġn ose
il it
ĠF ore
ild ren
Ġgen e
ĠCom ment
Ġrecord ed
ĠTw itter
ĠDemocr ats
Ġcru cial
Rel ated
6 7
re ction
Ġfr ustr
Ġign ore
ic ide
Ġappe al
ĠFr anc
ĠÂ £
s he
il ty
ĠD ist
Ġwhen ever
ĠCount y
p ass
Ġt all
Ġc ere
or ough
Ġre plic
ĠG rand
gr ade
Ġclass ic
Ġtri es
Ġdep artment
Ġengine ering
P A
ĠC y
ĠB as
ĠP ak
Ġwhe el
Ġexper ts
Ġadv oc
ĠUs ing
Ġh orm
ĠB est
um a
est yle
ple te
Ġdom estic
Ġpen al
Ġang ry
Ġvictim s
5 4
R M
g ent
Ġint ellect
Ġfl ood
Ġart ists
Ġlim its
Ġcorrect ly
Ġdro pped
ĠRepublic ans
ĠF il
Ġexp ressed
Ġput s
Ġweap on
Ġshoot ing
Ġin fect
Ġin ner
Ġg iant
Ġab andon
Ġad op
ĠV e
sc ape
Ġfall ing
ĠKe ep
D r
p arent
Ġt act
Ġk iss
Ġap artment
Ġalgorith m
A m
Ġvot es
Ġimplement ation
==== ====
Ġincred ibly
D A
W ednesday
g age
u ct
Ġis land
ĠB ank
ĠU N
Ġoffic ers
Ġsubject s
ĠSec urity
Ġh ang
ĠR iver
Ġdec ent
Ġgovern ments
ĠDe v
port s
ĠBe fore
Ġvari ables
Ġpercent age
n s
ĠP ut
Ġapp s
Ab out
Q L
al a
Ġn ic
Ġre cept
ra v
Ġun w
Ġinc ident
Ġdra wn
ĠSte ve
Ġsust ain
P art
T uesday
b ar
Ġ ?
Ġins ert
ten ance
Ġimmedi ate
Ġa x
Ġf ool
ll er
st ers
ain e
ĠV ir
ĠRe v
ha ust
Acc ording
ĠS ol
ĠC ap
Ġex hib
Ġwor ried
ang le
Ġshould er
Ġwar ning
Ġprom pt
Ġregard less
ist ed
ive red
og a
ap se
ult ure
Ġtrans ition
the y
`` `
Ð¾ Ð
Ġbow l
R ep
d ate
it an
es sel
ide o
Ġpl ain
Ġag ency
Ġfl our
Re g
Ġfig ures
Ġord ers
ĠKore a
G ood
Ġo xygen
Ġst reets
ĠL ear
Ġra w
ĠRe ad
err ing
Ġdom in
Ġt or
et ime
ĠS u
Ġr ig
Ġport ion
Ġdream s
Ġrestaur ant
S P
p age
r c
Ġ Ù
Ġor g
ĠW ater
ĠL ast
ĠL ong
Ġfe at
Ġbelie ves
Ġsupport ing
Ġnerv ous
ĠVict or
- ex
Ġc os
Ġp ill
ic ious
ce ler
ĠL ou
Ġcl imb
te nding
Ġsee king
ann ed
Ġris ing
Ġdoll ar
H ave
ed it
ĠB ab
ĠP et
ĠF inally
Ġmy th
ob e
Ġent ered
Ġsens itive
Ġyell ow
" )
M an
i ac
Ġw ake
Ġfew er
ĠGree k
Ġp ig
em ic
ĠL ee
are n
ry pt
Ġdis h
ocr atic
Ġcapt ure
, \
/ n
Ġc ow
it z
Ġp il
Ġst able
Ġbl ank
ĠSp anish
Ġattempt s
ĠAb out
Ġparticip ants
f ix
he rent
ĠT im
pe l
Ġsu it
pect ed
olog ist
clud ed
Ġmen u
Ġcook ing
Ġhop ing
Ġdestroy ed
ĠMex ico
- day
I R
b urg
Ġw ra
im p
Ġar r
ish ment
Ġsw im
Ġorig inally
Ġexcept ion
ĠGovern ment
Ġbacter ia
I A
S E
d r
Ġre in
Ġinv ent
be red
Ġcontro vers
St ring
C omm
Ġf lying
Ġin hib
ll a
Ġcomp ens
ap ing
Ġun us
Ġsign ed
Ġelect ronic
Ġinf o
riv ate
7 7
r ition
Ġb omb
Ġcl ock
Ġstr ict
Ġredu cing
Ġcut s
S ec
g han
} ,Ċ
Ġc inem
Ġredu ction
Ġgun s
p ace
Ġwh is
ail ed
aw s
Ġdoc uments
ĠWill iam
. âĢĻ
ĠB re
Ġform ation
Ġequ ally
Ġdirect ory
Ġprim arily
Ġhous ing
v an
Â °
ar g
Ġr ational
ast y
ĠV is
arr ow
Ġcharacter istics
Ġge nder
Ġelectric ity
. d
Ġg arden
et ry
Ġpro port
Ġch ose
ack s
Ġdes per
Ġhealth care
Ġvot ers
Ġliber al
/ l
z il
er ies
ĠC oun
cl ing
up s
Ġreven ue
Ġemerg ency
Ġc igare
Ġmeas ured
Ġnews p
Ġprep are
- T
Ġyou th
ĠM ass
ĠD am
ip edia
Ġatt ached
Ġorig in
A G
P U
ay ers
ur a
cl aim
Th ank
ĠCl ass
Ġheav ily
Ġinn oc
ĠChe ck
Ġrare ly
u ine
ĠM en
Ġse nding
Ġbut t
Ġconcept s
Ġbirth day
V D
s l
ĠM ax
Âł A
Ġout come
act ive
Ġsa ved
ific ial
Ġprogram ming
à¤ ¾
Ġclaim ed
Ġhyp ot
Ġchann el
. get
F L
Ġf ulf
Ġne ut
ud es
pl oad
Ġmy st
Ġres c
du c
Ġ' '
Ġform al
Ġsum m
Ġbi as
2 50
9 8
> username
ĠN ext
Ġover whel
Ġleg it
Ġcontrib ute
ĠW ould
Ġsh arp
el ine
ĠL ove
Ġint ense
Ġvers ions
ĠChrist ians
Ġindust rial
Ġprote ins
Ġstri ke
ĠMed ic
Ġincreasing ly
Ġnarr ow
- R
ro at
ag ues
ob s
Ġrem em
ik ipedia
Ġann ual
Ġsett ings
ĠDemocr atic
Ġ ^
Ġcompl ain
à¥ į
" ,Ċ
/ b
ĠI T
ĠM ad
Ġshe l
Ġatt itude
Ġele v
Ġmist akes
alle l
Ġwel come
Ġt ail
Ġto ile
ĠW il
Ġrel ation
Ġadd s
Ġexpl o
Ġbuild ings
Ġlog ic
Ġpus hed
et her
ri or
ĠP D
Ġevery day
Ġgu ilty
Ġpar agraph
Ġcontrol s
Ġrad ical
ĠCol or
Ġb ot
ent h
ĠF ire
Ġdes ert
In st
gg ed
Ġfour th
Ġrespons es
ĠTH E
Ġsurround ing
A ut
ĠS k
Ġbr idge
Ġins pir
ĠRe al
Ġvot ing
Ġextend ed
N ext
Ġh all
Ġg onna
Ġst y
ism s
St ore
Ġoper ate
Ġfund ing
Ġscen ario
Ġb on
ĠS aturday
ib l
Ġbreat hing
Ġnarr ative
Ġrid ic
E r
f riend
Ġs od
ĠS uch
ĠE lect
Ġun ion
Ġtra ined
the re
Ġmem ories
Ġprom ise
Ġvari able
Fr iday
Ġt ank
ĠN ever
-f ree
Com p
Ġbelief s
Pe ople
- G
U N
v in
} v
Ġv ital
ĠCh ris
Ġinvest ors
edd ing
Ġconserv ative
-le vel
Ġapprox imately
Ġvul ner
! )
Ġw estern
il a
we et
19 0
Ġhard ware
Ġtechn ologies
T ake
h and
Ġ }
in ent
ur l
Ġde eper
Ġaut hentic
Ġfriend ly
x x
se ct
Ġv essel
Ġj oy
Ġfl ash
Ġph ones
ĠAn n
Ġmus ical
P C
Ã ¡
Ġp ul
ĠE mp
Ġrec ru
ĠAn onymous
ĠSh ould
Ġdep art
b oy
Ġdi am
Ġdep ression
ĠGr oup
Ġsam ples
Ġdut y
- ch
S ub
ul ating
ck er
ĠO K
ĠUn fortunately
Ġreci pe
Ġpregn ant
umm ary
ay ed
Ġconf used
ĠCar ol
S im
S pe
o op
Ġt ort
Ġm ad
Ġn ine
ĠM ount
ers ion
ĠD ata
Ġwr ites
Ġsur vey
Ġless on
18 0
Ġluck y
ĠSen ate
_ m
er as
as m
ĠO lymp
Ġspe ll
Ġcr iter
Ġmove ments
Ġdeep ly
Ġ ~
Ġc oc
Ġex haust
our se
av en
Ġrec on
Ġret ail
Ġdi vers
Ġbreak s
Ġselect ed
htt ps
F l
f it
Ġc able
Âł P
Ġch a
Ġch ances
ocol ate
Ġconcent r
_ c
ing er
ĠT uesday
ĠB ur
ĠO S
Ġsp ark
), Ċ
Ġsen ior
O O
{ \
Ġst em
ĠM ember
fe rent
ag ram
Ġus age
ac le
Ġgen etic
Ġdri ven
Ġveh icles
à¥į à¤
Ġo x
Ġh un
om p
om in
Ġso il
ĠWith out
Ġcomb at
Ġdescrib es
ĠPh il
Ġlawy er
- be
- off
Ġp ra
um er
Ġr ow
ĠL and
Ġad s
Ġbl ow
ĠDe velop
Ġelect rical
C he
R em
Ġd ict
Ġbe ings
Ġwith d
ĠC ath
Ġab st
ari ju
Ġstrong ly
Con nect
â Ĥ¬
Ġl oves
Ġpro ven
Ġsc hed
Ġperson ality
Ġimprove ment
Ġinstit ution
- H
f ish
j ection
Ġw ise
Ġan s
ĠR on
Ġloc ations
Ġabs orb
ĠPar is
1 20
R L
T C
x ual
Ġw ound
ĠH IV
Ġpass word
ĠAr my
ĠServ ice
ariju ana
F acebook
nd a
Ġd ating
as ant
Ġref ers
Ġdem ocracy
Ġburn ing
Ġvill age
Ġath let
Ġcompre hens
r as
ri ve
Ġar range
Ġfe es
ĠK n
Ġsur f
Ġpolit icians
Ġclot hing
Ġcandid ates
Ġacadem ic
v y
ĠS at
Ġopp osition
Ġsuccess fully
Ġfall s
Ġshop ping
Ġbare ly
Ġp uzz
Ġm and
Ġreg ist
Ġorgan ic
Ġcal m
Ġachie ved
Ġindic ate
ĠThom as
D ef
V ER
j i
n oon
t w
v iously
is ters
ic ago
Ġshe ll
Ġtw enty
Ġrec all
Ġrel ief
Ġdevelop ers
Ġblock s
Ġinstit utions
Ġfav our
Ġchick en
st ruct
Ġre nder
ig er
Ġmain tenance
Ġhor iz
Ġrat io
ï ¼
Ġp apers
Ġin ev
od ed
Ġen able
-s c
Ġg ear
Ġor ient
ĠP hys
ĠH ol
Ġdis order
Ġrep air
Ġdel ivered
ĠCol lege
erson al
Ġfra ud
Ġmount ain
Ġpregn ancy
N ote
a us
Ġ ;
ĠH as
Ġsh ares
ĠBr own
Ġmind s
ĠPro ject
Ġinsp ired
- v
Ġf le
Ġh oney
Ġemploy ment
ĠAf ghan
\ )
Ġs atell
Ġw est
or se
ĠS ure
Ġsu ffe
ĠF ederal
ĠJ ournal
Ġmet ab
pr ot
ĠPr ot
Ġd ensity
Ġy eah
ri ers
Ġdo ors
ĠR E
ĠV er
ug ht
Ġdest ruction
Ġcollect ed
Be fore
ã Ĥ
Ġh its
ol ars
ab s
Ġch amp
ĠV ol
Ġcur ious
Ġhard ly
Ġelect ed
H is
Ġw is
Ġch at
ĠSt art
ĠAt l
Ġframe work
l ers
u a
Ġdifferent ly
Ġimm un
Ġassist ance
p x
Ġf urn
ĠS ar
ob b
Ġstud ied
less ly
Ġstate ments
use um
Ġded icated
Ġtro ops
Ġgent le
ĠD own
ĠG M
ĠJ ose
Ġgen uine
Ġestim ated
Ġunlike ly
Ġdynam ic
Ġexecut ive
I F
y es
Ġp it
Ġbe er
ĠB usiness
ĠSt ill
Ġinfl amm
Ġclose ly
T oday
or ce
ĠI r
Ġne ur
ĠJ o
Ġretire ment
Ġans wered
E m
F igure
Ġm ood
ĠH istory
ĠR am
Ġj ack
Ġcomp rom
Ġfl ag
Ġ\ (
ĠCan adian
Ġpriv acy
Ġroad s
ĠRich ard
Ġwrit ers
Ġh ung
Ġl ying
ig an
ĠW as
ĠW ednesday
end ment
Ġhol iday
g ments
Ġcon ference
em porary
ĠH uman
ep s
par am
Ġrepe at
( Ċ
8 00
ĠN ote
ag an
Ġman ual
Ġreg ions
Ġmin im
ĠMin ister
Ġord ered
ixt ure
Ġt ill
Ġt ong
in ite
it is
st art
Ġlet ting
Ġdri vers
Ġsort s
uild ing
Ġp ipe
âĢ ī
ĠE nd
ĠSec ret
Ġur ban
Ġopin ions
S unday
o il
Âł in
Ġke ys
Ġele ctions
Ġrece iving
ĠH ind
ĠF ind
ĠN AS
ĠTh ough
Ġco al
Ġelse where
Ġla un
Wh ich
Ġlif estyle
Ġcarry ing
C E
t ra
Ġthe ore
Ġw arr
Ġb other
Ġg all
ĠN av
Ġdist ingu
Ġtop ics
Ġpus hing
K ey
h h
Âł C
ĠP rop
ĠN ame
ĠIt alian
ik es
S pec
j a
o ft
ĠTh ink
Ġaw ard
Ġdist urb
Ġinfl ation
Ġdecl ine
/ d
G e
ĠT urn
Ġv o
Ġman if
Ġsa ving
erv ed
Ġcol our
Ġplan ned
Ġdecre ase
Ġp ounds
Ġg host
Ġre ly
Âł h
Ġform ula
Ġdep os
} $
ar ge
ut ch
Ġan gle
ĠW all
Ġelect ro
Ġcal ories
Ġbott le
Ġo cean
nd rome
ĠC C
un a
ĠF orm
Ġgr ade
Ġconf irm
Ġprotect ed
Ġhon or
Ġintrodu ction
ĠCent ral
ĠPak istan
p ack
et ies
Ġst ead
Ġsupp ose
isc o
Ġbab ies
" >
+ +
- related
c a
f unction
et ary
Ġan ger
ĠP age
ist ent
ab b
Ġun iversity
Ġlet s
Ġpay ments
Ġfem in
Ġt ur
Ġhe n
Ġv oc
un s
ens ional
Ġdirect ed
Ġdra ft
He y
Ġexc iting
Ġcommunic ate
Ġcry pt
Ġt ack
Ġl oyal
ab eth
Ġpe ak
ult ural
Ġprodu cing
Ġtrad ition
Ġpriv ile
Ġunc ertain
ð Ł
ĠI ll
ud i
Ġwant ing
iss ions
Ġsign als
Ġrespect ively
ĠBra zil
e ven
or ne
Ġl ady
ĠT ry
ĠIt aly
Ġ- >
Ġsp aces
Ġanal og
Ġant ib
Ġperiod s
Ġprofess or
ĠComp any
comp onents
Ġprofession als
Ġnegot i
) )Ċ
a fe
h us
Ġb ones
Ġg ate
et ch
Ġr hy
ĠL u
âĢĿ .Ċ
Ġdis k
ĠAnd roid
Ġocc as
tr ans
Y eah
c ase
Ġs au
an es
ĠM att
Ġr ice
Ġrel iable
Ġafter noon
Ġexp ansion
Ġimpro ving
Ġsuper ior
Ġsleep ing
gress ive
M ed
j e
p ers
en er
Âł m
Ġal ien
Ġte ch
ĠSt and
ott ed
Ġpain ting
Ġball s
Ġchalleng ing
Ġlic ense
6 9
} ,
ter y
Ġal ter
ĠE s
ĠN one
ass ion
ĠY eah
we ight
ian a
Ġbr ill
Ġeng aged
ĠEx pl
Ġtemper atures
Ar t
abet es
d on
ĠM a
Âł D
ĠH and
ĠL ight
ĠIn stitute
Ġfl avor
Ġstud ying
Ġspect rum
Ġlegisl ation
ĠAP I
Ġdisci pl
ĠF our
Ġdem ands
Ġz one
Ġsurv ival
Ġadminist r
ĠJe ff
L ook
M A
Âł is
ant a
li ament
Ġrep rodu
ative ly
Ġfind ings
Ġserv ing
Ġtem porary
Ġcompet itive
Ġdecl ared
K E
L A
Ġthe rm
en ess
ĠI V
Ġg al
Ġg ap
ĠM P
ĠM ur
us al
em ents
ĠG ar
ast e
ok ed
Ġcomplex ity
Ġwarm ing
Ġupd ated
Ġclin ical
Ġsav ings
Ġm as
Ġl ad
Ġag encies
olog ists
Ġac celer
ash i
Ġstay ing
Ġwebs ites
Ġclean ing
Ġreve al
Ġaware ness
A ct
S ource
y al
Ġn ull
ra ham
ĠB ay
ĠD iv
ĠAs ia
Ġpartic les
Ġviol ent
Ġtom orrow
F S
P ar
o z
r ick
Ġc her
ĠS S
Ġcom ic
Ġj oke
ĠCh icago
Ġrep utation
Ġcor n
Ġfunction al
Ġregul ations
Ġchann els
Ġrapid ly
Ġalle ged
Ġconfir med
" It
. .Ċ
f all
re qu
at us
Ġin her
Ġhe aling
ĠB oy
ess ions
Ġro les
ĠCh ange
Ġwhere as
omm od
Ġfac ed
Ġaud io
Ġcam eras
M r
t te
ã Ģ
Âł B
Ġpro hib
og ether
Ġcons ists
Ġla id
as hes
ĠC reat
ĠSy ria
Ġinit ially
Ã ¢
Ġm it
al ysis
Ġst atic
Ġun iform
Ġunder lying
Ġconf ront
ĠBl ue
Ġbehavi our
Ġhorr or
d s
ion e
Ġre fe
Ġde fect
Ġro ots
Ġrec over
Ġgreat ly
Ġimm igr
Ġhot el
Ġconduct ed
' ,Ċ
id f
ĠF ed
ial s
ĠHe ll
Ġext ension
Ġauthor ities
Ġfac ilities
Ġproced ures
ĠMuslim s
Ġdivid ed
w ing
id i
am ps
iz er
Ġcor rel
Ġdifficult y
Ġrecogn ized
Ġfuck ing
ĠHen ry
/ t
m ap
Ġre verse
um es
Ġfe e
Ġappro aches
b re
Ù Ĭ
ck ets
ust ration
Ġun ex
Ġgu itar
g al
Ġth orough
Ġl ens
ĠC N
pl ed
Ġhapp iness
Ġorgan ized
Ġ //
Ġb its
al og
as tern
ĠC amp
ĠM ont
iz abeth
Ġcheck ed
Ġinvol ving
ĠSp ace
Ġenc ounter
Ġflu id
idel ines
p ress
Ġ vert
or ous
ĠD espite
rib ed
May be
! !Ċ
Ġt ied
er ver
ot ed
ist or
Ġdo se
Ġmark ed
Ġbi ological
Ġdiv ision
Ġign or
Ġtoile t
6 2
b reak
r ich
Ġg re
ĠF ood
Ġref used
Ġlay ers
Ġenem ies
( t
D oes
Ġt ube
ĠW ood
Ġen orm
Ġshe et
Ġass ert
com es
Ġexpl icit
Ġsupport s
ĠEx per
Ġrepl ied
Ġcateg ories
Tw itter
- he
6 00
] .Ċ
c al
u an
v oid
ĠT al
Ġso vere
ĠL ab
so le
ĠIs land
amb ling
ĠRem ember
Ġphilosop hy
ĠCoun cil
M E
Ġp ub
ĠN or
ak a
Ġli ps
age ment
Ġown ed
Ġprov ed
Ġdisc ount
Ġdisc overy
Ġcent uries
ĠBe ing
Ġtrack s
Ġrepresent ed
n ormal
in et
im a
ĠB ad
Ġv oid
Ġimp ression
Ġpo ison
Ġcomm ission
Ġcr ash
Ġref uge
Ġdepend ent
Ġmedic ation
Ġveget ables
P re
Ġl unch
Ġnot ion
ĠW ord
ĠO l
Ġcr imes
Ġpass age
Ġdro ps
B A
f s
Ġf ired
Ġl ists
ĠM ot
ess ed
ĠP ublic
ĠE p
Ġgen re
Ġdiv ide
Ġincred ible
8 5
D id
at i
Ġp m
an while
Ġd ies
Âł F
red it
gr ad
Ġpers ons
Ġatt orney
Ġtrans action
Ġ/ ><
Ġprot est
Ġcheck ing
Ġconne ctions
Ġple asure
ĠDes ign
Ġperman ent
e en
if ferent
Ġsu itable
ap or
Ġdon t
Ġacc ommod
Ġinform ed
Ġrecord ing
Ġvict ory
Ġchemical s
Ġb ills
Ġn urs
ĠC are
Ġdis orders
Ġread s
arch y
Ġsecond ary
Ġconst ra
Ġintellect ual
ĠVir gin
ĠP S
ĠH olly
ĠD en
ĠD ark
ĠL ead
ick ing
aw ay
Ġpar allel
Ġnear by
Ġmur d
Ġarrest ed
Ġsuffe red
Ġw aves
Ġst ages
Ġtr oub
ob by
ÂłÂł Âł
Ġmag azine
AR T
Ġdraw ing
M od
R I
k ip
v t
re nd
is er
Ġb att
le an
Ġre new
et a
ult s
Ġres idents
Ġprodu ces
Ġcir cle
Ġenforce ment
c est
ĠC ase
ĠC EO
ĠR oad
ons cious
Ġinst ruct
Ġcommit ment
Ġweak ness
Tw o
W ill
s uch
Ù Ĩ
Ġto oth
ĠS um
Âł w
av ed
Ġexpect ations
Ġaccom pan
Ġmanufact uring
Ġsubst ance
ĠWhe ther
ĠAssoci ation
- E
. t
I ON
ĠW ay
ĠH aw
ia h
Ġfound ation
uss ion
Ġlo ans
a fter
g ood
p o
in st
Ġc ats
or gan
Ġup set
Ġkn ock
Ġdes ired
Ġbr anch
str ing
ĠPal est
r ine
Ġd ys
im age
ge l
âĢĻ ,
Ġch ronic
ind s
Ġthr own
Ġless ons
Ġmem or
-c ont
Ġla pt
Ġnut ri
Ġcho osing
Ġder ived
Ġsch olars
ĠOff ice
ĠNAS A
re ated
Ġb ags
en ger
Ġre ferences
Âł d
Ġad equ
Ġco ach
erm an
meric an
Ġexpl os
Ġcra ck
Ġbase ball
Ġcriter ia
a a
k et
or ph
Ġyour s
Ġco vers
pr ise
Ġest ate
Ġphys ically
ĠChar l
Ob ject
Â Ń
Ð »
Ġt ip
ĠM aster
Âł T
the less
Ġequ ation
Ġaffect s
Ġrepresent ation
ĠPost s
Ġtick et
Ġrough ly
% Ċ
Ã Ń
Ù ħ
Ġw age
ge on
ĠF igure
ĠK h
ors es
Ġmain taining
Ġsent ences
Ġspeak er
ĠMed ia
Ġintegr ation
Ġcalcul ated
ĠKore an
Ġsche me
Ġe ars
Ġre actions
ĠA C
Âł to
ĠE duc
ĠK im
Ġover come
Ġact or
10 1
Ġsur ve
ĠOn line
val ue
Ġassum ed
ĠMart in
Ġconscious ness
Ġunus ual
9 7
t ical
Ġm ask
Ġm arijuana
Ġbe ach
ot y
ur se
Ġcomp r
ĠY ear
Ġsc rew
Ġsupp lement
Ġcour ts
ane ously
Ġaccompl ish
ĠProf ess
- qu
_ b
a wn
in clude
ent er
ĠT able
Ġha bits
ĠW al
Ġle an
ie ve
Ġad mitted
Ġfl av
erv ice
con nect
ĠCom mission
Ġarg ued
Ġassess ment
ĠAut hor
B M
m at
Ġm ob
Ġg ained
ow nt
Ġcon vert
ĠM oon
um in
ĠD C
act s
ep ing
Ġam pl
ov al
Ġinc ent
Ġchild hood
Ġreport ing
Ġ< <
Ġparticip ate
Ġt ension
it ivity
Ġp ace
ĠD an
ort ed
ĠE conom
ag ger
ci p
iz z
Ġag es
Ġcult ures
Ġsearch ing
Ġfit ness
Ġmer ch
Ġstret ch
" )Ċ
, '
D uring
it ure
Ġh ire
ĠTh rough
ĠCom m
Ġperform ing
ĠSe a
Ġtarget s
Ġsequ ences
- idf
M ake
Ġt ape
es ter
Ġcont ained
Ġpr on
Ġapp lies
omet ry
Ġdire ctions
Ġcheck s
Ġland scape
ĠPl us
Ġdam n
Ġimplement ed
Ġult imate
Ġmort gage
N E
l ife
it led
is p
Ġf ed
ĠA S
ul ed
Âł This
Ġun cle
ool s
Ġphys ics
Ġsil ver
Ġexperim ents
j o
in er
Ġh am
us hing
ĠD ar
ond er
Ġinj uries
Ġord inary
Ġdistrib uted
Ġconcent ration
Ġconvention al
Ġbrows er
G B
_ n
it als
Ġf ur
st one
Ġg ang
Ġ( "
Ġab ilities
ast s
ub ble
Ġgr id
Ġins ight
Ġcent re
Ġconc rete
Ġline ar
Ġconsider ation
Ġobject ive
Ġparam eter
TM L
Ġo k
Ġg ig
ĠC ode
Âł c
Ġch ocolate
Ġacc um
Ġche aper
Ġass ault
Ch rist
" You
. P
P D
j ud
ch o
ĠM ic
Ġcom pe
Ġsu icide
Ġsh ips
ĠD ig
Ġal ign
Ġsy mp
Ġstud io
Ġl es
ab il
Ġpo cket
Ġob st
Ġfac ilit
Ġconvin ced
T ube
Ġ å
Ġs ed
Ġp itch
Ġl aser
ĠA G
Ġal ert
ĠSo ci
Ġmeet ings
Ġprop ag
Ġvot ed
bb ed
Ġrequest s
ĠAc adem
- out
e ath
ou red
ce ive
Ġext ensive
Ġ< /
Ġstay ed
Ġstrugg ling
Ġeth nic
Us er
- end
F orm
_ id
g ression
u ction
in ction
Ġh anging
ĠT reat
ĠP op
Ġcomp osition
Ġro se
vers ion
Ġiss ued
Ġtreat ments
ĠOr gan
Ġinterpret ation
Ġtong ue
S aturday
s is
Ġ **
Ġf ake
le ft
om ed
ĠT em
ĠA R
ĠB i
ĠN az
ĠK en
Ġcons pir
pre ne
Ġbath room
B I
b orn
i ams
u ity
Ġb in
es is
Ġra ising
Ġent hus
Ġed it
Ġappro ved
Ġannoun ce
Ġstim ul
Ġphenomen on
$ Ċ
_ l
g i
Ġ ...Ċ
Ġs li
Ġc ake
Ġp orn
Ġm ixture
al i
Ġn erve
ot he
Ġsh out
Ġj ail
Ġmy ster
Ġcor rupt
ĠPro gram
Ġlog ical
Ġhop es
- K
Ġe ase
am ine
Ġve ter
angu age
ĠKing dom
Ġfant asy
! âĢĿ
$ \
S te
\ <
f ather
Ġs ne
it ical
Ġb ands
ĠM S
Ġsh ame
Ġpresent ation
Ġtal ent
ĠChar les
Ġplatform s
Ġtox ic
C D
} }
re prene
ĠF ar
Ġout s
ĠJ ones
ĠTh ings
Ġsp ots
Ġbu ff
Ġreal istic
Ġemploy ed
Ġabs ence
ĠArt icle
H z
_ f
o at
ar on
ol i
Ġgr anted
ful ness
Ġdem ocratic
ĠLe ague
F inally
P G
T S
r ics
Ġs outhern
ul in
ĠM ars
Ġde ploy
ĠR esp
ĠTh ree
ĠIn formation
Ġgr ant
Ġbenef icial
Ġcolle agues
ogn itive
ĠJust ice
Ġindic ates
ĠEvery one
Ġdiagn osis
H A
Ġo h
it udes
Ġe ast
if er
ĠC ost
Ġsh ower
ĠTh ursday
Ġany body
Ġsm iled
Ġvers us
Ġf est
ĠS n
ĠB ell
Ġpo em
sel ess
Ġass igned
ps on
Ġdeath s
ĠAd am
Sh are
Ġjud gment
ĠII I
ĠLou is
c d
ĠT ype
ĠS qu
ol ving
Ġex ceed
Ġdis miss
Ġprof its
riz wan
% ,
) (
/ rizwan
B r
U nder
Ġw edding
Ġon going
ĠW ars
ĠP ot
ĠH it
ĠF amily
ĠK at
Ġresult ed
Ġstop s
ĠEmp ire
v i
Ġt ons
Ġse gment
ĠB ow
ĠD VD
Ġdis aster
Ġmon ster
oun ce
Ġfig ured
Ġmild ronate
Ġvolunt e
Ġwis dom
[ edit
v as
Ġc odes
ing ing
ic ation
Ġas leep
Âł a
Ġr um
th rop
Ġinc hes
Ġsure ly
Ġvis ited
Ġcreat ure
iction ary
Ġcoun sel
Er ror
/ components
T A
w idth
ht ml
ĠW omen
Ġne uro
el ess
ire ctor
io x
Ġsing ing
Ġguarant ee
Ġ! =
ĠAfghan istan
B ook
F D
it arian
Ġth roat
Ġh oles
Ġn ode
im er
ĠH aving
ict ions
Ġpres cription
Ġart ificial
Ġelect ron
Ġcy ber
Ġreach ing
Ġmagn etic
ĠÃ Ĺ
Ġa er
Ġs illy
Ġst ack
ĠS on
ĠP an
Ġv en
el ing
Ġar bit
ĠU RL
ick ed
Ġra il
Ġinst ant
Ġcur ve
Ġfac ility
Ġfrequ ent
ĠGe org
ĠCath olic
Ġhen ce
F F
T ime
s ome
Ġ }Ċ
Ġg aming
ĠB udd
Ġle ather
all ing
Ġar med
ne cess
Ġdes erve
Ġhand ling
Ġdri ves
Ġmolec ules
$ ,
c r
g ot
om atic
Ġde leg
ĠN Y
Ġ- Ċ
ĠK enn
Ġdef ic
Ġspec ified
ĠMar x
Ġaccess ible
Ġcirc uit
Ġprior ity
ĠIslam ic
Ġpros pect
6 3
H i
b ably
Ġs le
ro ph
Ġar c
Ġro yal
Ġinter actions
Ġgener ations
ĠDe b
Ġtem pt
Ġant icip
miss ions
Ġpull ing
Ġrul ing
Ġterr itory
ĠLin ux
Connect ing
g ain
m ond
Ù Ĳ
Ġr ating
nt il
ost on
ĠN eed
Ġev ident
Ġqu ery
ĠIn f
Ġpre par
... .Ċ
Ġprob ability
Ġview ed
ĠInd eed
Ġcreat ures
ĠMore over
er ning
Ġch am
Ġres olve
Ġsc ared
the w
Ġcor ruption
br id
Ġdr unk
Ġeduc ational
Ġcoll apse
Ġnut s
Ġvirt ually
Ġprefer red
ĠQue en
ĠFurther more
L C
_ name
g ly
o ir
it em
ow ered
ĠC ra
ond ition
ĠSh ow
arr ass
Ġthreat s
Ġadvant ages
word s
Ġdemonstr ated
Ġbond s
Ġarchitect ure
o is
r ons
w est
ou ch
Ġd irty
Ġn an
ol ine
Ġwas h
Ġse ar
ĠH ope
ie ce
be gin
Ġmark s
Ġserv es
Ġsw ord
ĠNot hing
Ġstat istics
Ġbrother s
Ġattract ive
Ġunivers al
T op
is k
Ġm ile
ĠC ast
Ġse ctions
ind er
ĠYou ng
Ġent r
-c alled
Ġpain ful
ane ous
Ġident ical
Ġcomment ing
Ġaccept able
Ġfill ing
Ġir rit
Ġfant astic
Ġdial ogue
re c
im m
ĠB ern
Ġte nds
oc y
Ġ: =
Ġsens or
Ġdisag ree
. <
p g
ot ype
ith ub
ĠL atin
ern el
Ġroom s
Ġexec ution
Ġconfig uration
M O
s pe
Ġc ute
ot es
il st
Ġde als
ist ing
Ġres id
ov en
Ġreg ister
Ġpres um
" We
l o
u its
ĠJ ac
Ġte ars
Ġag ric
Ġsp ir
Ġtrans actions
âĢĶ and
Ġhuman ity
Ġindic ated
Ġstru ck
ĠAN D
H D
p ot
Ġd ump
am i
ĠN a
ac on
Ġdi verse
Ġemploy er
Ġlif etime
E G
Ġthe at
Ġs ake
at oes
Ġp ills
Ġre vers
ĠS ign
Ġan cest
Ġle gend
oc ument
ĠTe am
Ġbur st
ĠAustral ian
**** ****
Val ue
comfort able
- N
1 10
G l
b a
ed ge
Ġhe s
ĠH ard
Ġme als
ac hel
Ġqu it
Ġbo ot
atch ing
Ġcontin uous
ĠPr ime
Ġdel iber
Ġrecogn ition
Ġexerc ises
Ġtransl ation
Ġreplace ment
Ġadop ted
. I
A V
s ub
Ġg am
ĠA ge
if ice
Ġsp ons
ath an
mit tee
Ġign ored
Ġconvers ations
Ġfra ction
math bb
Ġridic ulous
Ġcomprehens ive
o cc
Ġc ott
Ġp ix
ĠH all
Ġmin ister
ĠPl ay
Ġspeak ers
Ġtrack ing
Ġintegr ated
Ġcommit tee
Ġodd s
Ġsubsequ ent
Ġfab ric
- W
M ar
R S
S ign
ä ¸
it o
ĠS her
Ġun em
Ġpo ver
Ġmat rix
ĠEng ine
Ġdam aged
Ġhonest ly
Ġintellig ent
P P
is a
ad er
ĠM ach
ĠB all
Âł We
Ġprov ider
Ġmod ified
Ġexp enses
Ġpow der
Ġju ice
7 2
? )
c ut
Ġp upp
Ġh al
ol ves
Ġse eds
ĠN ik
Ġconf usion
-m in
!! !!
Ġhor rible
ĠAdd itionally
R et
| Ċ
Ġ rib
ĠW alk
Ġsh ots
os a
ip her
Ġper m
Ġsc ores
Ġset up
St ate
Ġben eath
Ġpsych ological
Tr ans
Ġwithd raw
Ġpover ty
F O
a ire
u um
Ġf ought
ĠN on
ĠJ on
Ġent ity
pend ing
Ġcontin uing
Ġtre nds
ĠCon f
Ġintrodu ce
Ġmonitor ing
Ġgrav ity
Ġconven ient
Ġenorm ous
7 9
w en
Ñ ĥ
Ġm g
Ġh orses
ad or
Ġact ors
ph ones
az y
ĠSp ain
Con fig
Ġpurch ased
Ġsil ence
Ġupd ates
Ġmo ist
Ġforgot ten
à¤¾ à¤
% .
A Y
T ra
] ;Ċ
p ost
Ġo ught
Ġd ying
Ġd umb
Ġst ability
ĠR and
Ġli p
ĠCom ments
Ġtem pl
Ġbreak fast
ĠEl izabeth
w hen
in cluding
ĠI re
Ġg if
ĠL os
Ġpr ime
Ġpre ced
Ġnew ly
Ġapp lying
az z
isc al
ĠEn ter
ĠGu ide
Ġut ter
Ġinj ured
Ph oto
Ġaccur acy
Ġ Ï
Ġg ut
Ġdo s
ap ore
Ġcont rad
ass es
Ġwork er
Ġsc ope
Ġthr owing
Ġinst ances
Ġmod ule
Ġbas ket
Ġstreng then
Ġsett led
Ġminor ity
Ġprem ium
Ġassemb ly
Ġinnoc ent
- ray
E ST
L og
Ġs ought
ut o
âĢĻ .
Ġab ortion
ob j
Ġsy ndrome
Ġdi abetes
-d e
Ġeconom ics
ĠZ e
Ġinfect ed
Ġwarr ant
ĠM ike
ĠF ox
pt ic
Ġcont emporary
ĠV iet
Ġatt ach
Ġreg ulation
Ġpop ulations
Ġphot ograph
Ġattack ed
Ġelimin ate
Ġmyst ery
( (
f ol
Ġb ars
Ġp od
le m
Ġse ed
Ġv ocal
ĠL ittle
ĠU lt
Ġmain stream
Ġimm igration
Ġconvers ion
Ø§ ÙĦ
Ġlaun ched
' :
C O
D es
R NA
r id
Ð ²
Ġt rop
Ġc ave
Ġl ocked
Ġst ir
ĠA h
ĠW in
Ġcan n
Ġal arm
Ġk in
.. /
Ġcl oth
Ġsp ray
ell y
Ġpres c
Ġtrans mission
arr ay
Ġeng aging
Ġprom ised
ĠAd v
Ġaddress ed
Ġcontrib ution
Ġlawy ers
" "
Ġf its
Ġin e
ĠH im
ĠF ig
Ġj ury
ĠIn vest
Ġdrink s
Ġdefe at
Ġimpress ive
Ġvulner able
at hered
Ġre n
ĠC ould
ĠE xt
ap h
Ġcont ents
Ġrem oving
Ġpoint ing
ros c
Ġopp onent
ĠJohn son
Ġemb arrass
Ġcorpor ations
Ġquant um
ĠNet work
char ge
Ġmechanism s
Ġcorrespond ing
m ble
Ġo l
id ance
ĠS D
ol n
ĠC ard
ĠM ult
ĠW ild
ĠD ream
ever al
Ġseem ingly
18 6
18 9
ĠCom mon
Ġcap abilities
Ġeng ines
Ġfall en
Ġage nda
gen er
Ġtit les
ĠWill iams
ĠEvery thing
ĠSim ilar
Ã ³
Ġthe ories
Ġh ip
ig ate
ĠH D
Ġch rom
ĠR ay
ag ine
Ġper pet
Ġpr ide
ell o
Ġinter vention
Ġav atar
Ġexist ed
Ġmechan ical
Ġindepend ence
Ġsubstant ial
ĠHolly wood
- pl
J oin
M ark
Ġf ib
Ġp our
ol en
ĠR yan
ĠN O
ĠL ic
Ġmin imal
ex p
Ġpost ing
Ġpass es
Ġglass es
Ġton ight
Ġrhy th
- k
id ation
ch a
ĠN ick
ac her
ĠV ery
Ġart s
Ġdest ination
Ġrequire ment
Ġvol t
Ġassoci ation
clus ions
Ġsau ce
. </
Ġt ub
Ġf ir
Ġp y
Ġd ates
ĠN ob
ru g
ĠK now
Ġacc used
Ġgener ic
Ġir re
Ġpresident ial
Ġstrateg ic
Ġtransport ation
Ġrestrict ions
Ġentertain ment
ĠHel p
Ġbrill iant
- Ċ
. l
D ec
H S
S m
Ġt we
Ġin qu
Ġhe al
ĠC ur
Ġsh r
ĠR ef
ĠR ights
Ġall erg
ĠCh amp
-c ent
Ġenjoy ing
Ġcitiz en
ĠCons ider
Ġcert ific
Ġnewsp aper
- cl
h o
st ra
Ġre nd
ra pe
ĠG ames
Ġshould ers
Ġinc om
Ġent ering
ĠAs ian
Ġvis iting
Ġsw it
Ġindust ries
Ġsqu ee
Ġarri ve
ĠâĪ Ĵ
Ġb ass
Ġf ert
Ġd ancing
Ġin sect
im ensional
Ġu pload
Ġem issions
âĢľ I
ĠSc ot
ĠServ ices
T V
Ð º
Ġp and
ow ed
ĠM ah
Ġout l
Ġout comes
Ġdis g
- J
? !
Ġs izes
Ġw ars
Ġf ont
Ġl oving
ĠM om
op l
ĠH ot
ĠF ort
Ġpres ents
ĠBr ad
Ġmonth ly
Ġfail s
Ġimag ination
Ġswe at
opy right
v ious
Ġor ange
Âł In
ĠW ikipedia
Ġsh irt
ud ge
Ġpe an
Ġun comfortable
Ġcour ses
Ġhead ed
Ġconc erning
Ġve nd
Ġwond ered
-h and
Ġmeasure ment
Ġcry st
Ġmeld onium
- line
> T
F A
p se
Ġp ound
ct ure
pl ing
own ed
av id
Ġsp oken
Ġgr amm
Ġro of
tt es
Ġâ Ĩ
Ġmanufacture rs
Ġdram atic
Ġadvent ure
Ġsumm ary
b ecause
d oor
ô Ģ
Ġ icon
it ative
et he
Ġfor um
ĠS cient
if ier
iz za
Ġres ident
ĠY OU
ner gy
AT E
Ġtravel ing
Ġcontain er
Ġprecise ly
R P
S earch
n atural
Ġc ough
Ġh ill
fe ctions
Ġcomp ound
Ġun p
ĠSt an
ĠPro v
Ġstock s
Ġgrad ually
Ġmir ror
ĠFound ation
p ower
ro oms
Ġcon j
ĠE ll
ĠE qu
ĠL ink
Ġag gressive
ĠSt ory
Ġreg ional
Ġassum ption
inc oln
Ġsubt le
( i
- com
w art
Ġn a
Ġg ir
ĠD aniel
ĠL ibr
Ġsim ult
Ġass et
Ġest imate
ĠQu est
Ġflow ers
Ġdemonstr ate
Ġinstr uments
Ġpenal ty
( n
/ C
8 9
W he
d ata
Ġc rap
ĠP en
ĠP ass
ĠR ome
Ġpers u
Ġgu idelines
Ġworld wide
Ġclass room
Ġbra nds
Ġappro val
Ġclaim ing
ask a
ĠGen er
Ġden ied
Ġcas ual
Ġsem i
Ġalgorith ms
G u
H er
d ated
ut ors
Âł f
ĠG iven
ĠL ED
oll owing
Ġlove ly
Ġsignific ance
Ġbed room
Ġmount ains
Ġhtt ps
Ġcritic ism
Ġnav igation
ut en
am ples
ĠS ir
Âł L
Ġdo zen
ĠR o
ĠL uc
Ġcl osing
ov a
Ġac ids
Ġexam ine
fl u
Ġexperi encing
che ck
Ġinflu enced
Ġloss es
epend ent
Ġmeaning ful
Ġbur den
olic y
Ġeval uate
ĠIre land
7 00
p a
Ġw ider
Ġp ink
Ġin h
Ġh itting
Ġn it
ut ive
Ġv amp
ĠD ead
Ġcont ra
Ġsupp lies
ĠAd minist
Ġconv ince
Ġexc use
apt ain
Ġmax im
Ġathlet es
ĠJose ph
f unc
Ġp ants
ĠC reate
Ġde ck
ĠE ric
Ġun necess
Ġper mission
Ġaw ful
Ġmin i
Ġop ens
Ġdra g
Ġland ing
ĠRep ort
Ġbroad cast
Ġdomin ant
ĠAcadem y
p i
Ġd il
ĠS ky
ir a
Ġwe lf
Ġr ural
Ġag greg
Ġprov iders
ĠBl ood
put er
Cl ick
Ġwal ks
ĠEduc ation
Ġs oph
Ġm ouse
Ġto ss
Ġn orthern
ĠC all
Ġex it
ab out
Ġk il
Ġli ver
Ġsc reens
ft en
ĠĠĠĠ Ġ
Ġtem por
Ġaccount ing
Ġremem bered
H ome
P L
m g
p read
Ø ±
Ù Ĵ
Ġ q
er k
ĠM uch
pe red
um ing
Ġper ception
Ġro lled
Ġbr ut
lect ed
Ġexpl aining
sc reen
Ġair craft
Ġmar g
Ġcover ing
Ġbox es
Ġwelf are
M et
i ar
Ġ ðŁ
Ġl ux
ot ion
ĠS upp
ĠC a
ĠB oston
Ġpl ates
ast ing
ber ry
Ġent itled
ins on
Ġap olog
-m ail
Ġfoc using
Ġdiscuss ing
Ġamong st
Ġheav en
Ġlimit ations
Ġfru its
Sec ond
S et
Ġst ere
Ġab und
Ġthem es
Ġfl aw
ĠSo ft
Ġser vers
Ġpar ad
Ġfeed ing
Ġvisit ors
Ġcinem a
Ġproport ion
Ġmetab ol
) );Ċ
T F
b ow
Ġw ins
Ġg est
Ġg ym
ur able
ĠS ep
ĠC urrent
ĠR ather
In ter
Ġcapt ured
Ġfif th
ĠSoci ety
H el
T R
_ in
Ġt ap
Ġthe rap
Ġw id
Ġb ite
ar ters
em ed
el come
ast ed
Ġper ceived
man n
Ġpopular ity
Ġmild onium
Ġimplic ations
d y
Ġl ift
ĠC oll
Ġse ats
ĠF riend
itt y
ater n
Ġheart s
Ġsty les
D espite
e ger
ĠM ain
ge bra
Ġj un
Ġint r
Ġcomp at
Ġimportant ly
ĠMed ical
Ġcollect ive
ĠInt erest
Ġcampaign s
Ġacknow led
Ġoverwhel ming
/ h
o vers
r un
Ã ¼
Ġc ant
Ġf et
Ġd ent
au nt
Ġman aging
Ġfl esh
Ġinter rupt
cy cl
Ġmat ches
Ġprocess ed
ug s
Ġbad ly
Ġ| Ċ
viron ments
Ġhope fully
Ġsafe ly
Ġmeasure ments
ĠChristian ity
Ġfarm ers
Ġflex ible
Ġlapt op
Ġconspir acy
. n
f ire
Ġc ure
Ġst er
Ġst ations
ĠJ ason
ĠHe ad
Th ose
bs p
-b y
ĠDe ath
Ġcop ies
Ġattempt ing
Ġdocument ation
ĠJack son
Ġannoy ing
O V
b ell
j son
Ù ı
Ġw idth
Ġc aps
or ic
Ġn aked
ĠP ac
Ġle ague
ĠF red
ĠG irl
ĠN ight
Ġcomp assion
Ġman agers
ose xual
Ġref erring
ĠCl oud
resh old
Ġharm ful
Ġtransform ation
. T
8 6
ĠC ell
Ġcont est
Ġcons ent
Ġreturn ing
Ġinf inite
Ġbal anced
Ġintegr ity
ĠOh io
Ġrob ot
Ġeval uation
Ġbound aries
Ġlegit imate
Ġunex pected
] (
g as
ã ĥ
at on
Ġc od
Ġb es
Ġf ate
Ġy oga
Ġj ur
og s
.. ."
Ġthere by
mer ce
Ġsupp orters
Ġclass ical
âĢĶ the
eng ers
Ġcal end
Ġlog o
back s
Ġobserv ations
Ġneighb ors
ĠAnge les
Ġlaug hed
Ġ ic
Ġc av
as i
om er
ĠF ile
Ġwork out
Ġsc ary
ater al
Ġgu idance
ĠTr ue
Ġtext s
ĠMus ic
Ġpurs ue
Ġneut ral
/ f
E E
R C
u z
w orth
Ġt ab
Ġb oring
Ġy e
um my
ĠL i
ci a
Ġkn ife
Ġgu est
Ġposs ibilities
ĠBr other
lf riend
str ong
Ġjud ges
ĠDon ald
Ġbul let
Ġmeld ronate
-min ute
- con
it ate
Ġg ains
ĠT ell
Ġst ake
Ġcon vey
ĠP ay
ĠR a
ĠR NA
Ġwor ship
ĠO p
com mon
Ġdr ama
Ġphot ograp
Ġdig est
Ġoccasion ally
Ġdelic ious
. E
U se
m ay
p at
ar ation
Ġth rew
ot ing
ĠH i
ĠL y
ĠO k
ac les
ap hor
ear ing
Ġdist ant
Ġpat ent
ĠCom mittee
-p art
Ġdel ight
Ġtarget ed
Ġattempt ed
Ġreve als
Ġsil ent
Ġpredict ed
edd ed
Ġowners hip
empl ate
Ġhunt ing
Ġshad ow
Ġgal ax
c hers
u rop
Ð ¿
ĠB ud
ĠP erson
ist ically
un es
ĠN ic
per t
Ġoff ense
Ġref use
uck s
Ġmain tained
Ġconc ert
Ġdiv orce
Ġsurround ed
Ġconstruct ed
Ġengage ment
. R
Ġb orrow
Ġg ently
ĠC ivil
ĠB C
Âł of
ĠP oint
ĠP ython
ind ex
cl osed
Ġgr ows
Ġsc ar
Ġinvest ments
ĠLe g
Ġrock s
E ach
F ind
q l
ay lor
ke l
Ġv ice
Ġint ensity
ĠCh ief
Ġadv is
Ġcent ers
Ġconsider able
Ġground s
ubl ished
ĠIm age
ĠSpe cial
rim ination
D P
F ile
R ed
U L
Ġd ownt
ĠC A
Ġle af
ĠF und
Ġcomp ress
ens ed
Ġtra il
ock s
ĠAnd rew
ĠRe ally
Ġgra ce
Ġbank ing
Ġemail s
Ġnut rition
Ġconsist ently
7 3
w orld
Ġm art
ĠN E
Ġcomm od
Ġra ces
Ġav o
Ġtre m
Ġpick ing
Ġvac ation
Ġencoura ged
Ġlun gs
7 1
Ġw ing
al pha
se ction
ĠS pring
ĠE ffect
ĠE ss
Ġcons ensus
Ġbu g
Ġent reprene
Ġdi pl
St art
arr ing
ĠCl ick
Ġland s
Ġdiscuss ions
Ġport ray
ĠMr s
Ġbul k
Ġpun ishment
Ġcas ino
Ġdivers ity
D isc
m ers
Ġh o
ic ular
ro gen
ĠS outhern
Ġha ck
ĠB al
op en
Ġcom ics
ĠR ub
Ġfe ars
ĠU t
Ġsc al
ail ing
ĠSt range
ug in
arent ly
Ġsuggest ing
AN D
Ġcontrib utions
Ġwat ers
ĠSer ver
Ġdisappe ar
ĠPalest in
F il
M D
T O
m n
s ummary
Ġin herent
ol s
ĠM ath
ĠB arb
Âł And
Ġsh orter
Ġen vironments
ĠV en
ĠFor ce
Ġprop osal
ibl ical
. f
S y
Â ®
Ġc um
ĠS C
ĠS ex
ĠA li
op les
op eration
un ny
ĠE th
Ġcl uster
Ġdis rupt
Ġrec y
Ġbr an
Ġdec or
Ġed ition
oun ced
Ġgra b
âĢ¦ âĢ¦
As s
Ġdiff er
Ġsuggest ions
Ġobs erve
Ġcompet e
ĠÂ »
Ġbeg un
Ġemphas is
Ġrepeated ly
A B
[ âĢĵ
Ġf ishing
ĠT ri
ĠS now
ĠB id
ĠW H
Ġr ush
Ġint ake
Ġrel ate
Ġexp ense
br idge
yn c
ĠAm endment
hold ers
Ġisol ated
Ġfasc inating
Wr ite
ĠVirgin ia
Ġnutri ents
i ag
u ce
am med
Ġfe ver
Ġpol ar
Ġmet ers
Ġgra in
Ġprom inent
Ġcou rage
Ġprevent ing
ĠMal ays
Ġmotiv ation
Post ed
``` Ċ
vt b
* /Ċ
6 1
on al
er ior
Ġw ides
Ġe lder
Ġout er
hy l
iss ues
16 0
Ġdisplay ed
Ġpark ing
ĠVal ley
Ġunivers ities
ĠTechn ology
Ġstro ke
A v
F ig
\ Ċ
nd ed
it ual
Ġf iber
Ġfor cing
ĠS P
il ation
ĠF ord
Ġcont rary
Ġco inc
Ġinst ruction
Ġmag ical
Ġengine er
Ġver b
Ġexpert ise
Ġfro zen
Ġabst ract
[âĢĵ ]
M on
Ġl ung
Ġl enses
Ġu seless
ĠR oyal
ĠE st
ann el
Ġstop ping
ĠPr ince
Ġobserv ation
ĠGl obal
Ġgar lic
Ġvo ices
( c
h ire
ï ģ
Ġc ul
Ġth irty
os ystem
ĠO sc
erv es
ah a
ĠSp irit
Ġfollow ers
Ġmother s
Ġinstall ation
Ġinvestig ate
Ġcompens ation
Ġdiam ond
ĠSecret ary
. 'Ċ
p rivate
Ù Ī
Ġo ven
Ġh arsh
Ġn ons
Ġcon ce
ĠB ru
ĠP ur
Ġinst antly
Ġold est
Ġlab els
Ġimprove ments
ĠGu ard
Ġremind ed
Ġwealth y
ĠFranc isco
B ig
P ress
k ind
m ates
in ci
Ġs ons
Ġw ishes
ut ter
ul um
Ġr iding
ĠH TML
qu o
ĠL incoln
ĠU k
oc aly
ne ver
Ġoff ensive
omet ric
Ġdes cend
ari os
Ġdesign s
Ġwin ner
Ġess ence
Ġste am
Ġcry ing
Ġestim ates
Ġreject ed
Ġrac ism
Ke ep
Ġsacr ifice
ĠSar ah
Ġb inding
Ġb ubble
Ġm aps
Ġto ys
Ġimp r
ĠV an
ĠV iew
Ġprep aring
ĠPol ice
Ġquant ity
ĠSing apore
ĠRev olution
Ġfir ms
is ode
Ġg athered
ĠP ers
ĠL ess
Ġdis pl
Ġover l
Ġbr ush
Ġear ned
ret t
Ġhead ing
Ġsing er
pro of
Ġspeak s
ev in
Ġtim ing
/ S
u ating
Ġ ?Ċ
Ġd irt
Ġbe ans
se ll
ĠD O
ĠF A
ĠF oot
aw a
Ġrep et
ĠAs h
Ġrese mb
Ġair port
Ġfunction ality
ĠPh ot
ĠCol umb
Ġsett le
asc ular
Ġunf ortunately
Ġinterview s
Ġcontract s
Ġgraph ics
oper ative
Ġmathemat ical
M P
m o
is y
Ġp as
Ġth umb
Ġg ambling
ĠT R
Ġst olen
ch ain
Ġat e
ĠP o
ĠP enn
el ve
ĠN umber
ĠL ine
ĠO s
Ġcar ries
Ġfact ory
Ġhum or
let ter
Com ments
bb ing
Ġast ron
ĠStep hen
ĠMill er
Ġbon us
Ã ¶
Ġthe ater
Âł Out
ĠW W
Ġover t
Ġover se
Ġsub mit
Ġtrans p
18 7
-b l
Ġbra ins
Ġlight ing
Ġben ch
Ġlow est
Re quest
Ġste pped
Ġgold en
Ġincor rect
Ġaccompl ished
Ġquot es
Per haps
Ġmathemat ics
Ġinspir ation
P rodu
d es
Ġch op
ard ing
ĠO F
air y
18 8
Ġz omb
** Ċ
Ġvari ations
Ġblog s
Ġpack ed
ĠCont rol
ĠIsrael i
Ġdim ensions
ĠMet hod
Ġexperim ental
ĠHill ary
Ġresc ue
Ġimmigr ants
. B
E l
b ase
Ġ ×
it i
al so
Ġre aches
ĠS earch
ir able
ĠC H
Ġde lete
Ġcomp osed
Ġfl ip
Ġcomm ands
Ġreg ards
Ġdra in
Ġblog gers
Ġsepar ation
ĠMark et
Ġgod s
Ġorg ans
ĠCarol ina
ĠHit ler
P N
\ ,
Ġg arb
ĠC ub
ill er
Ġcon cluded
ĠB at
el se
Ġpre tend
ĠSt one
Ġdist ract
Ġalong side
Ġdro ve
Ġprogress ive
Ed it
Ġdefend ant
" );Ċ
. N
A tt
G od
l ink
w as
Ġt ang
Ġh ier
ĠS elf
ir ts
Ġat he
ist ical
ĠG i
Ġhand led
uck y
Ġmar ry
Ġemploy ers
book s
Ġpow ered
Ġrespond ed
Ġacqu ired
ĠPort ug
Ġadopt ion
Ġcontrovers ial
Che ck
Ġunnecess ary
Ġwides pread
' )
7 4
L ong
Ġb ure
le ctions
ly n
ĠT alk
ay a
th ur
Ġsh ops
ĠD ave
Ġwor n
Ġcl ust
Ġact ively
Ġfound ed
18 1
18 3
Ġvari ation
Ġdel ay
Ġstri kes
Ġassist ant
Ġaim ed
Ġjo ining
Ġimpl ies
Ġprepar ation
H T
P s
a ired
s en
v als
â Ī
Ġt ie
in fo
Ġc ous
Ġl ighter
Ġn odes
Ġg olf
id ays
ĠM ir
th a
est y
ĠH ug
Ġsh ield
ĠL ive
ĠCh ildren
Ġfin ance
Ġel ves
Ġpublic ly
ĠCl ub
Ġtreat ing
!! !
Ġdark ness
Ġbur ied
Ġcapital ism
Ġexcess ive
Ġregist ered
Ġinflamm ation
Ġvert ical
ĠKenn edy
b us
he alth
Ġs ore
Ġl ately
âĢ Ĭ
ra g
ĠP sych
ĠJ r
are st
St ud
-d ef
ĠPro cess
Ġtend ency
LL Y
Ġassum ing
Ġaccur ately
Ġqual ified
Ġlibr aries
Ġmolec ular
Ġmanufacture r
Ġlaug hing
ĠCir c
Ġpean ut
b d
Ġs oup
im s
ig ma
ĠS omething
ĠM ajor
Ġr ou
ĠL ake
Ġen ables
Ġjust ify
ru b
Ġpart ially
li x
olog ically
Ġac ute
Ġmod erate
Ġrequ iring
-s pecific
ĠAr m
ird s
Ġdescrib ing
Ġboy friend
Ġinev itable
- or
Â ©
Ġre ar
ĠH ad
Ġch ip
Ġme ets
ĠE vent
act ory
-- -
Ġcontro lling
Ġplan ets
Ġconf using
Ġreason ing
Ġexpect ing
Ġredu ces
Ġarg ues
oke mon
Ġsens itivity
ĠMan agement
Ġautom atic
Ġterror ist
R ight
Ġt utor
Ġs essions
Ġp unch
Ġin cl
Ġn il
ĠA L
us ive
Ġch ips
our ne
Ġev olved
Ġun re
form ed
ĠHe art
Ġra pe
Ġtra ve
Ġes p
Ġcond em
EN T
Ġterror ism
Ġrul ed
Ġsubs id
ĠLear ning
Ġvolt age
ĠScot land
Ġsimult aneously
! )Ċ
9 6
E A
m u
Ġ vel
Ġw ings
Ġb old
Ġd uration
Ġin fections
st op
ĠM id
ĠM ess
Ġdo ct
ĠR est
ĠE astern
Ġam er
Ġinv ited
Ġbel t
Ġdist inction
Ġequ ality
Ġopt imal
Ġpoly mer
Ġafford able
Ġpil ot
Ġcha os
Ġsatell ite
F e
J an
M B
S l
T om
a ver
re ation
Ġn odd
Ġr ubb
ĠR ose
iv ia
ĠO per
aw are
Ġdirect ors
Ġanal ys
wh ite
On ly
Ġdest ro
Ġsus pend
Ġautom ation
Ġcommunic ations
Ġsubst ances
Ġanaly ze
Bl ack
ĠDa ily
Ġadequ ate
es y
Ġf ut
ar gs
Ġin hab
ĠS ource
il le
Ġex clusive
ĠD ate
ĠR un
ĠG ro
ich ael
Ġmet h
con fig
Ġdev ast
Ġdesc ript
Ġaddress es
Ġfol k
Us ing
ĠDist rict
ĠDevelop ment
S R
T able
f ree
} (
Ġp airs
Ġth reshold
th rough
os er
ĠF ather
Ġte ar
Ġgr ate
lic ation
Ġsl ave
ier ce
-d own
ĠPl ace
Ġscreen ing
Ġload ed
ĠKe y
Ġepis odes
Ġdynam ics
ĠBo ard
Ġinvolve ment
O kay
[ i
b id
at tered
Ġd ual
ic ate
ĠT oo
Ġu gly
ch i
ĠH ay
ĠY e
erv ing
Ġinv asion
Ġcount s
Ġsn aps
Ġcir cles
Ġden y
Ġburn ed
Ġinnov ation
Ġinnov ative
Ġappoint ment
Ġrub ber
Ġdisappoint ed
Ġabandon ed
- known
D ear
er ator
Ġb esides
Ġp p
Ġd ressed
as ters
st s
Ġst iff
ĠM other
Ġex ch
ĠH ence
ĠD irector
ie val
iz ar
Ġsc ales
ple x
Ġcons ume
Ġadd iction
Ġaw k
Ġprov ision
ret ion
ash a
ĠPro duct
Ġrecommend ations
Ġdiv ine
Ġprinci pal
Ġdim ension
Ġvessel s
V ID
f il
Ġt el
in ates
ar ia
ch ron
and al
Ġup grade
ach us
Ġrem oval
Ġgu ards
Ġinst inct
Ġins ane
Ġform ing
Ġexp ort
Ġexpl oring
Ġcomb ine
Ġprotect ing
Ġcool ing
Ġmedic ations
Ġvacc ine
- pr
c ery
Ġb inary
Ġh iding
ig nt
ir us
Ġse nds
Ġ( $
Âł t
qu er
Ġal leg
ag en
ack ed
Ġpe oples
ĠCh apter
Ġra cial
Ġopp onents
-c ol
Ġcap ability
Ġfail ing
enn is
Ġste al
ĠCont ent
Ġscen arios
ĠMod el
ĠâĨ Ĵ
h ar
m akers
w ich
Ġt u
Ġt ale
Ġc m
Ġm ice
Âł H
Ġr itual
ment ed
ĠL ow
Ġover night
Ġnow here
Ġob sc
ĠĠĠĠ ĠĠĠ
arm s
Ġcle ver
Ġresp ir
Ġcal c
de v
irt ual
ĠCar l
Ġemer ged
Ġtouch ing
_{ \
Ġcloud s
ĠMat thew
Ġrom antic
- res
B est
U I
r ans
v ation
Ġm igr
Ġg ri
ĠT erm
ĠC ook
ĠC old
ĠC ustom
um ble
ĠP y
Ġgo og
Ġj et
Ġro lling
Ġhand ed
gg ing
Ġtri als
Ġgra bbed
Ġproduct ive
-d imensional
Ġfoc uses
Ġimpact s
ĠEd ward
Ġemer ging
Ġmatch ing
____ ____
Ġfold er
ĠIr ish
Ġstead y
ĠProfess or
f ront
m other
o ons
y our
ll y
ig hed
Âł If
ĠH un
Ġv ague
Ġpre cious
âĢ¦ .
Ġident ification
Ġaud i
Ġthreat ened
Ġtou ched
Ġcalcul ate
Ġrestaur ants
Ġwra pped
t ics
Ġt une
Ġm m
Ġy ard
Ġhe ating
Ġ( #
au nd
Ġen zy
ress ing
Ġcount y
Ġmed itation
Ġprocess or
Ġeas iest
Ġoper ator
Ġcompet ing
Ġscient ist
ĠSm all
ĠRom ney
ĠSw ed
Ġconsequ ence
Ġsatisf action
iat ric
- ind
P age
S ometimes
in ue
Ġb orders
Ġin ch
id ate
ĠS af
ĠB u
ĠB ry
Âł p
op es
Ġv ibr
Ġpart ial
ĠV ideo
Ġtra ce
Ġsign ature
Ġref lection
Ġnight s
Ġexc it
Ġpen et
Ġhop ed
blog ger
Ġsustain able
- work
= \
O ct
b ec
Ġf ence
Ġe ager
Ġch ains
art ed
Ġwhe at
int erest
ott om
ĠTr ust
Ġtem ple
ĠOr der
add y
ugg ed
Ġdetect ed
ĠLic ense
( a
7 6
[ '
i ens
u is
u ously
v o
Ġ )Ċ
Ġc ognitive
ĠI ce
ĠH arr
Ġall oc
act or
Ġstr ings
Ġret ain
Ġsuggest ion
Ġextra ord
Ġbank rupt
Ġbill ions
Ġunf air
Ġregul atory
Ġtick ets
ĠGeorg ia
Ġsoph istic
- one
9 2
C L
G reat
a ud
i ary
Ġw ages
Ġc ord
ing e
or ious
ic he
ĠT ext
os ph
ĠR en
ĠL o
ag a
ac co
ĠCh ild
Ġdec ides
Ġequ ations
erc ury
Ġbehavi ors
ĠSa udi
osc ow
Ġmyster ious
C R
D is
b ur
ï »
Ġto y
st atic
ct ic
ro lled
ĠC hem
ĠD at
hy d
Ġche er
Ġdisc rimination
Ġdet ection
arm a
Ġstra w
Ġfat ig
Ġemb race
Ġmut ual
riz ona
Ġcigare ttes
Aut hor
ĠAtl antic
3 60
A ug
t ion
Ġt ies
Ġthe sis
er on
Ġh int
ĠT aylor
ĠS in
âĢĻ Ċ
ĠN ature
ĠL ind
Ġman ually
Ġkn ees
Ġfl ower
omet er
Ġed iting
Ġinf ant
Ġworth y
Ġregard ed
Ġwood en
Ġsymbol s
Ġguarant eed
Ġreserv ed
- fl
C ondition
X X
c s
Ġs ink
Ġm im
ic ient
Ġbe ating
ĠM ind
ĠB on
Âł But
Ġint u
Ġint rig
per ty
ark s
form ance
ĠDo ctor
Re al
Ġrele ases
Ġsepar ated
Ġri val
Ġvac uum
ĠSil ver
Ġrecept or
Ġgir lfriend
A F
M essage
Ġa est
Ġb id
Ġb oo
Ġg ross
ig e
ĠS em
Ġas h
ra ine
ĠM s
Âł J
Ġv apor
Ġsh aped
ĠL ater
Ġco at
Ġass ass
Ġmed i
Ġbuy ers
Ġut ility
Ġreci p
Ġflo at
ĠTur key
Ġsole ly
ï» ¿
C reate
N S
P ad
c or
h ma
Ġre ct
ĠS F
ĠS ci
Ġwh ilst
Ġha unt
ĠM oh
ĠB ox
ĠB attle
Ġ( âĢľ
Ġv ig
Ġcl im
ĠU r
ell ow
Ġsl a
12 5
Ġleg acy
Ġliter ary
Ġcross ed
oles ter
Ġmotiv ated
Ġec osystem
Ġconstitution al
Ġfavour ite
Ġmanif est
ĠQuest ions
I E
P ol
Ñ ĭ
Ġw and
an cial
Ġh ref
ĠA st
ĠF ull
Ġk m
ĠG ive
ĠL im
Ġdis abled
ody nam
ĠPr ote
Ġcrit ics
Ġcoll aps
Ġsett lement
Ġdocument ary
ĠMich igan
Ġexpand ed
Gr oup
Ġattrib utes
Ġtrem end
) -
- )Ċ
- type
B oth
O K
T ER
b et
f irst
v ard
Ġo d
Ġc ust
Ġf art
Ġm ales
Ġh orn
Ġl azy
Ġbe ef
et c
um ph
ĠW atch
ĠP ract
ĠJ ane
Ġkn ee
Ġdis hes
Ġunder t
ĠAn g
Ġpass engers
St ill
Ġprof ound
Ġmil it
Ġmeas uring
umb led
Ġsoon er
ĠIm ages
Ġtown s
clus ively
Ġefficient ly
Ġpromot ing
Ġpure ly
Ġacknow ledge
ethe less
. html
D own
i y
od ge
Ġr het
ĠD un
ĠD irect
ard ed
ĠJ enn
Ġcomp aring
ru p
cl osure
Ġper ipher
ect ed
Ġreg ret
ĠIs s
Ġappro ached
Ġwa ited
Ġrob ust
ĠColor ado
Ġaccompan ied
( $
- class
v able
w a
Ã ¤
Ġ ]Ċ
Ġ Ø§ÙĦ
re ply
ĠS us
ĠS EO
ir y
Ġse vent
Âł He
ĠH oly
and y
ĠR oy
Ġj unk
Ġpr ayer
Ġco in
Ġdevelop er
-s pe
Ġdra gon
ĠUs er
Ġassum ptions
Ġbutt ons
Rem ember
- cell
D avid
M L
_ D
Ġa f
Ġb ump
ĠI L
ad en
ur ities
Ġde ar
ri ving
ĠP ri
ĠP okemon
Ġby tes
Ġint im
Ġen abled
iz ers
ap ters
cc er
Ġimp ressed
li hood
Ġtrans f
ĠĠĠĠ ĠĠ
Ġser ial
Ġfr ight
Ġ& &
Ġfree ly
Ġpolit ically
sh op
Ġcreat ivity
!! !Ċ
Ġexec uted
Ġpen is
Ġparticip ation
imin als
Ġcelebr ate
ĠWil son
Ġbatt les
ignt y
$ .
C ount
I am
or i
Ġd ental
Ġd imin
Ġwe igh
ĠC ome
Ġsh ook
Ġsh ocked
Ġsh apes
os pel
ĠN orthern
Ġsp at
Ġover r
Ġunder m
ian o
Ġhand ful
Ġcard i
Ġep id
Ġbreat he
Ġarri val
Sc ript
Ġadvert is
Ġvit amin
Ġcalend ar
Ġt issues
Ġc ort
it age
is ons
Ġf ancy
Ġp ale
Ġh ired
Ġcon gress
ĠE nergy
Ġtra p
Ġtra its
ont al
Ġsupp lements
Ġel ite
Ġdifficult ies
Ġconsum ed
Ġens uring
Ġinflu ences
Ġbrief ly
Ġgather ing
. J
c m
g ithub
r ame
Ġt ar
pp ers
Ġback ed
Ġcons ol
Ġgu ests
Ġve ctor
Ġarg uing
Ġmiss ions
Ġmoment um
Ġgrad uate
Ġcru el
Ġsatisf ied
Ġjump ed
Ġflex ibility
iot ics
Ġswim ming
ôĢ ģ
olester ol
b f
r at
Ġf o
Ġp izza
Ġm old
st ar
ad ays
am ins
ĠS QL
ĠA ud
Ġor al
ĠF at
ne ll
Ġmin er
Ġbelie ving
Ġbeh alf
ateg ory
Ġengine ers
Ġpoor ly
roll er
Ġder iv
ĠDis ney
Ġremark able
ĠRad io
ĠPac ific
Ġawk ward
Ġsla very
C T
C or
W ould
b ot
Ġb ind
Ġr am
ĠR og
ip es
Ġrel uct
Ġperson nel
ox y
Ġident ifying
omm y
Ġmar gin
Ġkey board
Ġcontrib uted
Ġload ing
Ġappreci ated
ĠMod ern
Ġquiet ly
/n an
Ġrefuge es
Ġunem ployment
B as
i ro
l ib
p ath
r ust
t ic
Ġt ens
Ġc oup
ur ches
Ġcon sole
Âł N
Ġk it
Ġj okes
Ġsa il
oc us
te nds
Ġins ulin
Ġgl uc
Ġpat ri
Ġvis its
Ġcou ples
Ġdesper ate
Ġpand emic
F ree
u ced
on ut
Ġc ache
Ġp ond
ĠI de
et ts
ĠA rizona
ir k
ĠH a
ment al
un ks
Ġall ies
ĠE nt
Ġup coming
ound ing
ĠK ind
Ġback up
Ġunder ground
Ġafter wards
Ġadd ict
Ġins ights
ĠAs k
az ing
Ġinvest ing
Ġcult iv
Ġkill er
Ġtax p
Ġbar rier
Ġrepresent ing
Ġcook ed
Ġchem istry
Don ald
Ġking dom
Ġrevolution ary
Ġwarn ed
! âĢĿĊ
O ff
v ia
ĠT ony
ig o
ĠA LL
.. ...
Ġacc ord
ĠUn like
11 1
Ġsol ved
ĠSh ort
Ġprev al
idd ing
Ġoper ators
rodu ction
Ġstruct ural
ĠQu estion
Ġaltern atives
Ġencoura ging
Ġbatter ies
Ġrent al
Ġcigare tte
Ġsched uled
A c
M ap
_ ,
w ed
y er
re ement
is d
Ġb ol
Ġp ension
Ġl ake
ĠA ven
ir c
Âł You
Ġsh ake
ĠE ve
ak ashi
per or
10 2
ject s
ffect ive
Ġca res
ĠSe ction
Ġweek ly
Ġhy brid
Ġviol ation
Ġdead ly
Ġautom ated
Ġcompl aint
Ġdut ies
Ġthorough ly
Ġbran ches
9 00
C ar
g h
al an
Ġn urse
ĠT am
ĠM u
Ġsh ipping
Ġexpl oration
me ga
Ġkind a
Ġmem br
Ġorgan isation
ĠInd ust
Ġoil s
Ġce iling
Ġdemand ing
Ġfrustr ating
Ġfeat ured
Ġfurn iture
Ġdiscipl ine
Ġnodd ed
S M
T ext
g ic
k o
m ony
t ains
y o
Ġp ays
ĠI F
ĠS U
ge red
ist ant
Ġab road
Ġag ing
Ġsp are
Ġbl ess
ĠRe ading
Ġrest ore
Ġproduct ivity
14 0
ĠInd ex
Ġ: )
Ġrepresent ative
Ġpath s
Ġplug in
Ġforest s
Ġestablish ment
Ġflo ating
igen ous
Ġgarb age
% )
( b
- per
9 1
G E
M at
n bsp
is ition
ro d
im ents
ver ted
Ġst ones
ĠA w
Ġcon clusions
ĠM useum
Ġk ernel
ard less
Ġinv is
alth ough
ĠEx p
-st yle
Ġqual ities
Ġorient ation
Ġtroub les
Ġoverse as
Ġexcit ement
8 4
C al
w all
Ġc ub
Ġc oding
Ġp ile
Ġh iring
Ġit er
ĠS ad
op ic
ĠW at
ak i
ĠO cc
oc ity
int end
Ġover s
Ġaw ake
Ġanim ation
Ġrad i
Ġapplic able
-l ife
Ġavoid ing
Ġsurv iv
Ġver ify
Un fortunately
Ġvir al
Ġdecre ased
bel ie
Ġfulf ill
Ġrender ing
Ġcompe lling
Ġentr ance
_ file
z es
at hetic
Ġd ense
ĠC ru
ĠTh ird
Ġsp ouse
ick er
Ġpart ly
Ġgr in
ord an
Ġreal m
Ġaut on
Ġfr ames
13 0
Ġmass es
Ġexec ute
Ġble eding
Ġid i
Cont act
ĠWr ite
ĠHind u
ĠLibr ary
Ġgrate ful
. The
L ear
at est
ou st
ow ers
id al
ĠA ccess
Ġcan on
ĠO x
Ġcomp ounds
Ġad j
Ġgr ay
hy dr
Ġent ities
Ġland ed
Ġcy cles
Ġpan els
Ġmechan ics
Ġconven ience
Ġdesk top
ĠCN N
T y
z one
on ed
on ia
Ġb ored
Ġbe ast
ĠD ie
Ġwhe els
ĠE ver
ud o
Ġpe pper
Ġam ino
Ġdes ires
Ġsl ide
It em
18 5
Ġed ges
Ġleg ally
Ġpack ages
Ex ception
Ġthreat ening
Ġconver ted
Ġhorm one
Ġtact ics
Ġhung ry
Ġcorrel ation
achus etts
) \
M ax
R ef
t an
ĠA ff
ab ling
Ġback wards
Ġdef icit
ĠOr ig
Ġtrad itions
Ġbuy er
Ġrespons ibilities
Ġdeterm ining
sec ond
Ġstrugg les
Ġdiagn osed
Ġphilos oph
Ġrac ist
Ġimper ial
Ġconstra ints
" What
# Ċ
( d
( self
e ous
m ax
Ħ ¢
Ġt ags
Ġt urb
Ġb anned
Ġre vel
ĠC aptain
ĠM D
ĠH on
ĠL ie
ĠO il
ĠK ar
Ġpr ay
00 1
Ġsc am
Ġrel atives
Ġprodu cer
ĠZ h
let ed
Ġshort ly
Ġsound ed
Ġeduc ated
Ġpan ic
Ġsupposed ly
Ġhosp itals
Ġgro cery
8 3
b rew
ing ton
Ġth y
Ġn asty
âĢ ĭ
iv a
ĠN orm
Ġeffect iveness
Ġel abor
Ġsol o
-b it
let on
Ġfriends hip
Ġrepl acing
ĠOb viously
Ġaff airs
Ġstri p
Cl ass
ellig ence
à¥ ĩ
Ġcomplain ts
Ġsod ium
A pr
C P
S kip
V is
f an
h is
i per
Ã ¨
an ning
âĢ ħ
ĠT ax
ĠS av
ĠC PU
il ton
ul k
Ġsu p
Ġch lor
ĠF air
ĠG a
Ġshe ets
Ġoff ices
form at
cept ions
Ġbo ards
Ġ: :
Ġcra w
Ġcook ies
ĠAct ually
point s
ĠGree ce
Ġdisappe ared
- te
F I
f lix
in ition
Ġb ust
al in
ol utions
Ġse al
op her
ĠP olicy
ĠD utch
Ġli ability
ĠO R
Ġinv ented
Ġworld s
Ġfr ustration
Ġspec ify
ari ans
Ġreason ably
elt a
Ġoffic ially
Ġrespect ive
Ġstra in
Ġclos est
ĠOther s
vis or
ĠStud ies
Ġment ally
ĠÂłĠÂł ĠÂłĠÂł
yr ics
ĠCharl ie
cycl op
C all
\ end
h av
st orm
ĠI M
Ġha z
pe ople
ĠB BC
ĠB esides
Âł They
Ġr amp
Ġsu ck
Ġal gebra
Ġres on
ne ath
Ġret rie
Ġpat ch
Ġview ing
Ġstri king
Ġbott les
Ġemp ire
Ġdu plic
Ġdram atically
Ġtort ure
Ġcott on
Ġbes ide
D ate
F ollow
T E
l abel
ed a
Ġin ject
ĠM oscow
Âł So
ab l
ĠR od
ĠO ften
Ġtr ash
Ġup gr
ac ent
Ġtw ist
ec on
Ġgu ilt
Ġend less
Ġfil ed
Ġtest im
Ġphot ography
Ġlaws uit
wr ite
Ġrestrict ed
ĠAnonymous reply
' )Ċ
Ñ ı
Ġt ent
Ġs its
Ġd ough
Ġg rip
ut her
ĠT O
ĠT er
am ous
ra ined
Ġal ike
Ġtr illion
Ġcl ip
Ġag ed
ount ered
ĠSt ring
Ġgen et
Th ough
Ġread ily
Ġfr anch
Ġgra ve
ok er
Ġpract ically
Ġfunction ing
Ġobject ives
Ġlay out
ĠAm ong
Ġimag ing
Ġemb ra
ĠMark eting
ios ity
Any way
ĠAlex ander
Ġassign ment
connect ed
u ccess
re a
Ġw rap
ĠI ron
ad ow
ĠB uy
ĠR oll
Ġle ak
Ġpl acing
are r
igh ters
Ġsl ip
Ġsl ower
Ġmat ure
ats on
ĠSc ript
Ġeat en
Ġpsych ology
Ġreflect ed
Ġeth ical
-sc ale
Ġtheore tical
ĠDig ital
ĠViet nam
H aving
b at
it zer
il on
Ġat tending
Ġj ew
pl ess
ĠO ffic
Ġar ise
Ġbet ray
Ġmin ing
18 2
Ġterm inal
Ġbit ter
Ġkill s
Ġcopy right
Ind ex
ĠPD F
Ġpuzz le
Ret urn
- en
/ M
9 3
A W
L Y
a ci
g un
l an
l ation
u v
Ġs lic
Ġg aining
Ġcon clude
ĠB and
Ġcom edy
Ġr if
ĠH an
ĠE ither
ĠN ation
ĠL en
Ġman ages
Ġgr asp
Ġpo etry
ĠAnd erson
Ġmet er
ĠAl ice
Ġext rem
app ropri
Ġcharacter istic
aut hor
ĠMar ia
Ġenc ountered
Ġexcept ions
iff s
Ġemb edded
Ġprint ed
Ġprison ers
semb ly
Ġevolution ary
Ġtempl ate
Ġlux ury
Ġmetabol ism
A gain
E ng
N ever
_ pro
n ie
â Ħ¢
Ġb io
es pecially
Ġn p
Ġbe ars
ad vant
ig ious
Ġhe m
Ġwas hing
ist ence
Ġab dom
ĠF all
Ġpre jud
ĠWe ek
li est
be at
Ġeas tern
Ġcou ch
Ġaffect ing
Ġoccur ring
Ġcollect ing
Ġtrust ed
Ġattend ed
Ġvary ing
Ġexplicit ly
izar re
E vent
G iven
H and
S ON
S orry
a ith
el a
ĠR ing
ĠL ady
Ġcl ue
Ġco operation
Ġtra pped
Ġpublic ation
Ġcred its
ĠMe anwhile
Ġdro pping
Ġdat as
Ġliber ty
Ġexpress ions
Ġacqu ire
Ġreci pes
.j pg
Ġuncertain ty
Ġcham ber
. L
M s
N C
_ P
d b
r imin
z ens
he ro
he ast
Ġf oss
Ġp up
Ġg rey
Ġst airs
ĠB an
ĠB urn
Ġne at
ĠG ra
ĠL abor
ĠO N
Ġfl ags
Ġinter ior
Ġprodu cers
Ġfound er
Ġhome less
Ġtechn ological
Ġsw allow
Ġpress ed
Ġwa ist
Ar ray
Ġneighb our
Qu estion
Ġtow er
Ġscream ing
Ġtrib es
Ġalt ogether
Ġcollabor ation
u ros
w hy
er b
Ġb om
Ġh oly
ad ium
ĠA z
Ġex clusively
ĠW orks
Ġout door
ans as
ru nt
Ġtra ged
Ġsec ular
Ġmod ify
Ġmon etary
Ġcy cl
bl ock
Ġtable ts
Ġdefe ated
Ġload s
ĠArt icles
Ø§ Ø
Ġexpand ing
Ġpros per
ĠSystem s
Ġpaint ings
Ġshel ter
ĠSoft ware
3 50
B el
V C
W as
] ]
r t
Ġf er
Ġm arch
ĠS O
Ġan x
ol is
Ġpe er
cl ose
ren cies
ict ure
Ġra b
Ġpres erve
ĠUn less
riend ly
Ġdesign er
Ġaccept ing
Ġindic ating
Ġpurch asing
Ġsurv ived
ĠUs ually
Ġrequest ed
Ġcounter part
Ġhorm ones
" ;Ċ
M R
on ze
Ġd rew
le vant
Ġl ol
Ġas pir
op ular
Ġso ap
ĠN FL
Ġper mit
ell ing
Ġinter medi
Ġfin ite
Ġsk ip
Ġrece ives
Ġfund ament
Ġsoci eties
Ġhistor ic
Ġenhance ment
c ard
i ors
in itely
Ġw ww
at ile
al ous
ĠH old
ant i
ĠL uke
ry ing
du ction
Ġbl ur
Ġinter ference
Ġcr iminals
Ġdec iding
Ġins ult
Ġsl ot
Ġdef ence
18 4
app er
for ced
Ġcomput ing
Ġabs urd
Re view
Ġimm ense
Ġbar rel
Ġimag ined
ino is
Ġcoun cil
ĠÐ ¿
Ġcorpor ation
Ġhol idays
Ġjournal ists
ĠMass achusetts
Ġsurf aces
Ġinher it
Ġpub lish
Ġenthus i
ĠOsc ar
" },Ċ
H P
H igh
S F
n i
o en
Ä ģ
at al
Ġb aking
Ġp ose
Ġp iss
Ġm es
Ġl oses
et erm
ĠT own
ĠS ong
ĠA k
Ġwe aken
ĠC ross
ĠB ang
us cript
Ġr ings
ci um
iz ard
Ġinvest ed
for ward
-m aking
Ġreview ed
Ġcompl iance
Ġnovel s
Ġpeace ful
ym ph
Ġsurprising ly
Ġsovere ignty
Ġuncle ar
Ġcalc ulation
L I
i ability
Ġw ore
Ġl one
Ġe cho
Ġg um
ĠA T
Ġpro l
ĠE li
ile y
Ġover look
Ġco ins
Ġrep orter
Ġcor on
Ġgener ating
Ġart istic
Ġgovern or
Ġpri ze
Ġsw ing
Ġprom ises
Ġspeed s
Ġcomplic ations
Ġhero es
ĠThom pson
Ġsusp ension
ĠJer sey
ĠTem ple
Ġgif ts
ĠAdminist ration
- j
= '
M I
\ begin
c os
e very
l uc
p ically
{ code
Ġm os
Ġin equ
Ġg reet
id ity
ĠT en
ĠC ut
Ġcon form
Ġse asons
oc hem
Ġwork place
Ġshe d
ĠSt ore
ĠAnd y
Ġret ired
Ġbeh ave
hys ical
Ġcirc ulation
ĠAb raham
ĠCo ast
Ġble nd
Ġreflect s
ĠAnt on
Tr ue
Ġcolumn s
Ġentertain ing
Ġdys function
Ġdos age
Ġgramm ar
Ġavo ided
Ġgoog le
Ġsophistic ated
' .Ċ
: "
R O
S I
e q
n ames
w ill
Ð ¼
in stein
Ġp ets
Ġd read
Ġst abil
ĠC B
ĠM O
ĠH op
ost ic
ĠG ulf
act ic
oc a
ĠK ong
Ġpre ference
Ġhand y
Ġtrans parent
Ġproblem atic
Ġfr ank
Ġpain ted
Ġsal ary
ÂłÂłÂłÂł Âł
Ġtarget ing
Ġesc al
ĠDemocr at
Ġprint ing
Ġlabor atory
Ġsimpl er
Ġpharm acy
ĠId ent
rape ut
Ġdisg ust
- est
F urther
S n
is ations
Ġg el
ĠS everal
ĠC as
ĠM A
ĠH al
Ġsh oe
ĠD oug
ĠF ive
ind ed
per m
Ġun h
Ġres ur
Ġsp y
In v
Ġdef ensive
Ġref res
Ġref rig
ĠSh are
add ing
Ġassoci ate
Ġign oring
Ġfem ales
Ġaltern ate
ĠAcc ount
Ġdisp ute
Ġbound ary
Ġjump ing
======== ========
Ġax is
Ġoccas ions
Produ ct
B N
C le
l van
on ly
is hers
Ġn est
ra it
ĠC ass
ul ative
ĠM ove
ĠL ew
ions hip
Ġres erve
Ġexam ination
ĠUn iverse
12 8
fl oat
Ġfr idge
ee k
ik h
Ġprot ests
Ġdeal t
Ġrelig ions
Ġsold ier
lim ited
Ġgas oline
Ġwood s
Ġbelong s
Ġcro ps
Ġfrustr ated
Ġprivile ge
Ġoccas ional
usal em
Ġimpr ison
$ .Ċ
U D
Y et
k m
p iece
Ġd ia
im ation
ĠS ay
Ġhe y
ĠC up
ĠB ul
ĠB ased
Ġr ounds
ab y
Ġch olesterol
ip h
Ġpre f
Ġra ises
the ta
ertain ly
Ġclass ified
Ġname ly
ĠPro blem
ĠPh oto
Ġnice ly
Ġarm or
ugg ing
Ġconflict s
Ġhom osexual
ogen ic
Ġsacr ific
Ġhypot hesis
ĠEs pecially
- V
M ichael
T alk
w er
Ġs our
at able
it ial
or o
Ġf ires
Ġm amm
ve ctor
ĠT ol
ur u
ĠS ix
Ġan ch
ĠC ow
Âł that
ag le
ip ed
ne ction
Ġsp ite
Ġnew er
ont o
gg y
Ġcar bo
Ġel ig
à¤ ¿
Ġtext ure
Ġsum mar
Ġcy cling
Ġblock ed
ero ids
Ġdecl are
Ġtoler ance
Ġhun ger
Ġarbit rary
ĠSimilar ly
Ġrhyth m
. ;
E xt
c ite
r ous
y ard
Â ·
or ie
Ġh ub
ow th
ig s
ĠS leep
ke ys
ĠC P
ore sc
Ġr ust
ous es
Ġpe ers
Ġte nder
Ġapp le
Ġra ge
ex cept
Ġhome work
Ġdr um
Ġphys ician
ĠSome one
Ġaccept ance
ĠEn vironment
Ġagre ements
Ġimplement ing
Ġgraph ic
Ġemp athy
ĠMedic ine
Ġfatig ue
. w
/ L
H ello
J e
_ st
f are
h al
h ave
l ast
} ^
Ġ ..
re nder
Ġc ried
is an
ri el
ab ul
ĠD M
pt r
fe e
pl ot
ib an
Ġres olved
Ġoff s
ov ie
Ġunder neath
Ġdri ed
Ġple ased
Ġenter prise
Ġattract ed
EC T
Ġdistrict s
#### ####
fol io
Ġnons ense
Ġbure auc
T est
m and
nd ers
ing le
Ġbe am
ut ical
th ink
ĠD ue
ĠG all
Ġcomp ression
own ers
rib ly
az a
uss y
ĠInd ians
Ch ar
Ġla wn
Ġdeterm ination
Ġbi ology
Ġmembers hip
hel p
Ġemb ry
ĠSim on
Ġaim s
Ùİ Ø
Ġstream ing
Ġtransfer red
Ġhar vest
Ġhydro gen
ĠDra gon
.âĢĻ Ċ
âĪ Ĵ
( *
B en
I O
M ember
U C
Ġ :Ċ
Ġo v
it ated
Ġp ir
ĠT ar
ill ance
Âł R
Âł W
Ġat oms
th ony
Ġte ens
Ġun l
ach y
ĠIn v
Ġimp osed
Ġsc hem
ob ic
Ġro d
erv ation
clud es
Ġpat ience
17 0
Ġfat al
Ġlif ted
ĠInt el
ĠAny one
Ġcivil ization
Ġvir uses
ĠStud y
Ġconserv ation
ĠDef ense
Ġscr atch
Ġconvin cing
ĠVictor ia
Ġrecru it
Ġelder ly
- al
- we
- ins
P oint
c oin
g iving
p in
r ot
Ð ´
re ed
Ġh ated
Ġl as
ĠS anta
Ġ( )
op ping
ist ance
ĠH u
Ġdo zens
ĠR aj
ĠSt at
Ġatt itudes
In fo
Ġdec ay
Ġent ries
Ġcount less
Ġdef ining
Ġcre ep
Ġcur s
Ġsk illed
Ġed ited
ĠCon st
Ġactiv ation
ĠSy rian
Ġcop per
Ġpubl ishing
ĠPar liament
ĠPre m
ĠOther wise
Ġclub s
8 1
T im
] )
l as
Ù ĩ
Ġt ribe
on ge
it ably
im ated
ĠT Q
Ġhe d
Ġde emed
ĠB art
ĠB uild
em ption
Ġv ine
ĠR ain
ĠF arm
ĠN ations
Ġinv al
ĠAr gent
Ġprev ention
Ġorig ins
ĠMan ager
Ġep ic
Ġpurch ases
Ġsecret s
Ġtele phone
Ġcup s
Cont ent
ĠMex ican
Ġcolon ial
ĠAD HD
Ġsan ctions
ĠOlymp ic
ĠNav y
ĠSum mer
Ġpropag anda
Ġsuspend ed
( [
B ase
V ery
f aces
o ard
u ates
| |
Ġa pt
Ġm un
ĠA ction
ri ven
th s
ĠR ab
ĠG OP
ac ular
li ent
ather ine
12 3
Ġsol ving
Ġoper ational
Ġabs or
Ġdam ages
Ġcompet itors
ucle ar
Ġfra gment
Ġemotion ally
Ġannounce ment
Ġtremend ous
- man
/ w
8 7
j s
o a
p ol
Ù ĥ
es ters
or ig
as ury
st airs
Ġst ats
ĠM un
ĠM oney
ag g
ail able
Ġcr own
Ġreal ise
Ġprov ince
Ġexam ined
Ġfil ters
ĠWh atever
Ġpar as
âĢľ The
ĠCon nect
Ġsens ation
ĠIm m
Ġfat ty
Ġcross ing
Ġspread ing
Ġenh anced
Ġiniti ative
Ġlad ies
ĠResp ons
J ack
O rig
on ing
or ia
Ġd ull
Ġre ass
Ġst ays
her ic
ate ur
ĠB ull
ĠB rian
Ġr ic
ĠP A
ĠN atural
ĠU V
Ġres ume
Ġpr icing
ell a
Ġtra uma
Ġgen ome
hes s
Ġchar ity
Ġmed ieval
Ġcomple ment
by tes
Ġaccording ly
Ġcontact s
Ġbehavior al
Ġconsist ency
Sc ore
Ġadjust ed
Ġeval uated
ĠEgypt ian
ĠBet ter
ĠJer usalem
Ġblank et
Inst ead
Ġdepos it
iox ide
Ġminer als
. ex
I LL
c ore
m atic
r ams
} );Ċ
Ġt orn
Ġp el
ro x
ro ck
ir al
ĠC redit
ist a
Ġle verage
Ġj son
pl us
ĠJ ordan
av y
ne xt
ĠCh air
Ġbr ick
Ġend e
Ġide ology
sc ribe
Ġspecial ized
ĠÂ ©
Be ing
Ġge ometry
ĠCor por
mark et
Ġtransl ated
riv acy
Ġlabel ed
Ġappoint ed
Ġincorpor ate
Ġdistingu ish
ĠJac ob
Ġcertific ate
Ġcompat ible
ocaly pse
Ġgluc ose
. ]Ċ
9 4
S W
Ġw oke
Ġb ases
ar ious
Ġne ural
ĠR az
ĠF ro
ĠL A
Ġhas h
ĠJ u
Ġthr ows
Ġdisc ont
Ġless er
Ġlist ened
17 8
Ġdep ict
Ġavail ability
Ġwond ers
Ġcompan ion
Ġdefin itions
Ġmis under
Ġfa cial
Ġtransl ate
ĠBar ack
ĠReview s
Ġhar ass
Ġmic rosc
Ġhoriz on
Ġcomprom ise
Ġextraord inary
. b
/ k
G A
P at
b ags
c at
l on
n on
} _
Ġb izarre
Ġre wards
Ġan throp
ĠC ab
Âł K
us r
ĠE uro
ib ration
Ġtrans mit
Ġcount ing
ĠAl ways
Ġopen ly
Ġprof itable
ik ing
sy lvan
ili ation
amm ad
sp ace
Ġrandom ly
Ġpun ish
ĠSer ies
ĠCO VID
Ġrecept ors
ĠStand ard
Ġjur isd
c ount
k ers
or able
Ġf ict
Ġp or
ch lor
ĠS el
ĠC ore
pe ction
ĠB ond
op ath
Ġpro x
ant ing
ĠD og
ĠF BI
ĠG reg
pt ical
ĠO bs
Ġar rog
Ġres ort
Ġfl ed
ĠZ ak
ĠInd ones
Ġpract ition
ortun ate
Ġphys i
sy stem
Ġconnect ing
Ġlack ing
-up s
ĠTra vel
opt ions
Ġdiet ary
Ġcateg or
Ġprec ision
Ġconcent rate
ĠNet flix
ĠAnsw ers
Ġjoint s
Ġcab in
Ġbasket ball
Ġswit ched
Whe ther
, y
. add
M ain
S L
m are
w ind
en ly
Ġm ast
om o
ion ed
ut able
ro ot
ĠS upport
Âł There
op ing
ĠP u
ant e
ĠD ad
ĠF ield
pl it
Ġout standing
ĠO cean
Ġinter fe
10 8
get s
con f
Ġdisc oura
ah oo
fl amm
Ġgl obe
uck er
oh an
Ġtri ps
Ġhealth ier
ok u
Ġpar liament
ĠCan cer
Ġmass age
Ġbar riers
Ġsens es
-h our
Ġswitch ing
Ġearn ings
Ġisol ation
ĠFre edom
Ġelev ated
ĠCirc uit
Ġaudi ences
Ġinvis ible
- int
. x
J ump
O pen
a is
m etic
Ġb ool
Ġf u
Ġf ond
ĠC orn
ill age
ri um
ĠP ack
ĠP arent
Ġal iens
ĠO kay
reat ing
Ġpre ferences
Ġshe ep
Ġbl ond
ors hip
ob ias
Ġbu gs
Ġplan es
oun ters
Ġele g
Ġfore cast
Ġprop he
Ġfrequ encies
Com ment
ĠArab ia
Ġconcentr ations
Ġnegoti ations
, âĢĻ
- so
F C
S ure
h ole
t est
Ġ Ñģ
Ġbe aring
et ric
Ġst ain
Ġst aring
ur i
ĠB a
th od
ab ases
Ġso ccer
ry st
ĠCh rome
ĠV ersion
Ġacc ent
ft y
Ġform ats
Ġcor rection
Ġposs ession
uss ian
Ġunderstand s
Ġpartic le
Ġactiv ated
Ġdig it
Ġprotect ive
Ġrepresent atives
ili pp
Ġquant ities
Ġinterpret ed
Ġfirm ly
ĠLook ing
Ġattrib ute
Ġtun nel
Ġoblig ation
Ġstrict ly
ĠDar win
A p
W ork
_ C
b es
b one
h ard
re r
ow a
em an
Ġtr icks
ĠJ osh
Ġsa fer
Ġdis put
Ġra cing
Th ree
Ġsub stitute
ruct ive
ĠDe ep
Ġprev ents
Ġbra ve
Ġequ ity
Ġdesign ers
Ġconsider ably
Ġener g
Ġprevent ed
AS E
Ġcontrib uting
Ġple asant
Ġtast es
ĠAny way
Ġcru ise
Ġeth ics
Ġwire less
ĠBab y
Ġminim ize
ĠIll inois
sylvan ia
/ **Ċ
C urrent
S ize
c orn
Ġa ffe
Ġw re
Ġto b
Ġd ictionary
ar se
ot ine
se arch
Ġr ally
ĠP rom
ab e
ĠE R
Ġcomp act
Ġres idence
Ġpre fix
Ġro pe
Ġwhere ver
Ġrep ublic
be fore
Ġcur ric
ĠTr ade
Ġhy d
Ch ange
Ġnecess ity
Ġapproach ing
Ġachie ving
Ġintegr al
-A merican
ĠRober ts
Ġveget able
Ġutil ize
Ġnerv es
Ġignor ance
luc an
( k
N one
Î ¿
in th
in ery
Ġm useum
Ġre ign
if ting
Ġse ctors
ĠH um
Ġcan ce
Ġcl ause
Ġdis ability
Ġdis advant
Ġbl ast
ĠSt aff
Ġact ed
Ġbu nd
ock ing
In s
Th ink
Ġsub mitted
ĠAs sembly
Ġass ured
Ġty r
ĠBr idge
ĠTr uth
-f or
Ġcharacter ized
ĠWith in
Ġfight s
Ġaddress ing
Ġblock ing
Ġcontrovers y
Ġsod a
Ġfest ival
Ġinhab it
- go
2 20
N umber
O k
d am
k le
r oup
u ilt
he w
al and
Ġl in
Ġl yrics
Ġe go
ot hy
am an
ol er
Ġv ag
ment ation
res ident
Ġab normal
ĠG B
og ene
ĠK akashi
akes pe
Ġ{ \
Ġwind s
Ġneg lig
Ġconv iction
Ġbroad er
oper at
Ġsusp ic
Ġshad ows
Cons ider
Ġloyal ty
Ġsear ches
- ad
/ D
N et
N ode
S QL
] ,Ċ
} .
at isf
Ġf iscal
st ick
Ġy ards
im mer
ch amp
ĠS H
Ġor bit
um bers
Ġr anks
ĠP FD
Ġch urches
ĠJ ay
ĠK evin
ang o
Ġpo ckets
Ġfl ows
Ġsl aves
uck ing
Ġpass enger
Ġequ ipped
An sw
-m ade
ĠLe vel
Ġsimilar ly
Ġattack ing
Ġ* Ċ
Ġdom ains
Sh ow
Ġur ge
amb da
Ġindepend ently
ĠAg ency
Ġcompar able
Ġsuspect ed
Ġphr ases
ĠFrank lin
Sim ilar
Par am
Ġperipher al
- over
e ks
l ar
p ub
r in
s ize
w alk
Ġw rest
ĠS ony
ĠB ody
Âł for
Ġne urop
ĠE arly
Ġout break
ac ies
cc a
ace utical
00 2
Ġshe er
Ġour s
ual ity
Ġhigh way
Ġtrans mitted
Ġgener ous
Ġsk ull
Ġmind set
ĠSe lect
sh ould
Ġblood y
Ġchalleng ed
Ġgrand father
Ġscript s
Ġestabl ishing
Ġremind s
Ġvit amins
Ġhyper t
ĠBer lin
Def ault
Ġneur ons
Ġtack le
Ġtherm al
ĠLab our
ĠOl ivia
Ġol ive
8 2
A h
S O
b ed
i el
n ode
on ies
Ġs ir
it ches
is en
Ġf iring
Ġm akers
Ġd ioxide
Ġg ard
Ġg rief
Ġre ck
ro se
id ency
Ġst eroids
Ġan onymous
ĠC SS
ul pt
Ġnot able
ĠU ntil
Ġgr at
Ġco pe
Ġbu ck
Ġtra iler
Ġpur ple
Ġvar ies
ams ung
Ġdraw s
ĠSch olar
Ġque en
Ġremark s
ĠSand ers
Ġhat red
Ġbell y
Ġsubsequ ently
ĠCap ital
Ġignor ant
Ġincent ive
Ġfacilit ate
Ġpresc ribed
Ġdoct rine
/ *
M en
N O
P H
R esp
b ro
c in
h uman
m ail
v ised
Ġ âĢĻ
Ġ __
Ġg ly
ĠM ap
ore r
ĠB rand
ĠW ol
Ġr ows
os itive
ĠD oc
ĠF DA
Ġun ions
Ġper ceive
Ġneed ing
Ġsee ks
oll ar
ĠCom puter
Ġdi ver
Ġbas ics
Ġland l
Ġ+ Ċ
Ġcolle ges
ĠPr ice
Ġ* /Ċ
ĠJohn ny
Ġfinan cially
Ġreve aling
Ġstick s
Ġunc onscious
Ġtransform ed
ĠPat rick
ĠPol ish
ĠCommun ity
---------------- ----------------
Ġox id
b in
f ly
Ġt ires
Ġb orr
le ading
om orph
Ġe rect
st o
ĠA bs
Ġpro c
au ge
ook ing
ĠSt ock
Ġmake up
Ġmet aphor
ĠAn alysis
ĠUn ivers
amp ed
Ġpass ive
Ġgra ins
Ġcost ly
Ġweight s
ĠJust in
Ġri vers
Ġwarm th
Ġmedic ines
arb on
Ġmist aken
itc oin
ĠInc re
ĠBook s
icy cle
je ctions
Ġdestro ying
l ow
n ut
in put
Ġc ited
Ġb ip
Ġm apping
Ġl en
Ġl aund
Ġfor ty
ĠC R
Ġnot ing
os itions
ĠD ick
ĠL yn
ap i
Ġun ity
ip se
Ġover view
ov ascular
Ġapp et
Ġfl owing
old s
up iter
be an
Ġcontin uously
We b
ivid ually
Ġansw ering
à¤ °
ĠAll en
Ġmiss iles
Ġcomment ary
Ġspecial ist
Ġhost ing
Ġunf ortunate
Ġgrand mother
Ġshif ts
Ġcoal ition
-qu ality
ĠEconom ic
ĠMic hel
Ġbuff er
F R
L ink
W elcome
] )Ċ
m al
Ġb er
Ġp ic
Ġd angers
om on
Ġre hab
ĠB ol
Ġpro long
em on
Ġj ar
Ġint est
Ġad verse
Ġun pre
Ġcar ing
ĠHow ard
Ġmon sters
Ġadv ised
ĠAr k
âĢĶ a
ĠUS B
uff icient
ĠEx ample
ER E
Ġparent ing
ĠPe ace
Ġsun light
ev ent
Ġagre es
Ġlif ting
ĠInt elligence
ĠEm ily
Se ptember
Ġsatisf y
Ġbacter ial
Ġtrick y
ĠTur k
Ġru in
aren cy
Ġexplos ion
Ġutter ly
Ġtob acco
A nt
W S
Ġb ay
Ġl ap
id o
ur ring
ĠS ide
ĠS pecific
Ġse gments
ĠH art
Ġal pha
ĠR achel
Ġjust ified
ress ive
Ġsp ont
Ġsp ider
ree k
Ġthr ust
Ġinv ite
Ġlast ing
Ġgl ory
orn ame
St r
Ġbre ed
Ġcirc ular
Ġmix ing
Ġstraight forward
Ġoccup ation
Ġtum or
Ġclar ity
Ġbot hered
Ġagric ultural
Ġmarg inal
ĠUk raine
appropri ate
operat orname
" ?
A merican
L a
R ob
Ġthe ft
at ched
Ġp se
Ġm ud
Ġh ilar
ĠT ai
ri k
Ġsh ade
ĠG arden
ĠU I
Ġinc ons
10 5
Ġent ers
Ġbuild s
ĠCl ark
Ġz ones
Ġrepl ies
Ġhistor ically
Ġarch ae
ĠLa ure
Ġmagn itude
.p ng
wr iting
Ġpoll ution
ÂłÂłÂłÂłÂłÂłÂłÂł ÂłÂłÂłÂłÂłÂłÂłÂł
Ġfif teen
ĠMo ore
Ġpartners hip
B uild
C ain
G R
L ife
c urrent
w ear
Ġt anks
Ġc rop
ĠS N
od er
Âł That
Ġpro gression
Ġr anging
Ġsh aking
ĠR y
Ġj aw
ĠL anguage
ear ly
ry ption
Ġres et
ĠK ids
hat tan
Ġact ress
Ġown s
Ġsl ots
Ġloc ally
Ġcontin ually
Ġpract icing
Ġexpect ation
ĠEx ec
Ġsex ually
Ġprop ose
NA ME
che m
ĠIm port
Ex p
Ġinj ection
arb or
rit is
Ġreb ell
Ġpromot ion
Ġpal m
Ġsust ained
Ġcart oon
Ġfif ty
Ġrom ance
-be ing
Ġsovere ign
Ġallerg ic
ĠLuc as
Met hod
Ġrespir atory
B O
T ag
t ag
Ġt ire
es ity
Ġn arc
Ġy a
ut y
ĠM agn
Ġex pend
Ġsh ore
ĠD u
Ġun e
Ġdis par
Ġover head
Ġbu zz
rib ution
Ġcar rier
ps y
ĠAl tern
Ġdist ress
Ġbo ats
Ġtechn ically
els on
Ġpri est
Ġorgan ize
Ġpress ing
Ġmor ality
Ġpick s
Ġcop s
Ġpack aging
Ġpull s
Ġmis er
Ġnetwork ing
Ġemer ge
ĠInst agram
Ġrat ings
Ġteen age
Ġfort une
Ġindu ced
ĠFranc is
Ġcere mony
Ġelectron ics
Ġdeleg ates
ĠPalestin ian
ĠBru ce
health y
ĠEvent ually
- gr
/ P
H ope
_ i
b urn
d ict
n ote
t d
Ġ æ
Ġd ive
Ġin ex
et e
ĠT el
ĠT itan
ra ctions
ĠC ON
ul ates
op ia
ĠW atson
Ġsu its
os itory
ĠR ating
red ict
ak h
Ġkn ocked
ult y
ne g
ect or
ĠAn ne
be it
Ġsign ing
az ines
Ġcontro ller
ĠAr thur
ik a
Ġdesign ing
Ġview ers
Ġair line
Ġdev oted
Ġcal cium
osp ital
gen eration
Ġur ine
sec urity
Ġteac hes
Ġtal ented
ĠMor gan
Ġmurd ered
ĠNaz i
Down load
Ġtraged y
akespe are
/ pro
F ield
W H
l arge
} ;Ċ
Ġ ion
Ġf ame
Ġm i
Ġd an
ar ity
Ġn u
Ġn ick
se mble
ĠT ok
ad i
am ination
ĠS ab
ation ally
Ġex tends
ĠW inter
ĠE X
ound ed
.. ."Ċ
Ġqu ad
Ġsp ine
Ġcar b
Ġcar riers
Ġmark er
ric ane
Ġterm in
As k
ĠCl in
Ġprom ising
che ster
Ġcamp us
ĠApp arently
ober t
Ġsus cept
Ġcat ast
Ġinvestig ated
AC K
Ġappreci ation
Ġsmart phone
ĠStud ents
agon ist
Ġsynt hesis
Ġpassion ate
Ġcoc onut
Ġsatell ites
Ġsurve ys
Fil ter
Ġanalys es
cyclop edia
L D
n om
u u
it ations
Ġb ent
Ġf lee
ar ound
Ġl ou
Ġn ap
et al
am el
ĠC art
il ateral
ĠW olf
ĠP ed
th ood
ĠH ur
ĠL ocal
ĠâĢ ¢
au x
Ġwho ever
âĢĿ )
Ġtw elve
Ġrec ession
Ġinc idents
be ing
ĠAl an
Ġdevelop ments
Ġtreat y
Ġfail ures
Ġenc rypt
Ġvol can
Ġstat istical
Ġtit led
ĠNe ither
-st ate
Ġdat abases
mark s
resp ons
New s
Ġnav igate
Ġyield s
ĠBro ok
Ġinstitution al
Ġaccommod ate
Ġdispl ays
abul ary
. V
. ui
C o
P aul
U ST
W orld
b ie
he res
om ain
Ġn od
Ġn ost
ll i
ĠB reak
um i
Ġr ays
ĠF ant
pt on
og y
og an
Ġad min
Ġgr ants
Ġsc ulpt
ĠHe y
Ġra p
ath on
ars er
Ġca ution
Ġdesign ated
Ġorgan isms
So cial
Ġpast e
ĠWar ren
Ġesc aped
Ġremind er
Ġroll s
Ġwitness es
col or
ĠFin ancial
claim ed
Ġarrange ment
Ġhoriz ontal
ĠTal iban
ĠSqu are
Ġvamp ire
Ġbrut al
Ġfranch ise
. set
M AN
d ney
g ree
h ill
Ġs lee
ic op
st d
Ġst ressed
ĠM ust
Âł G
ĠW onder
ĠE dd
og ram
Ġen act
ens ively
ord on
Ġbet a
Ġdif lucan
Ġrec overed
Ġchar ging
com mun
ĠRe agan
ivers ary
ĠLe ft
Ġmusic ians
ĠIm agine
Ġvot er
Ġcand y
Ġpark s
Ġrob ots
Ġsch olar
Ġclin ic
Ġquot ed
.j s
Ġshif ting
prot ected
ĠCase y
- O
B log
b ian
Ġp ad
Ġto dd
ĠT arget
od ine
ul ent
ĠH ong
ĠH unt
qu in
Ġch apters
ĠR os
ĠR ick
Ġle cture
ĠF uture
Ġj ava
Ġout rage
ip le
Ġper mitted
Ġsy mm
ian ces
Ġind ividually
uck ily
Ġtri v
Ġgame play
Ġsex y
Ġfoot age
Ġhost s
Not hing
ES S
Ġregul ated
ĠDav is
ĠEm ail
ĠJe an
Ġsac red
Ġamb ig
Ġdeliver ing
ĠCommun ist
Ġweakness es
ĠEngine ering
ĠPenn sylvania
Ġtestim ony
rapeut ic
z o
Ù ĳ
Ġf ats
Ġin ability
ĠA le
ĠH us
ĠG PS
ĠN ut
pl ane
Ġup s
Ġev olve
Ġover ly
Ġpr one
Ġbl own
ĠSt ories
ĠCh i
Ġdes erves
Ġgen ius
Ġatt raction
Ġinv ention
Ġprov isions
Ġmet ric
Ġcor ners
Ġsimilar ities
Ġtable t
ĠEd itor
ĠSim ple
Ġachieve ment
Ġanaly zed
Ġfarm ing
Ġang les
Ġqual ify
_d ata
Ġadvoc ate
Ġfle w
Ġjack et
Ġsurve illance
Ġmoist ure
Ġphotograph s
-part y
Ġclust ers
Ġrhet oric
( D
B ar
H ead
M us
W ind
` Ċ
b est
f ull
an ed
ic ations
as ive
ĠT ool
ĠThe ory
op ard
ĠE sc
oo f
ast ically
Ġout line
ĠO wn
Ġbl owing
ĠHe idi
ere r
ĠAn thony
Ġ[ [
Ġpot atoes
ĠBe aut
Ġsent iment
-p oint
Ġdeterm ines
Ġsens ory
Ġconv icted
Ġill usion
ĠFl ash
ĠHar vard
print s
Ġimpl ied
Me anwhile
En ter
Ġrelax ed
uls ion
Ġtruck s
ĠGold en
Ġoblig ations
Ġvent ure
ĠBlog ger
Ġdepart ments
Ġdisturb ing
ĠHaw ai
Ġspir its
Ġdeliber ately
# include
& rs
. K
M in
p ose
p ool
t imes
he ll
Ġb ark
Ġe ternal
ĠT otal
ad el
Ġby pass
Ġle ar
ĠF eng
oo oo
Ġar ter
Ġun lock
Ġ- --
oc ate
ĠHe brew
ĠSt op
Ġfl ies
Ġbel oved
ĠSo on
Ġgl ance
ĠIs a
St ar
Ġlight ly
17 7
Ġfre ed
ĠAll iance
Ġste aling
Sh ould
reg ular
Ex ample
Ġdemand ed
Ġ> >
Ġprem ise
Ġexplan ations
Ġkick ed
och ond
Ġgrav it
ĠBet ween
ĠAtt orney
oster one
ĠOlymp ics
Ġpresum ably
ĠColumb ia
&rs quo
I ST
S uper
h igh
{ R
Î ±
Ġh ood
om as
Ġg aze
am ents
ĠM aking
ers hip
Ġde ce
Ġv on
Ġal tered
ĠG DP
ĠE C
ĠN AT
ack ing
Ġcol ored
Ġcur iosity
Ġsmall est
Ġprof iles
Ġpolit ician
ĠBl ock
Ġbreak down
Ch apter
Ġess ays
Ġdam aging
Ġdom inated
ĠOb ject
Ġaren a
Ġens ures
Ġult ra
Ġcapt ain
Ġclick ing
Ġjournal ist
ij ing
Ġoptim ization
Ġhabit at
Ġspin ning
Ġsucceed ed
Ġintent ions
parent s
Ġpul se
Ġdeploy ed
Ġvel ocity
Ġamer ican
Ġmembr ane
Ġfoss il
. \
/ j
H H
S w
l en
Ġc ows
as ures
ct ive
ĠT enn
ĠB itcoin
ĠH o
qu es
Ġtr im
ĠJ D
Ġen light
Ġen abling
Ġco aches
ix ed
Ġpost er
Ġdi apers
Ġeconom ies
let te
Ġmag azines
Ġfund ed
ĠGr id
Ġtravel ed
.... ....
ĠCont act
Ġparticip ating
Ġstrength s
Ġresist ant
Ġmicro bi
def ault
Ġsatisf ying
Ġemp ower
Ġbeat en
ĠCount ry
Ġreserv es
ĠBas ically
Ġarr anged
Ġinvent ory
Ġdesper ately
Art icle
Ġstimul us
- way
H y
O B
u ci
it ories
Ġp s
Ġl ane
Ġg ast
im en
Ġfor b
Ġst ating
ur ate
ĠA B
ĠA mb
ol itan
ĠC e
Âł E
ĠP oly
ab olic
and ra
ĠG ene
ĠE vil
ĠL at
ac hers
ĠY ears
Ġper t
vel ength
Ġimp ul
Ġco e
Ġback s
ĠV erm
iss ance
Ġmod es
Ġins ure
be ging
Ġdist ances
Ġhead aches
ĠPro bably
pro cess
-f riendly
ĠFr an
Ġmor ph
Ġopt ical
ĠNot ice
ĠIm p
right arrow
reg on
Ġrespond ing
Ġsoul s
Gen er
UT C
Ġcert ified
Ġinteract ive
Ġwitness ed
ĠDiv ision
ĠÃĹ Ċ
Ġirre levant
ĠÂ» Ċ
Ġincl ined
beging roup
& D
- ed
F P
U LL
d ouble
p ic
s im
Ġs ized
Ġs isters
Ġp ant
an as
ĠT P
Ġst ared
ak y
ĠâĢ Ŀ
iz ational
Ġman uscript
Ġany time
Ġun con
ell ar
omet ers
Ġind irect
Ġwr ink
Ġgood ness
Ġins isted
It s
Ġart ic
Ġbo il
Ġmean ings
Ġclass ification
-s ized
oot ing
ploy ed
ĠBl u
ĠLe on
Ġimpro ves
Ġlab our
add le
Ġdocument ed
nes ota
à¥ Ģ
yl on
ĠRom ans
Ġfarm s
ĠVal ue
Ġaccident ally
Ġment ions
ĠLib ert
Ġgenuine ly
map sto
othe rapy
Ġtempor arily
/ g
D ER
P erson
S upp
r idge
w he
{ }
~ ~
Ġm igration
ar an
Ġg erm
ĠT s
ĠT our
Ġst unning
ĠS E
ĠS i
ĠC G
ĠB road
ĠP a
Ġv iable
Ġsh ar
ĠD ru
ens or
Ġsp am
Ġshe lf
Ġpo le
ish op
ĠAn aly
Ġgener ates
Ġart if
ug ar
Ġplace ment
Ġmind fulness
Ġlim iting
ĠFr ont
Ġsal ad
ene z
avor ite
Ġenjoy able
bo ards
Ġdel ayed
Ġlay ing
-w orld
ĠGu y
Ġpubl isher
Ġâ ī
Ġconsist ing
Ġtour ists
ĠCons erv
wr iter
Ġpurs uit
Gen eral
ĠTor ah
ĠNever theless
Ġalleged ly
Ġmerch ant
ĠMach ine
-cent ury
Ġlaund ry
+ )
/ v
S ystem
e em
er gy
Ġm elt
Ġd are
Ġd ign
Ġd airy
om al
ĠA my
ul ator
Ġr ushed
ĠR ap
ĠE mer
Ġpl aus
Ġpre y
end group
Ġear liest
Ġsince re
-d ate
Ġdev il
ĠMar vel
Ġconsum ing
Ġaff air
Ġrout es
Ġnut r
Ġinput s
Ġast hma
Ġpromot ed
Ġdial og
Ġmolec ule
ĠGovern or
oub ted
Ġreform s
Comm un
tw o
Ġanalog y
Ġalign ment
ĠPot ter
? )Ċ
C r
T ree
W ord
n ov
u pt
v ance
Ġb ubb
Ġf itting
Ġl y
ĠB rain
Ġr anges
ĠP ad
ĠD al
iz able
ach ment
ĠK y
ĠK elly
ph p
ĠAl aska
Ġgl ob
Ġsw ear
Ġorgan isations
Ġtreat s
25 6
Ġmiss ile
Ġabs ent
osp here
Ġblock chain
Ġfinan cing
ĠQu ick
Ġsell er
aur a
Pro ject
Ġspect acular
ĠSen ator
Ġcas inos
Ġtrig gered
Ġoccup ied
Ġbreast s
Ġchart s
Ġhighlight s
ĠVis ual
ĠMount ain
Ġinflamm atory
Ġsnaps hot
Aug ust
Ġcust ody
Ġfict ional
T erm
d ing
d ays
h as
p ical
Î ²
Ġ ]
Ġ ,Ċ
Ļ Ĥ
in is
Ġc attle
Ġm aj
ĠT ree
Ġu k
ad der
ur ated
ĠS orry
ra ining
ke eper
Ġde leted
us ions
Ġr ats
ĠH R
ĠR oss
ĠN ap
ĠJ am
Ġlike lihood
ip ro
Ġdis charge
Ġco h
10 9
Ġsur g
Ġsur ge
Ġprov es
ues e
Ġtrans cript
Ġdef ines
Ġmat ched
Ġopp osing
-d riven
Ġcell ular
ane an
empt y
ĠRuss ians
Ġfaith ful
Ġterror ists
irect ed
ĠJud ge
ĠVe gas
Ġimmun ity
orne ys
Ġpod cast
atern al
Ġacknowled ged
Ġcommod ity
Ġfart her
( ).
D aniel
F T
e z
f old
l ah
Ã §
it ics
Ġm ant
et o
ĠS pr
ĠS kin
ĠA ra
Ġan ten
ke e
ĠB E
ĠW oman
ĠR AM
Ġsp an
form ing
ade qu
Ġcons iders
pect ives
Ġcol ony
Ġexpl ored
Ġref und
Ġref uses
Ġappe aling
sh it
Ġdep ressed
Ġhalf way
Ġsens ors
Ġsens ible
Ġindic ation
ĠÂ §
ĠSte el
Ġpan c
ID S
Ġselect ing
Ġarri ves
Ġstick ing
Ġdisp os
ĠPC V
Ġconstit u
Ġsand wich
Ġattrib uted
Ġath lete
Ġmanip ulation
Ġnewsp apers
Ġancest ors
ĠMalays ia
Ġintu itive
Apr il
oubted ly
) =
B et
c ons
e enth
h ind
i ets
r ated
Ġt read
Ġp ist
ĠS ant
if iable
ĠM ail
Ġwas hed
ĠF eed
Ġj ourn
Ġso cially
ĠN iger
pl ant
ick en
Ġspe lling
ĠV in
Ġem ission
li ers
Ġstr anger
Ġins ist
Ġmark ers
less ness
Ġbo om
Ġdi agram
Ġfree ze
Ġprogram me
Ġtyp ing
Ġaccount able
cer pt
Ġtrad itionally
-l aw
ĠTe ch
Ġrespect ed
Ġinflu ential
Con text
Ġintrodu cing
Ġmer ge
Ġcast le
orge ous
Ġcalcul ations
Ġhyp ocr
ĠLaw s
Ġtrig gers
ĠAN Y
Â° C
Ġnurs ing
) ^
: \
C ome
C ustom
U E
_ mod
Ġo s
or ial
Ġm ate
Ġm aker
ig g
il ib
ĠB ase
ri ver
ĠD uke
un ctions
ĠR us
Ġle mon
Ġher itage
ĠK az
Ġsp here
Ġgr an
ons in
Ġback ing
ĠV oice
Ġfl ush
end ing
Ġprov in
Ġmod ification
Ġele ph
sc ript
17 9
ĠSe ason
Ġpast a
Ġsimilar ity
Ġinvestig ating
ograph ical
ias m
Ġsevere ly
Ġprotocol s
ĠPut in
Ġinev itably
Ġpipe line
Ġrend ered
Ġinsect s
Ð¿ Ð¿
Ġdescript ions
oen ix
- I
L ocal
Ġc ables
Ġb iblical
Ġh ij
Ġg ases
Ġwh ites
ĠC V
ĠC IA
ĠM as
Âł b
ĠW oo
Ġne arest
Ġsh y
ĠD ifferent
Ġch unk
Ġle ver
ĠG O
Ġacc us
Ġind ul
Ġtra gic
Ġinter val
Ġrep orters
Ġreal izing
Ġph osph
Ġtri ple
Ġorgan ism
Ġperform ances
sh ow
ĠLe ban
ĠNo ah
ĠMar c
Ġenc ounters
Ġfix ing
Ġrock et
hold er
ĠTra ining
Ġacqu isition
Ġpet ition
umm ies
Ġrot ation
ĠSing h
ĠAv oid
Up date
Ġclar ify
ĠGener ally
Ġtransp arency
Ġcous in
Ġtutor ial
Ġelig ible
- em
F ull
O s
S ur
_ type
g ate
z i
Ġp ause
al m
as is
Ġg em
ĠT oy
ver b
ur rency
ĠH istor
pp y
ain er
Ġj er
ĠV it
Ġmod est
Ġadv ances
Ġed itors
of fee
Ġris es
ĠBe ach
Ġself ish
unt ime
isc onsin
Ġclean ed
Ġharm ony
ĠÐ ²
Ġclos et
ĠEm ploy
Ġexecut ives
ĠAp pe
Ġstret ching
Ġtox ins
Ġexhib it
Ġmaxim ize
, s
/ B
C ode
R obert
U ntil
d i
g reat
h u
h ir
er d
as ma
Ġis lands
ĠC T
ĠB ag
ĠB illy
qu ad
Ġsu cc
ĠF ortunately
ĠE le
Ġco oper
ĠV ice
Ġinc on
rib ute
Ġsystem atic
ĠAl most
ĠSh akespeare
Ġorder ing
ann on
Ġcomb inations
ĠMan hattan
Ġmer cy
ĠTra ce
ĠLaw rence
ĠAv atar
ĠFore ign
Ġcontrad ict
Ġdevast ating
- head
P ros
V M
g us
Ġw ished
at ivity
Ġm esh
Ġto ken
Ġd ip
ic orn
Ġl over
Ġbe nd
ut il
ro log
ĠT ips
Ġu mb
ĠA y
ge ls
Ġ( Ċ
ĠH T
os als
ĠG un
Ġim pe
ep th
Ġher bs
Ġbu cket
Ġbr id
Ġbr oth
Ġgener ator
ĠRe qu
Ġcle ared
ok ers
Ġcou pled
Ġste ep
augh ters
Ġrele asing
Ġcourt esy
Ġregul ate
Ġflu oresc
Ġmount ed
Ġkid ney
Ġtim eline
Ġtight ly
Ob ama
Ġteen ager
cont ent
Ġadm its
Ġsubsc ription
Rep ort
ĠDown load
Ġvoc als
oty pes
Ġprospect s
ĠCast le
ĠLew is
Ġdia per
D D
b ury
i otic
l u
Ã ±
re ctions
Ġw anna
se en
Ġfor k
ĠB uff
Âł on
ust ral
ĠL iving
Ġun limited
ru it
Ġnow adays
Th rough
Ġhapp ily
Ġtrans cription
ps ilon
ank ing
Ġgl ue
Ġopp ose
Ġpot ato
Ġoper ated
Ġtre asure
Ġvar ied
ĠPh ilipp
IN E
ĠCar ter
Ġinflu en
ĠRes erve
Ġharm onic
Ġstrugg led
Ġencoura ges
Ġdemonstr ates
Ġworry ing
Ġphenomen a
TI ON
Ġdelic ate
ĠRet urn
Ġpix el
Ġcann ab
Ġvend ors
Ġtel esc
Ġcardi ovascular
% .Ċ
- as
N G
d em
Ġa ug
on el
Ġc el
ou ri
Ġm all
Ġd ining
Ġh ills
le ans
Ġn ails
ĠS ports
Ġhe ter
ul ously
ĠP ubl
ĠH erm
ie re
Ġout let
Ġcomp iler
ĠK erry
Ġgr ams
Ġsc roll
Ġrel ie
Ġcr ushed
Ġsl ice
ĠAn cient
Ġret reat
ric an
ĠBe ijing
ĠAll ah
Ġsuper hero
Ġcred ibility
Ġstat ute
iny l
Ġsecret ary
Ġcatch ing
ĠAM D
Ġdecre ases
Fr ank
Pr int
ĠMag azine
Ġelimin ated
ĠJim my
Ġfeat uring
ibl ings
Ġabsorb ed
grad ation
Ġvolunte er
hyd rate
Ġphilosoph ical
Ġmun icip
H L
M C
N on
W ow
h ad
m aster
he ld
Ġw aking
Ġb ast
Ġp iano
Ġm l
Ġand roid
om ous
st ore
Ġbe ats
ĠS r
Ġwe aker
ĠM arsh
Âł re
em et
qu al
Ġsu cks
Ġch ron
ĠF est
Ġwor ries
ĠG ary
ĠG race
ĠN ative
Ġpe e
Ġtw isted
Ġacc idents
Ġhel icop
Ġsm iling
Ġrem ed
10 6
Ġright eous
Ġsupp ress
Ġmet a
ĠAn na
ins ert
Ġhum ble
17 5
-m inded
Ġlog s
Ġlog in
Ġcomment ed
Ġpred omin
atter ing
ĠMin nesota
ett a
Ġpredict ions
Ġmagn et
ĠTrans port
Ġbelong ing
Ġdiam eter
Ġaward ed
Act ually
Ġagric ulture
Ġphotograp her
à¤¿ à¤
- Q
. net
2 25
> </
E X
F eb
J ul
M T
M ac
S ervice
[ ]
b ad
h r
Ġ ïģ
Ġt ourn
it ic
Ġin k
Ġn oun
ro lling
ĠA th
ter ior
ĠM L
Ġse aled
Ġex agger
ĠP ear
ain able
Ġch uck
ĠF an
ĠN ev
Ġte asp
ens ing
Ġinc ub
Ġlong est
lect ric
ex port
ret ty
Ġcle ans
Ġcreat or
Ġdeb ut
Ġdeb ts
Ġsn ake
ĠPr int
Ġvol umes
umb ling
Ġsepar ately
Ġsell s
Ġdefe nding
Ġcat aly
Ġcontain ers
Ġadapt ation
ĠSat an
- Z
A lex
B R
D ay
G P
N D
a que
k n
w oman
Â »
at form
Ġd ile
Ġn ail
ĠC ulture
ĠM os
em en
art s
ĠR av
ard o
Ġ" #
Ġad oles
Ġman kind
Ġsp okes
Ġspe nds
Ġimp ly
Ġimp ose
ob ject
Ġfl ights
Ġinv ari
cy cle
Ġmet rics
Ġdeal er
Ġstrong est
Ġsn ap
Ġsort ing
ĠSy dney
-w ing
Ġport folio
Ġcam ps
Ġprin cess
Ġce ase
ĠSim ply
Ġvirt ue
Se lect
Ġexpress ing
Ġadapt ed
ĠIran ian
Ġreven ge
Int erest
Col or
ĠTor onto
Ġshif ted
ï¼ Į
Ġcomprom ised
Ġinher ited
rend um
Ġchrom os
Ġgalax y
Ġaest hetic
econ omic
D et
R on
[ "
Ã º
Ġt v
Ġc ros
Ġn ud
ĠT her
Ġan ime
ĠP ick
ĠH P
Ġal igned
Ġab ol
Ġby te
ĠR h
ĠG P
ĠL arry
Ġint ra
Ġcont empl
ĠK ate
Ġam end
ĠCh all
Ġstart up
12 1
vern ment
Ġret ro
Ġshort age
Ġfore x
Ġdra gged
-m on
Ġneg lect
Ġstruct ured
Ġden ial
Ġcompl aining
Ġintegr ate
udd enly
Ġgar age
ĠRel ations
Ġinsp ire
Ġiniti atives
ĠMem ory
Ġadvoc ates
Ġnic otine
Ġclimb ing
Ġdownt own
Ġcurric ulum
$ $Ċ
. -
. H
S am
W ar
g ency
m t
m ph
Ã Ĺ
ä º
Ġp ier
al am
Ġd ot
Ġd un
Ġd well
if ully
ĠB irth
Ġex empt
ĠP L
ĠP ast
ĠH E
qu ery
ĠN P
our cing
ĠJ ess
Ġun belie
Ġsc attered
Ġsc andal
lic ia
10 4
Ġreal ised
ix on
ĠQ i
over ing
-p erson
ĠAd vent
ĠIm per
ĠEd ition
Ġoption al
ĠInt egr
Ġmer ger
à¥ ĭ
ĠPat ri
ĠUp on
Ġteen agers
Ġsmell s
Ġsynt ax
_p ath
UR L
Ġincorpor ated
ĠAG N
ĠSwed en
ĠHarr is
( p
4 50
C ould
P ublished
g am
m ake
Ã £
in it
Ġc ents
it us
Ġb ru
Ġd y
Ġre jection
ut t
ig ion
Ġas c
qu ence
Ġso y
ĠE ye
ĠN at
ĠN ats
ĠO regon
so ever
ĠY u
Ġover d
Ġbl ade
Ġdes irable
ange l
ert o
Ġexp ed
Ġmon op
Ġdisc rimin
ier ra
Ġpresent ing
ĠCon c
ĠPr im
Ġmodel ing
Ġfast est
With out
Ġflu ct
ĠGet ting
Ġalbum s
Ġpoll s
Ġhur ts
Ġingred ient
Ġbull ying
Te chn
Ġscan ning
Ġconcentr ated
Ġchamp ion
Ġpix els
may be
ĠBid en
Ġjew el
7 50
; s
D R
L atest
l ambda
Ġ Ñ
Ġw ipe
Ġc ipro
Ġm erc
Ġd ash
ĠA BC
ir s
ol as
Ġse am
ri ber
ri ors
ĠP ain
Ġsh ru
ĠD or
ĠN i
ĠN BA
ĠL aden
ag ain
ud ed
ass ador
ple asant
Ġsomet ime
Ġear ning
Ġca ut
ĠIs n
Ġconf ess
Ġdr ift
Ġdem o
Ġoper ates
Ġste pping
Ġpred iction
Ex pl
rit ical
ĠMin istry
Ġband width
Ġcho oses
ĠAut o
Ġutil ized
Ġsusp icious
long mapsto
Ġfort un
Ġru ins
ĠTy ler
Ġmac ro
Ġprosec ution
Ġpra ise
ĠNob ody
-or ient
Ġmim ic
flamm atory
Ġaffe ction
ilib rium
/ her
< T
K ing
L ove
P od
a ft
a eda
b n
b ourne
d ess
m itting
s ur
Ġ verse
Ġw ires
Ġf usion
le nd
am iliar
ke ep
Ġcon ve
ĠM all
ĠW iki
Ġsu ited
ĠD est
Ġgo ver
Ġj am
Ġcl ay
Ġun ited
Ġdis m
cl ipse
te x
ren al
Ġwr ist
Ġtra ct
iss a
Ġsub urb
Ġcount ed
Ġdisc ourse
ah r
Ġgl uten
Ġtri umph
Ġappe aring
Ġve t
Ġmethod ology
Ġvari eties
Ġill um
Ġguess ing
ĠSpe ed
ĠAut om
Ġsufficient ly
ĠScott ish
Ġcoord inates
Ġfool ish
Ġarr ays
Ġmit ochond
Ġincent ives
Ġobst acles
Ġinqu iry
Ġcollaps ed
Ġanx ious
" >Ċ
- an
- op
. W
. a
. ),
P ub
b oth
b ird
t able
Ñ Į
es se
en ch
st ruction
ĠI l
ĠS alt
ĠC L
ĠP E
ĠP ath
ĠP ersonal
ĠH ig
Ġdo ses
qu is
ĠD ise
ĠF ollow
ĠF ollowing
Ġk g
ĠG host
act ly
Ġdis comfort
Ġper sec
Ġunder go
Ġob esity
Ġhand les
Ġdi ets
-s ide
Ġloc ate
erc ise
Ġpack ing
Ã© s
Ġexcept ional
ĠCent re
tr ue
ĠStud io
Gr id
Ġunw anted
Ġpron ounced
Ġneurop athy
enez uel
( A
L ine
M em
P E
P ath
n ia
á ¹
in v
Ġo un
Ġo we
Ġo ste
Ġb ree
or us
Ġf are
Ġf ighter
Ġh ind
Ġy og
ĠT aking
Ġwh oles
op athy
ess ert
ĠW y
Ġr ated
Ġr ug
ĠP ent
Ġv om
Ġch ill
Ġch ase
ĠF ast
ac cept
ĠJ ere
ĠJ upiter
Ġam bit
Ġgu ided
Ġaw ards
Ġcar pet
Ġi odine
ĠAl ban
Ġmus h
Ġquestion ing
ĠRep resent
de velop
Ġdefin itive
Ġball ot
Ġtravel s
Ġaff irm
Ġdecl ined
Ġcompl iment
Ġmer it
Ġgreen house
Ġcommand er
Ġcivil ian
Ġcelebr ation
ĠBel ow
Ġtow el
Ġspell s
ĠBudd h
Ġwithdraw al
ĠZe aland
Ġentreprene urs
Ġhed ge
1 12
D ev
N ov
T otal
m aker
y y
Ġt oug
Ġt ales
Ġa in
Ġa rom
Ġo ct
Ġb od
Ġb ail
en ame
ing o
Ġl obby
ĠS M
Ġde gradation
Ġex ert
res ult
Ġal umin
ĠG ent
ĠE D
ĠL iter
ĠO ak
Ġup side
Ġun common
ĠK han
Ġpre cip
Ġra bb
10 3
Th us
Ġsec ured
Ġmet als
Ġret ention
ĠFor um
-s p
ĠAr ts
port ed
Ġnight mare
Ġpract iced
Ġtrad ers
Ġrad ar
de b
Ġann ually
Ġsun k
Ġindic ator
Ġsix th
ĠAct ive
with out
Ġmid night
Ġelement ary
Ġrul er
do ors
ĠLog o
Ġsynt hetic
Ñģ ÑĤ
Ġsubstant ially
Ġperman ently
Ġremem bers
Ġdepart ure
Ġadministr ative
Ġenthus iasm
Ġshout ed
Ġdismiss ed
Ġinequ ality
( C
/ H
? '
D em
S uch
m ma
v are
× ķ
Ġs ins
Ġs perm
Ġf auc
Ġl aughter
ad ata
ĠC ST
ĠM E
ore n
ĠW isconsin
ĠP ap
ĠF if
Ġgo at
ĠG il
ĠL uther
ĠO ption
ĠJ oy
Ġwhat soever
Ġend orse
Ġpres erved
Ġass ure
Ġexp on
Ġbo ots
uck ed
Ġcare ers
Ġadv ise
ĠDe cl
Ġview er
ĠTr ad
Ġpot ent
-t r
Ġwa velength
Ġvari ant
Ġsn ack
Ġcrit ique
Ġsqu ad
Ġliter al
Ġpositive ly
Ġdeli vers
Ġamaz ed
Ġwild life
Ġid iot
ĠÃ ¢
ĠRob in
Ġje alous
burg h
cd ot
Ġvolunte ers
Ġsle pt
Ġhier archy
ĠSaf ety
Ġrefres hing
Ġhypert ension
- me
E nd
E nt
G H
J ames
J une
m ain
s er
w o
on est
at he
Ġb ounce
an im
al o
ll ers
ut ers
ĠT ru
ce ans
ĠS ame
ul ing
ĠM and
ĠM obile
ĠP il
ĠH ospital
ĠF em
Ġdis abilities
ĠK ent
ĠK ino
ĠCh oose
Ġfl ux
Ġrel ates
In c
Ġrest ored
bs ite
Ġsw ift
Ġinvest or
Ġconsider ations
plic ation
plic ity
Ġanim ated
Ġprop ri
ON Y
Ġhost ed
Ġhost ile
ĠMo z
Ġadm ire
Ġiniti ated
Ġrig id
Ġmand atory
Ġflav ors
I X
M ult
N Y
S H
m ate
m aking
s up
s uper
v ic
Ã ł
Ð ·
Ù Ĥ
å ı
Ġt ennis
re lla
on er
es see
Ġf el
Ġn ause
Ġe ld
Ġg i
se x
ĠT ed
Ġst oring
ch ildren
Ġde er
Ġde ployment
ĠB L
ĠB io
Ġsu cked
ĠE mb
ĠN C
ĠL ex
ĠL isa
are t
Ġcomp ile
Ġun st
Ġag gression
ne um
Ġoff set
Ġsc rap
Ġam endment
ĠHe aven
ĠSt ars
Ġsy rup
Ġind igenous
Ġpers istent
Ġpers pectives
Ġph ases
Ġins pection
Ġfin ishing
pr ising
Ġcomple tion
Ġgl ow
Ġorgan izational
Ġperform s
Ġfore head
Ġwar rior
Ġdest ructive
Ġann iversary
ĠTe le
Ġstri ps
Ġrecommend ation
uk i
Ġdisp osal
Ġadjust ments
ĠNet her
import ant
Ġthread s
ĠMag ic
Every thing
-on ly
ĠBob by
Ġprohib ited
Christ ian
Ġveter an
******** ********
Ġtherap ist
Lear n
Ġdiscont in
C opyright
M c
M icro
P ublic
_ H
f in
Ġ ip
Ġin adequ
Ġg orgeous
ce nding
if iers
ĠM B
qu arters
ĠD ays
Ġch airs
ac re
20 3
ĠY uma
ond a
Ġbet s
Ġsc ored
ĠHe at
Ġtw in
Ġtw ent
hen g
Ġke en
ph i
Ġdec omp
Ġval ve
Ġval ley
Ġlast ed
io let
Ġdr ill
by e
pro duct
Ġdeb ates
ĠAd ams
ĠEn c
OR D
Ġcondition ing
ĠBar ry
ĠPol and
ipp et
Ġast on
Ġstream s
IM E
Ġnegot iate
ĠMary land
Ġrank ing
Ġtum ors
Ġje ans
Ġinsert ed
Ġwound ed
Ġantib iotics
ĠMot or
ĠBarb ara
ĠProte ction
Ġaccord ance
Ġelabor ate
Ġhilar ious
Ġsurg ical
- play
/ R
: )Ċ
E p
P ut
b ag
f ess
g ence
l ate
at ers
Ġth igh
id y
ĠC os
Ġwas ted
Ġor che
us hes
ri ved
th ritis
ĠR oom
ĠE V
Ġli b
Ġqu eries
ber ries
ne x
ne ed
Ġrel ating
Ġrem edy
ph abet
Ġcol ours
read ing
Ġexp ose
Ġap pend
-s ize
ential s
ĠOr leans
Ch ris
Ġcomb ining
Ġrisk y
Ġsubject ive
AN T
Ġdiv isions
Ġcool er
Ġpubl ishers
off s
agn etic
aur us
Ġflu or
Ġmanufact ured
Ġpredict able
Ġwat ches
Ġcelebr ity
Ġconserv atives
ĠIraq i
Ġdial ect
Ġreven ues
Ġreserv oir
Ġvacc ines
Ġadvent ures
ĠStr ong
ĠSu ccess
Ġarrange ments
Ġregist ration
Ġnurs es
ĠBow l
Ġsear ched
Ġmart ial
iag ra
Ġspat ial
Ġschem es
Answ er
lah oma
Ġambit ious
B ased
K ind
W atch
_ to
e u
f oot
Ġ ``
Ġt weet
Ġg it
ot ox
if i
ĠP el
Ġcan vas
Ġsh ine
ĠD E
ĠD im
all ic
Ġun pleasant
Ġdon or
ĠV irtual
Ġcons cience
hed ral
Ġrel ies
Ġinter ven
Ġsim ulation
Ġgu ides
Ġsur geon
ĠUn it
Ġgovern ance
Ġfree zing
ann ah
ĠCon ference
de g
-l ooking
Ġport ions
vent ions
Ġcat alog
ĠCont in
ĠGerm ans
ĠCent ury
Ġassum es
Ġmid st
ĠSw iss
Ġkid n
Ġforg ive
?? ?
Ġutil izing
Ġelimin ating
Ġchair man
ĠTre asury
ĠArch ives
ĠFore st
ĠProp het
ĠTreat y
iox id
Ġanticip ated
Oct ober
ĠLen in
" No
$ $
( ),
J o
T oo
V ideo
a iting
c od
g ia
k now
w estern
Ø ©
Ġa ver
he imer
Ġw ounds
Ġc ens
Ġc ove
st ration
ĠT an
ĠS ound
ĠC ars
ĠB arn
Ġr ude
ĠH appy
ant om
ĠE VER
ĠJ obs
Ġfe as
Ġdis like
Ġsp inal
ang ular
Ġsc are
Ġsc oring
Ġfl ame
iss ipp
10 7
Ġatt orneys
ced ented
ins ic
Ġart work
Ġimport ed
err anean
Ġequ als
Ġfar mer
ĠBe ck
ĠEx press
Ġphys icians
ER S
ÂłÂłÂłÂł ÂłÂłÂł
Ġprop osals
Wh ite
Ġmach inery
Ġaff ili
Ġmis leading
Ġcapital ist
Ġsequ el
ĠSm art
Ġearth qu
Ġcivil ians
Ġble w
stitution al
Every one
ĠCam bridge
ĠCam eron
Ġshock ing
Ġrank ed
Ġcab inet
Over all
Em ail
Ġrefe rendum
Ġcompr ised
ĠOrgan ization
ĠConf ed
Ġjourn als
V ec
h ag
i pt
in ator
Ġs iblings
Ġc bd
Ġp ussy
Ġto ll
ĠI R
Ġst ance
ĠS ite
if ference
ke nds
ĠC ert
ĠW ow
ment ioned
and om
ĠR ice
ĠG ard
Ġcomp iled
Ġsa ves
Ġgr ades
Ġpo ker
Ġtra ins
Ġcr ude
Ġsupp lied
Ġstr angers
Ġpres idency
Ġnever theless
Ġcontin ent
Ġbas ement
ĠChrist opher
Ġsqu ir
sequ ently
mm m
Ġrepe ating
Ġund oubtedly
ĠAny thing
Ġtour ist
Ġsurround ings
Ġresearc her
-sh aped
Ġsimpl est
Ġsan ct
Ġtoler ate
Ġrein force
Ġexplo it
Ġvoc abulary
Ġincom plete
Ġresident ial
Hel p
Ġpreval ent
thod ox
Resp onse
) ?Ċ
, [
- ey
A meric
S er
W A
f a
j amin
r ish
æ ľ
Ġt urt
it ives
Ġb atch
Ġp ap
Ġm ock
Ġin clusion
Ġh ips
Ġl iv
Ġl ag
st ock
ot on
ĠA licia
Ġan ts
ol oft
ul u
ĠM orr
ĠF el
ĠF unction
all as
ĠE instein
Ġout fit
Ġen comp
ĠK id
we b
Ġco aching
ĠCh annel
Ġthr one
Ġsy ll
Ġfl aws
ason able
Ġcur rencies
Ġlist ing
Ġpop corn
Ġquestion ed
Ġwar mer
Ġcustom s
Ġcal orie
24 0
ĠRes ults
Ġfeed s
ĠSte fan
Ġappropri ately
Ġadjust ment
Ġcelebr ated
Ġyell ed
Ġlegisl ative
rie ved
Ġlic ensed
ĠEv olution
Ġsli pped
Ġtheat re
Ġfib ers
Ġvend or
Ġapolog ize
ĠFriend s
Ġbankrupt cy
Ġreluct ant
itzer land
Ġjurisd iction
Ġsuscept ible
emet ery
" This
- \
P ower
T unes
_ L
e g
w orm
Ġt ile
Ġc ared
Ġp osed
Ġh ints
Ġl ined
ent ions
ĠT un
ĠM ort
ĠM ade
ist ered
th al
ĠO pp
ac cess
Ġad mission
Ġwork force
ĠK ings
ens itive
ove l
ĠSt ra
ĠSt orm
Ġbu cks
ock et
Ġcar bs
rop y
Ġdr one
ĠDe an
Ġarg u
Ġsuper f
ĠSc he
Ġsum mon
Ġcy l
Un like
Ġsympt om
Ġshall ow
anc ers
OM E
Ġsymb olic
ĠIS IS
Ġque ue
II I
ĠCreat ive
ĠAdv anced
Ġtub es
ĠCurrent ly
Ġzomb ie
Ġrou ter
Ġlone ly
Ġfrank ly
. Get
D E
H appy
c ourse
m ill
v s
Â ´
ä »
ç ļ
Ġt s
es la
Ġf ierce
an ol
Ġin appropriate
om ers
Ġl itter
Ġwe ars
ĠC ris
ĠM ight
ĠB uck
ĠB uilding
us c
ĠP ant
Ġsu g
Ġle ap
ĠL es
Ġres ent
Ġsp o
Ġam id
ob i
Ġdon ations
Ġem pir
ĠWe ight
Ġcr ust
up y
ef its
Ġprov ing
Ġins pect
Ġkind ness
Ġcost ume
ĠInd ividual
Ġelect rons
Ġwar fare
He alth
Ġimm ers
Ġprotect s
AN K
() );Ċ
stit utes
ĠMed it
Ar g
Ġda wn
Ġdoub ts
opt ion
Ġtour ism
Ġsad ly
Ġnumer ical
Ġtom atoes
ĠAnge l
Ġparagraph s
Ġrefe ren
Ġfundament ally
ĠNAT O
& #
) ?
G S
R ich
T ry
n ik
r us
r iction
z ero
Ġb olt
Ġm s
Ġto mb
Ġd war
le arn
Ġn urt
Ġre lying
ro it
id get
ĠT ommy
Ġu l
am ic
ĠS ent
ĠS amsung
ra ise
ĠC opyright
ĠB ure
Âł As
Ġr h
ĠP enny
th row
Ġdo i
ain ts
ain ted
ĠR ule
Ġint eger
Ġfe ather
int o
ick et
Ġapp l
Ġapp les
Ġtra ff
Ġac ne
pr ises
11 5
Ġsupport ive
ĠBe gin
Ġ| |
Ġpress ures
plic a
Ġenc oding
ĠĠĠĠĠĠĠĠ ĠĠĠ
Ġremember ing
Ġsat urated
Is rael
ĠNe il
Ġter rain
ĠSov iets
Ġsynt hes
ĠHam ilton
Ġpharm aceutical
ĠÙ Ī
ĠNik ki
Ġdigest ive
Ġintermedi ate
Ġtriv ial
- app
. *
N T
h op
h ile
l ass
r ors
v ol
w ould
Î ½
Ġw olf
Ġp itc
Ġto es
Ġh ay
Ġbe e
im g
Ġhe x
Ġhe ated
ir i
ol ph
il itation
ĠM aine
Ġwas ting
Ġnot ably
Ġat om
ĠH ou
un ct
ĠG ab
ĠG ordon
ĠL as
ĠO pt
Ġpe el
ĠY an
Ġwork shop
int age
Ġbl ah
Ġsur render
Ġhapp ier
Ġcar n
arm ed
Ġfil ing
Ġsocial ist
Ġsn acks
Ġpath way
olute ly
ram id
Ġprior ities
ĠGl ad
Ġremain der
Ġtrain er
Ġconstit ute
Ùİ Ø§
gu ard
ÂłÂłÂłÂłÂłÂłÂłÂł Âł
Ġguarant ees
ĠBel g
Ġemphas ize
ÑĢ Ð°
ĠTest ament
Ġprosec utor
Ġnic he
Ġexhaust ed
Ġprejud ice
ĠIndones ia
ĠTok yo
issipp i
çļ Ħ
" There
% d
- Ch
/ A
2 10
D NA
G reen
P ort
V er
k it
n ings
Ġt in
Ġthe rapeutic
or ate
Ġth irst
Ġl ig
ĠI an
Ġg auge
ĠT itle
Ġfor ums
Ġwh ist
ĠC ape
ĠM it
âĢĻ .Ċ
ĠB eth
us ers
ĠP P
Ġch rist
Ġab used
ĠR ules
ĠR PG
ĠE lement
Ġpl un
ous ing
og g
ĠJ en
act iv
ib e
ĠK il
Ġnew born
Ġback ward
Ġra id
Ġinter pre
ĠWe re
ought s
Ġpass ages
Ġ\ (\
ĠUS SR
Ġcap ac
Ġelect oral
Ġenc ryption
verse ly
Ġsort ed
Ġrad ius
40 1
Ġdeterm in
ĠHis pan
Ġdig ging
Ġimag ery
Ġcorrect ed
Ġswe lling
Ġjud ging
Ġconcept ion
Ġnational ism
ĠRes ources
AC T
ĠComp an
ĠCo oper
Ġnotice able
Ġter ribly
ĠIndian a
Ġstim ulate
Rec ent
Ġsyn c
ĠPlan et
Ġintention ally
IG HT
ĠLear n
Ġfert il
Ġentreprene ur
ĠGuard ian
Ġtaxp ayers
Ġinterfe re
Ġprolong ed
ĠTai wan
" Oh
U M
_ start
b ig
he nd
re ll
Ġw are
ow se
Ġthat s
ĠT asha
ĠC S
pe at
ĠB ir
Âł What
Âł by
ĠP ope
ĠD ak
ĠL LC
Ġint imate
Ġfe ared
Ġcont end
du ctor
cess ion
Ġob ey
Ġexam ining
Ġdisc rete
arm ing
Ġel astic
St op
Ġbas eline
sh ore
Ġsuper natural
back ground
Ġdevelopment al
Ġcard iac
Ġri p
ĠÂ ·
Ġoccur rence
ĠGo ing
Ġstar ter
Ġmill enn
IC E
Ġminor ities
ĠSen ior
Ġatmosp heric
Ġrelax ing
Ġnom ination
Ġtrib al
ĠSat urn
Ġdistingu ished
Ġmemor able
Ġsurviv ors
ĠDie go
Ġfu els
Ġeleg ant
ĠTenn essee
' S
. ap
D S
D a
e er
e cess
i ated
t ail
v ens
Ð ¹
Ġs arc
is ive
Ġp iv
Ġl uc
Ġl ymph
ĠS L
ĠM ercury
ĠB eng
um bs
ign ant
ood s
Ġsec urities
Ġdifferent iation
com mit
Ġdet er
Ġsk i
Ġbo iling
Ġpat ches
St ream
Ġlight ning
Ġlow ered
Ġ+ =
Ġrece iver
NA L
Ġlo ops
ĠPh one
Ġobs essed
Ġcompet ent
Ġhot els
Ġdecl aration
ĠNe g
ĠAre a
ĠEm peror
Ġcommer ce
Ġdistinct ive
rep resent
Ġcoord inate
Ġremote ly
Ġpuzz les
ĠTurn er
Ġmas ters
Ġconfront ed
ĠBudd ha
roph ic
Ġcryst al
ĠBat man
Ġtrave lling
Ġcreep y
Ġunpre cedented
Ġplaus ible
Ġgover ning
ĠMedit erranean
- ass
. :
A K
N N
T ell
b ound
f ound
n is
t ically
Å į
Ġt ones
in ning
Ġf ried
Ġf oster
Ġp ine
Ġp ione
Ġm uc
Ġd ick
Ġd amp
Ġd aughters
ĠI BM
Ġg ospel
ra cle
ĠC OM
Ġor b
ĠH ait
Ġsh ark
ĠD B
ĠD J
ĠD iet
ĠD anny
ĠF I
ĠF ra
Ġk ings
ĠE P
ĠE aster
ĠN HS
ĠL am
ĠO d
Ġim bal
Ġcl ues
ĠK u
ĠK ur
Ġbl essed
Ġdon ation
ĠV enezuel
Ġsim ulations
Th ings
Ġaw aken
Ġins ufficient
Ġrun ner
oad ing
sh ot
Ġz ip
Ġactiv ate
Ġdiscuss es
ĠPr in
Ġprop osition
Ġground ing
ze ch
Ġdark er
Ġstress ful
Ġdistrib ute
Ġgrand parents
ĠSw itzerland
Get ting
ĠUp date
Ġcrowd ed
Ġauthentic ity
Look ing
Ġampl itude
ĠHope fully
oven ant
ĠUt ah
ĠScript ure
Ġappet ite
_mod ules
" That
. i
. ).
2 30
D am
T itle
j ack
m ade
x it
Ġw ard
Ġb ikes
Ġf ract
Ġp ins
Ġp ipes
an che
le ys
ig hing
ch air
ĠS olar
ol an
ĠC ool
ill ery
Ġat omic
em p
ight ing
ĠF OR
iv ic
ĠJ ob
Ġjust ification
oc ated
Ġsp otted
we alth
fore st
ty pes
Ġlot tery
con text
12 2
Ġbelie vers
Ġref ined
ik o
ĠCl imate
Ġprot otype
à¤ ¨
17 6
ĠEx cept
Ġwin ners
Ġkey word
-l ong
ĠTe a
oin ter
just ice
By te
## #
Ġnegative ly
Ġmut ation
ĠStud ent
ĠAnt i
Ġdownload ed
ĠSing le
Ġinteract ing
Ġcolon ies
ĠElect ric
Ġretail ers
Ġmetab olic
Ġconfirm ation
ĠLouis iana
Ġabund ant
Ġcondem n
Ġadj acent
Ġpup ils
Ġinhabit ants
D B
S ite
S omething
b as
Ġb acon
an ne
Ġd essert
om at
ĠI RS
ro le
ol k
ĠC ertainly
ĠB aker
us ually
Ġcan cel
Ġsu ng
ĠG ot
ud son
Ġout right
ĠJ i
au er
ap ital
Ġun healthy
own er
Ġdis gu
cl er
ĠSt ation
ĠSt ri
hy dro
Ġinc ap
li ver
Ġaw hile
Ġgot ta
Ġdevelop s
ari able
Ġnon etheless
Ġtrad ed
Ġsuper visor
Ġsn akes
urope an
ĠEurope ans
ĠPh oenix
Ġenjoy ment
AT ION
Sh ort
ommend ed
Ġjud icial
Ġdead line
ĠGen esis
ĠSte wart
AC E
Ġmeant ime
ĠCr ime
Ġded uct
ĠLog an
ĠReg ardless
Ġpros pective
wr itten
Ġbull shit
App le
Ġsyn chron
Ġoverwhel med
Ġinspir ing
there um
Ġox ide
tra ck
Ge orge
Ġreprodu ce
ĠComm and
ĠCra ig
ĠWalk er
"" "Ċ
Ġsquee ze
Ġrif le
Ġunh appy
Ġnutr itional
Ġteasp oon
, ,
. k
D C
D ig
^ \
e on
g irl
o qu
p hy
r ational
s um
Ļ ×
Ġb ang
Ġb aked
Ġf og
Ġp ars
Ġd ated
Ġl ingu
ĠI owa
ut er
ur red
ĠC itiz
il ight
ge nder
em ail
nt ario
Ġal beit
ort ions
Ġint ric
our ge
Ġtheir s
Ġar ises
Ġres ign
Ġsa iling
Ġper f
ren a
Ġob l
Ġob taining
Ġreg ression
ax is
Ġcomple ting
ĠCom plete
uff le
Ġlearn ers
Ġmar ine
Ġmar vel
Ġinf ra
Ġquick er
Ġdeb ug
unt u
val id
head s
bl ack
bl ue
Ġver bal
mpt oms
Get ty
Ġdetect ive
ĠOver all
ĠÎ ±
mar gin
Ġstim ulation
Ġextract ed
Ġillustr ate
Ġgall ery
>T arget
Ġdent ist
Ġgalax ies
ĠPortug al
ĠJenn ifer
vare psilon
. Add
/ re
F alse
Q U
T obias
b uild
e or
o ffic
r ows
u er
Ġt an
Ġp orts
ve t
Ġbe an
ot hing
ĠA ges
ter ing
ĠM aj
ĠB ear
Ġcom ed
Ġex cluded
ĠW i
ab els
ĠH oll
ĠR T
ĠE c
ĠE z
ĠN ar
Ġint act
ĠO P
Ġen rich
iz oph
Ġcl o
Ġev ac
ass ert
ĠY oga
ĠIn side
sel s
Ġreal ities
ĠRe ed
Ġval ued
Ġsign aling
Ġcle aring
Ġgl aci
16 5
16 8
-c ons
Ġexpect s
Ġz e
Ġsever ity
Ġcolle ctions
Ġnews letter
Ġfac ulty
ĠGr ant
Ġstat ue
RE E
Ġviol ations
26 5
Ġhon our
Ġinstall ing
rit ers
ĠPre p
Ġprint s
Ġmicro phone
iam ond
Ad v
Ġhousehold s
Ġpharm ac
Ġindu ction
Ġwal let
Ġcos mic
ĠPet e
Ġhun ter
Ġghost s
Ġjun ior
Ġexch anges
Ġrecip ient
ryst al
ĠTurk ish
" A
. F
D el
c ar
e an
s a
t ml
v olution
Ġa pert
he im
Ġw iki
at ical
it ol
Ġf isher
Ġl act
im ity
Ġu b
ch ild
ĠS SD
Ġhe ck
Ġwe ld
op hy
ĠW right
ĠP aper
ĠD j
ĠR F
ĠR ate
ĠF ried
ĠG ate
Ġpo op
ĠSt alin
Ġlook up
ific ant
Ġtra ces
ĠRe y
ĠWh it
Ġbre ach
Ġcertain ty
sh ine
Ġident ifies
ĠCon vention
ĠEx amples
** *
Al tern
Ġdom inate
Ġeduc ate
set t
Ġill ustration
Ġball oon
ĠSte ven
Com merce
Ġsam pling
Ġunf old
ĠLike wise
Ġcast ing
-r ich
Ġpurs uing
ĠCle an
Ġment ality
ĠâĢ¦ Ċ
Ġproceed ings
ĠTre k
Ġdisappoint ment
Ġillness es
ãĢ Ĥ
Mod el
Ġsymp athetic
ĠLink ed
-ind uced
hydr ates
Ġcounterpart s
Ġargu ably
izoph ren
( m
. O
A X
F our
O G
S an
S un
a cious
d rop
Â Ĵ
Ġs ighed
en c
Ġd ude
st ract
Ġbe es
ig m
ĠS oul
ill o
ĠB alt
Âł or
Âł as
Ġpro se
ĠW ales
ĠW ait
ĠH om
Ġch im
ĠR at
Ġj umps
Ġint oler
Ġout doors
ass ium
ĠK rist
ick y
Ġpr ince
gr ass
ec hes
In tern
rib utes
Ġsupp liers
Ġchar m
Ġ[ ]
Ġhard est
ĠAr ray
ĠBr ady
Ġcommun al
ĠSe ven
Ġz oloft
Ġactiv ists
Ġyoung est
Ġbi ased
Ġworth while
ĠApp lication
Ġstri ve
ĠPer formance
Ġsurv iving
Ġbud dy
Ġinvestig ations
ĠÐ ½
Ph il
Ġarri ving
Ġtal ents
Ġvill ages
Ġstret ched
Wr itten
Ġmanip ulate
Ġprompt ed
Ġdepos its
Ġdies el
Ġrenew able
Ġdeliber ate
Ġrefrig erator
ĠArgent ina
Ġtodd ler
- comp
E lement
N ational
_ S
m ont
Ġa ven
Ġc hess
Ġb oun
en v
Ġth under
Ġh ates
Ġl os
Ġl ump
Ġg aps
ot te
ĠS ave
ĠC ay
ĠC ond
Ġ( *
Âł l
em ade
ĠH or
ĠH ulk
ĠD rive
ĠD rug
Ġpl ural
Ġcomp ly
Ġdis reg
int ed
Ġsp awn
ail and
Ġeven ly
Ġhel met
Ġinter vals
Ġinter faces
Ġmod ifications
Ġmin eral
Ġlast s
Ġsk etch
Ġspec ulation
Ġref using
ĠBr un
13 5
Ġdem ographic
-d o
Ġant ioxid
Ġhy pe
Ġdefin ite
-w ide
Ġmis con
Ġexerc ising
Ġur l
Ġstick y
yl an
Ġwilling ness
-g ame
_s ize
ĠWork ing
boy s
Ġcoc aine
ĠPhys ics
Ġtrop ical
Ġflaw ed
Ġye ast
ĠPortug uese
hav ior
Ġmiser able
Ġdign ity
ĠNev ada
-orient ed
! ).
' );Ċ
- right
H arry
c over
g rav
n or
v ity
Î º
Ġt il
he et
Ġw iped
Ġo ceans
Ġm a
Ġto e
Ġd ub
Ġh obby
ot ics
et ra
im edia
ĠA ward
Ġwe ed
ĠM ong
ĠM uh
ĠB ec
Âł When
ri en
ri ages
ĠP ic
qu ot
res pect
ĠF ear
ĠL ost
ĠO NE
ep rom
ib bean
ount ain
Ġbl o
Ġbl ows
Ġbl amed
Ġcur se
Ġserv ants
Ġpost ure
Ġhead er
Ġcent ered
Ġbit ch
ĠDe pending
Ġequ ilibrium
Ġsing ular
There fore
-f ive
âĢľ It
Ġfore most
Ġfre ak
ĠLe o
Ġface book
ĠSp ot
Ġmention ing
Ġdig its
Ġpath ways
Ġstri pped
Ġrecommend s
Ġri pped
light s
Ġobserv ing
Ġfra g
^{ \
Ġuns afe
IV E
Ġhur ry
Ġsmooth ly
ĠSa fe
Ġcher ry
Ġsymp athy
Ġdefic iency
Ġlegend ary
Des ign
ĠOk lahoma
Ġrepet itive
Ġdatas et
Ġrebell ion
Ġencrypt ed
Ã£ o
" ;
B ay
B inding
F ollowing
O ld
d ist
n um
p u
p us
Ġc ater
Ġl id
Ġn in
ĠT ower
Ġst ole
Ġst ubb
ĠA qu
ĠM oses
ĠG h
ĠG raph
ĠL arge
ard on
ide os
Ġar thritis
Ġad ul
Ġun aware
ign ment
av irus
Ġsp oon
Ġam ateur
Ġrep ay
ows ki
Ġche at
Ġmod ules
com ed
Ġserv ant
Ġmain tains
Ġrest ing
Ġstory te
-f oot
Ġve ctors
Ġcolle ague
Ġpred ecess
Ġport rait
Ġheav ier
ON E
Ġlack s
Ġthreat en
Ġhistor ians
IT H
Ġinterview ed
99 9
Ġimpl ant
Rec ently
Ġscr ut
ĠMem bers
Ġske ptical
ĠFil m
ĠDam on
Ġathlet ic
ĠJon athan
Ġembarrass ed
Ġabund ance
OV E
Ġobsc ure
ĠPract ice
ĠIss ue
ĠRog er
ĠNether lands
ĠBure au
$ (
( j
) ]
H C
S cience
_ B
b ul
f its
g reen
g oogle
s ource
he art
Ġw itch
at ured
is ure
Ġp uff
Ġh ug
Ġre un
ĠT a
ĠT ob
ĠT rib
ad an
ĠM ale
Ġse iz
ĠB M
Ġpro xy
Ġex otic
un it
ĠG ill
ĠG ib
ĠG rey
ĠL ang
ĠL OT
ak u
ag ged
act ivity
ear chers
ote in
Ġmod er
Ġins ists
ĠUn cle
ĠAl ong
ĠAl bus
br is
Ġvis ually
Ġbre eding
Ġdem ons
16 4
Ġorgan izing
Ġprot esters
work ing
âĢľ We
Ġsound ing
Ġspecific s
-t op
Ġproject ed
urs or
Ġdepend ence
ĠPh ill
Ġsubject ed
Ġlower ing
ocr ats
RE T
Ġclean er
Ġep it
add am
ĠAg reement
iam i
ĠRem ove
math cal
place ment
Ġà¤ ķ
Ġdress ing
Ġlaunch ing
Ġtag ged
Ġhook ed
Ġindu ce
Ġdict ators
ĠKn owing
Ġfemin ist
Ste ve
Ġcompress or
ĠEffect s
ĠFA Q
Ġintrig uing
Ġtransf ers
ĠAven gers
ĠOx ford
Ġhaz ard
Ġgenet ically
Ġinherit ance
ĠUnivers al
adel ph
Ġanten na
Ġcannab is
" He
C y
D epend
a ism
r ative
s rc
w ait
Ġt ense
Ġthe or
Ġw icked
at abase
Ġf ighters
al ph
Ġin acc
Ġin exp
Ġl bs
Ġg ad
im ore
Ġu h
ĠA V
Ġan gels
Ġas y
ĠC her
il ia
Ġcon sec
ĠM aterial
ĠP ow
os ion
ĠG er
ast ics
Ġup ward
Ġen han
ip ing
ĠK ra
Ġpre st
Ġsc ent
Ġnew est
ons ored
oss ibly
Ġrem oves
Ġinv itation
Ġcr ush
Ġend ure
Ġstr at
Ġwee kends
Ġprob able
à¤ ¤
Ġhold er
-t ra
umb ing
mon ary
ball s
het ical
amm ers
Ġdream ing
Ġseason al
Ġanaly tics
Ġlength s
Ġlength y
Ġwild ly
Ġhonest y
AD D
Ġmort ality
ĠAss ad
idel ity
Ġconsult ant
Ġimplic it
allow een
Ġreplic ation
Ġpenal ties
ĠMedic are
ĠPhil ip
ĠLead er
Ġperm its
Ġoutl ined
ĠHun ter
Ġenzy mes
Ġsup reme
ĠRaz or
Ġblond e
adelph ia
' ;Ċ
( X
- all
- aut
- reg
< <
G L
T rad
_ log
_ def
c all
k ill
p op
r ator
s f
y nt
Ġa uction
in line
Ġto ps
Ġl ion
id ated
am er
ĠS ud
ĠS ays
Ġan not
ra h
pe lled
Âł with
ri ad
ri ans
ab etic
ĠF act
Ġso cks
Ġwor ms
ĠG raham
Ġall ocation
ĠN ine
Ġpe as
ne red
we re
ĠSt ay
Ġdon ate
Ġaut ism
ĠAl bert
Ġbit coin
ĠCl ose
Ġrese mble
Ġlearn s
Ġve in
Ġredu nd
Ġlog ged
Ġcamp ing
Ġconnect s
Ġmeaning less
ĠPer iod
ĠInt roduction
ĠAdd ress
Ġanaly zing
Ġmut ations
ĠSer iously
Ġpromot es
Ġbelong ed
ĠSam uel
Or gan
ĠAp ocalypse
Ġvan illa
bra ew
Ð½ Ð¸
ĠTy pically
Ġwarn ings
Ġspr ink
Ġshel ves
OO F
Ġcrypt oc
ĠFour th
Ġlad der
Ġattach ment
Ġrecy cling
Ġrab bit
ĠAnton io
Ġsuspic ion
( f
, ''
C ase
c irc
Ġa unt
Ġb arn
en cer
Ġp i
Ġp unk
Ġp enny
Ġd uel
Ġh ipp
âĢ ²
ĠT iger
Ġst am
ĠC and
ĠM C
ĠB or
ĠH ans
ĠD H
ĠD h
ĠD ouble
iv ities
Ġall iance
ĠL em
Ġpl asma
Ġli able
iz on
Ġcomp ute
Ġun real
ĠK an
Ġper missions
Ġpr iced
Ġbl ues
ob uf
ĠSt atus
Ġcar p
Ġmat hem
Ġfound ing
Ġref err
Ġhead quarters
ĠSh adow
Ġtest osterone
13 3
17 4
Ġve ins
ĠMar g
Ġkey words
Ġauthor ized
iet h
Ġdel ta
-w r
Ġprim itive
Ġbal ancing
Ġappear ances
Ġcontract or
Ġplant ed
Ġanaly st
Ġcitizens hip
Ġprison er
Ġoptim istic
Ġdiscover ing
ĠIns urance
Ġroutine ly
ĠWr iting
ĠMiss issippi
Sub scribe
Ġveter ans
Ġneuro log
Ġpupp y
Ġvine gar
Ġwre ck
Ġbip olar
D eb
F i
O H
O p
e le
o ids
q rt
v oc
ç Ķ
he a
Ġb um
Ġm um
Ġd op
as a
as per
Ġl ining
Ġe g
st ep
Ġre ception
ot rop
ĠC op
ul us
ĠP itt
ĠP rior
Ġv ivid
Ġle ct
pl an
Ġno ble
ĠK o
Ġgr im
vel t
Ġneed le
Ġrem inis
olog ic
Ġcr ises
Ġsub c
con verse
Ġcur b
Ġunderstand able
ĠAr ctic
Ġmarket place
Ġair plane
Ġris en
ĠX C
ĠMar ine
Ġfig uring
Ġsum s
che ll
Ġdel ays
Ġcirc uits
Ġvir gin
Ind eed
Ġrelax ation
Ġcoord ination
ĠRet rieved
Ġmand ate
Ġtur key
Ġmob ility
Ġnit rogen
Ġvamp ires
Ġzomb ies
Ġfut ures
Ġvig il
Ġalumin um
. G
H as
M aster
N eed
[ PR
b en
m ir
s in
Ġc ensus
Ġb icycle
en ment
Ġm und
Ġd iving
Ġl akes
Ġe tern
ĠI C
Ġre nown
ut ton
Ġyou t
ĠS W
od a
ĠB ed
Âł For
ĠW ED
ĠP as
ĠP ush
os ures
Ġk icks
ĠE ar
ĠIn fo
av al
ĠK night
ub ric
Ġpo inter
Ġtra um
Ġdown s
alk ing
ract or
Ġcar go
Ġmet ast
Ġmin istry
Ġrest oration
ĠPro per
ĠBl air
ĠBe at
Ġz oom
Ġorig inated
Ġblack s
Ġdam ned
Ġposition ing
Ġport able
Ġassoci ations
ĠEn joy
Ġfather s
Ġintrodu ces
Ġtou ches
Ġir ony
IT Y
Ġrespond s
ĠPar ad
ĠPol itical
ĠSpe aker
Ġterr ifying
Ġsch izophren
Ġmir acle
ogen esis
uls ive
Ġpig s
Ġwhis pered
âĤ¬ âĦ¢
Ġfle et
Ġcrypt o
ĠBrad ley
Ġcort ex
Ġinadequ ate
Ġinfra red
- range
. re
P ass
p ersonal
v g
} )
Ø ª
on z
at an
Ġo ak
Ġf aint
Ġm asks
Ġd inos
im ination
ad in
ur ious
ĠS ri
Ġan est
il ogy
Ġse l
Ġ( (
op sy
Ġv iagra
ĠD allas
out ing
ĠR an
ĠF un
ĠF ish
ĠF inal
iv an
ĠG and
ĠN ash
Ġout look
ĠJ erry
so ver
Ġcl iff
Ġtime ly
ĠY ellow
oc key
reat h
ĠK l
Ġsp oil
vel ope
ial ity
ĠHe nd
ĠV iol
Ġrel ieve
Ġinter ventions
Ġgen omic
Ġrep ository
Ġsystem ic
Ġreal ization
Ġsl ides
Ġdisc s
Ġbus es
15 1
ĠIs lands
Ġrest riction
ott le
Ġeconom ists
An n
ĠSe an
âĢľ You
ĠBe yond
Ġdep icted
ĠOr ange
Ġaccess ed
orth y
ĠAd vert
Ġblog ger
Ġblog ging
reg n
Ġsell ers
Ġcommunic ating
Ġparticip ated
ech o
Ġord in
sp an
Ġanaly sts
Ġreb uild
ĠTH AT
Ġvill ain
Ġroot ed
Ġsuspect s
Ġjournal ism
Ġjudge ment
ĠVe get
Ġaggreg ate
Disc ussion
ĠDun can
Ġlou der
ĠIsa ac
ĠFest ival
Ġdile mma
J esus
P eter
T W
U P
b eta
d oc
z ip
Â «
Ġa qu
in formation
Ġs igh
at ra
Ġc yn
Ġb ible
en able
Ġp ork
Ġp udd
le q
Ġl ord
st ru
ro ach
id ating
Ġst un
ĠS ize
Ġde af
est one
ĠD omin
Ġab rupt
ĠN G
ĠL oss
ard i
ĠO ntario
Ġad vers
Ġad renal
Ġno od
cl ed
Ġpo et
In put
ĠBut ton
cept ive
Ġpol ite
the m
Ġgl oves
Ġfr iction
11 3
Ġpat ents
Ġhead ache
ĠSh op
Ġvis itor
ĠAr c
ĠAr ound
Ġprogram mers
uff er
Ġmess y
Ġobs ession
Ġcompet itor
Ġviol ate
() )Ċ
-in flammatory
Ġcompl ained
Ġfra gments
rand om
Ġconduct ing
Ġdemonstr ating
Ġtim er
Ġuns ure
olec ular
ĠIS O
ĠÎ ¼
AA AA
Ġpill ow
ãĢ Ģ
Ġcertific ates
Ġic onic
worth y
ĠPri ze
Ġprosper ity
ĠBrook lyn
Ġgravit ational
ĠPhilipp ines
[PR OOF
" If
M M
N ET
] :
u ber
Ġ ÂłÂłÂłÂł
Ġw ives
Ġf oul
Ġe uro
Ġg ates
Ġre he
ĠT B
Ġon ion
Ġon set
ĠM Y
Ġse min
Ġex cerpt
em a
ĠH ab
ĠH ung
out put
ĠL OL
ag ging
Ġev olving
ĠK ill
Ġper fection
Ġfl ames
Ġsm iles
Ġbr onze
aw k
Ġend urance
ax y
Ġsl im
Ġcor al
Ġel imination
Ġtri angle
Ġsw ap
Ġelect rom
soci ated
Ġstuff ed
ĠEd wards
Ġparticip ant
Ġver dict
Pro v
atur ally
Ġpun ished
Add ress
Ġrul ers
ĠSuper man
Ġtun ed
Ġhar ness
Ġped est
Ġpossess ed
Ġsubsc rib
Ġtact ic
ĠHol mes
Ġdefect s
Ġlean ed
lem ma
Ġswit ches
ĠSus an
Ġrevel ation
oca ust
Ġdispos able
Ġfortun ate
. _
B rit
D ep
M Y
M arch
R Y
k an
m itt
p her
r r
s omething
Ñ ĩ
Ġo lig
Ġc age
Ġc ush
Ġf t
Ġf itted
al ities
ĠI ch
Ġg ru
Ġre arr
se nd
ĠT ro
ĠT esla
ay an
ir ation
if eration
Ġde bris
ab ama
ĠH app
out e
ĠF L
iv o
ĠN uclear
Ġtr unk
ĠK ay
urn ed
ĠCh a
com ments
ah u
Ġhead line
-s m
oot s
att ed
Ġrese ar
Ġsci ences
ĠLe ave
yn asty
val ues
oose velt
str ate
ĠCar ibbean
() )
Ġfavor ites
Ġcoll ar
Ġsuff ers
Ġbudget s
Ġsad ness
Ġfuck ed
ĠFe el
Ġflo ors
Ġeditor ial
Ġintention al
Ġillustr ated
Ġunw illing
Ġexplo itation
ĠProt ocol
pack age
ĠMont real
Ġconj unction
Ġdistract ed
Ġoverr ide
Ġbom bs
Ġcarbo hydrates
Ġabsor ption
orig inal
Ġarter ies
Ġglob ally
ĠMarsh all
& A
, n
A LLY
J uly
M ike
M aker
T ags
V ol
W ater
_ v
f ill
f ox
g ie
h oe
m d
n an
w l
Ġa ids
Ġs rc
Ġo mn
al ia
al man
Ġre de
Ġon ions
Ġu m
ĠS aint
ĠC ole
ĠM T
ĠB oe
ĠW u
os ity
Ġk idding
ĠG em
Ġint ensive
ĠTh an
act ers
Ġman eu
Ġun ch
urn ing
Ġhel pless
Ġcur ves
Ġext r
Ġconf igure
âĢĶ but
oot er
Ġcommun ist
Ġlim itation
Ch ina
Ġcred entials
Ġbi om
Ġrele vance
Ġrecogn izing
Ġbeaut ifully
oph ag
Ġcook ie
Ġcontact ed
Ġund ers
Some one
Qu ery
Ed itor
Ġoptim ize
Ġiron ic
Ġimper ative
Comm on
ĠPhys ical
prot obuf
Ġgentle man
KE Y
Ġmas cul
\< ^
ĠColl ins
Ġinterrupt ed
Ġchop ped
Ġderiv ative
ĠSad ly
ochem ical
Ġharass ment
ĠMichel le
( B
U r
g t
k ens
m i
p it
Ġs i
es ar
Ġd uck
Ġl um
ad ers
ĠA ld
ĠC ro
Ġse as
Ġde ple
ĠW C
ĠP ing
un ci
ĠR ow
ĠN BC
ĠL ar
Ġint ens
Ġpl ag
Ġpl ots
ass y
Ġher b
Ġimp air
Ġbl at
Ġbl unt
Ġbet ting
Ġback l
ell er
oy d
Ġtra ject
Ġ$ (
Ġche w
Ġche ek
ĠAn gl
Ġdet erior
Ġap ost
Ġbus h
Ġav iation
Ġhome owners
15 5
ĠCom put
-s chool
Ġopp ression
Ġquestion able
Ġstory line
Ġrecord ings
ĠX box
Ġdest iny
itch ing
Ġswe pt
Ġur ged
Im agine
Ġsexual ity
Ġbul lets
Ġdecre asing
Ġprem ature
Ġinterpret ations
ĠPark er
Ġkick ing
Ġreplic ate
Ġcompens ate
Spe cial
Ġimmigr ant
ĠðŁ ĺ
ĠVen us
Av g
Ġrecip ients
odynam ics
intend o
Ġoffs pring
Ġenerg ies
pub med
Ġgard ens
ĠLibert y
ĠJere my
& &
H ar
S ol
d ig
m ia
p c
t ry
Ø ¯
Ø ¹
he rence
in f
er ness
Ġw ont
Ġb ore
Ġl amp
Ġy ang
ad ic
Ġst adium
ĠS ierra
Ġan at
if ts
od us
ĠB us
Âł Ġ
ĠW ant
ĠD ur
out heast
ĠF ace
ĠF alse
ĠG re
ĠE isen
ĠN L
Ġpl ed
Ġpl ague
The ir
ĠO ptions
Ġtr ump
Ġlike wise
Ġqu arters
Ġwork outs
Ġsp it
ub le
Ġgr ind
Ġbl ink
Ġrel iability
Ġsm arter
Ġtrans it
ĠAn im
Ġcor ps
Ġext ensively
Ġref in
Ġca f
Ġpat ron
-d ependent
Ġprot agonist
Ġshort s
Ġdev ote
ĠMy st
ateg ories
ĠCol omb
Ġconcept ual
Ġconnect ivity
Ġindic ators
ĠGen eration
Ġir regular
Pro gram
Ġhistor ian
Ġgrad uated
ĠCor ps
Ġaim ing
ĠDes cription
ipp le
Ġassess ed
Ġdiagn ostic
Ġnav ig
ĠArab ic
Ġplug s
Res earch
Ġconver ting
Ġproceed s
ĠLib eral
ĠAgain st
Ġmanip ulated
Ġreward ing
Ġkiss ed
ĠÙ ħ
Ġclimb ed
Ġhypot hes
Ġorient ed
Ġfert ility
Ġpolymer ization
iche ver
ĠCorpor ation
ĠExec utive
Ġtourn ament
Ġbod ily
Ġstubb orn
Ġinexp ensive
B esides
N ovember
U lt
_ h
a uses
p osition
Ġ ____
at ics
en stein
ic ut
st ill
ĠI Q
Ġg y
Ġst akes
Ġhe ars
ke ley
ĠC oc
od ec
Ġex tending
ĠW P
th anks
ĠH alf
Ġsh ades
ĠD ictionary
Ġj azz
ĠL ion
pl ies
Ġar row
Ġar tery
ĠTh or
ĠTh ailand
Ġcont empt
Ġun le
Ġno ises
ĠK urd
Ġpart ition
ob ia
Ġra z
Ġtra it
Ġsur plus
view s
16 2
Ġeng lish
ĠInd ependent
Ġdiff ers
Ġbenef ic
Ġmusic ian
Ġdepend ency
Ġprop het
Ġsoft ly
Ġobs erver
Ġut ilities
ris k
Ġarch ive
Ġboard ing
Ġadminist ered
Ġreflect ing
Ġvalid ation
Ġlegisl ature
Ob viously
ĠCle arly
Ġwel comed
>> >
Ġru ined
Go ing
Ġped al
ĠDet roit
Ġspr ings
ĠJun ior
Ð¾Ð ²
Ġmerch ants
occ up
ĠMult i
Ġna ive
ĠGi ants
ĠVerm ont
Ġbubb les
Ġjewel ry
ĠDise ase
ĠMuh ammad
Ġyout ube
, z
- Y
- use
B ill
B ox
E s
J on
M el
N F
O ps
h ol
n n
o os
p ur
Î ³
Ù ģ
ï ¿
Ġa fore
er os
Ġo sc
is le
Ġf ade
ic ism
om ics
Ġl ame
Ġn g
st an
Ġu pt
ra ising
ĠC oin
ĠM ason
ĠB B
ĠB Y
ĠB anks
Âł are
Ġpro be
Ġnot ifications
Ġsh aft
ĠD ust
ĠD ocument
el le
ĠR angers
Ġle nd
ĠF le
ĠF ew
ost ing
ĠN athan
ĠL uckily
Ġpl aint
ind a
ine a
Ġad orable
ĠY ang
ĠY ahoo
ĠK a
00 4
Ġpo ems
Ġco il
ĠCh am
ĠV PN
Ġbu ys
ange red
Ġdown ward
Ġsim plicity
Ġinv oke
Ġcr ashes
az ed
uss ions
Ġloc als
Ġmarket ers
-d es
iqu it
ĠSe pt
Ġintern ally
Ġinf erior
Ġtax ation
Ġmor ally
ĠPr inci
Ġcomb ines
Ġcompet itions
Ġsun ny
Ex ec
Ġtit an
ĠCal i
reng th
ĠÐ ¸
Un iversity
Ġunf amiliar
Ġunc ont
Ġtour s
ĠPat rol
Ġpus hes
Ġcritic ized
ĠBen jamin
ĠRob inson
Ġcoast al
Ġlit igation
Ġexhib ition
Ġcos m
/b in
Spe aking
ĠHell o
bre aking
ĠCamp aign
grad uate
inds ay
ĠTreat ment
Ġincom pet
-hand ed
atern ity
Ġinherent ly
Long rightarrow
odynam ic
ĠEnvironment al
Ġpractition ers
ĠRus sell
Ġumb rella
Ġadoles c
" ),
. php
A H
D i
L ess
i ology
Ä į
Ġc ite
Ġl ith
Ġl ust
Ġe ats
Ġst d
ur ations
ĠS ales
ir ates
ra wn
Ġse ct
Ġse ated
ĠP un
est ock
ĠH ash
Ġv inyl
Ġch in
Ġle ase
ĠF u
ĠN ort
Ġpl ac
so cial
ach ine
Ġpre tending
Ġfl ick
Ġinter rog
oll en
fl ies
Ġide ological
az i
Ġunt o
Ġdr own
Ġpar an
ĠDo ing
Ġmiss es
Ġvers a
ĠPl ayer
Ġsuper b
Ġmot to
Ġcra cked
Ġenjoy s
Ġcop ied
Ġfair y
Ġrecogn ise
ĠEd ge
Ġdraw ings
arb ucks
Ġdoub led
Ġconsist ed
Ġdemon stration
Ġprior it
Ġreb el
Pl ay
More over
mod el
Ġconsult ation
Ġvit ro
ĠNor way
Pre vious
Ġscholars hip
Ġflav our
Ġtempt ed
Ġtempor al
Ġparad ox
ĠInterest ing
oxy chlor
Ġphysi ological
Ġnost al
" But
- led
- owned
> (
A ction
D I
D M
E eprom
G ame
H istory
O ST
R ad
f ind
j an
k ar
r ise
t or
å Ī
Ġs ab
Ġs ulf
Ġp estic
Ġd ug
Ġd Ã©
Ġn inet
âĢ Ĳ
im ental
ĠT odd
Ġst are
ĠS oph
ĠA x
ĠC arr
Ġde put
ĠB ird
ĠB enn
Ġex h
ĠP ul
Ġcan cers
Ġsh ining
ĠF aith
ĠL ower
Ġ" Ċ
ci pl
ĠO wen
Ġpe cul
Ġher s
oc he
Ġsp icy
Ġapp ar
Ġfl op
ell ed
Ġbr ass
ec d
oll o
Ġrep airs
old er
ins ula
Ġcor rid
Ġfin ances
Ġca ffe
Ġtechn ician
Ġconf use
Ġdr ones
13 7
14 5
sc ale
ĠSe attle
Ġarg s
ĠLe v
Ġvers es
ĠOr d
-p age
Ġmot ives
Ġcrit ically
ĠGr iff
Ġimpact ed
Ã© e
Ġcolor ful
Ġple as
ĠMon th
ĠMon itor
yl um
Ġconstit utes
Ġmagn ific
Ġcelebr ities
Ġterr itories
Ġmel ted
}{ \
ĠMiss ouri
Ġsubsc ribe
Ġfab ulous
ĠEr ror
Ġillustr ates
/l ib
ĠPhil adelphia
Ġelectro de
Ġprivile ges
Ġantib odies
Ġgre ed
Ġrevers ed
ĠSci ences
Eng lish
Ġmos qu
Ġhelicop ter
×ķ ×
Ġfauc et
Ġapert ure
" In
' ]
) }
, converse
/ T
/ home
0 10
B ad
C ut
S upport
U t
Ġs ang
Ġc ad
Ġl ob
st eps
im eter
ra is
ill es
ĠM M
ĠW ed
ĠP ink
Ġch unks
ĠR oosevelt
Ġher d
Ġpr ayers
Ġbl ades
Ġbl adder
form er
ict ures
mer cial
Ġ= Ċ
Ġatt ain
Ġread ings
Ġche ating
ĠAn imal
ix el
Ġmon arch
Ġdisc retion
11 4
ĠAr ist
Ġbit es
Ġappe als
ik ed
Ġland sc
ĠX P
Ġbro ker
Ġtrad es
Ġpersonal ities
Ġviol ated
Ġones elf
epend ence
Ġrev ised
AS S
Ġcontrib utes
Ġdecl ining
Ġur gent
mpt y
Ġsecret ly
ĠCr ow
Ġsmart phones
ĠRec ord
Ġyell ing
ĠIP v
-sh irt
ih ad
Ġnegoti ating
ĠExper ience
ĠEp isode
Ġcompe lled
Ġshr ink
Ġhack ers
Ġoverl ap
-col or
Ġunderm ine
Ġabdom inal
ĠRespons es
ĠPu erto
- ph
- br
/ F
A I
C S
M al
P resident
Q ue
S al
f y
j as
q us
s ure
v oice
å ®
er red
at che
en ers
or p
Ġp sy
Ġd ice
Ġth rive
st ud
ot ive
ro b
im ages
Ġst amp
ĠS ans
ĠC er
ĠC ody
Ġcon ceived
ĠM es
ĠM ine
ĠM ovie
Ġnot ions
ri pp
ĠW ik
Ġsu ed
and o
ĠF iction
ĠF ocus
ĠG oku
ĠE PA
ĠN elson
ĠL ot
fe ld
ĠJ oh
ĠK i
ĠK ick
ne ys
Ġgr inding
Ġimp aired
Ġact in
Ġtra ps
Ġdown side
Th read
Ġsub ord
Ġform ul
Ġide als
ĠFor ces
ĠCom ics
to k
Ġbra ke
14 7
ott i
Ġaccount ability
Ġhy ster
Ġinf ants
AT H
IN D
Ġexc uses
ĠEd it
Ġbur d
OR T
Ġden ying
Ph ot
ett ings
Ġreported ly
Ġid ol
Add itionally
-r ays
ĠGree ks
Ġmel ting
Ġpal ace
Ġfro st
ĠStr ateg
Ġinhib ition
ĠDen ver
Ġham mer
ĠNaz is
Ġrum ors
Ġdefic its
ĠMarx ist
Ġine ffective
Ġportray ed
Ġastron aut
Ġsubsid ies
-spe ed
Ġaf rican
Ġbless ing
Ġprox imity
ĠSpecific ally
Ġpse udo
Ġforb idden
ĠLeban on
ĠImper ial
Ġunst able
ĠEz ra
! ),
! \)
O per
V ersion
d el
g ue
l ined
Ġthe ology
Ġp oured
Ġp neum
Ġn ort
Ġst yl
ĠS addam
Ġan ecd
ĠM R
ĠW o
ĠH ook
Ġsu ite
ĠD S
ĠD ylan
Ġal right
ĠR ic
Ġle aks
Ġle isure
ĠF R
ĠF ri
all ows
ĠE I
ĠL ars
Ġli ed
Ġun b
Ġun just
Ġdis able
Ġpo ke
ĠCh ile
ĠV l
Ġinter cept
aw ed
Ġob j
ident ally
Ġreal izes
Ġform ally
Ġcor related
Ġop io
Ġincre mental
Ġthought ful
-s et
Ġconf ined
Ġdr astically
ĠDe vil
uff y
app a
att ice
ĠZ ion
Ġdesc ent
Ġdeal ers
Ġhope ful
Ġposition ed
Ġaud it
Ġhands ome
Ġport al
Ex ternal
-st ep
Ġharm on
Ġinvestig ators
ĠMon te
han ie
ĠAust in
Ġliber als
edd y
ĠCongress ional
ubb ed
Ġtom ato
Ġhur ting
TH E
Ġdivid ing
Ġneighborhood s
Ġstro kes
Ġ; )Ċ
ĠProfess ional
ĠComm ons
ĠResp onse
ĠNY C
ĠStan ley
Ġmarg ins
Ġster oid
ĠGirl s
Ġdipl omatic
Ġenzy me
-cell s
Ġepid emic
ĠHT TP
Ġbree ze
ï¿ ½
! '
" ).
" Yes
( S
( new
- white
/ Getty
5 12
C redit
S end
c ils
d l
d og
f rame
n old
p icker
re ne
Ġw it
Ġb ounds
Ġm uff
Ġd urable
le in
ut ane
ĠS ter
ĠS pect
Ġan kle
ĠC el
ĠM ut
ĠM iami
ĠB oo
ĠW are
ĠP ere
ĠP rivate
th ose
Ġsh irts
Ġab oard
ĠR ail
Ġall y
ĠL inks
ĠO liver
ine e
ĠJ uan
ans hip
Ġcomp ressed
cc oli
reat ment
ens ory
Ġoff line
oy s
Ġinter section
oth s
Ġpers ist
Ġreg ain
ef ined
Ġsl iding
Ġmin us
rop he
ĠSh ar
Ġrest art
Ġpop ul
St at
13 2
Ġpos es
16 6
Ġpublic ations
Ġcreat ors
for cing
Ġener get
Ġtrad er
Ġimm ort
ĠPh ilos
ĠGr owth
Ġrespect s
26 4
Ġshare holders
Ġsun screen
tain ment
ĠÂ µ
ĠPer fect
Ġbur nt
ĠCont inue
Ġmer ged
Ġdesp air
à¥ ģ
resp onse
ĠCr own
Ġpoly nom
ĠPal in
part ial
Ġcrowd s
Ġreact or
ĠAss ess
Ġthick ness
Ġchick ens
Ġwrit ings
ĠMel bourne
Ġreplic a
Ġprompt ly
Ġwhis per
ï¼ ļ
Ġven ue
Ġhaunt ed
Ġcongress ional
Ġaddict ive
oust ic
Ġretrie ve
Ġmitochond rial
ĠCompan ies
Ġpecul iar
) [
, x
E st
` s
c ation
f ar
i ably
m em
Ġs her
ou ched
Ġf ist
ĠT erry
ĠS end
ĠS ounds
ĠM IT
Ġv ic
Ġsh red
Ġso cket
iv ism
ĠE S
ĠE T
Ġen ch
Ġman ga
Ġher bal
Ġsa una
ĠK yle
Ġsc rub
Ġback yard
Ġsy s
Ġcomm itting
Ġra ck
Ġinc oming
Ġchar ming
com plete
Ġexam s
ank ed
ah l
Ġfun eral
Ġret ained
Ġexpl oded
ĠAl abama
Ġgl owing
Ġgovern ed
rop olitan
Ġdr ought
Ġpri ests
Ġeconom ically
Ġappro ve
Ġsn iff
On line
tt i
OR M
Ġgrad uates
roll s
Ġder ive
Ġmut ant
ĠDoes n
Ġcorrespond s
ĠFin ance
ĠPlan ning
Ġpil ots
ĠBrazil ian
ĠJeff erson
Ġacceler ate
ĠWal ter
omed ay
Ġspons ored
Ġgest ure
ĠFoot ball
ĠProduct s
Ġash amed
Ġbrid ges
Ġfrag ile
Ġrenown ed
G M
H E
S ort
S everal
h ou
k g
l ie
l oe
s ince
å ħ
Ġw ield
at re
Ġn ano
Ġg room
ĠC ou
ĠC PM
ill ation
Ġcon quer
ge nds
Ġor th
ĠB S
Âł V
um ed
ĠP resent
th y
em b
Ġv icious
ĠD om
ĠG as
ĠN am
og ging
ac o
Ġqu o
ĠK arl
ov ies
Ġlong champ
Ġsub mission
Ġass hole
Ġsl ap
Ġprocess ors
az ar
Ġhead lines
Ġpop ped
Ġcontin uity
-c he
att oo
ustom ed
Ġpot assium
ox ide
Ġtem p
Ġphys ic
Ġsuper market
unt il
enn a
Re ally
ĠĠĠĠĠĠĠĠ ĠĠ
Ġreview ing
Ġdom ination
Ġpack s
Ġsqu ares
Ġsun set
Ġjud ged
Ġcoll ision
Ar ch
asc ript
Ġinn ate
ĠChar acter
ĠCons ult
/s he
math sf
-r un
Ġban ner
Ġoptim ized
Any one
ĠUnder standing
Res ult
Ġemerg ence
Ġproceed ed
-se x
greg ation
Ġlun ar
she et
ĠBre xit
Ġfemin ism
Ġadministr ator
Ġknock ing
gi ene
Ġwarrant y
Ã³ n
Ġscar ce
icular ly
ĠRub y
Ġembra ced
ĠNiger ia
Ġincon ven
Ġcaut ious
" They
. is
= -
= âĢĿ
L ocation
S en
T B
X T
c ular
h ots
Ø ¨
å ¤
Ġp ics
Ġp df
Ġm erm
Ġh ike
ic iency
ent ric
ld om
am as
Ġhe els
ol o
ĠC over
ĠC offee
od ic
Âł it
ĠP le
ĠP HP
Ġdo omed
Ġsh iny
os o
ĠE at
ĠN os
ĠN ancy
ak o
Ġout lets
ĠO ri
Ġup stream
Ġup stairs
av ascript
Ġsc ra
Ġco herent
ĠCh ron
ĠV R
Ġwhere in
gr oups
Ġnum b
Ġtrans plant
ĠSh ang
ĠSh aron
ier re
Ġappe ll
Ġve gan
Ġoper a
ĠX i
yn chron
Ġmot ive
ogn ition
Ġrecogn ised
Ġsurpr ises
ĠPer l
Ġaddition ally
.... ..
Ġteach ings
Ġflu ids
Ġtransl ates
ki en
Ġconsequ ently
Ġcelebr ating
ĠJud aism
ĠØ ¨
Ġhighlight ed
sm all
Ġscream ed
Ġauthentic ation
Ġinstruct ed
po ons
ĠPop ular
ĠðŁ ĻĤ
Ġtherap ies
Ġcoinc idence
Jan uary
Ġdisput es
-mon th
ĠVenezuel a
ĠWED M
& T
A ge
B uy
B usiness
E ric
K n
\ \
d ec
e ur
l ocal
u in
à ¸
Ġt iles
Ġw ax
Ġw ishing
Ġc ue
Ġc ement
Ġp ython
ĠT ogether
Ġst reak
ur bs
ĠM old
Ġde gr
ĠW ords
ĠP ound
ĠH orse
ĠD iamond
Ġle m
ĠE asy
20 5
Ġun m
Ġqu iz
av atar
Ġsc ars
Ġam using
ĠV ari
Ġsm okers
Ġrem n
Th ird
Ġcr ashed
hes ive
Ġtrans cend
any a
Ġmed ian
ank a
Ġmat urity
Ġfil tered
Ġdr ank
ĠUS D
à¤ Ĥ
-f i
Ġphot on
icult ural
Ġlink ing
ĠĠĠĠĠĠĠĠ Ġ
Ġworth less
Ġconv entions
Ġviol ating
AN G
Ġbal ances
Ġcollect ively
Ġtend ed
Ġir rational
Ġeye br
Un ited
Ġpsych ic
Ġshoot er
Ġbackground s
Ġeval uating
equ ation
Ġdetect or
Ġoutput s
Ġdiscover ies
Ġconfig ured
uster ity
Ġconsult ing
.' 'Ċ
ĠRon ald
Ġchamp ionship
Ġdisturb ed
Ġshout ing
-K nown
Ġupload ed
Ġwand ering
Ġfo am
Ġidi ots
ĠHou ston
Ġmund ane
Ġschizophren ia
Ġafore mentioned
" ?Ċ
( &
- med
= [
A ccess
B L
N U
W omen
d oes
i encies
o ct
t ake
w ang
Â ½
Ø ´
he at
he astern
on i
at ories
it ored
Ġm ol
Ġth ir
Ġn aming
ĠI v
et ooth
am on
ĠS ac
ĠC hat
Ġcon qu
ĠM is
Ġor ph
ess ages
us able
um mer
Ġex clusion
ĠW ays
ab ad
ab lish
em ia
ĠH alloween
Ġal phabet
el ong
ĠF iles
ĠF inn
ĠG R
ĠN ear
Ġup right
Ġcl icks
ĠU b
Ġwork flow
ign ificant
av an
ang s
Ġsc aling
Ġdes erved
Ġpoint less
Ġsub set
Ġchar ter
Ġmet ap
Ġmight y
ĠAl t
Ġinform al
13 4
ĠCl aim
Ġcurrent s
ĠSp art
Ġvari ants
plic ate
Ġneg lected
ĠMan ual
Ġmis ery
Ġfavor able
arth y
Ġver ified
Ġver ification
Cl oud
Ġclos ure
Ġroll er
rim p
Ġque er
hemat ics
Ġremark ably
Ġnegot iation
Out put
Ġstorm s
Ġboss es
Ġassemb led
ĠArch itect
Ġannoy ed
Ġinstruct or
inst all
Ġgig g
ĠAR T
imm une
Ġkil ometers
-we ek
Ġspont aneous
Ġeleph ant
ĠVit amin
rolog y
Ġfluoresc ent
accept able
Ġfeas ible
ĠDak ota
$ {
( I
- at
J oe
L ater
R est
S ex
W ait
b irth
k t
l iness
r ant
t oo
v iate
} (\
ä ½
Ġt ant
er ie
Ġf res
Ġm udd
Ġth ro
Ġh ollow
ic ans
Ġg inger
se in
ad vert
ĠA F
ĠA W
ĠM ans
Ġse ized
ĠB D
ĠB oom
ĠP ros
ĠP rivacy
nt ax
ĠD I
ĠD ynam
Ġal mond
Ġch asing
ĠF err
ie ves
ĠN an
ĠN ich
ĠL aura
fe eding
ud a
ous ed
Ġup hold
cl ock
ĠK el
Ġoff shore
Ġco ff
ĠV illage
Ġrel ent
Ġafter math
Ġcr unch
Ġstud ios
ract ice
Ġsl ope
Ġgener ators
ĠUn c
Ġmon ument
me an
-d epth
Ġ/ Ċ
Ġlim bs
-m ark
Ġdeb it
ĠCol in
-w ar
ĠBy ron
cell ular
Ġharm less
Ġcalcul ating
ĠCr iminal
Ġadjust ing
EM A
char acter
ĠCle ar
ĠMel an
AG E
Ġtort ured
Ġadministr ators
Ġscrew ed
Ġobst acle
Ġresid ue
Ġhes itate
obj s
Ġcommod ities
ĠPers ian
Ġtu ition
Ġvibr ant
ĠIndust rial
Ġthy roid
Ġanch or
Ġnick name
Ġtermin ology
Ġchromos ome
Ġnause a
" And
$ -
B ob
N OT
P al
c p
h ower
s ky
s ql
Ġ !Ċ
he y
Ġw ander
it ating
Ġb ake
Ġh i
le en
am ation
ĠA aron
Ġan arch
ke eping
Âł She
Ġr ay
qu are
Ġsu e
Ġv ow
iv able
ĠL P
ĠL ok
Ġint ro
ĠO M
20 4
Ġun av
Ġag gress
Ġper ceptions
Ġrec ount
Ġrep s
Ġend ors
Ġph antom
Ġche wing
Ġche eks
gg ies
Ġmet allic
fl ags
11 8
ari um
ĠCom b
Ġconf ession
Ġbre w
14 2
ann ers
Ġspecific ations
-m od
Ġfre el
Ġrece ipt
Ġimm ersion
Ġpred ators
Ġimag in
ĠMan chester
Ġrev ision
Ġemb ark
sec ure
cell ence
Ġmechan ic
Ġcapt uring
ĠAct s
Ġtast ed
ĠKe ith
Ġround ed
Ġbul b
ĠAugust ine
Ġacqu iring
Ġrat ios
Pl us
ĠUp dated
Bl ue
Ġsen iors
Ġmal icious
Ġtun ing
Ġencourage ment
ĠSur vey
Ġfilter ing
Ġhypot hetical
ĠProt est
ĠWay ne
Ġcompr ising
Ġallerg ies
ĠHot el
ĠStan ford
Ġrubb ing
Ġoverlook ed
Ġstain less
Ġrehab ilitation
,s ac
Ġgi ants
+ Ċ
- it
6 50
: blog
A E
B re
U K
b ased
j ay
j ob
k al
l op
l ance
m art
r ho
v id
Ġo ath
Ġc ath
Ġc ries
Ġm ph
an th
Ġd ots
Ġl anes
Ġl ubric
ot or
ĠT error
Ġst ern
ĠA RE
ol ics
ĠC ult
ĠC ob
ĠC AN
ĠC inem
ĠC reation
ul ators
Âł My
Ġr ides
ĠP T
ĠD iana
ĠR ou
ĠR ah
ĠR ush
ĠG PU
ĠE b
pl ain
ĠO racle
Ġhas s
ĠJ P
Ġen v
ook s
Ġad ject
Ġpe nding
Ġpe aks
ry s
du ino
form s
Ġrel ied
Ġsl aughter
com m
Ġdisc ern
12 7
ex pect
Ġfound ations
Ġrun ners
Ġgra bbing
Ġpop ulated
ĠBr on
ĠDe al
Ġbra cket
Ġprogram mer
ĠCl ar
Ġsal aries
Ġmag nes
ask et
Ġred irect
Ġsoci o
play er
() ;
Ġrecogn izes
load s
Ġprin ter
ĠMin or
Ġachieve ments
new s
OC K
ĠDes c
ĠÃ ł
.p ost
De velop
ĠST EM
Ġrot ate
Ġment or
Ġlock s
ĠEv ans
Sp ace
Ġbrows ing
Ġbomb ing
Ġpassword s
Ġaccommod ation
Ġaccum ulation
Gl obal
ĠCommon wealth
Ġfont s
ĠPalestin ians
Ġhier arch
Vis it
Je ff
Ġbund le
Commun ity
( int
. /
? !Ċ
B ra
C amp
_ T
b org
c ra
p ay
t i
v d
w ick
{ equation
Ø ³
he ard
in se
Ġb og
or ical
Ġh alt
et ics
se lect
Ġas ylum
ĠC urt
ĠC BS
ĠC ultural
ĠM ist
ore m
ĠB R
Âł you
ĠP oor
ĠD aw
Ġch ord
Ġab bre
Ġab usive
ĠR io
ĠR ico
ĠG it
ĠN PR
ĠL ane
ĠTh ai
cl ick
cl ient
Ġspe eches
te enth
Ġimp ed
Ġinv aded
11 6
br al
âĢĶ that
14 1
14 4
14 9
Ġbad ge
Ġview point
Ġmom s
Ġident ities
ĠEx change
Ġsal vation
Ġtrad em
ĠAd obe
Wh atever
Ġgeneral ized
Ġspecial ists
Ġaccept s
ĠCol lect
Ġinit iate
Ġpaper work
AR D
het ics
Ġdiv or
Ġcand le
uk a
Ġburn s
Ġshoot s
ĠAcc utane
Ġmouth s
ĠPC s
ugg er
ĠTH IS
Ġhom emade
ĠDep ression
Ġfant as
Rec ommended
Ġtum my
dis play
Ġmic row
Ġdomin ance
Ġfulf illed
ĠAuthor ity
Ġles bian
aton in
Ġresemb les
ĠCub a
ĠHug o
ĠArm strong
Ġod or
Wind ows
-tr ade
Ġempir ical
Ġappl iances
" ...
( y
- (
/ N
/ include
? ?Ċ
C am
E V
L ead
M uch
P opular
S u
b c
p adding
z heimer
Ġ è
Ġt ed
Ġt ide
Ġs s
as se
Ġn as
âĢ ³
ĠC ove
ill in
ĠM RI
Ġse ldom
ĠD raw
un less
ĠR ET
iv ation
ĠL I
ĠTh r
Ġun int
Ġqu asi
Ġher pes
ip ation
ne a
Ġover weight
Ġtra cing
Ġgu iding
Ġreg en
Ġsupp lier
Ġdifferent iate
Ġmark ing
Ġaut umn
Ġel ites
Ġpat hetic
13 1
port ing
ĠZ en
ĠZ one
Ġspecific ation
RE SS
27 0
Ġsqu e
Ġaff l
ades h
Ġknowledge able
Ġrout ing
ograp her
Ġsequ encing
Ġselect ive
Ġcapt ures
Ġdistrib utions
pre hens
.g if
ĠGl ass
Ġ> =
Ġdisp ers
Ġdisplay ing
Ġlisten ers
Ġgraph ical
Ġuns uccess
ãģ ®
ĠRec ords
Qu ote
ĠWhere as
Ġhur ricane
Ġsport ing
ĠDet ails
ĠRock y
Ġtables poons
ĠDisc ussion
ĠBas ic
Am ong
ĠMad ison
ÃŃ a
Ġtempl ates
Ġjun gle
json iter
abl ished
ĠOffic er
Ġimprison ed
ĠHawai i
Ġcoh ort
ĠAngl o
Ġmagnes ium
. info
= False
B at
D ue
F ore
F riend
N ER
P o
P ersonal
S cient
b ands
c reate
h m
h ai
l ay
o i
s hips
t arget
t itle
ī į
on ial
Ġw ines
Ġw agon
Ġw izard
Ġc emetery
Ġf ills
Ġp enn
ĠI gn
im ple
ĠT et
am eless
Ġst ove
ĠS uddenly
il k
Ġr untime
ĠP icture
em per
Ġcan ada
out ube
ĠR alph
Ġle nding
ĠF O
ĠF acts
ort ing
iv als
ĠL td
Ġwho lly
ens ation
Ġback bone
ĠV o
Ġacc ustomed
Ġhel m
Ġob jection
Ġdifferent ial
Ġfact ories
Ġmon itored
und it
Ġgl orious
Ġext ensions
chn ology
ari at
br aska
Ġpop s
16 9
ffic iency
Ġdiff usion
Ġmar athon
Ġinf ilt
ĠMar io
Ġsent enced
Ch ild
-p owered
Ġsn apped
Ġlog ging
Ġlo vers
Ġx xx
Ġvol atile
Ġsoci etal
Ġfire arms
af fe
ĠEvery body
ĠEl ena
Ġtast y
36 5
Ġbroad ly
Sc ott
ĠDis qus
ĠThanks giving
Ġclin ics
osh i
ĠInter view
Per iod
Ġloud ly
Ġdisci ples
ener gy
Ġmurd ers
Ġrenew ed
Ġnutri ent
Ġtempt ing
achel or
Ġembarrass ing
>T itle
Ġauton omy
Sn ippet
Ġbureauc r
Ġende av
Ġincons istent
Ġdece ased
Ġwrink les
ustral ia
Ġyog urt
role um
offic ial
Ġstoryte lling
" So
- red
. log
J im
J ob
K ING
M iss
R andom
b uilding
n els
o ks
t alk
u ctions
ð Ŀ
Ġ >Ċ
Ġa ka
he e
Ġs ores
at ible
Ġb out
Ġl ur
Ġg n
ot ch
ro v
Ġst umbled
ĠS ikh
Ġwe ighing
ĠM ol
ĠM AN
ĠM ission
ĠB ah
ĠB apt
ĠP s
ĠP in
ĠP and
ĠD er
ĠG am
ĠG iant
ĠE rd
ĠN SA
ĠN ixon
ĠO t
ound er
ac kend
ĠJ enny
Ġcl ut
ĠK it
ĠK or
ĠK irk
ĠK ansas
ord e
Ġra v
Ġend ings
als a
Ġent ropy
ax on
12 4
Ġsign atures
Ġel bow
uck et
Ġdi arr
Ġpass port
Ġvis ibility
ĠQ ur
As h
Ġpublic ity
ĠCl ay
ĠX ML
Ġinf ring
Ġemploy ing
Ch ildren
Ġmot ions
Ġtext book
ĠCol lection
ĠMe aning
tend ed
Ġrout ines
ĠLet ter
Ġspread s
Ġpun ct
ĠRec ently
Qu ick
Ġmotiv ate
ĠRob b
-pro fit
Ġeffic acy
Ġinstrument al
Ġpin ch
Ġphilosop her
Ġdisag reement
Ġdisappoint ing
Ġske ptic
Reg ister
Ġprivile ged
ĠUlt imately
ĠNE VER
ĠLind a
Ġresur rection
ĠTol kien
Ġlandl ord
ĠPrin cess
Ġconsec utive
ĠSud an
Ġcaffe ine
/ st
2 15
D F
J apan
L S
L ittle
O ption
S ch
_ key
f ont
l ings
p oon
} ^{-
Ġc er
Ġc ass
Ġc uis
Ġm aternal
an el
ĠI g
ot le
Ġit ch
ld en
ĠC ream
ĠM ack
ĠM ao
pe ls
Ġse w
ĠB elt
ĠB UT
ri ka
Ġcan al
Ġal ot
un cture
ĠR ot
Ġj ets
ĠG A
ĠG ohan
ĠE ight
Ġen forced
Ġcl an
ep h
Ġdis ruption
ĠY am
we lling
ĠSt ream
Ġdon ors
ĠV ideos
Ġsub stit
Ġsur pass
Ġtrans itions
ĠRe ci
ĠShe l
ĠDe fe
-d em
pro fit
ĠBl oom
sh ape
Ġcond om
Ġmar riages
ĠĠĠĠĠĠĠĠ ĠĠĠĠ
Ġperiod ic
ĠCar bon
ĠQu el
Ġrev is
Ġmer ging
Ġcontext s
Ġformer ly
Ġarch ives
Ġreb els
De cember
Bl ock
Ġveget arian
ĠWhe never
Ġmail ing
Ġcompre hend
Ġdepth s
Ġreward ed
Ġadop ting
ĠExpl orer
ĠPalest ine
Ġpupp et
Ġunp redict
Ġintr insic
ĠLeg isl
Ġmeth oxychlor
Ġstiff ness
Ġassass ination
Ġduplic ate
Bel ow
Ġimpul se
Ġartif acts
Ġtelesc ope
Ġub iquit
ĠBalt imore
- art
. co
/ .
3 20
C arthy
G ive
c ap
h im
i em
m us
n amed
p ired
t f
t own
Ġ é
Ġa kin
Ġs ie
Ġb un
Ġb ats
ic hes
Ġit eration
Ġcon gr
Âł g
Ġnot icing
Ġr att
ĠH iz
ant ine
ĠR ag
ĠR anger
Ġle thal
Ġwor m
ĠG ir
Ġall ergy
ĠN ice
Ġint e
ĠO tt
ac en
are a
ink y
ass ing
ach i
Ġag grav
ĠK on
Ġam p
Ġtw ins
Ġmay or
ĠV M
erm al
ĠBut ter
Ġown ing
Ġinst ability
Ġsl owing
Ġfin est
Ġmon itors
ĠRe e
12 6
stand ard
ĠFor get
Ġpop ping
Ġsit uated
16 1
-c are
Ġpar a
pro v
17 1
-f old
Ġwar riors
Ġ: -)Ċ
ortun e
ĠSp ider
ape l
ole on
ĠCan ad
Ġmess aging
Ġnorm s
Ġcra cks
go al
Ġcop ing
Ġoffer ings
leg al
chan ical
Ġge ometric
ĠUs ers
Ġsil icon
Un less
Ġnote book
Ġgrad ual
IT T
Ġten ant
Ġarm ies
ĠPol itics
Ġquant itative
ĠÎ º
ĠSl ow
Ġdefend ed
Ġvalid ate
Ġsick ness
ĠMet al
Ġreact ive
Ġimpl ants
ĠMor ning
ĠQue bec
ÑĢ Ðµ
Ġlaugh s
bel ief
ĠDet erm
ĠBer keley
Ġrecru iting
Ġabst raction
ĠMur ray
ĠBoy s
ĠCreat or
ĠPS F
Ġtroub led
Ġmob il
ĠKen ya
Ġouts ourcing
Ġcham bers
ĠBern ie
ĠKnow ledge
ĠScient ific
Ġdescend ants
ĠMethod s
sen al
Ġtaxp ayer
Ġweaken ed
Ġparas ites
Ġvolcan ic
ĠBeaut y
Ġmicrobi ome
ĠConserv ative
ĠPear l
Ġspokes man
Ġtoug her
Micro soft
- risk
. y
1 19
9 78
C reat
D irect
F ood
F inal
G O
H ot
H ard
H uman
_ du
b ial
b irds
c f
d ot
d id
f u
p ages
r ates
t le
Ð ±
in ers
in verse
Ġc asc
Ġf ox
Ġp uls
Ġm ug
an ity
Ġl ing
Ġst ew
Ġst air
ĠS ummary
ul atory
ĠM ix
ĠB iblical
us en
ĠW AR
Ġv intage
ĠR O
Ġme g
ĠG ospel
ĠN ormal
og rams
ĠTh ing
Ġad apter
Ġcont amination
Ġwere w
ib ling
Ġun related
ĠIn str
ĠK ir
ang ar
Ġdon ated
ĠV ER
Ġthr illed
Ġunder water
rib es
Ġpres erving
ps hire
Ġexp osing
ys on
Ġinform ative
11 7
âĢĶ it
pro c
sc he
And rew
à¤ ķ
ĠCon sequently
Ġinf amous
Ġsal v
Ġcompan ions
Ġprofess ors
Ġground ed
Ġconv ictions
co al
ĠInt o
Ġpsych iat
coh olic
Ġgraph s
Tr ump
ĠCD s
ĠSee ing
Ġdiss olved
Ġpool s
Ġalle viate
Ġfasc inated
Ġbrows ers
ĠGal axy
Ġchamp ions
Ġconfront ation
Ġspir al
Ġdump ed
ĠEnter prise
Ġpy ramid
Ġtoss ed
Ġgenet ics
ĠFant asy
Feb ruary
Americ a
Ġliv estock
ourge ois
Ġresear ched
) /
. ]
2 60
9 11
C SC
J ose
P owered
d isc
h d
h n
m el
Ġ ì
in ence
es ian
Ġp ity
ar u
Ġin oc
Ġin ference
om nia
Ġn our
Ġre dd
Ġbe ard
ro c
ĠS ak
ĠA K
ra ged
ĠC rypt
ĠC atherine
Ġcon cludes
ĠB it
Ġnot orious
Ġr ider
ĠP retty
ight ed
ĠE yes
ĠL OVE
Ġout ward
ap olis
Ġkn ives
Ġev apor
Ġun a
ick le
Ġover load
Ġam ple
ov id
Ġwhere by
Ġinter course
ffect s
up date
Ġdet ox
Ġhum idity
ĠAl pha
Ġgl imp
Ġref usal
Ġbeh old
ĠPro du
ĠPro file
pro bably
à¤ ®
let al
ĠBl ues
Ġsocial ism
He art
Ġactiv ist
ĠMar ie
Ġbreak through
Ġsuper vision
ocr at
RE S
Ġfoot print
-in ch
Ġextra ction
Ġbox ing
Ġguess ed
Ġge ographic
Ġple asing
Ġund erest
ĠAny body
Ġwild erness
Ġassess ments
ĠIS BN
char ged
Ġliquid ity
Ġec ological
ĠLib ya
Ġtact ical
Ġmyth s
Ġproport ions
Sim ple
Ġrecon struct
ĠHol ocaust
Ġfemin ine
requ ired
Ġgre ase
Âłw as
Ġadequ ately
Ġaccum ulated
Ġtempt ation
ĠChamp ions
ĠBud get
Ġtang ible
Ġcous ins
Ġrubb ish
Ġsevent h
Ġovers ight
Ġlas ers
Ġende avor
Ġpist ol
Ġearthqu ake
cler osis
Ġreminis cent
Ġglimp se
. r
: (
E LL
G old
T aking
c ould
d raw
f alls
m ad
r ating
Ġt sp
Ġs ixt
Ġw ag
at to
Ġo mega
Ġc ube
Ġf action
an cer
ic om
om it
Ġe b
ll o
se a
Ġwh ip
Ġan gel
ra c
Ġcon gest
Ġpro state
Ġr ash
ĠP G
ĠD raft
Ġch ore
ĠR ings
ĠG aza
ĠN umbers
ĠN intendo
ĠL ock
ĠO z
ĠJ in
Ġar che
Ġcl one
Ġcont ing
ib les
ĠU m
ĠK end
Ġsp ike
ĠSt yle
ĠV i
ĠV ision
Ġsm ugg
Ġadd icted
gg er
Ġfin es
ah o
ĠSh in
ee red
St and
ĠNew ton
Ġbra ce
ron es
So ft
-f illed
Ġfilm ing
Ġbro ccoli
Ġparent al
Ġenc oded
ĠPh arm
Ġbi ases
Ġsens ations
Ġmach ining
Ġbal d
ĠAust ria
Ġmill er
Ġcommit ments
Ġenter prises
Se quence
Ġoffe nded
Ġlisten er
Ġcircum c
Ġforg iveness
Ġmulti plication
ĠHealth y
Ġlock er
ĠEv idence
Ġoccup y
Ġemphas ized
ĠWr iter
88 8
met hod
ĠTest ing
Ġvolunt ary
ĠDet ect
Ġinfect ious
Ġkiss ing
claim er
Ġcha otic
Ġsched ules
Ġshell s
ĠGM T
lean or
Ġcott age
Ġstrengthen ing
ĠInterest ingly
aunt ing
ĠBrother hood
ĠPerson ally
Ġborrow ed
Ġscal ar
ĠGro o
Ġinfant ry
ĠKind le
Ġcanon ical
ĠZh ou
ĠMove ment
Ġarrog ant
Ġarrog ance
Ġborr owing
Ġshar ply
Ġsubscrib ers
" `Ċ
( -
( g
( w
- gener
0 50
C at
C lient
D ark
E v
E arly
O ptions
P y
a un
g ages
h um
j ar
m id
Ġ ions
Ġs ou
at ility
is o
Ġp est
Ġin verse
Ġh id
Ġh arb
Ġe cc
Ġbe et
ĠT uring
ce ph
am ount
ĠS or
ĠS EC
ĠA irl
Ġwh ichever
Ġan abolic
Ġha cking
Ġr ant
ĠP ill
est ing
ab ar
ĠD ub
ĠD rop
ĠR ound
ĠR isk
Ġle aning
Ġk its
ie u
ĠE val
ĠE thereum
ĠL ux
pt ide
per haps
Ġen vision
ĠTh inking
Ġno isy
ru le
int egr
ĠK am
Ġgr ill
Ġfl ap
Ġacc retion
Ġind oor
Ġwell ness
oth ic
Ġsupp ressed
ave ment
Ġchar ism
Ġfin ishes
Ġmat t
15 2
Ġiss uing
ĠSh aw
aj a
St ation
Ġcent r
16 7
-c ore
Ġele ven
25 5
ĠMar tha
Ġrespons ive
Ġtext books
ĠTe acher
AT A
Ġimag inary
Ġtrack ed
ĠQu ant
Ġswe ep
het ically
AS H
ran ch
Ġtruth s
Ġang ular
Ġdry ing
ãģ Ħ
ref lect
Ġprem ises
.p ath
Ġapart ments
-le ft
Ġstret ches
Ġamb ition
-F ist
ixt ures
ĠAD RM
Ġvast ly
ĠĠĠĠĠĠĠĠĠĠĠĠĠĠĠĠ ĠĠĠĠĠĠĠĠĠĠĠĠĠĠĠĠ
ĠMil itary
ii i
Ġped iatric
Up dated
Ġproud ly
rav ity
Ġrig orous
ĠVis it
ĠFed eration
Ġassert ion
Ġaccum ulate
spe achy
Ġkin ase
Ġcryst all
Ġalleg ations
Ġslic es
Hand ler
Ġdisgust ing
onge vity
ĠChair man
Custom er
ĠEisen hower
" Well
. uk
. Type
A ng
J ava
M art
R un
T ox
U G
_ set
d ir
n uts
r ase
r ina
s v
w ent
at ches
Ġc ob
it ially
Ġb apt
ar in
st yle
ĠT i
Ġst abb
ur pose
Ġwe ighed
ol ith
Ġcon ced
ĠM itt
ck les
ĠW or
ĠD P
out ed
ĠR edd
ĠR unning
ĠF M
ĠN K
ĠL if
ĠL ots
fe ed
ud ing
Ġtr ilogy
ong s
Ġen velope
act ing
Ġdis respect
ire ction
ĠK ath
ang led
ĠV ent
Ġinc idence
Ġbr on
Ġph on
Ġsl id
Ġmed al
ex us
Ġret ros
Ġgl oss
Ġdist raction
Ġpur se
ĠBr ing
ĠQ uality
ĠQ aeda
-f our
Ġhy giene
Ġsuccess ion
Ġresearch ing
Ġcra ppy
Ġpersonal ized
Ġcy t
Ġstra ins
ĠMe g
bit vector
Ġjud gments
iff icult
ĠPer ry
Ġbur ger
Ġir res
ĠState ment
ĠAdd ing
Ġlat ency
EM S
ÑĤ Ð°
-pro du
-th an
ĠFre qu
ns ic
Ġsustain ability
ĠClass ic
Ġvulner ability
oft en
Ġreprodu ction
Ġreprodu ctive
ĠCreat ing
Ġrail road
Ġpour ing
uten ant
ĠPoint s
Ġfright ening
ĠIndust ry
ĠEli ot
Ġrecruit ment
Ġinval id
ĠParent s
ogene ous
Param eter
Ġoxid ative
ĠChall enge
Ġsquir rel
ĠCris is
Ġincap able
( u
+ \
/ G
0 12
A ir
D est
H TML
L ow
M ad
S ay
_ vtb
a urs
b ull
g one
Ġa we
Ġa usterity
re ach
it ched
Ġm ans
Ġl obb
im ilar
Ġst agn
ĠA gr
ĠA val
Ġhe ct
Ġwh it
ĠC zech
ĠM atter
ĠM essage
Ġde eds
Ġ( -
ĠH em
ĠH ue
Ġv oy
Ġch alk
ĠR s
ĠR ace
ĠR ena
Ġle v
ĠF ix
ĠG ore
ĠG ates
ĠG ets
ĠG wen
ĠE SP
our t
Ġup wards
Ġen cyclopedia
ue z
ber y
Ġpr aying
Ġspe cially
ang a
ĠSt ark
ĠSt arbucks
Ġrec alls
Ġgen res
ĠWe ather
Ġcr ashing
Ġfr amed
Ġca us
Ġca ption
Ġstand point
Ġ\ \Ċ
-b ack
not es
16 3
Ġ-- Ċ
Ġair lines
Ġsound track
Ġdev iation
oint ed
ĠLe gal
Ġinf inity
Ġvari ability
de al
Ġ* )
Ġcred ible
28 0
ĠFl u
Ar ound
Ġdecl aring
amb oo
Ġlif ts
but ton
Ġgrad uation
Ġund es
/s rc
Ġassess ing
Ġdim ensional
ĠMet ro
Post s
Ġstim ulating
Ġattend ance
quest ion
Pr ot
Ġsimpl ified
ĠCat alan
ĠØ ¹
Ġradical s
ĠSure ly
Ġacceler ation
Ġrecover ing
Ġgre edy
Ġpoison ing
Ġrefuge e
Ġdil ig
Ġstake holders
ĠHug hes
Bas ically
ĠCru z
Ġauton omous
Ġprol iferation
-est eem
ĠProblem s
ĠTar ot
Ġber ries
Ġremed ies
Ġtwent ieth
Ġreferen ced
adan is
Ġelectrom agnetic
ĠRobb ins
- i
. (
/ E
C F
S ing
T Z
\ in
b ows
c ro
d ahr
f r
k k
m outh
x ic
} )Ċ
Ġt a
Ġa il
re rs
Ġs inking
Ġc it
Ġp hy
Ġp ains
an cies
ed ic
Ġto kens
Ġd ancers
Ġth ou
Ġh ats
Ġh iking
ic idal
ot ism
ĠT ib
ĠT ools
Ġst unt
Ġst roller
ĠA wards
Ġas cend
ul er
Ġnot ification
ĠH oney
ĠH udson
Ġv ap
Ġv ibration
ĠF ab
ĠE t
ĠN OW
ĠL ate
ĠL iver
Ġ" /
ag ic
Ġli king
Ġcomp ares
ib a
ib li
Ġun acceptable
Ġres ide
vel and
Ġbl oss
Ġco operative
ĠV oy
ĠV eter
Ġ' /
Ġche f
ract ed
Ġmon key
ĠRe in
und le
Ġcle arer
ĠAl b
Ġdist ortion
uc ing
ield s
Ġpar ade
ĠZ ach
à¤ ¸
Ġpain ter
-t rans
Ġant igen
eral d
Ġopt ed
Ġpen cil
Ġimplement ations
Cl ose
pre m
Ġmount ing
Ġanaly tical
Ġgod dess
ĠRec ent
Ġvalid ity
Ġliqu ids
ĠAp ache
Ġthick er
Ġacadem ics
Id ent
ĠQue ens
Ġtrib ute
ĠSol utions
/l ocal
à¥įà¤ ¯
Ġtheore tically
vas ive
Ġanticip ate
Ġunem ployed
Ġpreced ing
ĠMult iple
Ġunre asonable
ĠMoh ammed
Ġfright ened
Ġpreval ence
Ġupgr ades
Ġpiss ed
Ġembry onic
Ġcoe fficient
Ġprovin cial
Ġbast ard
Ġsuburb an
ĠEVER Y
Rich ard
Ġenhan cing
Ġstun ned
Ġtraject ory
Ġted ious
" /
- ish
. to
C oll
G G
G rand
\ item
f igure
l ove
p ad
w atch
á ½
Ġf aded
Ġm ercury
Ġd od
Ġh uh
ic ides
Ġre per
se ver
ĠT ow
Ġst ems
ĠS ense
ĠA IDS
ith metic
Ġwe eds
if ted
ĠC it
ĠC hen
ĠC ave
ĠThe atre
Ġr ushing
ĠH onda
ĠD R
ĠD err
ĠR osen
Ġj oking
ie ces
ĠL ay
ĠL ag
Ġen large
ress es
ob ody
Ġtra ils
Ġbr icks
Ġend angered
up uncture
Ġcar cin
the ir
Ġ[ Ċ
ah n
ĠAl zheimer
Ġadv ancing
Ġvis a
orn ings
âĢ¦ and
not hing
Ġprev ailing
att r
ĠZ ero
pro xy
let t
ĠBe ast
Ġlim b
Ġsal mon
Ġmot ors
Ġcomb ust
Ġstat istically
play ed
Ġens l
Ex per
ĠCal vin
Ġautom obile
Ġcollect ors
Ġfra gr
ĠÐ ¾
ĠInst all
ĠAg ent
Ġregul ator
Ġvirt ues
-M art
ĠPal ace
ĠReg ular
?? ?Ċ
Ġmort al
Ġcircumst ance
ĠBen efits
Ġfold ing
ogen ous
ĠHam as
ĠBack page
ĠDra g
Ġcraft ed
Ġpra g
ĠAtl anta
Ġelectro ly
-cont rol
PD ATE
ĠEnter tainment
Des cription
Ġsquee zed
ĠBrother s
Ġdiamond s
Ġrepet ition
ĠCub an
Ġritual s
Ġalloc ated
ĠAud io
Ġchlor ine
names e
Ġsacrific es
psy ch
Ġoutrage ous
Ġlear nt
Ġmunicip al
ĠHispan ic
Ġinacc urate
Ġnood les
Ġrearr ange
Ġmaneu ver
unci ation
. v
: blogger
D L
D ist
F ive
K im
` ,
h ang
k h
m ult
Ã ¥
he um
Ġs ights
er ic
Ġw oo
Ġw ary
Ġd ens
Ġg ummies
Ġre write
ro ke
ĠT ue
ig ator
Ġst all
ĠS ear
ĠS aid
ĠA id
ĠC rit
Âł at
ht ub
Ġex ac
ĠP od
Ġne on
ĠH orn
ust ainable
ĠR ank
Ġso ber
ĠG ov
ĠG RE
ĠE ating
ĠN iss
ci le
Ġtr an
Ġar ising
Ġcomp osite
Ġcl ips
Ġdis ast
Ġdis ks
Ġdis asters
av ad
Ġpre view
Ġimp lements
Ġrec urring
li ance
-- Ċ
Ġcr ank
Ġfact ual
Ġcre ams
Ġmed s
Ġser um
Ġgl am
Ġspec ulative
Ġref lex
15 3
ĠWh ole
âĢĶ I
Ġmind ful
Ġclear ance
Ġz oo
Ġlater al
ĠLe gend
Ġvers atile
ĠSc ore
Ġauthor itarian
ĠMay or
Al ways
Ġobs ess
Ġrepresent ations
ON G
Ġswe eping
Ġcoun ters
ĠNe uro
ĠPresident ial
EN D
Ġnation wide
Ġregul ating
US A
Ġcompar isons
Add itional
OU T
uzz le
Ġcommercial s
Ġtransport ed
Ġrent ed
Ġban ana
Ġnav al
Ġthank ful
Ġmir rors
Ġlock ing
Ġvan ished
ĠMil k
ĠDel hi
Ġcraft s
Ġproport ional
Ġelev ation
Ġexplo ited
Ġrecru ited
ĠMount ains
Ġrecon c
Ġpra ised
Ġsched uling
ĠExper t
Ġethnic ity
ocy tes
Ġrevers al
Ġgam ers
osa ic
ĠLED s
flu ence
Ġcav ity
ĠEth i
ĠDat abase
ĠAven ue
Ġswallow ed
Ġcoron avirus
eq ref
ĠConnect icut
ĠZak ah
ĠAra bs
ĠPubl ishing
Ġpredomin antly
Ġmagnific ent
ĠAirl ines
" M
- un
- Sh
3 16
C ong
P op
R om
U RE
V A
b ly
l asses
| |Ċ
Ð ³
æ Ī
Ġ iv
Ġw akes
Ġp am
Ġp umps
im i
ver ine
Ġst ark
Ġst arch
Ġst ellar
ir med
ĠC ant
il itary
od ied
Ġcon ferences
ĠM i
us k
us age
ĠW ald
ĠP H
ĠP hy
ĠP oll
ab a
ĠH ub
qu et
ĠD A
art icle
ĠF resh
ag ne
ud al
Ġim min
Ġen roll
Ġcont raction
ĠU C
ical s
Ġres olutions
âĢĿ ?
Ġimp art
Ġimp osing
ail or
ov o
we ed
Ġco ating
Ġtw itter
ĠCh oice
Ġunder wear
Ġra ped
Ġtra ced
Ġcar ved
Ġpres ervation
ĠAn a
ĠRe ality
pr oto
Ġdisc overs
ah an
Ġdet rim
Ġtest ified
St ay
Ġdem ise
Ġfree zer
arr ot
-c ut
Ġ/ *
hys ics
Ġcountry side
âĢľ What
sh ort
ots ky
Ġdep ressing
ĠFr ame
Ġimpro per
Ġintern ationally
Ch oose
Ġaccess ing
Ġcy tok
Ġste ering
ĠSy ndrome
Ġpack aged
Ġdig estion
28 7
Ã© t
af ia
-y ou
Ġlif elong
Ġden om
ĠCo ach
Ġlat itude
Ġconflict ing
ĠMod i
ĠAnt ar
urg ical
Ġjo ins
Ġterr ified
Ġdiss atisf
Ġpurs ued
Ġcorrespond ence
ĠHy dro
acc ount
ĠAir port
ĠHam pshire
Ġimplic ation
Ġimpress ions
ĠCir cle
Ġcere mon
Ġtor so
Ġcow ork
-sc reen
Ġfurn ace
Âłh as
ĠFood s
Ġhes it
-de gree
Ġkin etic
Ġine fficient
ĠNob el
Sm all
ĠLi u
Ġbench mark
ĠTerm s
ĠCustom er
Ġecosystem s
Ġbol ts
Work ing
Î¿ Ï
Ġcatast rophic
Ġmonop oly
ĠHig her
Ġmush rooms
ĠKent ucky
ĠCars on
ĠMit chell
Ġlith ium
Ġenerget ic
" ]
' T
- gen
B E
B ER
E ss
F in
L ength
M er
N L
N orth
R ock
S outh
W ant
b order
r ays
s ay
Ġt id
Ġt am
Ġb il
Ġp oo
Ġm ism
Ġm ins
Ġm use
ed i
Ġin justice
ent ry
se xual
Ġst al
ĠS weet
ĠA part
Ġha cked
ol ia
ĠC re
Ġor n
ess es
us a
Ġpro jection
ĠW ard
ĠW ITH
ant ics
Ġsu cking
os l
ĠD L
art e
Ġle nder
Ġk et
Ġj ars
ĠE lder
Ġ" '
Ġen list
iz a
Ġthere after
Ġte aring
Ġun icorn
ĠK urt
Ġrec alled
Ġind ict
lic ations
Ġbr ide
Ġrep ent
rib uted
hes ia
Ġcare g
ĠSh i
Ġvis c
Ġlight weight
17 2
sh ops
ony ms
Ġsuccess or
Ġevent ual
Ġaccess ories
de pend
40 4
Ġbar gain
ubl in
ĠTe en
ster dam
Ġbed s
-h ouse
Ġtend encies
ĠNe braska
Ġcat ches
Ġstandard ized
hib ition
ĠHar per
Ġgrad ient
ĠMon ster
Ġcontract ors
ĠCor p
Ġrid ers
Ġplanet ary
equ al
vis ory
Pl ugin
OU R
Ġded ication
Ġshut ter
Or der
Ġsen ators
ĠAp ollo
Ġamb ient
ĠAnge ls
ĠMem orial
Ġsubs idi
Ġtables poon
ĠBab ylon
Ġunus ually
Ġfulf illing
Ġhall uc
ĠHas hem
ĠMur phy
Ġacceler ated
ĠDiv ine
_b il
Ġporn ography
Ġsne ak
ocy te
ĠWalk ing
Ġpersu ade
Ġparad igm
Ġadvertis ement
Ġadvertis ements
Ty pes
Ġslic ed
Ġdisadvant age
Ġgrat itude
Ġambig uous
ĠHus sein
ĠKaz akh
Ġrelie ved
Ġwholes ale
Ġtraff icking
Ġware house
ĠHait i
otrop ic
Ġcongr at
Ġexac erb
- generation
/ he
7 20
B D
B o
C are
K ay
S il
T urn
T arget
U LLY
\ put
f en
g ame
n ore
n orm
re hens
Ġf uzz
Ġp agan
Ġto ast
as ia
ĠI E
se lling
im pl
ĠS ke
ĠS old
ĠS ONY
ĠC rystal
ul ance
ĠB h
ĠB le
Âł ex
Âł Change
Ġex cel
ĠW itch
Ġne o
Ġsu pers
Ġsh ipped
art en
ĠF er
red ited
ĠG onz
ack er
Ġout we
ĠJ et
so lete
Ġcl utch
ĠU P
Ġqu art
oc used
ĠK al
Ġyear ly
Ġfl ashing
Ġfl ipped
Ġhel per
Ġem peror
oss ip
Ġbr owse
ĠAnd rea
Ġreg imes
Ġexpl ode
az er
Ġca usal
Ġshow case
Ġrest ra
Ġlaw makers
Ġmus cular
Ġvis ions
ump y
Ġcharacter ize
ĠEx ercise
ĠPl ant
Ġmess ed
Ġcard board
ĠIm prove
ĠMe asure
Ġtravel ers
ĠQu iz
fra red
ĠGu est
Ġri vals
ĠRes ource
ĠWell s
oura ge
ha o
Ġnarr atives
Ġnucle us
-M an
Ġtransform ing
Yes terday
Ġfresh ly
Ġexpress es
Ġacqu aint
ĠÎ ³
ubb ard
Ġmulti pl
Ġlic enses
Ġdiss ent
Ġfold ed
ĠDa wn
Ġfav ors
Ġtow ers
Ġconver ts
Ġadvance ment
Ġbell s
Ġtall er
Ġinnoc ence
ĠFire fox
Ġhun ters
Ġtheore m
Ġdiscipl ines
Ġconstra int
ĠScient ists
Ġconsol idation
ĠRod rig
Ġabdom en
Ġmamm als
omorph ic
respons ible
Ġeld ers
ĠGab riel
Ġetern ity
Ġraz or
Ġcuis ine
acen ik
Ġdisast rous
- form
? ).
@ blogger
E qu
F ri
J un
V P
V R
\ frak
a ires
b uster
d x
f amily
m any
m essage
Ġt ensions
in ternal
at as
is dom
Ġf etch
Ġp ads
ed ience
ar cer
om ical
Ġl aps
Ġn ude
st arter
ĠI RA
ot ional
ĠT ot
ĠS it
Ġha w
ol ate
ĠM oving
ĠThe rapy
ĠB in
ĠB os
us sels
Ġex terior
ĠW a
ĠW ine
ab ol
Ġch i
el ia
ĠR aw
ĠF CC
ĠN in
ĠN ike
Ġ" "Ċ
ag les
Ġus able
act ually
ĠIn come
Ġno v
ĠK itchen
Ġro de
ple ment
ĠCh ase
Ġfl ock
Ġacc l
fect ed
Ġsec uring
Ġbefore hand
Ġmet eor
Ġcor rections
ĠRe lease
und ed
Ġmind ed
ĠInd ependence
par se
Ġaccount ed
ĠOr thodox
ĠEx pect
ĠPl ayers
ĠPl ugin
Ġmass acre
Ġcred ited
bo at
Ġfire arm
Ġult ras
Ġstar ters
Ġupd ating
Ġnarr ator
Ġcast e
Ġtransl ations
Ġer osion
ĠMal ay
Ġsem ester
Ġutil ization
ĠCat al
ĠFin land
ĠMill enn
ĠHen ri
Ġhighlight ing
upport ed
Ð¾Ð ¼
Man ager
Ġpul monary
Ġmad ness
Ġdict ator
ĠRE ALLY
ĠHind us
Ġstead ily
ãĢ ģ
Ġtooth p
Ġå īį
ĠBern ard
ĠNon etheless
Ġcryst als
Ùı ÙĪ
Ġclim ax
Ġweigh s
Ġenact ed
Person ally
Ġaccus ations
-ey ed
Ġturt le
Ġfeather s
Ġunreal istic
! (
/ W
= {
A bs
C ategory
E lect
F eed
_ F
b orne
c ur
d ies
d ia
d ash
l oc
o ors
p erson
u ph
x d
Ġ ç
Ġ ie
Ġa pr
in itions
at y
it les
is ch
or illa
Ġf ost
Ġp ent
ed u
Ġin clusive
Ġl ongevity
im its
ĠT X
Ġst ing
ĠS A
ĠS ugar
ĠA ch
ĠC ause
ĠM ond
Âł from
Ġex clude
Ġex empl
est ly
Ġdo om
qu ire
pp le
Ġsh aping
os i
Ġch ords
ĠF REE
Ġj ugg
iv ious
ĠG ray
ĠL oc
fe it
Ġmy riad
ĠJ ar
Ġte as
âĢĿ ),
Ġper me
Ġgr as
ĠSt age
xt on
Ġgood bye
Ġsm oked
Ġob ese
ows er
Ġhand bags
Ġsl am
Ġcor ros
Ġcor pse
Ġfin ale
ĠRe ven
ah ah
be cca
Ġfound ers
Ġgl anced
Ġel f
15 4
Ġtest ify
me aning
-c ost
ott a
most ly
sc ore
ĠBl ake
sh ared
Ġpresent ations
Ġbar g
Ġfront ier
Ġpick up
ĠApp s
leg raph
Ġmultip ly
ĠPart ners
Ġign ores
Pro cess
Pro perty
Ġprinci p
Ġple a
Ġtast ing
Ġfell ows
ett le
Ġunc overed
-M en
Ġer ad
Ġer upt
Ġcentral ized
Ġhol ster
Ġà¤ ¸
Ġhell o
Ġmel ody
Ġilleg ally
Pr ice
Ġdu o
Ġgrav y
Ġappoint ments
Ġarchitect ural
Ġisol ate
Col lection
ĠCy ber
-ex p
Comm and
Ġhall way
Ġexplos ive
Under standing
Ġmile age
Ġren ov
ĠExt ra
Ġscreens hot
Ġathe ist
Ġhorn s
ĠTam il
ĠIM F
ĠDoug las
Ġcarbo hydrate
ĠJu ice
ĠLaure n
Ġaston ishing
Ġsuperf icial
Ġformul as
Ġhass le
Ġtradem ark
ĠErd ogan
Ġunpredict able
Ġdetrim ental
% ;Ċ
4 40
? âĢĻ
@ G
C odec
E mpty
M att
N P
O pt
P arent
n umber
o an
t emplate
v ie
w al
Ã ¦
æ ĸ
Ġs add
Ġb ully
Ġm arsh
an am
ar ah
Ġh ose
Ġh over
Ġe lic
ut ory
Ġst if
Ġst urd
ĠA ly
Ġwh im
ĠC ann
ĠC ensus
ill ary
ĠM ull
us p
um ar
um per
ĠH ob
ĠH ero
ain es
Ġal coholic
ĠR ud
ĠR ac
ĠF ac
ĠF ell
ĠG ay
ĠE M
ĠE sp
ag u
Ġpl edge
Ġout dated
ĠO UT
ĠJ SON
Ġen vy
iz zy
Ġdis closure
Ġdis close
Ġover time
Ġsc oop
ail ure
Ġback pack
Ġdid nt
vers ation
Ġinc omp
cept s
Ġhand ler
com mand
ĠRe yn
12 9
Ġexpl or
Ġexpl ores
Ġref resh
Ġpost ers
ari us
Ġdr ums
Ġdr usen
13 8
Ġdirect ories
ĠPro ced
ĠAll an
Ġcustom ized
ĠMy th
ĠSc reen
Ġrad ically
Ġimm oral
Ġdepend encies
chie f
atter y
ĠQu ite
Be et
Ġaccom p
Ġnames pace
Ġcalcul ator
ĠPat ent
Fr ame
Ġconstruct ive
Ġmort gages
Ġlabel ing
Ġveget ation
ĠDid n
Ġbat htub
.h pp
ĠList en
Ġloose ly
Ġwheel chair
Ġinhib it
Ã¡ n
ĠCarol ine
ĠCath olics
ĠJo an
Ġgall on
ĠExpl ain
Ġlapt ops
Ġgig antic
Ġtoxic ity
Ġstir ring
Ġcough ing
Ġdipl om
ĠNorm an
ĠToy ota
ĠAGN s
ĠPrim ary
' B
* (*
- group
. &
/ O
4 20
= True
C ON
H R
H en
P rep
S ty
W eek
[ n
_ a
g it
m om
v or
ï Ģ
Ġa h
er vers
Ġo t
Ġo z
Ġo wed
an z
an other
Ġd ur
Ġd orm
Ġth ieves
Ġl ent
ent ine
Ġre use
Ġbe nding
ĠS au
ĠC u
ĠC AD
ĠC auc
Ġcon quest
ĠM ode
ĠB oss
ĠW ILL
Ġr ang
ĠP ull
ĠP ills
Ġv ivo
Ġsh arks
ĠD elta
ĠF unny
Ġj unction
Ġj erk
fe ature
Ġ" ...
og ens
ac in
ĠJ ake
ap on
ep isode
ĠU T
Ġun ve
Ġun ified
ĠY emen
ĠK B
Ġsp raw
Ġback drop
ĠV ers
ĠV el
Ġrel ay
In itial
Ġ$ {
Ġpol ished
gg ie
ĠUn known
Ġ[ ...
be e
Ġdet ention
Ġcur tain
Ġhard ened
Ġbo iled
Ġdi abetic
ĠBr onze
âĢĶ in
arr ator
Ġprogram med
Ġpa ired
ĠBe hind
ĠSp ark
ĠSp encer
Ġhy dr
ĠPl uto
Ġdeb ated
Ġspace craft
Ġfoc al
Ġsent encing
de ep
ili ary
Ġslow ed
Ġbed time
Ġcollect or
Ġur inary
ĠUs ed
rest rial
Ġneighb oring
Ġstick ers
board ing
Ġcris p
Ġforget ting
Ġattract ing
ĠOver view
De cl
Ġterr ific
Ġliqu or
mod ule
ĠCle veland
idel ine
Ġstupid ity
ĠAtt ack
ĠFil ter
++ )Ċ
ĠThrough out
Ġfur ious
Ġspons ors
ĠÏ ī
ĠViet namese
Ġdrag ons
_in l
ĠVen ice
ĠSwed ish
ĠAff airs
Ġcraw l
######## ########
Ġmisunder standing
Ġwrest ling
Ġconstitu ents
Ġinfluen za
ĠJess ica
Ġfluct uations
Ġrabb its
ĠTrad itional
Ġimbal ance
ĠCitiz ens
Ġintric ate
ĠColomb ia
Ġtitan ium
ĠSONY A
Ġaccomp any
( r
- X
- ne
- second
. cl
6 70
D ocument
E ver
F ire
F iles
J P
Z E
b eth
c am
d ed
h ner
m ut
m ight
n ol
p able
p ipe
r ide
r ices
s ometimes
s qrt
v on
w es
Î ¹
Ġt art
he it
re ational
Ġs omeday
is ol
Ġb if
Ġb ait
ing es
Ġf ren
Ġf oil
Ġp ensions
ar o
om i
ĠT ig
ĠT ag
ĠS ale
ĠC opy
ĠC lient
ĠM t
Ġse af
ĠThe m
ĠB uzz
ĠB ishop
Ġex cellence
ĠW ing
ĠP red
Ġcan s
ĠD ating
ĠD ogs
ĠD ollar
ĠR oth
ĠR ole
ĠF alls
ĠL indsay
Ġwork shops
ru gu
ĠK as
ens ible
Ġsp ill
Ġspe ar
ĠSt ress
Ġro ds
ĠV a
omet own
Ġinter change
Ġlong ing
ĠAnd re
Ġdec imal
Ġchar itable
Ġsl ammed
Ġexp orts
Ġfun gi
Ġsk et
Ġpost p
ĠCom par
rop ortion
Ġkind ly
âĢĶ Ċ
Ġmem e
Ġhist ories
Ġconc urrent
els ius
-c onscious
uff s
ĠTr ading
Ġpa used
Ġcal ibr
mb ol
ĠCan on
For got
Ġste els
Ġcop ying
umb a
ĠFl ight
Ġswe ating
-in come
apt ure
ĠCal cul
ĠMin i
Ġâ Ĥ¬
ĠKe yn
rab h
Ġkid neys
def ine
Se ction
Ġmut ually
Ġpark ed
ĠSpe aking
Ġà¤ ¹
Ġsand w
inn amon
ĠDef ault
Ġamb itions
Ġsin ister
-th irds
Ġmath s
Ġ/> </
sm ith
Ġbutter fly
Ġassign ments
ĠId aho
Ġexhib ited
Ġpill ar
Ġmit igate
Ġmerch and
isp here
ĠMarx ism
Ġpreced ent
"" "
ĠDat aphor
bet ter
Further more
Ġimprison ment
Ġpir ates
ĠPrem ier
Ġvag ina
ĠArk ansas
Ġsymm etry
ĠCe lebr
whe ther
ĠDru gs
ĠAdvent ure
Ġdism ant
Ġfel ony
Ġglaci ers
ĠUb untu
( _
. It
B ottom
C ost
D an
F iled
I K
N OW
P rivacy
S ir
V s
_ op
a um
b les
b ank
c ond
f at
f red
l ated
t el
} .Ċ
å Ľ
he id
he ight
Ġs orrow
Ġw ired
at ism
Ġb ash
Ġb ourgeois
es ign
en es
Ġp ac
Ġm ornings
an tern
al most
Ġh tml
ic able
Ġl ament
Ġe agle
ll is
Ġg reens
se ason
im ming
ĠT ask
am inated
Ġst a
ĠS aw
Ġha ha
ĠC arn
ill ions
ĠM I
ĠM iles
Âł can
Ġex emption
Ġr ud
ĠP ure
ĠP ars
ĠP ages
th ought
ĠH air
ĠD ow
un ami
ĠE lection
ĠN ULL
Ġ" .
pl er
ĠJ S
ens a
Ġpr ow
Ġsc ru
ob a
ĠCh uck
." )Ċ
ath ic
Ġbr ushed
Ġdown stairs
Ġinv ade
Ġ$ $
Ġsupp orter
Ġsub strate
Ġpol es
Ġturn over
Ġmean while
Ġgra pes
13 9
14 8
Ġpri zes
eng ine
ĠPro perty
Ġmen stru
Ġdiff ering
Ġcharacter ization
ĠNot es
bl ank
Ġfire f
ĠMe et
Ġsun shine
ĠÂł Ġ
ĠSte am
ĠPart icip
Ġbur ial
Ġfa ctions
Ġunique ly
Ġprogress es
sp oken
Ġassist ed
33 3
Ġcomfort ing
ae z
Ġtransform ations
ĠPat ients
Us ers
Cont inue
ĠOut side
Ġmel an
Ġcert ification
ĠSchool s
Rec ord
App arently
Ġfinger prints
ĠWr ong
Ġhang s
Ġtail ored
Def inition
ĠStart ing
ĠStand ards
Ġirrit ation
Ġtheat ers
Ġvague ly
eterm ined
ĠRab bi
Ġjson iter
Ġpractition er
Ġprophe cy
Current ly
Ġborr ower
Ġlear ner
Ġfreed oms
Ġpert urb
Gener ally
Ġcooper ate
ĠMoz art
prising ly
fess ional
Ġluc rative
Ġdub ious
ĠCanad ians
" My
# :
) *
) ]Ċ
- In
- St
. ch
. io
0 20
5 50
9 12
< div
B B
C ur
F rench
G raph
H ub
H ouse
R R
Y e
\ plot
_ w
h ouses
j un
l ower
s ign
s ki
v m
y ear
| _{
å ľ
Ġt apping
Ġt attoo
on line
Ġc ivic
Ġf rench
an ia
Ġin ert
Ġh obb
Ġl av
st ad
st ory
Ġg ren
Ġg ems
im ag
im ens
Ġst agger
ĠS V
ĠS id
Ġhe el
Ġan a
ĠM akes
ĠM MO
ĠB il
Âł we
Âł At
Ġpro st
Ġpro claim
Ġnot ices
Ġat op
ĠW ire
ĠW izard
ĠH S
ust ers
ĠG ear
Ġcomp os
ry n
oc re
oc ide
Ġpre lim
Ġimp lying
Ġbl iss
Ġoff enses
Ġunder graduate
ian e
Ġind ef
com b
Ġmin isters
Ġgl or
Ġgl ut
Ġgl and
Ġext inction
amp a
Ġmain land
-s l
oun ge
aj i
me red
We ight
14 3
ĠZ omb
Ġline up
Ġfilm makers
Ġfour teen
aut h
aut o
Ġcomput ational
Ġmot if
ms g
itor ial
Ġred ist
Ġrespect ful
umb les
IN T
af i
Ġexc av
Ġfix es
Ġhair s
na ire
ĠDem on
Ġsett lers
Ġstress es
Un known
yl ene
ĠPre vention
Ġpredict ing
ibr ary
ĠJack ie
ĠReg ister
Ġaccident al
Ġexecut ing
osh op
ĠRich ards
ĠFe atures
Ġhorr ific
Ġspin ach
Ġvacc ination
ĠJul ie
Ġtox in
ĠSand y
Ġphilosop hers
ĠArch ive
ĠCap itol
à¥įà¤ °
ĠProt ect
ĠCamp bell
-he arted
Ġsymp ath
Ġsli pp
Ġresid ual
ba um
Ġgif ted
Ġpremium s
Ġic ons
Sy ntax
Ġdecor ated
ĠWW II
Ġcondem ned
ĠMess iah
Ġinstinct s
Ġtransf erring
Ġdimin ished
_pro file
ĠLabor atory
opath ic
Exp ression
Ġexped ition
Ġswift ly
Ep isode
ĠBelg ium
Ġdisreg ard
Ġdictators hip
Ġcryptoc urrency
Ġrehe ars
Ġpled ged
ĠBenn ett
ĠVl ad
Ġpolynom ial
ĠðŁĻĤ Ċ
Ġthir teen
Ġmicrow ave
Ġimmin ent
, and
- par
0 11
4 80
A g
B LE
F und
F hir
N ice
V E
_ add
i pl
l ene
p d
p aper
v c
z ene
Î ¼
â Ķ
ï ¬
Ġa ster
re edom
at en
at ars
Ġc akes
is ite
is ement
Ġb aff
Ġp es
al ign
Ġd ubbed
ir ies
ir ling
Ġwith stand
ol itical
ĠM orm
Ġor bits
op or
ĠW elcome
ĠH ood
ĠH annah
pp ings
ĠR id
ĠR uth
iv ated
ĠG L
ĠG uru
ĠN exus
ag rams
Ġpl umbing
ĠJ ama
Ġen umer
Ġad here
Ġcont ag
Ġany ways
ib i
ib eral
ĠU pper
Ġqu int
ia z
ĠK os
Ġbl u
ild a
ov able
ple ase
Ġinc arcer
Ġob solete
ĠBut ler
Ġend uring
ĠRe iki
ex ists
ĠFor ums
Ġref rain
Ġhead phones
Ġrest ed
ĠAr nold
âĢ¦ .Ċ
Ġconc ussion
-c ar
Ġsw ollen
Ġeconom ist
ĠCl aire
ĠTr inity
cle ar
Ġ: -
-t wo
Ġattack er
Ġlog ically
augh s
play ing
Ġdoc s
Ġlack ed
Ġcool ed
Be yond
Ġcat he
ĠPre vious
Ġforeign ers
Ġtransform er
ĠPC R
Ġqual ifications
Ġspect ral
Ġcompar ative
Pl ayer
Ġadvert ised
.p y
Ad vert
ĠLog in
Ġcheap est
ĠMart y
Ġdu ct
ĠPort land
Ġsimpl ify
Ġadm itting
Ġdisappe ars
Ġhook s
ĠDi agn
Ġmyth ology
ÂłF ailed
Ġmyster ies
ĠBell a
-cl ick
ĠCa esar
âĢ¦âĢ¦ âĢ¦âĢ¦
Ġpenet rate
ĠHarr ison
hyd ration
-te ch
Ġenthusi astic
Ġbureauc racy
Ġcomplement ary
ĠAltern atively
Mus ic
ĠBlu etooth
Ġcleans ing
Ġvom iting
ĠRepresent atives
Ġdwar f
Adv anced
Ġadul thood
Ġredund ant
Ġlect ures
ĠRee ves
nore ply
, i
. id
. To
? ),
D atabase
G C
G ot
H O
I ron
N a
S ave
[ [
c alled
j ah
j oin
l aw
o ji
p res
s ite
s burgh
v ik
w omen
Ð ł
â Ĩ
Ġt abs
in qu
in fty
ou ver
Ġth ief
Ġl ays
Ġl oot
Ġl amb
Ġl amps
Ġe h
st age
Ġg ag
ut ral
se par
ver ts
Ġst arring
ĠA U
ĠM ak
ĠB order
Âł One
Âł but
us on
ĠW ang
ĠW ave
Ġr anch
ĠP F
Ġsu prem
Ġsh akes
ĠR A
ĠR ange
ĠG iving
ud get
ĠJ ets
ĠTh under
Ġcomp ost
Ġcl oses
Ġfe ast
ĠU g
ens en
Ġpart isan
te ch
Ġbl oom
Ġpo etic
Ġsc ans
ĠSt orage
ons ider
ĠV ote
Ġthr ill
end ers
ific ate
Ġem an
." [
gr id
Ġbr ig
Ġright ly
ĠWe bsite
Ġreg istry
Ġsub d
Ġsub urbs
Ġchar coal
Ġcar riage
the se
Ġmin es
Ġdet ain
ex ec
Ġcur l
Ġhum ili
Ġbelie ver
Ġgl ands
ĠCom plex
ĠSh ah
St atus
Ġopp ressed
Ġconc ise
ump ing
Ġben ign
Ġteam mates
ĠInd igenous
Ġtem ples
Ġredu ctions
Ġfre aking
Ġlive ly
Ġmor p
Ġsal ty
Ġentire ty
Ġcomput ation
Ġtext ures
Ġcomment ators
Ġprote ctions
Ġspecial ty
Ġdeep est
Ġsqu ash
ĠÂ ±
-st ar
Ġsil k
Ġlaws uits
ĠÐ º
Ġesc aping
Ġunc over
Ġcalcul us
.m d
Ġrob otic
Ðµ ÑĤ
down s
Ad am
inter pret
Ġradio active
Ġdownload ing
Ġamb assador
Ġrot ating
ĠRel igion
Ġfav ored
Ġtow els
cript ions
ĠGrand ma
Ġflood ing
ĠFil ip
Ġcos metic
Ġarr ows
Ġrein forced
Ġresc ued
ĠMont ana
Ġaccompan ying
organ ized
-cont rolled
ĠOrgan ic
ĠDeb t
Ġaggreg ation
Ġstere otypes
Ġphotograp hers
Ġadvis or
Ġcul pr
ĠColumb us
ĠRog ers
ĠNorm ally
Ġembra cing
Ġsummar ize
Ġnarc iss
Ġuncon stitutional
ĠAnaly tics
ĠMorr is
Ġsubc onscious
Ġninet eenth
ĠCurt is
ĠRena issance
Ġaccl aim
" H
" ,"
, omit
2 14
; </
C ra
F ound
L ive
P icture
R N
S ad
W orks
_ re
` **
b or
b ps
f iction
h in
l iter
s k
x c
Ñ ħ
in als
at ient
Ġo re
it ars
Ġin box
ion ic
Ġl ime
ĠI AP
ĠT N
ĠT rop
am ac
ĠS yn
ĠA A
ĠC E
ĠC ash
il ient
ĠM end
ĠM az
ĠM illion
Ġde ed
Âł e
ĠP K
ĠP or
ĠP BS
em y
Ġv aping
ĠD rew
Ġab ortions
ĠR SS
ĠF al
ĠF isher
Ġj elly
Ġso ak
ĠG H
ĠG ag
ĠN F
ĠN ode
ĠL ip
ag land
Ġpl aque
ĠJ ill
Ġen closed
ap le
Ġcl auses
cl amation
ord ered
ren ched
ĠV s
Ġthr ottle
Ġinv asive
Ġdec isive
hes ion
Ġac oustic
Ġmod eration
Ġass im
Ġdef enses
ĠRe form
Ġdisc arded
Ġap ology
Ġhum ility
Ġbo oth
Ġplace bo
Ġgra pe
ĠQ ing
ĠPro gress
Ġair ports
alf oy
ĠX ia
Ġmult itude
ĠSc ala
unt ary
Ġpict ured
ÂłÂłÂłÂł ÂłÂł
Ġperiod ically
23 8
ĠAm sterdam
ĠIm mun
medi ately
-w ise
uel ess
-h alf
urch ase
Ġbank er
Ġir rig
Ġharm ed
Ġfear ful
Ġemer ges
Ġrequest ing
ufact ure
Ġplant ing
Ġble nder
Ġble aching
Ġliber t
Im port
Ġremind ing
Ġer u
Ġdetect ing
Ġded uction
do ing
Ġvill ains
Ġlic ensing
ĠAss istant
SC ULLY
Ġforth coming
Ġmal ware
ĠIns pect
ĠSecond ly
UR TZ
ĠCat hedral
Ġje opard
Ġvent ilation
Ġalt itude
ĠKeep ing
Ġlegit im
Ġwise ly
Ġcomprehens ion
ĠVol ume
Ġ** `
Ġrail way
Ġburst s
ĠBall adanis
Ġunp opular
Ġcompat ibility
Ġho ax
Stud ents
-def ined
ĠCarl os
Ġrect angular
ĠIss ues
Lear ning
Ġinject ed
Ġpref ers
ĠTher m
Ġpier cing
Ġshru gged
Ġpropri etary
Ġsanct uary
Ġclo ak
Ġintoler ance
Ġmathem atic
Ġosc ill
Ġdeput y
ĠLok i
ĠVER Y
ĠTib et
,omit empty
- o
- ac
. edu
/ -
/ etc
A st
B erry
G irl
J ason
L ay
P rim
R a
R aw
S leep
T Y
_ bytes
d oms
Â £
Ġ ),
Ġ );Ċ
Ġ ________
Ġt uck
in ian
Ġf encing
al er
al one
Ġin aug
Ġin advert
le vel
Ġl od
Ġbe asts
et hyl
ro ved
ay be
ad ows
ur ous
Ġan onym
ĠC ort
ĠC ards
ĠC amb
ĠC reek
Ġse aw
ĠB rief
Ġso aked
ost ics
ĠE ur
ĠL um
our g
Ġli ar
ac us
ĠTh oughts
Ġcl ing
Ġev angel
Ġsp ices
ick ets
nder ing
ang les
ang ling
Ġbl aming
Ġsy nd
ert ation
Ġpers istence
Ġob struct
rib ing
Ġplay ground
Ġreg imen
Ġstr ay
Ġins omnia
ract ical
Ġ[ -
Ġdist orted
Ġsol ic
Ġdi ary
rop ract
Ġrest oring
âĢĶ which
Ġterm ed
Ġbuild er
14 6
-c or
Ġve ggies
ush i
Ġdra gging
Ġtax ed
Ġmor als
Ġcra z
ateg or
Ġsum mit
gen cies
-in ter
Ġmis dem
Ġfair ness
eb ra
Ġhuge ly
Is n
ĠÂ °
Ġliter acy
Ġsett lements
Ġtrust worthy
Pro bably
Not ification
Ġmer its
Ġintegr ating
Ġneighb ours
ĠComp et
-g u
Ġtransl ator
Ġtrain ers
mun ition
Ġbattle field
ĠSer ge
Ġbag gage
Ġprem iere
ĠTrans form
Ġvisual s
Ġstim ulated
Ġindex es
Ġformat ting
-F i
-F eb
ĠStep s
ĠJud y
Ġdress es
Ġfinger print
Ġnom inated
Ġnom inee
-se ction
Ġpossess es
Ġpossess ions
Ne il
Ġfault y
Ġtoler ated
Ġprosec utors
Rep ly
Ġorg asm
ĠVictor ian
-ch anging
Ġchat ting
Ġdiscount s
ĠLead ership
State ment
ĠUlt ra
ĠChamp ion
Ġathe ists
Ġmilit ia
Mat thew
ĠGall ery
Ġov arian
Orig inal
Ġprophe ts
ĠHistor ical
Ġexagger ated
Ġcataly st
Ġsyll able
Depend ing
ĠPing back
_bil gus
Ġmisdem ean
( e
- round
< p
< br
C hat
D ouble
K now
M o
M aking
P ot
P rop
S ep
T ech
[ (
_ con
b uy
f air
g ian
i our
l ob
p hew
r angle
s pec
t rad
w ave
{ {
Â Ĺ
Ġ ).
re ase
on ce
at um
Ġc ues
en ia
Ġm ates
Ġm aid
ed er
Ġd ar
Ġh ast
Ġe clipse
ot rans
ut a
et ed
ĠS IM
Ġha ul
Âł How
Âł this
ĠP ET
ist ani
rom pt
Ġsh itty
ĠF C
ĠF inding
all owing
ĠE gg
ĠN T
ci o
ci ble
ind y
Ġtr ay
au kee
Ġcont ention
Ġun in
oc ative
ick ers
00 3
Ġam use
Ġco ined
Ġunder way
oll a
Ġinv iting
ph oto
Ġac res
Ġsub mitting
Ġcar r
Ġsl op
Ġlot to
Ġhum orous
Ġret aining
ĠAl ber
Ġbig ot
Ġhome land
15 9
Ġrest s
Ġdr astic
Ġbra kes
-c ase
Ġpar alysis
ĠCl ara
ĠAt kins
ĠEx cel
Ġsex ist
Ġprop osing
ĠSome how
Ġpriv ately
ĠSy mptoms
Ġcorrect ness
Ġfoot steps
Con nection
Ġengine ered
Ġsepar ating
Ġcontrib utors
Ġcredit ors
sec ret
ĠDem ocracy
Not es
ara oh
Ġprogress ed
ĠTra il
ĠComp are
ĠCour se
Ġhus bands
Ġhom olog
Ġclick ed
Ġà¤ ®
Ġeight een
Ab stract
Ġmotiv ations
Bl ood
Ġrent ing
Ġcritic isms
mod ern
Ind ia
ĠLook s
Ġsusp ense
ĠCommun ications
col umn
Ð½ Ñĭ
66 6
Ġillustr ations
ĠSol omon
ĠSu z
ĠTim othy
Ġdesper ation
Spe ed
Ġcriter ion
Ġspark ed
hh hh
Ġnegoti ated
ĠHand bags
Ġunex pl
ĠDen mark
.t xt
inst ance
mat rix
Ġresid ues
Ġtheat rical
ĠSD K
Ġtwe ets
ĠEss entially
ĠAsh ley
ĠPsych ology
Ġdestro ys
Pol ice
ĠOcc upy
Ġrab ies
Ġcurs ed
Ġdiscoura ged
Ġneglig ence
Similar ly
Ġadmin ister
Ùĳ Ùİ
ĠPad re
-head ed
ĠPent agon
ĠJoy ce
Ġexpon ential
Ġthigh s
Ġinterven e
Ġpitc her
ĠCay lee
Ġscrut iny
Ġprelim inary
" ]Ċ
. util
/ e
/ bl
: `
= None
> &
B uilding
E arth
F un
H it
N ames
S erv
S elf
V ar
a ic
c up
d ie
e ctions
g ro
o osing
p hen
w aukee
x f
× Ļ×
å Ń
Ġt ut
Ġt ier
Ġa isle
in ux
er i
Ġo val
Ġc oded
it ism
Ġd b
Ġd itch
Ġth ru
Ġh ue
Ġl am
Ġl est
Ġe ch
ver ages
ur rection
Ġhe ights
ĠC F
ĠC ounter
Ġde ment
ĠB ash
Âł O
ĠH uff
ust ed
ĠF ern
ĠF uk
Ġso ckets
ĠN A
ĠL akes
fe el
ud s
pl aced
ĠO dd
ong y
ĠJ ourney
Ġar ithmetic
ans wered
Ġcl aws
Ġcont ests
ĠU ran
Ġun sc
Ġun anim
ip ers
ĠIn nov
ru ce
cl osures
ĠK aren
00 7
Ġpre aching
ĠSt rength
ĠV on
ĠV ista
Ġrec reation
Ġra g
Ġinc arn
Ġgen ital
Ġsim ulated
In vest
ere k
Ġreal ism
Ġhand ic
Ġpres upp
Ġpres idents
Ġexp ans
Ġfun nel
Ġide ally
uss ia
Ġpat rol
15 6
15 7
Ġsol ver
ĠBr ussels
land o
Ġmem oir
Ġdirect ing
Ġsw ings
Ġsw ords
ĠZ ack
ĠZ hao
ffic ients
-f ace
Ġhold ers
Ġaccount ant
Ġtre mb
Ġant iqu
Ġbro kers
ĠMar ion
Al ong
Al most
miss ible
-h ome
Ġrev olutions
By tes
oph ile
ĠMost ly
Ġge ographical
Le ft
Ġbud s
IS S
ĠÐ ´
ĠMon o
IC K
ugg age
Ġspot light
Ġvalid ated
Ġdiss olve
Ġunivers ally
Int roduction
Ġconfig urations
ĠHy per
Ġtun es
Ġtun nels
-th rough
Ġju ices
Ġscr atching
Ġincorpor ating
Ġconfident ial
Ġcollabor ate
Ġscan ner
she ll
Rep ublic
Ġwra pping
Ġrational e
ĠMedic aid
Ġbon uses
Comp onents
Ġox idation
ener ys
Ġalter ing
ĠComm ander
Form at
ĠPan el
Ġroyal ty
Ġspons or
ĠYOU R
Ġconj ug
ĠSupp ose
Ġcav ities
Ġdelight ed
Ġavo ids
ĠEss ay
ĠSnow den
esty les
ĠBry ce
Ġundert ake
ĠEnt ry
Ġcub es
ĠIdent ify
ĠEsc orts
Ġcoe fficients
Ġoun ce
.ap pend
ĠHoll and
Ġburd ens
Ġinte gers
B ro
C a
C art
E ar
F ar
F ro
F red
H ad
J S
J ud
L AC
M obile
c ribed
g ae
l ord
n ox
r ically
t rain
u o
z el
{ T
} /
Ġ ë
Ġt et
Ġt ighter
Ġa ort
Ġa rose
Ġs ack
Ġs ane
Ġc iting
Ġc ripp
an ov
al as
le ased
Ġl b
st ones
Ġg ee
Ġg ears
se m
ĠT Rel
ĠA ve
ol ks
ĠC able
ĠC ang
ĠB GP
ĠW aste
ĠH az
ĠH ubbard
Ġsh rimp
ĠD ol
ĠD ee
ĠD ES
ĠR eds
ĠR AW
ĠG T
ĠN ag
ĠN ah
ĠN umer
our ing
ĠJ a
Ġthere of
Ġcl op
ue ller
Ġun used
ĠIn n
Ġpr ud
Ġsc anned
ĠCh ance
ĠV P
Ġfl apper
ert ility
ock er
Th omas
Ġins ol
read er
Ġsl ack
Ġcount ies
Ġgl oom
Ġclass ify
ĠSh ark
Ġpur ity
Ġopp ress
ĠNew man
arr ative
-d is
ĠTr otsky
Ġshort cut
Ġdiff user
ĠDo ctors
aut ions
Ġdeb ating
Ġnat ives
Ġcra ving
-l ength
ĠCol onel
RE AD
add ed
-in st
ĠNe pt
Ġver bs
Ġsuff ix
AC H
IT E
Ġcondition er
ĠSim pson
ĠEm ma
Ġble ed
Ġtim ber
pan ish
Ġshut ting
Ġhero in
Ġhero ic
Ġvisual ization
ĠHealth care
Ġwel coming
ĠSal v
ĠThank fully
ĠSur v
ĠTy pes
Wr iting
reens hot
Ġauto immune
Ġwarn s
Ġcow ard
Ġtoile ts
Ġfraud ulent
Ġanalog ous
Ġantib iotic
Will iam
Ġaccomplish ments
Ġpitch ing
Ġirrit ating
ĠUlt imate
ĠAdv ance
ĠInvest ment
ĠPen insula
Ġcasual ties
Inter view
ĠOrig inal
Ġgast ro
Ġunbelie vable
ĠDecl aration
Ġseiz ures
Ġneurolog ical
ĠAssess ment
Ġmerm aid
olith ic
) ).
- less
- aged
- ev
. st
C ard
H o
N ick
W T
[ :
_ avatar
d ream
m ary
p rop
r il
r Ã©
z al
Ġ ÙĦ
Ġs ul
Ġw olves
Ġp its
Ġto pped
as ian
st ated
ot in
Ġy o
et on
Ġst igma
Ġhe ap
Ġde ception
ĠB uk
us lim
Ġpro verb
ĠP interest
ĠP ictures
em ale
ĠH ERE
res so
el ed
ĠR u
ĠF oster
Ġwor s
ĠG os
ĠE q
ĠE ther
ĠN ad
ĠN ames
ĠJ oin
.. ...Ċ
Ġcl am
ĠU FO
ĠK re
ĠK oh
ĠK atherine
00 5
ood oo
Ġam munition
Ġco ax
Ġback ups
Ġob jections
Ġinv ites
Ġperson a
Ġins ider
Ġpres ume
Ġsl ows
ĠRe asons
Ġart illery
Ġmat rices
ex ample
Ġval ium
Ġfil med
uc ated
ĠCom ing
Ġlist ens
Ġgra bs
ĠAr g
Ġtechn icians
// //
Ġunt reated
13 6
Ġdem ol
uff ed
Ġpar alle
à¤ ¹
Ġpast or
ĠGod s
Ġbenef ited
ĠRep orts
ext ra
ĠMay a
medi ated
reg ulated
Ġswe ll
Ġhear ings
29 0
ĠAb u
hel ial
Ġdream er
Pro file
iment ary
ĠIntern al
', '
ĠAct ivity
ellig ent
Ġund o
Ġshot gun
ĠCo al
atur ated
AM E
anc ouver
Ġmap le
Ġspl itting
Ġsweet ness
Ġpet ty
ĠÎ ´
Ġdefend ants
Ġstrange ly
Ġaccompl ishment
ĠMat hematics
Ġdownload s
ĠDef inition
Ġamb ulance
Ġhur d
ĠArab ian
Ġsav vy
Ġquot ation
Ġprofession ally
Ġphotos ynt
ĠAD D
Ġconver ter
Ġrank ings
Up on
Ġoblig ed
ĠConstitution al
IG H
Ġpump ed
Ġquarter back
Ġflood s
Ġpul ses
Ġmemor ial
Ġcompr ise
Ġdeleg ate
Ġarc ade
ĠÏ Ħ
Ġcontrad iction
Ġster ile
ĠNic ole
ocaly ptic
Ġdispl aced
ĠFoot age
ĠBry an
ĠChem istry
bet ween
Ġcruel ty
Ġsail ors
intend ed
Ġupgr aded
Ġfundament als
Ġcoron ary
ĠCB D
Ġresur rect
Ġmicrosc ope
Ġdiscoura ge
Ġinsure rs
ensor flow
Ġpersec ution
_L EN
Ġwhist le
ĠNar uto
Ġdop amine
ynchron ous
Ġdivor ced
Jose ph
ĠDerr ida
Ġultras ound
amac are
" When
" Why
% )Ċ
- edge
2 12
C ross
D O
D ifferent
E mb
G ar
G ET
L ight
L aw
M ass
N arrator
R unning
Y D
[ /
_ N
_ R
_ image
c ott
c uts
i ast
j ac
t ar
w ife
x e
Ñ Ĩ
á ¸
Ġa ura
re x
Ġs ings
Ġw ow
Ġw ool
Ġw iring
Ġo ve
it ans
Ġb inds
Ġb ilateral
ou ter
Ġh alls
ĠI B
ĠI van
Ġg own
Ġre iter
Ġbe gging
im ir
ĠT ouch
Ġit ching
ĠS R
ĠS und
ĠA SD
Ġan th
ĠC orr
ĠC elsius
il is
ter ror
od s
pe ll
ĠB ert
ĠW ake
Ġr ugged
th ree
Ġne phew
em por
Ġsh oved
un ed
Ġle aked
ĠF itness
Ġj ourne
Ġme ats
ĠG U
ĠG IF
Ġall oy
ĠN J
ag i
Ġli pid
ĠJ os
20 9
Ġar ist
ĠTh u
Ġpe ppers
ass uming
âĢĿ ).
ance l
ĠY ep
ub es
Ġover b
Ġpr isons
Ġsc ams
sel m
Ġapp rent
Ġro gue
Ġdoes nt
Ġcomm em
Ġind oors
Ġinter mitt
Ġbr ighter
erm is
Ġsim ulate
In f
Ġgu ild
Ġsur rog
Ġmod elling
Ġins ignificant
Ġtrans gender
Ġmet res
... )Ċ
uss ed
sw itch
Ġgovern ors
15 8
Ġadv iser
-b ody
ĠQ LAC
Ġschool ing
Ġdesign ation
aps ed
-c o
Ġorgan ised
Ġperform ers
Ġsing les
of umi
Ġallow ance
Ġnon profit
aster y
Ġdep rived
ĠCon fig
-p ack
Ġdepend ed
esp an
ĠĠĠĠĠĠĠĠ ĠĠĠĠĠ
ĠCol umn
ĠPe acenik
28 8
Ġinflu encing
Ex amples
80 2
Be aut
Ġsett ling
Ġcold er
Ġsil ently
Ġâ Ĭ
but t
Ġrespond ents
ĠTra in
Ġregul ators
Ġhous ed
la us
Ġer ase
Ġpromot ional
Ġsem icon
Ġsen ator
Ġvisual ize
Ġrain bow
Ġcart ridge
Ġapprox imate
ĠHy lden
Res ource
Res ults
ĠIns ider
ĠJul iet
Ġmac roph
Ġincorpor ates
.M ust
ĠRad iation
Reg ardless
arg as
Ġsuperior ity
Ġuniform s
Ġalert s
Ġstimul i
AV E
ĠMah ar
Ġdescend ed
Ġmedi ocre
ĠUr ban
Ġgrin ned
Ġbetray ed
Ġtyr anny
ĠWol verine
Ġerect ile
Build er
quin one
Ð¿Ð¿ Ð¿Ð¿
Ġdy stop
Ġinterpre ting
Ġsung lasses
Ġenrich ment
Ġpredecess or
ĠMarg aret
ĠProtest ant
Ġseaf ood
& P
( H
, .
- ab
. in
: ]
< commit
A f
A w
C reating
D en
L ab
M ajor
N am
U PDATE
_ e
a an
c ine
c arbon
f our
n one
r ather
Â Ŀ
Ã ª
Ø Ń
Ġ ib
re quest
on ight
Ġs inks
Ġs aga
Ġw ed
Ġo vere
it ters
Ġb iting
Ġp ou
Ġd addy
Ġn i
st ant
Ġg runt
Ġbe aches
im it
ĠT W
Ġon t
ig a
Ġan ne
Ġas semble
ke red
her ical
ĠM ant
ĠM alfoy
ĠB ot
ĠB one
Ġ( '
ĠP ER
th ank
Ġsh ave
ĠD ire
ĠD addy
ĠD ublin
art icles
ĠR iley
ĠF ine
Ġk arma
Ġwor sh
pl aces
pl ugin
ip ot
ĠIn g
Ġno on
av ier
ĠK ub
ial is
ĠHe avy
Ġnew com
Ġro ast
hy th
Ġind ie
Ġrel iably
Ġtra ction
Ġsim mer
Ġexp ands
Ġ[ âĢ¦
Ġmat te
fl ation
Ġext ras
ĠCom cast
ĠSh ot
ĠBr ig
ĠBr ight
âĢĶ to
Ġcent res
Ġterm ination
-b ook
not ation
Ġcost ing
30 1
port ation
ĠZ oo
-f at
ĠCon nection
---- --
ĠSc ale
Ġbegin ners
Ġcomb o
Ġcra cking
Ġapplic ants
Ġtext ing
-l ived
ĠMe an
ĠEn cyclopedia
Ġstri pes
ĠGu inea
Ġut er
Ar thur
IS A
arc ity
Ġstar ving
Ġten ure
Ġten ants
Ġesc apes
Ġoffe nders
ĠPC B
Ġhom oph
Ġhol istic
Ġpromot er
Ġestim ation
Ġmel atonin
Ġnav y
Ġrain fall
Ġentertain ed
agon al
ĠJer rod
Ġkiss es
Ġdish onest
_m essage
Ge nder
Med ical
ĠWood s
ĠEp ic
Mod ern
Ġpron oun
Ġsne e
Ġcounsel ing
ĠSher lock
ĠConsider ing
Ġcav al
Ġconcert s
Ġcul min
Ġincorrect ly
Ġrou lette
Char acter
Ġreck less
ĠAbs olutely
Ġimpul ses
ĠImp act
Ġoun ces
Ġdiscontin ued
Ġresent ment
ĠDj ango
ĠParad ise
Ġanat omy
Ġlandsc apes
Ġsher iff
-mark et
Ġbif ur
( {
* ,
- esp
- rel
- image
. name
> +)
C ent
P in
P oly
S erver
T en
T Rel
V e
W ay
_ Ċ
c ause
h oles
m ind
m oil
o other
s n
t otal
w ild
Ï Ħ
å Ĳ
Ġ Ñĥ
in as
Ġs ibling
Ġo st
Ġb unk
or f
Ġh ometown
as ms
Ġbe verage
Ġbe verages
ĠT C
ĠT u
ĠT err
ĠT rip
ad h
Ġst alk
ch at
ĠS ue
ĠS MS
if ty
ĠC ertain
ĠM MS
ĠB og
ĠB ros
ĠB CE
ĠW on
Ġr uth
th an
ĠH ills
rom b
qu ote
Ġv est
Ġsh uff
ĠD T
ĠD od
ĠD ownt
Ġso fter
ĠG one
ĠN as
ous ands
ĠJ esse
Ġen lar
ĠTh read
are l
Ġev id
ach t
Ġover throw
Ġspe lled
Ġneed les
Ġam mo
ĠSt ruct
Ġrec reate
ell i
ific ially
cess ions
ath a
Ġafter ward
Ġrep ression
Ġgu itars
ident ified
ven ile
Ġhand ing
Ġins isting
Ġform ulated
Ġmet hyl
Ġmet adata
ĠRe uters
ĠRe peat
pr ime
Ġseem ing
fl at
Ġfil ament
ric anes
Ġsk ipped
Ġel usive
oh a
rop olis
Ġrest raining
Ġpay check
ron ics
app ly
Ġdev al
Ġdep iction
Ġheart beat
Ġant it
Ġmag ically
urs ion
Ġneg ativity
Ġdest ined
lex ia
-h op
ĠGu ild
Ġnational ist
Ġdream ed
ĠPart s
Ġur ging
ĠTra ffic
Ġpsych iatric
ĠGl enn
Ġprefer able
ĠChar acters
Ġliber ation
iver ing
Ġprec ursor
Ġhyp not
Ġreb oot
ĠÎ ²
Ġscientific ally
ĠST ATE
Ġban anas
Ġrestrict ive
Ġthank fully
vention al
.j son
UR N
Ġboost ing
Ġbutter flies
Ġscream s
Ġimper fect
Ġcock pit
Ġcere bral
rav iolet
Ġridic ulously
xx x
Ġrecon struction
ĠJo el
requ ently
Ġprohib ition
Ġmurd erer
Ġevident ly
Ġdrunk en
ocument ed
AY S
Ġgramm atical
Ġfet al
pat ient
UL T
ĠSaf ari
Ġcultiv ation
Ġaspir ations
Ġimmense ly
Orig inally
rox imately
Ġdisadvant ages
Ġpse ud
Ġexpend iture
Ġindirect ly
Ġartic ulate
Interest ing
ĠSche dule
ĠWC W
Ġdiarr hea
Ġsixt y
rabh up
Ġmerchand ise
>+) \<
, q
- mediated
2 18
8 50
> ::
D iv
L anguage
M a
O l
R ating
V I
V ict
c ards
h ope
h istor
i enced
i pper
m ass
n est
o j
v ings
æ ĺ
or ax
Ġf ibr
Ġp adding
Ġp ardon
Ġm u
al ong
Ġth umbs
Ġh ull
Ġh ott
Ġh arp
ic illin
om ent
Ġbe ams
ut ant
Ġst ained
Ġst aple
ĠS hip
od ers
ĠM ann
ĠM ental
ĠM aur
ĠB orm
ĠB rew
ĠB omb
ĠB erg
ĠW R
ĠP ump
ĠH at
ĠH TC
ĠD ry
ĠR af
[...]
